#version: 0.2
# #</w>
i s
t h
a ##</w>
e ##</w>
i n
i t
e n</w>
a n
e n
th e</w>
s t
o n</w>
i n</w>
a l
i ##</w>
t t
e r
o ##</w>
t ##</w>
a r
e l
o n
t i
s i
a n</w>
ä ##</w>
r e
o l
o u
o r
u ##</w>
t o</w>
th ##</w>
a t</w>
o f</w>
o m
t e
u r
t a
s ##</w>
i s</w>
i l
o p
j a</w>
is t
an d</w>
k s
o s
i k
s s
in g</w>
m en
t ä
m a
e tt
e st
i m
i c
t u
r a
l a
e r</w>
e d</w>
y ##</w>
l l
is ##</w>
n ##</w>
d ##</w>
j o
u u
a v
m m
p r
e s
k a
i d
a ti
v a
ä n</w>
v o
a l</w>
t o
w h
s u
l y</w>
i e
l e</w>
k u
o r</w>
l e
ss a</w>
on ##</w>
k e
er ##</w>
ett ä</w>
v i
n e
en ##</w>
e t</w>
n o
it ##</w>
u s
i v
a s</w>
in ##</w>
e m
e c
E ur
w e</w>
a t
m is
mm e</w>
it t
p u
al ##</w>
f or</w>
i t</w>
j ä
i on</w>
a c
- ##</w>
l ##</w>
ä ä
t a</w>
y ö
a p
@ ##</w>
h d
l i
v al
p ar
o v
r e</w>
k a</w>
ks i</w>
men t</w>
ati on</w>
c on
y h
an ##</w>
s a
b e</w>
a s
ie s</w>
p or
t ä</w>
ist a</w>
v ä
k ä
k o
l a</w>
id en</w>
c om
t ä##</w>
p a
ou l
b e##</w>
d e
m u
h av
pr o
a b
i a</w>
no t</w>
in en</w>
s i##</w>
en t</w>
e en</w>
k ##</w>
st a</w>
m e
oul d</w>
u n
hav e</w>
q u
k an
ic h</w>
i r
wh ich</w>
t a##</w>
i h
u t</w>
C om
n n
ou n
s a</w>
k in</w>
g ##</w>
e d
m i
s e</w>
Eur op
h al
w it
m ##</w>
f or
t ar
tt a</w>
wit h</w>
ö ##</w>
u s##</w>
p ol
a g
t en</w>
k om
re s
k si
e i</w>
c e</w>
e v
ss ä</w>
it ä</w>
tä m
a si
u ks
e x
l o
l u
p er
e t
jä s
in t
it y</w>
r e##</w>
m yö
el l
pu h
i in</w>
is si
s y
t e##</w>
mis si
c i
u st
kom issi
s o</w>
m e</w>
e s</w>
tt a##</w>
b y</w>
v a##</w>
o t
h u
Com ##</w>
h y
m a##</w>
h o
w il
r i
k e##</w>
v ä##</w>
wil l</w>
l is
si d
u l
ap os
& apos
k y
k os
Europ e##</w>
yh te
s h
to im
d i
er e</w>
st i</w>
ar ##</w>
h as</w>
g h
a d
M r</w>
r ##</w>
k u##</w>
s e
n y
Eur o##</w>
f f
p e
a m
ou r</w>
t o##</w>
it y
p o
v u
al l</w>
k i
j a##</w>
op a##</w>
t ur
is sa</w>
por t</w>
c h
ll ä</w>
at e</w>
est i</w>
us t</w>
w or
ist ä</w>
ik e
d en</w>
est a</w>
missi on</w>
s e##</w>
t r
vo is
w ##</w>
k a##</w>
P ##</w>
p ä
it a</w>
i on
v at</w>
u s</w>
myö s</w>
m in
j en</w>
j o##</w>
il le</w>
f r
p ää
en t##</w>
ol e</w>
va st
&apos ;</w>
st ä</w>
p it
c ##</w>
ll e</w>
komissi o##</w>
ka ik
or ##</w>
ti on</w>
ou t</w>
el ##</w>
la men
c t##</w>
par lamen
0 ##</w>
kä y
is i</w>
p ##</w>
o ike
ta an</w>
v ar
it i
t ö
v ##</w>
h ##</w>
w ould</w>
a an</w>
re a
m u##</w>
s el
k i##</w>
a r</w>
ar vois
ll a</w>
k es
b ut</w>
m er
re sid
ny t</w>
b er</w>
u d
y ks
ic ##</w>
ov at</w>
is en</w>
s en</w>
l e##</w>
s t</w>
t er
th er</w>
t y
arvois a</w>
t al
resid ent</w>
c h</w>
m ä
us e</w>
n ä##</w>
e t##</w>
al a
k e</w>
hal u
fr o##</w>
ati on
t yö
el u##</w>
ne u
d a
m is##</w>
val ti
sh ould</w>
ol e##</w>
m ust</w>
n i##</w>
on e</w>
k o##</w>
v e</w>
por t##</w>
im ##</w>
ab le</w>
re g
s o
p os
c oun
e hd
is esti</w>
s an
an t</w>
r o
iv e</w>
k uu
h e
o u</w>
neu vo
ist a##</w>
P ar
p ec
li a
th e
d e##</w>
tt av
m uu
th ere</w>
ma an</w>
t u##</w>
pr op
ksi a</w>
m or
es s</w>
i b
jä r
jo ka</w>
id än</w>
puh em
a ik
e ssa</w>
y y
t h</w>
U n##</w>
m ar
n ä
le g
m ie
täm ä</w>
an n
puhem ies</w>
al l
2 0##</w>
valti o##</w>
jo t##</w>
t s</w>
ti l
it te
M em
n a</w>
l ik
c an</w>
st ##</w>
th e##</w>
Par lia
v ä</w>
al u
ää r
ehd o
S ta
Parlia ment</w>
coun t##</w>
qu ot
m an</w>
om i
jäs en</w>
k ä</w>
mor e</w>
s ä</w>
un ion
t en##</w>
itt a##</w>
jär j
m e##</w>
pu ol
quot ;</w>
jo h
& quot;</w>
w a
i a##</w>
p re
ku st
ist en</w>
a u
is uu
kan s
järj est
l in
ur ##</w>
men ts</w>
a j
e ksi</w>
k ol
men t##</w>
re port</w>
w a##</w>
i f
d o</w>
a i
ih in</w>
st r
neuvo st
es e</w>
n i</w>
k o</w>
th ese</w>
wh at</w>
tal ou
si itä</w>
mie t
tä än</w>
no w</w>
c er
c a
s ää
C oun
il la</w>
ci l</w>
f u
Coun cil</w>
u n##</w>
sy m
0 0</w>
c r
is t##</w>
di re
n ut</w>
s ol
p res
d u
f in
en n
g ra
v el
is i##</w>
ö n</w>
ne et</w>
el m
il l
el la</w>
is ia</w>
o ther</w>
lik e</w>
tä r
ar y</w>
Mem ber</w>
t in</w>
a tt
ky sym
itt el
gh t</w>
er s</w>
mi el
i f</w>
s op
jäs en
v er##</w>
o d
ma hd
ku nn
union i##</w>
t e</w>
p al
tär ke
it tä
me idän</w>
r ou
ur e</w>
tt ä
m inen</w>
c e
parlamen ##</w>
y r
ou r
prop os
jäsen valtio##</w>
vi r
tä y
is iin</w>
g e</w>
s ec
k i</w>
Sta te##</w>
an ce</w>
s a##</w>
m äär
pit ä
in n
ta pa
mahd ol
l ä
i o
in c
ta a</w>
in o
k er
d er</w>
iti ik
s it
i r</w>
for e</w>
est ##</w>
o tt
v e##</w>
u t##</w>
m y</w>
im port##</w>
m p
täm än</w>
f ac
lis uu
ou s</w>
s pec
op p
ku n</w>
s om
n t
at e##</w>
ta i</w>
pol itiik
kes kust
ur e##</w>
kos ke##</w>
m on
in g##</w>
a a</w>
hy vä
itt ä##</w>
h än</w>
est ä##</w>
the ir</w>
t ra
ku i##</w>
ab ##</w>
i ä</w>
a ssa</w>
wor k</w>
m an##</w>
vo i##</w>
e ssä</w>
tä ä</w>
d em
en ce</w>
v a</w>
es s##</w>
per ust
g e##</w>
n e</w>
ke h
ec t##</w>
su p
pää tö
y t##</w>
g h</w>
int er##</w>
o b
al la</w>
vä l
va ik
s is
d el
v e
sop im
h e</w>
ka u
re e##</w>
c y</w>
e mme</w>
d e</w>
m an
is h</w>
i on##</w>
is su
komissi o</w>
ol ##</w>
yhte is
iv e##</w>
ä än</w>
ca use</w>
em p
o c
it se##</w>
y e
tu ks
an s
te en</w>
ist u##</w>
r yh
c e##</w>
e en
ev er</w>
op ##</w>
f ir
iv ä
h a##</w>
ko h
op le</w>
par t##</w>
9 ##</w>
g en
k il
po in
on n
te h
hyvä ks
k or
k ir
o o
ity is##</w>
er e##</w>
com m
e a##</w>
p la
j ä</w>
d is
tt ä##</w>
ation s</w>
m il
uks en</w>
g u
ell ä</w>
d ec
al o
o h
n o</w>
pol ic
p an
ttav a</w>
Europ e</w>
il ##</w>
en s
ti me</w>
is et</w>
p le
t y##</w>
ib le</w>
u tta##</w>
ti ed
tar k
h a
kan n
u ksia</w>
gh t##</w>
wh o</w>
tur e</w>
u p</w>
ci al</w>
i en</w>
l a##</w>
s er
pe ople</w>
j el
halu a##</w>
men d##</w>
est ä</w>
e ur
1 9##</w>
vo i</w>
e mm
n ation
ar d</w>
n u
it ies</w>
m ä##</w>
asi a##</w>
puh een
st a##</w>
polic y</w>
ol isi</w>
h i##</w>
min u##</w>
v in</w>
alu e
e d##</w>
r ies</w>
om a##</w>
it ion</w>
ic e</w>
ne ed</w>
c le
: n</w>
i c</w>
on g
mer k
U ##</w>
li itt
el ä
kan ssa</w>
m o
w i
kä s
av a##</w>
t i##</w>
h ä
ma tt
ho w##</w>
ar d##</w>
ta ke</w>
ol la</w>
st e
jo s</w>
ala is##</w>
w el
ku l
ik ä</w>
a t##</w>
vi el
t el
os e</w>
k k
c o
toim i##</w>
o opp
ill ä</w>
kos ke
hyväks y##</w>
es t</w>
ol en</w>
a m</w>
c on##</w>
v an</w>
tu le
f e
E U</w>
se ur
th ere##</w>
d i##</w>
itte e</w>
0 1</w>
s uu
kos ka</w>
j o</w>
for m##</w>
r i##</w>
p l
is sä</w>
ag a
er ityis##</w>
pro b
in v
ati on##</w>
j on
v er
r y</w>
it ic##</w>
missi on##</w>
wi th##</w>
lis ä##</w>
ka an</w>
de vel
a al
vu o
te r</w>
va pa
qu est
con t
p id
is e##</w>
k ti
iv ##</w>
con cer
en si
m ista</w>
ion s</w>
wa y</w>
de b
wh en</w>
ma ke</w>
com ##</w>
hy vin</w>
joh ta
vi en</w>
li ik
nation al</w>
pr os
su b
tar v
jäs en##</w>
t y</w>
in d
m i##</w>
c ess</w>
ati ve</w>
h e##</w>
p on
n ä</w>
h er</w>
viel ä</w>
om a
an y</w>
is e</w>
h i
com e</w>
v o##</w>
su ch</w>
k on
il ity</w>
it a##</w>
ma a
; ##</w>
&apos ;##</w>
s i</w>
m en</w>
a ih
prob le
da y</w>
mu ka
ov er
as e##</w>
ivä t</w>
e ss
ai d</w>
em ##</w>
d o##</w>
halu a
som e</w>
y ty
ell a##</w>
pol i
ne w</w>
hal l
d is##</w>
ta k
vo id
pu b
os t</w>
iv o##</w>
kans alais##</w>
ec on
pro du
h an
h en
ist ö##</w>
te d</w>
h el
ll is
vä t</w>
ku n
devel op##</w>
neuvost on</w>
E U##</w>
asi o
p i
on g</w>
as e</w>
ol i</w>
u ksi
o w
dire ct##</w>
di ff
li c</w>
y ksi
a ss
ag ree##</w>
res pon
ce p
j ä##</w>
b el
halua isi##</w>
oo d</w>
sol u
mis en</w>
tt i</w>
b et
im e</w>
mu n##</w>
e h
c o##</w>
te tt
jon ka</w>
m pä
e si
fir st</w>
mis eksi</w>
ie v##</w>
al ly</w>
p p
yhte is##</w>
to te
miel estä##</w>
k y##</w>
v ie
ih mis##</w>
u la
re qu
sup port</w>
c ess##</w>
pol itic##</w>
r an
el le</w>
mar kk
keskust elu##</w>
i g
h ar
kaik ki</w>
w een</w>
bet ween</w>
e a</w>
th ose</w>
m itä</w>
tärke ä##</w>
deb ate</w>
w e##</w>
omi o##</w>
ust a##</w>
in a</w>
puheen johta
si ksi</w>
en ti
me as
a is##</w>
mahdol l##</w>
en d##</w>
ra t
itt e##</w>
val io
mi el##</w>
al l##</w>
j ust</w>
pr ov
ol l
er ittä
erittä in</w>
ta vo
t i</w>
ks en</w>
ko hd
in a##</w>
en d</w>
ar vi
te k
pub lic</w>
e ivät</w>
en cy</w>
c l
op er
te hd
st an
pr o##</w>
issu e</w>
y s##</w>
y hd
to ivo##</w>
rea d##</w>
poin t</w>
p le</w>
e ff
ec t</w>
to de##</w>
pos s##</w>
u ur
poli itt
wor k##</w>
all is##</w>
yhteis ö##</w>
ho w</w>
ka s
ag e</w>
ow n</w>
kol leg
un d
j a
el ma##</w>
hu omio##</w>
su l
u n</w>
ää n
k ka
u tu
ta s
ov er</w>
sit u##</w>
si ih
san o##</w>
p yy
o tta##</w>
mar ke
siih en</w>
bel iev##</w>
rea t##</w>
propos al</w>
l op
is in</w>
quest ion</w>
over n##</w>
koske va##</w>
or g
vo t##</w>
sa a##</w>
concer n##</w>
Com m
k en
respon s##</w>
Comm ittee</w>
vast a##</w>
s ella##</w>
su h
työ ##</w>
kti iv
j at
y mpä
mä än</w>
av o
a d</w>
cle ar</w>
y s</w>
mis een</w>
su o
dec is
th in
tar ko
k ra
va an</w>
ex ##</w>
st ra
ic ul
ti et
or der</w>
yö ##</w>
ympä r
ti on##</w>
om ##</w>
ag e##</w>
es ittel
m ost</w>
m ä</w>
meas ure##</w>
ed ell
hy vä##</w>
c ul
con sid
str u
fac t</w>
f un
miet int
a f
san o
M r##</w>
j ect##</w>
mu ka##</w>
b ##</w>
tu t
c or
wel l</w>
sa y</w>
is h##</w>
ri ght##</w>
par ##</w>
u h
tr ans
ti e
kä än</w>
j ul
ev en</w>
the m</w>
a in
tt i##</w>
kysym yks
al ta</w>
oopp a##</w>
x t</w>
j ou
st en</w>
a s##</w>
v an
c our
jo ita</w>
a mend##</w>
hu ol
wh ere</w>
g et</w>
pro te
ks een</w>
m o##</w>
sis ä
pitä ä</w>
ou s##</w>
jä l
st it
a ja##</w>
ti e##</w>
per i
it e</w>
te ke
rou p</w>
h ere</w>
lä h
dis c
r u
e tu
ke a</w>
hä n##</w>
ett a##</w>
yhte ist
rat ka
ev er
c i##</w>
ye ar</w>
pal jo##</w>
ou r##</w>
s ov
t w
vi a</w>
us e##</w>
ta va</w>
stra te
os o
n sa</w>
an te
sel v
ol o
mm ä
b ud
va h
teh tä
puh u##</w>
e f
uu d
ri ght</w>
y l
ma in
r ik
dire ktiiv
cer ta
thin k</w>
ar m##</w>
pr i
ed ist
kunn an</w>
k ä##</w>
en er
vä l##</w>
tt e</w>
ett el
vo im
keh ity
g re
g o##</w>
lu d##</w>
in form##</w>
la aj
is ation</w>
esittel i
void aan</w>
ympär istö##</w>
so si
pitä isi</w>
tark ist##</w>
r el
mi en</w>
i al</w>
h op
ac h</w>
ny ky##</w>
aga in##</w>
ad op
tä hän</w>
vuo den</w>
tw o</w>
as t</w>
to d
ra ho
ma ssa</w>
t om
myö n
vu o##</w>
tt ö
c ur
lo w</w>
te taan</w>
yhteist yö##</w>
r is
c t</w>
th an
u u##</w>
u l##</w>
f ra
ust ##</w>
b er##</w>
inn ö
omi c</w>
disc us
econ omic</w>
a d##</w>
Com mun##</w>
uu den</w>
par t</w>
fu ture</w>
sää d
m alla</w>
uks et</w>
a st
vir on
ke en</w>
en viron
vie w</w>
av a</w>
mis esta</w>
tak en</w>
talou del
l ta</w>
tar ka
la st</w>
wh y</w>
ou gh</w>
miet innö
f i
ye ar##</w>
so cial</w>
pres ent##</w>
käs ittel
tt ä</w>
pä ä##</w>
cour se</w>
v il
ehdo tu
ch an
v is
ic al</w>
et y</w>
sa me</w>
parlamen tti</w>
n e##</w>
k ö
a ted</w>
n a##</w>
yty y</w>
b o##</w>
liitt y##</w>
d ra
lo y##</w>
s pe
r a##</w>
p el
la in
y le
1 ##</w>
vi d##</w>
taloudel l##</w>
inc lud##</w>
tapa h
tavo itte
mu ch</w>
ta a##</w>
st a
enn en</w>
väl i##</w>
aih e
er i</w>
w ant</w>
oike ud
l ess</w>
toim in
sosi aal
sel vä##</w>
pro gra
n tö
mm ä##</w>
S ##</w>
c an##</w>
is l##</w>
th rou
te ki
käy ttä##</w>
eur ooppa##</w>
ttav a##</w>
jo ta</w>
i an</w>
re e</w>
nu m
leg isl##</w>
c ould</w>
as e
m it
tu n
cont in
yr ity
si g
ev a##</w>
res s</w>
ar e</w>
puol esta</w>
l ong</w>
ac cep
st aan</w>
ensi mmä##</w>
solu tion</w>
h yö
ong elm
kaik ##</w>
e taan</w>
til l</w>
suu nn
j ien</w>
for m</w>
at ing</w>
h ap
kuu l
marke t</w>
il u##</w>
seur a
is een</w>
oh jel
ol lisuu
rea s##</w>
l an
k im
ehdo tuks
mer ki##</w>
gh ##</w>
2 0
t or
sääd ä
lain säädä
c ase</w>
it se</w>
k now</w>
Y hd
w e
ti c</w>
järjest el
maa il
ti ve</w>
lo w##</w>
im ple
b e
de ssä</w>
se e</w>
oun d</w>
sec on
asi a</w>
iti z
o i##</w>
min ist
ma a</w>
j ect</w>
va ih
tehd ä</w>
h et
an a</w>
tule va##</w>
j uur
e pä
inc reas##</w>
en emm
oper ation</w>
k ia</w>
hu man</w>
uu tta</w>
s et</w>
si in##</w>
ra t##</w>
direktiiv i##</w>
A ##</w>
iti on##</w>
at i##</w>
ma y</w>
tr y</w>
su ur
pro vid##</w>
ko k
tek n
pa ik
h ol
la us
con c
men ettel
lop u##</w>
ki el
ov er##</w>
hen kil
jo iden</w>
es it
pla ce</w>
p uu
im e##</w>
val lisuu
ra p
m ov
g ive##</w>
vu on
un der</w>
g ood</w>
es i##</w>
contin u##</w>
vuon na</w>
ett a</w>
emp loy##</w>
ac t##</w>
comm on</w>
nn e</w>
s itte##</w>
vu or
o t##</w>
l d</w>
hop e</w>
ad d
leg al</w>
hal f</w>
g overn##</w>
to r</w>
it i##</w>
s in
por te
a ir
i men
rap porte
voim a##</w>
uks essa</w>
lo o
sel f</w>
juur i</w>
pro cess</w>
mm in</w>
ib ility</w>
es ittä##</w>
produ ct##</w>
o sta##</w>
an im##</w>
tur vallisuu
am is##</w>
ar ea</w>
C ##</w>
os i##</w>
c itiz
im prov
vaik ka</w>
vi ime</w>
al i##</w>
me an##</w>
ac tion</w>
m a</w>
improv ##</w>
el e##</w>
te ch
p yr
som e##</w>
l ar
adop t##</w>
ula r</w>
ka a</w>
in iti##</w>
matt er</w>
u r</w>
ky se</w>
pr om
hall it
f ur
per us##</w>
n ou
u sta</w>
markk ino
p y
an t##</w>
sa a
tt u##</w>
th or##</w>
pos ition</w>
s ä
discus s##</w>
b a##</w>
p a</w>
oll ut</w>
cur r
consid er##</w>
im it##</w>
os all
fu l</w>
tä l##</w>
re as
if ic
O ##</w>
täy si##</w>
re f
dem o
ti c
ra jo
par an
R u
jäl keen</w>
m istä</w>
f ##</w>
yhte y
vä h
ve l</w>
ta l</w>
si ir
neuvost o</w>
is eksi</w>
en g
ex t
ett ##</w>
proble m##</w>
esi merki##</w>
ste m</w>
peri a
num ber</w>
v en
am ple</w>
osall istu##</w>
issu e##</w>
mit en</w>
el in
vä lin
than k</w>
fin an
politiik an</w>
in ci
sa in
sain väl##</w>
re sul
ll inen</w>
ko ko</w>
kan sainväl##</w>
in stit
o m</w>
ks et</w>
kans allis##</w>
20 00</w>
p et
nn ö##</w>
käy ttö
demo kra
k ala
sy stem</w>
it e
f arm##</w>
vast uu##</w>
ll isesti</w>
u al</w>
sa ad
A r
m ikä</w>
ett ä
kolleg a##</w>
decis ion</w>
da m</w>
proble m</w>
o ff
ell is##</w>
a ino
y mmä
ta u
f ol
av u
au thor##</w>
u m</w>
st us##</w>
qu al##</w>
ll ##</w>
f er
reg ul##</w>
pu t</w>
sopim uksen</w>
tu nn
gen t
y our</w>
tur al</w>
tapah tu##</w>
or y</w>
con tr
vil jel
tut kim
o in</w>
ic e##</w>
citiz en##</w>
t s
pr inci
ter ve
r o##</w>
gre at</w>
u c##</w>
res pec
ö n
si d##</w>
rapporte ur</w>
or d
vast aan</w>
kaik ki##</w>
ar ea##</w>
yhtey dessä</w>
tiet o##</w>
i al##</w>
me illä</w>
ab ility</w>
i ma
tarko it
liitt y
2 ##</w>
ss a##</w>
kir ja##</w>
ir e##</w>
est ab
ne cess##</w>
s p
prote ct##</w>
g et##</w>
sin ce</w>
oike u
H o##</w>
kysym ys</w>
j ö
ac h
ri b
f ish##</w>
a sti</w>
t en
k oul
it o##</w>
el l##</w>
poin t##</w>
ach ie
ti c##</w>
pres ent</w>
estab lis
0 0##</w>
wor ld</w>
st ate##</w>
n op
x ##</w>
til ann
kuul u##</w>
k al
ic ular</w>
uksi en</w>
ens ure</w>
tt iin</w>
suh te
kok ou
k ing</w>
d ies</w>
sa f
tu n##</w>
su ur##</w>
imple ment##</w>
il ma##</w>
com p##</w>
i d##</w>
toim ia</w>
he al
tt er</w>
sh i
määr ä##</w>
i ous</w>
f ar</w>
d a</w>
b r##</w>
av ##</w>
ma a##</w>
ku lu
c ed
is iä</w>
de ssa</w>
asi a
ist u
gent le##</w>
asi assa</w>
ttä vä</w>
rib ut##</w>
on g##</w>
ist e##</w>
y n</w>
throu gh</w>
w er</w>
ou t##</w>
ol le##</w>
ma ks
strate g##</w>
ett ava</w>
er i##</w>
nt ö##</w>
vast a
o s##</w>
es een</w>
ul e##</w>
s laus
käy tä
it e##</w>
gen er
olo g
i ed</w>
te ollisuu
järjest elm
va ike
in no
er ent</w>
ust en</w>
päätö slaus
g ive</w>
tu l
aik a##</w>
stru c
th er##</w>
sis ä##</w>
enemm än</w>
a il##</w>
myön te##</w>
is im
und er##</w>
ati ve##</w>
n o##</w>
is ed</w>
q u##</w>
le vel</w>
yle is##</w>
wh et##</w>
reg ard</w>
asi an
F ##</w>
en i</w>
y d
su m##</w>
ne ed##</w>
wa y##</w>
ot i##</w>
inv ol
sa a</w>
s y##</w>
org an##</w>
c ar
tä ä##</w>
n al</w>
kil pa
miet in##</w>
hal lin
spec if
ser v
ke y</w>
finan cial</w>
tt elu##</w>
ett ei</w>
p er##</w>
mon i##</w>
kul j
eur o##</w>
ne g
m än</w>
vah v
id e##</w>
b i
uks e##</w>
tr an
ob ject##</w>
9 9</w>
g e
at al
requ ire##</w>
o f
int i##</w>
tar pe
is esta</w>
suu n
l and</w>
tu ott
neuvost o##</w>
int er
op por
. ##</w>
tt a
arvi o##</w>
aga in</w>
sano a</w>
oppor tun##</w>
so ci##</w>
mietint ö##</w>
vi ä</w>
te ttava</w>
sisä l
mp l##</w>
y ksi</w>
te ho
talou s
n a
ll a##</w>
ap pro
sa av
an taa</w>
uks ista</w>
jul k
val m
neuvo ttelu##</w>
ll y</w>
il l##</w>
iv at</w>
ind us##</w>
v i##</w>
ar vo##</w>
mä t##</w>
ap p##</w>
os e##</w>
ma iden</w>
ratka is
ol eva##</w>
pre v
heal th</w>
con sum##</w>
tärke i##</w>
pres s##</w>
p i##</w>
f l
op in
icul ar##</w>
hal l</w>
T ur
ic t##</w>
ma t
Ru ot
trans port</w>
vir an
viran oma
pp u##</w>
oike us##</w>
n ess</w>
c all##</w>
tt aa</w>
si mpl##</w>
p a##</w>
c k</w>
al alla</w>
re a##</w>
c k##</w>
B S
tied ä##</w>
sec tor</w>
aino a##</w>
fu lly</w>
pros en
ol i##</w>
e l</w>
b ac
st o##</w>
ag ri##</w>
af ter</w>
valio kunnan</w>
p ra
cul tural</w>
M a##</w>
vapa u
ic i
ever y##</w>
th ir
kä y##</w>
var o
raho it
k ri
to imen
n ation</w>
E ##</w>
val l
propos al##</w>
neg oti##</w>
isuu s</w>
if ied</w>
mu n
in e</w>
b er
T ur##</w>
progra mme</w>
ott aa</w>
diff erent</w>
avu lla</w>
ac t</w>
sub ject</w>
po h
p ur
i d</w>
käs it##</w>
atal ous##</w>
val u##</w>
tu lo
ed ust
a mme</w>
uu s</w>
ne xt</w>
e i
spe a
päätöslaus elma##</w>
ti la
th ough</w>
i ppu##</w>
g reat##</w>
hy vä</w>
N ##</w>
ö y
k no
invol ve##</w>
ar ch</w>
a k
ser v##</w>
ra u
B ##</w>
w ard##</w>
ta b
t or##</w>
sov el
pä iv
o l</w>
es ity
b u
w ard</w>
val v
su or
tä nä
tänä än</w>
tule e</w>
suunn it
m on##</w>
he idän</w>
mahdol lisuu
G roup</w>
oopp a</w>
Eur ooppa</w>
ra ken
ittä vä##</w>
en t
diff icul
certa in</w>
va sti</w>
v u##</w>
fur ther</w>
esitteli jä</w>
uu si##</w>
määr ä
enn e##</w>
aik ana</w>
conc lu
si on</w>
on a##</w>
w o##</w>
e en##</w>
R e##</w>
I n
ter m##</w>
m em
men ##</w>
fra me##</w>
til ante
n ce</w>
kann alta</w>
B r
r ule##</w>
oso itta##</w>
is m</w>
inv est##</w>
com ple
asio iden</w>
va ati
te xt</w>
hi gh##</w>
e tään</w>
men tal</w>
Mem ber##</w>
w ish</w>
tu ot
k in
g a
environ ment##</w>
re present##</w>
poliitt is##</w>
g o</w>
il mo
as k</w>
paran ta##</w>
täm ä
3 ##</w>
reg ard##</w>
opin ion</w>
hu om
fe w</w>
tran s##</w>
d oc
tote utta##</w>
fun d##</w>
is t</w>
es it##</w>
C on##</w>
it ive</w>
in te
cont ribut##</w>
tärke ä</w>
mietint ö</w>
ehdo t##</w>
saf ety</w>
r ity</w>
ma atalous##</w>
j ust##</w>
accep t##</w>
S w##</w>
K ##</w>
tett u</w>
g roup</w>
edell e##</w>
tapa uksessa</w>
instit ut##</w>
puheenjohta ja</w>
peria att
d ition##</w>
talous arvio##</w>
k ö</w>
ist us##</w>
sid e</w>
selv es</w>
pri or##</w>
kes ke##</w>
s c
pro g
t ell
uu del
su c
mil l##</w>
me ille</w>
julk is##</w>
henkil ö##</w>
e iden</w>
a sta</w>
isuu tta</w>
ist ä##</w>
cle ar##</w>
pit kä##</w>
perust e##</w>
i l</w>
g ia##</w>
comm it##</w>
M a
si a</w>
liitty vä##</w>
hap p
for ward</w>
yksi ä</w>
tod ellis##</w>
seura ava##</w>
l tä</w>
ett y##</w>
saad a</w>
Sta te</w>
mil jo
ag ree</w>
st ar
bud get</w>
doc u
ch ar
com mun
it ta
edist ä##</w>
cl ose##</w>
st i##</w>
ik e##</w>
d om</w>
va sta</w>
os a</w>
nop ea##</w>
llis yy
commun ic##</w>
Eur o
st ään</w>
ker ta##</w>
k s##</w>
ik a##</w>
cor d##</w>
per s
ou ght</w>
establis h##</w>
el u</w>
BS E</w>
väl ttä
välttä mät##</w>
täy tä
täytä ntö
r ole</w>
seur a##</w>
le t</w>
jo illa</w>
hyö d
f av
jo itta##</w>
com e##</w>
secon d</w>
pros ess
chan ge</w>
val ta##</w>
union i</w>
lin e</w>
p le##</w>
han k
n sä</w>
mi ä</w>
eff ec
yh ä</w>
yh d##</w>
mietinnö ssä</w>
jo issa</w>
tt u</w>
ta ud
e ast</w>
wh il
sel ke
respec t</w>
res e
l ista##</w>
et u##</w>
va ar
muu tta##</w>
lis ä
id ent##</w>
propos e##</w>
että vä</w>
pra c
perust a##</w>
ma in</w>
g ro
u p
ta in##</w>
r ound</w>
ever y</w>
ett u</w>
certa in##</w>
aik aan</w>
tor j
p en
oh j
nä kö
Euro op
täm is##</w>
j olla</w>
f o
vuor o##</w>
spec ial##</w>
li ber
h in
fac t##</w>
aihe u##</w>
wh ole</w>
te itä</w>
mu od
b en
tarko it##</w>
prosen tti##</w>
prog ress</w>
la w</w>
f ul
att i##</w>
to jen</w>
te ille</w>
la u
viljel i
ic t</w>
fol low##</w>
b ase##</w>
al ti
valv on
ryh män</w>
ar ti
ac cess</w>
vu osi##</w>
val it
si ll
os a##</w>
nä itä</w>
n imit##</w>
muu to
e et</w>
c ap
h er
kor osta##</w>
de al</w>
u al##</w>
tu s##</w>
su ure##</w>
fin al##</w>
enti al</w>
var i##</w>
st y##</w>
produ c##</w>
c re##</w>
aj an</w>
ää n##</w>
la s
kaik kia</w>
en a</w>
ti me##</w>
esitteli jä##</w>
cr is
ra k
en c##</w>
re port##</w>
l ing</w>
ks eni</w>
i ik
ef for
tu o##</w>
to ja</w>
man age##</w>
ker ra##</w>
ti v##</w>
ra tion</w>
l i##</w>
int o##</w>
ill a##</w>
h an</w>
M in
miljo ona##</w>
c all</w>
ymmä r
pa a</w>
mm e##</w>
k ellä</w>
het kellä</w>
ac e</w>
T rea##</w>
u e</w>
re sid##</w>
ä vä##</w>
ä is##</w>
und er
tu kea</w>
tehtä vä##</w>
or s</w>
ac h##</w>
va kuu
su ff
specif ic</w>
kaik kea</w>
curr ent</w>
princi ple</w>
pre par##</w>
c ent##</w>
to is##</w>
li ia##</w>
al a##</w>
aik o
shi p</w>
d es
comm ittee</w>
pr e##</w>
ih mis
h o##</w>
e qu
ced ure</w>
ti a##</w>
m ista##</w>
cul ture</w>
ce iv##</w>
al an</w>
g n##</w>
uksi in</w>
ist y
s or
ki it##</w>
f ree##</w>
puheenjohta j
cris is</w>
N o</w>
tilann e</w>
tarka st##</w>
stan d
liik en
hel p</w>
er ies</w>
c ra
arti k
var a##</w>
toimin ta##</w>
toimen pit
to inen</w>
kun ta</w>
e p
vo ita##</w>
tt u
s m
lainsäädä ntö##</w>
il ta</w>
ac cord##</w>
a w
spec t##</w>
A mer
wor d##</w>
us k
toim inn
pa in
ben ef
M ar
uudel le
tt e
k ö##</w>
u k
to ge
toge ther</w>
f t</w>
econ om##</w>
ään est##</w>
ven tion</w>
mm ##</w>
ka ksi</w>
ar ante
appro ach</w>
vois i##</w>
käyttö ön</w>
I r
tak ing</w>
sill oin</w>
la inen</w>
ky se##</w>
is essa</w>
gener al</w>
1 0</w>
me et##</w>
la ista</w>
i ksi</w>
kol man
ett y</w>
en ä##</w>
d own</w>
sisä ll
sh or
lu o##</w>
int ro
thir d</w>
r en
ex c
suo j
sosiaal i##</w>
s en
ta in</w>
con dition##</w>
c re
a ff
Yhd isty
Ruot si##</w>
va ati##</w>
uks een</w>
jou tu##</w>
environ ment</w>
an g
serv ice##</w>
r el##</w>
ad i##</w>
z z
va k
utu s##</w>
ur al</w>
st and</w>
p an##</w>
keskust elu</w>
con fl
va t##</w>
tu omi
prop ri
oike a##</w>
ll een</w>
ksi ä</w>
kann at##</w>
ist un
b r
ap propri
org an
en ä</w>
d r
sy y##</w>
loo k</w>
joh ta##</w>
res our
resour c##</w>
gu arante
ed e##</w>
coun t</w>
puheen vuoro##</w>
pos e##</w>
käy tö
fin d</w>
ev er##</w>
teke mä##</w>
saa tta##</w>
lu onn
l ies</w>
d ur##</w>
ryh mä##</w>
oikeud e##</w>
kala stus##</w>
rese arch</w>
o ther##</w>
ff air
ffair s</w>
A ffairs</w>
s all
ne y</w>
ir ##</w>
fer ence</w>
S u
3 0</w>
mov e##</w>
lar ge##</w>
isuu den</w>
ap pe
tuomi o
tuomio istu
sec u##</w>
isim man</w>
tarv i##</w>
ol tava</w>
in g
valit etta##</w>
vahv ista##</w>
re d</w>
muka isesti</w>
yks in
vi in</w>
t er##</w>
s ur
resul t</w>
P or
fi el
talou s##</w>
ke a##</w>
av alti
el im
pp a##</w>
le v
ific ation</w>
h an##</w>
d en##</w>
talou den</w>
puheenjohtaj avalti
n on</w>
hi gh</w>
b o
b al
Euroop assa</w>
re me##</w>
id e</w>
P ro##</w>
I s
tra de</w>
tehtä vä</w>
hu ippu##</w>
ett iin</w>
yh tä</w>
si ja##</w>
re ceiv##</w>
ch ##</w>
tä vä##</w>
tote u
sit ou
reas on##</w>
oike uksien</w>
kä sit
fav our</w>
va a</w>
v äär
s een</w>
quest ion##</w>
n er##</w>
alue ella</w>
yh te##</w>
ou b
kä si##</w>
koh ta##</w>
y oun
p as
ol isi##</w>
kka asti</w>
asi an</w>
var s
se e
politiik kaa</w>
j at</w>
ener g##</w>
wel come</w>
saav utta##</w>
ll isen</w>
itt y##</w>
var mista##</w>
tu ke##</w>
tel e##</w>
G re
tech n##</w>
la b
kunn assa</w>
f ood</w>
av ail##</w>
a tu
tar jo
onn istu##</w>
elm a</w>
N i
pro f
käsittel y##</w>
Tur k##</w>
ttä vä##</w>
rahoit us##</w>
j ##</w>
vaik utta##</w>
teki jö
se qu
olog y</w>
m it##</w>
k ka##</w>
hav ##</w>
ehd o##</w>
G overn##</w>
val la</w>
m ia</w>
1 5</w>
ro ad</w>
li f
l opp
ans ka##</w>
al ta##</w>
ai r</w>
L ##</w>
ta ma##</w>
lä he##</w>
ts o##</w>
t ing</w>
la ati
k k##</w>
k ar
vaati mu
u e##</w>
edell yt##</w>
achie ve</w>
A l
vi ime##</w>
nou da
merk ity
kilpa ilu##</w>
air ##</w>
Yhdisty ne##</w>
var ten</w>
ku u##</w>
fun da
cr im
c ou
uks esta</w>
t u</w>
whil e</w>
parlamen t
k re
difficul t</w>
decis ion##</w>
artik la##</w>
uks en##</w>
til a##</w>
sup port##</w>
res s##</w>
re al</w>
is ista</w>
d ist
concer n</w>
ac count</w>
I nt
2 0</w>
valvon ta##</w>
ti in</w>
sig n##</w>
R e
M ac
youn g</w>
su g
ma an
arvi o
a m##</w>
tt amis##</w>
ser ious</w>
p o##</w>
nouda tta##</w>
I ##</w>
st ä##</w>
ss ä##</w>
ol l##</w>
ma in##</w>
laaj en
de fin
A mend##</w>
vä est
val vo##</w>
sää ntö
consid er</w>
as k##</w>
Int er##</w>
E n
off ##</w>
ka tso##</w>
parlament issa</w>
oun d##</w>
ot o##</w>
ma tta</w>
il e##</w>
ext reme##</w>
ed uc##</w>
d oub
bac k</w>
sää nn
ti es</w>
rel ation##</w>
n en</w>
lo b
jo sta</w>
isuu dessa</w>
tur va##</w>
pal vel
la an</w>
ev en##</w>
vois i</w>
var ma
tiet y##</w>
ss i##</w>
pan o##</w>
is ing</w>
im me</w>
ehdotuks en</w>
up on</w>
su os
selke ä##</w>
pe ace</w>
k est
st u
st ate</w>
secon d##</w>
parlamen tti##</w>
la ati##</w>
is sa
d u##</w>
alo itte##</w>
reas on</w>
menettel y
ll ista</w>
pit ä##</w>
od a</w>
lopp u##</w>
l ista</w>
gu e</w>
gro w##</w>
demokra atti##</w>
aik a
ta valla</w>
par ha
ou th</w>
lar ge</w>
la isen</w>
i p
co gn##</w>
aw are</w>
M ##</w>
täm ä##</w>
sä il
mi g##</w>
jat ka##</w>
ig n</w>
alu een</w>
accep t</w>
tarv itse##</w>
t an
sm all</w>
re cogn##</w>
me di##</w>
koske va</w>
re al##</w>
o tetaan</w>
n or
kust ann
h on
de al##</w>
t le</w>
st ö##</w>
m in##</w>
l yh
k ko##</w>
ful l</w>
ä t##</w>
tu u</w>
suur i</w>
st em##</w>
pyr i##</w>
os s</w>
ku va##</w>
c ol##</w>
uur i##</w>
tutkim us##</w>
ryh ty##</w>
pers on##</w>
h and</w>
c u
vis ion</w>
tuks en</w>
par lia
ik ##</w>
ste p</w>
ma jo
ex pec
al low</w>
vi ik
sää nt
sig n
markkino iden</w>
for ce</w>
f ree</w>
v ista</w>
terve y
ran t##</w>
puheenjohta ja##</w>
mi gra
ll isten</w>
l ong##</w>
h ol##</w>
contr ol</w>
asio ita</w>
op en</w>
mis sä</w>
ker tom
c ent</w>
ong elma##</w>
ko kon
järjestel mä
is essä</w>
b ur
ään estä##</w>
w er##</w>
toim iin</w>
sall i##</w>
pyy tä##</w>
oso it##</w>
est a##</w>
dem o##</w>
b od
& #
&# 9
prev ent##</w>
pet ition</w>
kon kre
jo ista</w>
C h
4 ##</w>
li g##</w>
l ää
ett i##</w>
er n</w>
ac tiv##</w>
matt er##</w>
majo r</w>
m ma
käytä nnö##</w>
ett u##</w>
I ra
yks en</w>
tu l##</w>
kokon ais##</w>
d ä##</w>
co st##</w>
au tta##</w>
1 2</w>
t ent##</w>
sy stem##</w>
min d</w>
mi ksi</w>
ik ä##</w>
pos itive</w>
os sa</w>
il ma
h t</w>
gra tul##</w>
e ar##</w>
con gratul##</w>
car ri##</w>
asia kir
ter m</w>
mahdol lista</w>
keh ittä##</w>
ist o##</w>
is ation##</w>
yh ten
us ko##</w>
main i##</w>
kul tt
im p
ex press##</w>
ex ist##</w>
er in
al k
tett u##</w>
ne t
mis essa</w>
migra tion</w>
l öy
for tun
e u
appropri ate</w>
tut ki##</w>
suun ta##</w>
r ing</w>
varma sti</w>
tu ll
tas ap
tasap ain
stan d##</w>
o ta##</w>
c ar##</w>
we e
p op
joh on</w>
f am
en ce##</w>
com mend##</w>
pe t##</w>
ol d</w>
ne en</w>
li ght</w>
kul u##</w>
er il
uks issa</w>
tt o##</w>
ra uh
marke t##</w>
b us
spea k##</w>
laaj u
0 2</w>
yl i</w>
ta sol
sy yt##</w>
sta in##</w>
sosiaal is##</w>
il i##</w>
ens in##</w>
ed usta##</w>
dem oc
mis estä</w>
lin es</w>
ev ä##</w>
väh ä##</w>
u g
työ s
re form</w>
par ti
lo c
ki ito##</w>
kann a
tt y##</w>
tasol la</w>
periaatt e
mi in</w>
konkre ett##</w>
fiel d</w>
cra cy</w>
c ase##</w>
Yhd ys##</w>
u ll##</w>
tarpe e##</w>
resul t##</w>
o ike##</w>
bi o##</w>
ti a</w>
of ten</w>
o t</w>
kuu ta</w>
j ol
ist elu##</w>
e i##</w>
an n##</w>
an al
W T
S to
ö t</w>
muka i##</w>
ist i##</w>
elä in
void a</w>
ma issa</w>
g rant##</w>
bus in
C our
ul ko##</w>
tic le</w>
ke ho
ener gia##</w>
Cour t</w>
th em##</w>
tech n
ta va##</w>
po wer</w>
men ne##</w>
hap s</w>
ei ther</w>
y n##</w>
ti en</w>
puu ttu##</w>
com b
tarjo a##</w>
sa mo##</w>
s ci
ong el
käsit el
ko jen</w>
k op
e ase</w>
5 0</w>
par t
min ä</w>
e de
confl ict</w>
st u##</w>
kä r
it ä##</w>
0 2##</w>
usk on</w>
pi ir
perust amis##</w>
pel kä##</w>
p li
p ala
mem ber##</w>
ks i##</w>
P V
th o
mon th##</w>
me tho
m od
kun ta##</w>
in f
il tä</w>
ik ka##</w>
if y</w>
cr oss</w>
or i##</w>
ongelm a</w>
kultt uuri##</w>
ku mp
an i</w>
Ar voi##</w>
0 1##</w>
ön tä</w>
val tu
te iden</w>
t ö##</w>
reg ion</w>
eff ici
al le
K os
E s
tark istus##</w>
mu istu##</w>
mon it
merk itse##</w>
kun ing
ka hd
is yy
funda mental</w>
ex p##</w>
ter nal</w>
si o##</w>
ra te</w>
parlia ment##</w>
it al</w>
hu on
ex p
esity s
d esta</w>
b an
välin e##</w>
tuot an
tell ään</w>
kysym y
e itä</w>
Sto ck##</w>
u c
torj u##</w>
ra ha##</w>
pid e##</w>
la te##</w>
w r
uk hol
tekn is##</w>
ki inn
kau ppa##</w>
ima t##</w>
an y##</w>
U kra
T ukhol
vi l</w>
suhte e##</w>
star t</w>
oike us</w>
kes ku
eh kä</w>
c reat##</w>
avo in</w>
ab ly</w>
vä lis
u t
sa y##</w>
py sty##</w>
pres s</w>
pa kol
p e##</w>
kokou ks
jo hd
iv id
ad minist
aal ta</w>
vi ol##</w>
työ n
ref er##</w>
ongelm ia</w>
oma sti</w>
oike us
muu t##</w>
koh taa##</w>
ind ivid
b est</w>
v is##</w>
pop ula
ple as##</w>
pl ic##</w>
kuning as##</w>
is sa##</w>
fe el</w>
cr it
uudelle en</w>
työ tä</w>
tau tu##</w>
sisäll yt##</w>
päätö ks
n at
ma t##</w>
j ia</w>
huom au
exc el##</w>
Tukhol ma##</w>
Ni zz
uu s##</w>
su stain##</w>
progra mme##</w>
prac tic##</w>
j an</w>
i ja##</w>
ess ential</w>
esitys lista##</w>
ep ä##</w>
ann e##</w>
il o##</w>
democ ra
vo in</w>
u tuks
täytäntö ön
suur i##</w>
par emm
paremm ##</w>
määr ä</w>
laaju is##</w>
j ud
hu oma
f i##</w>
R i
työs ken
tekn iik
pos e</w>
p onn
p ensi
cou ra
ci p##</w>
achie ve##</w>
vuo tta</w>
tt y</w>
os alta</w>
maa han
keho t##</w>
it er
id en##</w>
effec tive</w>
S ch
Es pan
ris k</w>
pää ttä##</w>
po ik
pl an</w>
pi en##</w>
on ni##</w>
oll is##</w>
o p</w>
n da</w>
le ag
jo in##</w>
hal u##</w>
strate g
ra di
pol ##</w>
d on
at or##</w>
vi ous</w>
tal k##</w>
so tila
pid ä##</w>
parlamen ti
maks a##</w>
m om
le d
curr ent##</w>
c op
as em
B alk
A fr
yks ityis##</w>
yhd en
pyy dä##</w>
parti cip##</w>
lo g
io it##</w>
h d##</w>
el ect##</w>
ass ist##</w>
ap plic##</w>
alo itta##</w>
eril ais##</w>
demokra tia##</w>
Nizz a##</w>
vu os
perust u##</w>
l o</w>
ind ic##</w>
huol imat##</w>
elin tarv
ehdotu s</w>
bu il
Ar ticle</w>
under stand</w>
säänt el
ra ti
kulu tta##</w>
ehdotu ksia</w>
de ta
as etta##</w>
S w
t reat##</w>
t on</w>
parlamenti lle</w>
f lik
emp h
ar vo
ään est
w led
valti o
ug os
ugos la
o sta</w>
nä yt##</w>
käsittel e##</w>
kno wled
kes k
administ r##</w>
yrity sten</w>
op en##</w>
l ed</w>
c an
tab le</w>
rou p##</w>
nn ön</w>
lau su
la aja##</w>
kas vu##</w>
g lob
K i
Amer ic
prov e##</w>
kulj etu
kehity s##</w>
b on</w>
ati o##</w>
va adi##</w>
sign ific
li ght##</w>
com mun##</w>
tra in##</w>
pa ino
ne t##</w>
l imit##</w>
järjestelm än</w>
docu ment##</w>
de p
ag o</w>
R anska##</w>
liber al##</w>
kon flik
ch il
yksi miel##</w>
on al</w>
liik enne##</w>
kunn ioit##</w>
is estä</w>
en ough</w>
edist y##</w>
aihe e##</w>
tu s</w>
tu nut</w>
tarkoit uksen##</w>
suoj elu##</w>
sopim us</w>
ol u
n el
ky sy##</w>
ks emme</w>
P ro
techn ical</w>
stan ce##</w>
st oc
l ent</w>
g roup##</w>
b asi
te tään</w>
s pit
reg ion##</w>
puol i##</w>
in o##</w>
tur e##</w>
tul o##</w>
su u##</w>
spit e</w>
poh ja##</w>
po ista##</w>
nt i##</w>
ne t</w>
b an</w>
ap ##</w>
alo gue</w>
sy y
puheenjohtajavalti o</w>
ohjel ma##</w>
mov e</w>
la isten</w>
kohd alla</w>
ker to##</w>
Espan ja##</w>
str ict##</w>
lif e</w>
gra p
valio kunta</w>
suor a##</w>
k r
fortun ate##</w>
ar ity</w>
al ka##</w>
re ach##</w>
a ja</w>
v in
un ti
ot e</w>
on e##</w>
ob lig##</w>
ke e
kau p
ka a##</w>
k lo</w>
jo ita##</w>
aff ect##</w>
V ä
unti l</w>
ti ve##</w>
tasapain o##</w>
o on</w>
lo in</w>
i re
i an##</w>
hu man##</w>
f oc
ci vil</w>
ta mis##</w>
lu on
kä ä##</w>
järjest ä##</w>
inv est
il ities</w>
el e
democra tic</w>
til an
sy r
sano i</w>
pla y##</w>
mp i</w>
lu ott
käy te
uud esta</w>
str u##</w>
ro w</w>
l en
kuu ssa</w>
tur n</w>
tt om
s how##</w>
maail man</w>
läh est
effor t##</w>
b on##</w>
te idän</w>
requ est</w>
pää tty##</w>
mom ent</w>
itt u##</w>
in tä##</w>
in stru##</w>
i o##</w>
ymmä r##</w>
ta as</w>
si on##</w>
la isia</w>
ksi in</w>
er s##</w>
e s##</w>
com pet
at ure</w>
vapa a##</w>
te st##</w>
struc ture</w>
reg ion
part ner##</w>
mie h
i in##</w>
c over##</w>
käy d##</w>
ky llä</w>
ex peri
cr ime</w>
con ne
S a
O ff
sa at
markk ina##</w>
ko ord
kanna tta##</w>
jo it##</w>
emp i</w>
conne ct##</w>
avo im##</w>
täytäntöön pano##</w>
suunnit elma##</w>
pri vat##</w>
muu t</w>
maahan muu
ma j
l i</w>
kol me##</w>
ko t##</w>
it s
hyvä ksi</w>
happ en##</w>
h ist
en se</w>
rea d</w>
nä ke
emm in</w>
elä im##</w>
aik aa</w>
Balk an##</w>
toiminn an</w>
toim i
rak enn
parha i##</w>
me an</w>
ma ter
lyh y##</w>
kau tta</w>
g r
esit tämä##</w>
B er
yks et</w>
vi est
turvallisuu s##</w>
teh nyt</w>
pa i##</w>
it t##</w>
it ar
erin oma##</w>
di alogue</w>
d i</w>
ans wer</w>
Ri ght##</w>
vel v
vaih to
te h##</w>
tab le##</w>
str eng
mu ita</w>
maj or##</w>
kom it
iv alta##</w>
har joitta##</w>
at a</w>
asian mukai##</w>
an d##</w>
S o
uu teen</w>
politiik ka</w>
kö yh
in fr
i um</w>
henkil ö
aal i##</w>
a an
ymmär r##</w>
v o</w>
ri ittävä##</w>
ra ise##</w>
pä in</w>
ob serv##</w>
he ik
en large##</w>
cr itic##</w>
bud j
ad van
a st##</w>
5 ##</w>
tuomioistu im
spec ial</w>
pyr ki##</w>
oike uksia</w>
l it##</w>
jo ka##</w>
fir st##</w>
el i##</w>
du ce</w>
tas av
l ann
itt elu##</w>
itt e</w>
for ce##</w>
Y K##</w>
Off ice</w>
vuor op
to si
päiv ä##</w>
inter nal</w>
am e##</w>
P al
vakuu t##</w>
s esti</w>
re ign</w>
ll isia</w>
järjestelm ä</w>
bud get##</w>
ar e##</w>
ty yty
tu ke
stit u
popula tion</w>
of f</w>
kolleg a</w>
kno w##</w>
an ta
ur ge##</w>
tarka stus##</w>
suh tautu##</w>
pid ä</w>
myö s##</w>
kokouks essa</w>
ki inno
is ter</w>
b ia##</w>
K o
vis ion##</w>
sub ##</w>
s u##</w>
nt y##</w>
la ad
l laan</w>
ko ke
ittel e##</w>
fr on
f el
L issa
per io
miel i
ilmo itta##</w>
hyö ty##</w>
f le
M ed
pre sid##</w>
pla y</w>
merk ittä
le ad</w>
al low##</w>
ac c
tra ff
s at
pre c
or di##</w>
min i##</w>
kysymyks en</w>
jo ihin</w>
f oo
P E</w>
reg ula
prev ent</w>
määr it##</w>
men et
la ck</w>
keh itty##</w>
il i
ehdotu sta</w>
du e</w>
alue e##</w>
U N</w>
w ant##</w>
vast usta##</w>
ky m
jat ko##</w>
ic k##</w>
el ta</w>
crim in
a a##</w>
mil it##</w>
kulu tt
am b
ab solu
Lissa bon##</w>
u ol##</w>
to isin</w>
stru ct##</w>
p ly</w>
ou ##</w>
kans an##</w>
hist or
elin ten</w>
d er##</w>
chan ge##</w>
si lle</w>
pä ivä
määr i##</w>
muu n</w>
mo tion</w>
kan a</w>
eur o</w>
er a
al le</w>
yhten äis##</w>
ul kop
ulkop uol##</w>
tyyty vä##</w>
ti m##</w>
palvel u
is enä</w>
h or
ens u##</w>
du ce##</w>
vast uu
teh o##</w>
region al</w>
p ast</w>
mm än</w>
mer en</w>
hallit us</w>
eff ect</w>
e an</w>
comple te##</w>
tie te
sää nnö##</w>
jä lleen</w>
h im
ac tive</w>
ur i##</w>
kysym yksiä</w>
individ ual</w>
f ail##</w>
arvois a##</w>
D E</w>
tu le##</w>
t ella</w>
solu tion##</w>
ne iden</w>
is ille</w>
dra w##</w>
cr uc##</w>
yhd y##</w>
sovel ta##</w>
sh are</w>
mietinnö stä</w>
l ä##</w>
it tämis##</w>
h om
elä in##</w>
asia kirja##</w>
tom or##</w>
toim et</w>
sequ enc##</w>
s ist##</w>
rel ation</w>
kol me</w>
g en##</w>
I tal
y mis##</w>
v issä</w>
u in
sääntel y##</w>
st ance</w>
n i
mä ttä</w>
kuu lu
it o
it a
eh kä
char ge</w>
p at
n ame##</w>
kti iv##</w>
kaik k##</w>
j ö##</w>
fam i##</w>
esi merk
com pet##</w>
c ol
benef it</w>
b rea
tehd ä##</w>
stand ard##</w>
re fu
ra l</w>
g al</w>
ai o##</w>
Vä li##</w>
Par t##</w>
teke m##</w>
oc c
lu o
kin d</w>
jat kuva##</w>
hall it##</w>
f air</w>
cep t##</w>
c tion##</w>
tt omasti</w>
ratkais u##</w>
ma sta</w>
log ical</w>
gen e
el ä##</w>
tek sti##</w>
pro ject##</w>
pakol ais##</w>
or ig
liik ku
inte g##</w>
hallit uksen</w>
con sul
ass ess##</w>
yksin kerta##</w>
si l
ri ip
rau ta
nation al##</w>
koord ino
il y</w>
aj an
9 8</w>
7 ##</w>
throu gh##</w>
spea k</w>
m yy
lainsäädä nnön</w>
kest ävä##</w>
ehdo tta##</w>
an d
vaihto eh
to ista##</w>
nu clear</w>
nn in</w>
kolleg o##</w>
kokou ksen</w>
ensi ve</w>
väh en##</w>
shor t</w>
minist eri##</w>
l y
is ella</w>
imp act</w>
b our
sug g
riip pu
pu n
princi ple##</w>
kolman n##</w>
iter ran
am matt
aik a</w>
J u##</w>
Ir lann
ö jen</w>
te ko##</w>
rauta tie##</w>
po wer##</w>
ma ke##</w>
m paa</w>
an ce##</w>
Med iterran
työ llisyy
to is
suo jel
stu d##</w>
pu it##</w>
pain op
p ä</w>
koh ta</w>
il it##</w>
alue illa</w>
aih e</w>
Mediterran ean</w>
vak ava##</w>
ter r
te issa</w>
s k
re pe
pas s##</w>
ohjel man</w>
muu ta</w>
lisä ä##</w>
j ille</w>
fin al</w>
eläin ten</w>
bal ance</w>
teho kk##</w>
se em##</w>
rik ollis##</w>
ov e</w>
od otta##</w>
luonn o##</w>
la iset</w>
en coura
dr en</w>
b order</w>
asiakir jo##</w>
a atio##</w>
valtio iden</w>
uu si</w>
tr ue</w>
tie tää</w>
ter r##</w>
t al##</w>
streng th##</w>
prop er##</w>
le ct##</w>
kym men##</w>
ks ista</w>
kilpa il
iv a##</w>
in ä</w>
il legal</w>
ihmis oikeus##</w>
elm ä##</w>
e as
chil dren</w>
am oun
add ition</w>
L A
y le##</w>
tu om
teollisuu den</w>
tau ti##</w>
suff ici
respec t##</w>
pi en
per ä##</w>
p ap
min kä</w>
m i</w>
kysymy stä</w>
hi m</w>
co ordi##</w>
ryh mä</w>
o tettava</w>
kysymyks een</w>
jo ta##</w>
hon our##</w>
en e##</w>
an sio##</w>
ain e##</w>
1 1</w>
ss aan</w>
s ch
r y##</w>
monit or##</w>
ma an##</w>
ko h##</w>
de f
c ir
be g##</w>
ac tion##</w>
tu n</w>
ste ad</w>
matt om
iv ers##</w>
hyöd yn##</w>
halu a</w>
dra w</w>
vaike a##</w>
vaik utu
teke e</w>
sub sid
sis ija##</w>
shi p##</w>
refu ge##</w>
merk ittävä##</w>
liiken teen</w>
ko ko##</w>
in stead</w>
en sisija##</w>
ede s</w>
con tain##</w>
aih e##</w>
V en
Sw ede##</w>
4 0</w>
yr ittä##</w>
u ti
tu g
tic al</w>
than k##</w>
sol id##</w>
qu ick##</w>
l ive##</w>
ko ja</w>
infr a##</w>
huol est
fol low</w>
vi h
t ol
ke don
kal a##</w>
itt o##</w>
g u##</w>
advan ta
Ven ä
Por tu##</w>
B el
0 4</w>
toim ien</w>
tas o##</w>
ra s
perio d</w>
periaatte e##</w>
om u##</w>
muod o##</w>
men est
ki itä##</w>
itt u</w>
fac ilit##</w>
elä k
adop t</w>
add ress##</w>
PV C</w>
sy n
ra ja##</w>
pa y##</w>
lu m</w>
is ivat</w>
docu ment</w>
d ang
O LA
M ar##</w>
nn ut</w>
lähest ymis##</w>
la p
keh ittämis##</w>
esi int
em a##</w>
dec ide##</w>
cl ar##</w>
In ter
y ll
va i</w>
tu t</w>
tar jo##</w>
tal k</w>
s on</w>
p öy
hank ke
ell e##</w>
di d##</w>
consul t##</w>
tilann etta</w>
suc cess##</w>
no in</w>
m ikä##</w>
kehity ksen</w>
ke ino
ev a</w>
ett ä##</w>
cl ose</w>
viljeli jö
vel vo
taud in</w>
t ent</w>
st er##</w>
ri it##</w>
re strict##</w>
raken ta##</w>
or e##</w>
oikeu den</w>
kor kea##</w>
ittä is##</w>
el ec
c ost</w>
vaih e
suos it##</w>
l ar##</w>
käy tt
jo ten</w>
guarante e</w>
g in
ent istä</w>
ec u##</w>
can did##</w>
c o</w>
am in##</w>
V ##</w>
Min ister</w>
9 0</w>
vie w##</w>
valio kunnassa</w>
va c
tämä n
ta ke##</w>
t osi##</w>
ra h
nou d
n kin</w>
loc al</w>
ky ky##</w>
kuu ka
id ea</w>
ab ove</w>
viranoma isten</w>
vast oin</w>
un a</w>
uh elu##</w>
op er##</w>
loo k##</w>
koul utuks
ka u##</w>
fur ther##</w>
ehdo kas
doub t</w>
ai m</w>
Eur ooppa##</w>
C O##</w>
yks ittäis##</w>
vuorop uhelu##</w>
viljel y##</w>
vi ous##</w>
tu mis##</w>
teki jä
pur su##</w>
kulutt aja##</w>
in ti
gu l##</w>
con struct##</w>
avo ime##</w>
as y
as is##</w>
Re gul##</w>
työn tekijö
ttav ##</w>
kor va
kaik en</w>
es si
enn a##</w>
con tra
att emp
asy lum</w>
alue iden</w>
R us
D ec
va mma
vamma is##</w>
us ea##</w>
ti etty##</w>
re t##</w>
pre vious</w>
ol enna##</w>
miel essä</w>
mar k##</w>
mahdollisuu ksia</w>
m el
koul utus##</w>
jä ttä##</w>
hel d</w>
emph asis##</w>
dec lar##</w>
aiko o</w>
C hi##</w>
täm inen</w>
työntekijö iden</w>
tu ki##</w>
tavoitte en##</w>
se ik
mem ber</w>
ki i
huoma ttava##</w>
guarante e##</w>
e qual##</w>
au to##</w>
K an
uu dessa</w>
uc tion</w>
tutkim ukse##</w>
tilan teen</w>
ra il</w>
päätö s##</w>
muu ta##</w>
ite m</w>
isuu desta</w>
at ory</w>
am u##</w>
aj atu
ai e##</w>
ud u##</w>
suh taud
saav ut##</w>
requ est##</w>
rati f
perust e
p er</w>
ol o##</w>
n or</w>
n imen
muu tama##</w>
lo s##</w>
halu ava##</w>
ced ure##</w>
ar n##</w>
ann on</w>
a a
F r
vac ci##</w>
sä h
pli ed</w>
painop iste##</w>
o k</w>
l uu
jo b##</w>
cor re
Su mm
Pal est
wa ter</w>
su mm##</w>
spe ec
saad a##</w>
p resid
keh it##</w>
ist us</w>
il le##</w>
basi c</w>
ase tuksen</w>
arvi oi##</w>
a ktiiv##</w>
F ren
yksi in</w>
tur vapa
toimi elinten</w>
m ole##</w>
lop ull##</w>
käsitel tävä##</w>
ka s</w>
itar ian</w>
ic i##</w>
i o</w>
huomau t##</w>
fi ght</w>
bod y</w>
asio issa</w>
Venä jä##</w>
Fren ch</w>
D ##</w>
1 3</w>
y ty##</w>
tunn usta##</w>
tied o
signific ant</w>
ryh mä
prom ote</w>
nimen oma##</w>
n cy</w>
mi c</w>
lä hi##</w>
kans a##</w>
budj etti##</w>
ac k##</w>
WT O</w>
G er
A T
pr is
mm at</w>
m y##</w>
m it</w>
käy nn
foo t</w>
ehdokas valtio##</w>
car e##</w>
c ies</w>
S er
Irlann in</w>
suhtaud u##</w>
presid en
minist eri</w>
k ke##</w>
jol loin</w>
h er##</w>
h ard</w>
fer en
esiint y##</w>
er ä
0 3</w>
tie toja</w>
tett iin</w>
tarka st
tapah tu
re main##</w>
par a##</w>
p ot
n t</w>
kon feren
busin ess</w>
asi at</w>
ar i##</w>
Summ it</w>
Ma kedon
ver ra##</w>
til in
th re
res t</w>
poliitt inen</w>
onn ett
on ta</w>
maahanmuu tto##</w>
kas va##</w>
eff ect##</w>
dem and##</w>
d est
bac k##</w>
P oli##</w>
wee k</w>
ul kom
tied on##</w>
sisäl tä##</w>
re d##</w>
puol u
l er</w>
ku ts
kos ka##</w>
kohd istu##</w>
jä ä##</w>
isim me</w>
ihmis iä</w>
hop e##</w>
discus s</w>
alle kir
al is##</w>
a im##</w>
Tur k
1 4</w>
tug ali##</w>
säil yt##</w>
pöy tä
ord er##</w>
le t##</w>
kau den</w>
johd on##</w>
h uu
en g##</w>
d et</w>
a al##</w>
tas k</w>
san ott
rauh an##</w>
mä llä</w>
lan d##</w>
la ito
k en##</w>
int end##</w>
dem on
asio ista</w>
Is ra
ä t</w>
vi is
trans f
ta vat</w>
st r##</w>
re ach</w>
prom ise</w>
per int
os in</w>
men e##</w>
ll is##</w>
kuts u##</w>
kan taa</w>
k an</w>
hall eng##</w>
ex cept##</w>
deta il##</w>
demon str##</w>
c halleng##</w>
N ation##</w>
yhd en</w>
tä vä</w>
teh ty</w>
suc cess</w>
off ic
man n##</w>
ma ase
kehity stä</w>
ilmo it##</w>
huom en##</w>
har mon##</w>
ar gu##</w>
N o##</w>
wh o##</w>
vaihe essa</w>
ter n##</w>
tarpe ell##</w>
ta x</w>
subsid i##</w>
poik ke
oikeud en##</w>
no t##</w>
mat kust
lisä ä</w>
c ho
ammatt i##</w>
ac cess##</w>
absolu te##</w>
ä mme</w>
v in##</w>
u no
see k##</w>
pen d
koul u##</w>
kolman s##</w>
jär ke
il ta##</w>
ex press</w>
de pend
yy den</w>
v elu##</w>
ta maan</w>
t ress</w>
pa y</w>
nä ky
me d
ll iset</w>
ks en##</w>
it ann
is emmin</w>
hu man
establis h</w>
com par##</w>
alo itte
al tern##</w>
Br itann
0 3##</w>
vaihtoeh to##</w>
sy nty##</w>
ran ga
prosess in</w>
paik allis##</w>
invest o
all an</w>
C on
tu en</w>
pää stä</w>
nä kö##</w>
mon im
metho d</w>
m outh</w>
ist an</w>
hu ge</w>
ho ita##</w>
devel op</w>
contr ol##</w>
add ress</w>
B ar##</w>
yl i##</w>
v esi##</w>
täy s##</w>
työllisyy s##</w>
s ur##</w>
miel e##</w>
ist s</w>
foc us</w>
ex amin##</w>
er ä##</w>
effor t</w>
edust aja##</w>
ast e##</w>
yh ti
täy de##</w>
sy istä</w>
star t##</w>
r s</w>
paran n##</w>
järjestelmä ä</w>
j oul
intro d##</w>
he ar##</w>
h u##</w>
expec t##</w>
b ia</w>
appe ar##</w>
aan i##</w>
Fr ance</w>
vu od
v ille</w>
tilante esta</w>
terve ys##</w>
sitou tu##</w>
prec ise##</w>
p e</w>
mu o
l y##</w>
kuu ll##</w>
k ään##</w>
joh to##</w>
ita ar##</w>
f ound</w>
effec tive##</w>
b ar
H u
6 ##</w>
vä he##</w>
täytäntö ön</w>
täm ään</w>
ta pa</w>
specif ic##</w>
si mil
o ja</w>
näke m
nn an</w>
laajen tumis##</w>
knowled ge</w>
hyöd y##</w>
hol d</w>
he ad</w>
K y
G M
F un
D em
u lo
työ n##</w>
spec ##</w>
pää st
pu t##</w>
man laajuis##</w>
maail manlaajuis##</w>
m illa##</w>
l ou
ko ti
kes ki##</w>
jo b</w>
imple ment</w>
hu ole##</w>
fir m##</w>
en sä</w>
diff er##</w>
N G
vasta ava##</w>
varo ja</w>
tä nyt</w>
sci enti
re main</w>
ratka ise##</w>
ra il##</w>
lev el##</w>
lab our</w>
instit uti
h il
g round</w>
ev ##</w>
del a
d y
crit er##</w>
to ok</w>
tied on
reg ime</w>
puol usta##</w>
organ ise##</w>
o te##</w>
ma alis##</w>
leag ue##</w>
fel low</w>
e valu##</w>
ar t</w>
anal ys##</w>
uud istu
uudistu ks##</w>
tur n##</w>
tuott eiden</w>
suun ta
re form##</w>
onn e##</w>
ne ita</w>
köyh ##</w>
is ena</w>
ed on
conclu sion</w>
c y
alo illa</w>
al ku
R ##</w>
A n
yks ity
vi a##</w>
val mi##</w>
vaik u
sääntö jä</w>
rel ev
mu l
m ur
kee p</w>
ja ka##</w>
human itaar##</w>
epä il
con sist##</w>
an ta##</w>
Sa ks
vä hen
vaik utus##</w>
us i##</w>
u b
toim ivalta##</w>
te emme</w>
tarkoit us</w>
t ou
seura a##</w>
rak enne##</w>
pl ic
pal velu##</w>
löy tä##</w>
las ke##</w>
hel p##</w>
da y##</w>
d om##</w>
af ##</w>
teollisuu s##</w>
scienti f
re st##</w>
po t##</w>
od ot##</w>
mp ia</w>
mis s
kiinn ittä##</w>
he it##</w>
g en</w>
depend ent</w>
c am
Mac edon
vall an</w>
sa man##</w>
ris ti
relev ant</w>
poliitt isen</w>
ka p
in d##</w>
f air##</w>
equ al</w>
em er
con f
chan g##</w>
G uin
3 ;</w>
1 ;</w>
1 8</w>
&#9 3;</w>
&#9 1;</w>
ur al##</w>
tel l</w>
suo ja##</w>
sol ve</w>
raken te
prote ct</w>
net work##</w>
mm ik
menettel y##</w>
li er</w>
l ive</w>
kuu n</w>
id ät</w>
f our</w>
vars in##</w>
tar ##</w>
t ri
sugg est##</w>
stoc k</w>
sopim usta</w>
sisäl ty##</w>
shor t##</w>
peruste ellis##</w>
par i##</w>
ol ivat</w>
mor e##</w>
li ha##</w>
kri isi##</w>
j ar
er r
e ita</w>
difficul t##</w>
cop e</w>
S tra
Makedon ia##</w>
9 7</w>
u ja</w>
ro ad##</w>
puol ue##</w>
pro ject</w>
pr im##</w>
pla c##</w>
os a
n neet</w>
myö tä</w>
muu ttu##</w>
la at
ki a##</w>
in o</w>
huon o##</w>
ett e</w>
b y
ap prove##</w>
Kos ov
w ide##</w>
v istä</w>
työ n</w>
stru k
ma at</w>
m at</w>
m all
kir j
jä ä
joul u
ha sto##</w>
del e
cir cu
as u##</w>
Dec em##</w>
v ic
tä vät</w>
turvallisuu den</w>
ta x##</w>
struk tu
selv ittä##</w>
ru le</w>
kun tien</w>
keskust ele##</w>
joulu kuu##</w>
ist er##</w>
expec t</w>
ex ternal</w>
as etu
amb it##</w>
G ener
Britann ia##</w>
Br it##</w>
B us
we ap
u tu##</w>
tuomioistuim en</w>
tt una</w>
tilante essa</w>
ti u
suffici ent</w>
rik os##</w>
pensi on##</w>
nn e##</w>
ma assa</w>
m ec
kes ke
keske yt##</w>
j u
it us##</w>
hall into##</w>
ass o
vuos i</w>
va al
su p##</w>
saa ta
paino t##</w>
le av##</w>
ki inti
ja a##</w>
it ur
in fra
infra struktu
hy v##</w>
fac e</w>
ett a
ens i</w>
dra ft</w>
de l</w>
c k
c ity</w>
T ra
Gener al</w>
0 6</w>
vapa utta##</w>
tunn us##</w>
tu sta</w>
toimin taa</w>
ss el##</w>
puol ##</w>
net work</w>
mm an</w>
lu ku##</w>
le ft</w>
kump pan
koh tia</w>
kilpail u
järjest ö##</w>
is tic</w>
hol d##</w>
dire ct</w>
com p
cep t</w>
al e</w>
add ition##</w>
a way</w>
G ##</w>
yks estä</w>
w ide</w>
vapau den</w>
ta h
str ong</w>
sec tor##</w>
re ject##</w>
ra pi
nu or##</w>
lis t</w>
kohd an</w>
k ur
k el
järjest öjen</w>
is elle</w>
hav a
conclu sion##</w>
circu m##</w>
an ts</w>
W ##</w>
L e##</w>
L a##</w>
J ust##</w>
Americ a##</w>
9 6</w>
ver o##</w>
ust ri
tta isiin</w>
si vi
ri ippu##</w>
päätö ksen</w>
py sy##</w>
prom is
ohj elm
mer i##</w>
ks e##</w>
kal ta##</w>
is ch
dem and</w>
c en
att ##</w>
am per
T amper
E C</w>
B ar
äänest ys</w>
välis en</w>
vin c##</w>
vast aa</w>
varo jen</w>
syr j
st af
staf f</w>
o s</w>
o k##</w>
me et</w>
ma s
luott amu##</w>
liikku v##</w>
le ad
ire c
e ksi
Ruot si</w>
I n##</w>
F isch
D irec
wil l##</w>
viranoma is##</w>
uks ella</w>
ty y</w>
ty y
so ker
san a##</w>
pris on##</w>
ob vious##</w>
maan viljeli
käytö n</w>
k u</w>
ik k##</w>
i re</w>
i ous##</w>
gu ide##</w>
cont ent</w>
buil d##</w>
J ugosla
0 8</w>
valti o</w>
vaik ut##</w>
tö mä
tu lis
torj un
struc ture##</w>
sp end##</w>
päätö ksiä</w>
pä in##</w>
p il
mo del</w>
läh ti##</w>
ku ol
ksi en</w>
kom promis
k ko</w>
j u##</w>
ity s##</w>
isuu teen</w>
er c##</w>
dele g##</w>
deb ate##</w>
de si
amoun t</w>
Afr ic
. e
yhte en</w>
yhden muka
velv oll##</w>
uks ena</w>
serv ice</w>
scientif ic</w>
no te</w>
menettel yn</w>
me at</w>
li it
kii ree##</w>
järjestel y##</w>
järjest ##</w>
con vinc##</w>
aj att
a an##</w>
N or
Mar ok##</w>
Ki ina##</w>
va ali##</w>
ss ur##</w>
r o</w>
pre ssur##</w>
pre h
oper ation##</w>
onnett omu##</w>
oikeu tta</w>
noud ate##</w>
mar k</w>
la itto##</w>
kesku s##</w>
kaup an</w>
kan ta##</w>
ka s##</w>
it ive##</w>
e g
du c##</w>
com preh
ci al##</w>
benef it##</w>
O M</w>
Jugosla via##</w>
2 5</w>
1 6</w>
y st
vasta a##</w>
uno h##</w>
tervey de##</w>
s how</w>
s bour
pää se##</w>
muod osta##</w>
i .e
i.e .</w>
al a</w>
Stra sbour
P e
1 4##</w>
yd in
val tion</w>
v issa</w>
ta van</w>
ta ar##</w>
presiden tti</w>
omi en</w>
miss ään</w>
kaik kia##</w>
glob al</w>
am ong</w>
J an
B u
tta ma##</w>
tr u
te mme</w>
tan ut</w>
per he##</w>
ongelm at</w>
lu oda</w>
kä y</w>
kiel te##</w>
k ki
het i</w>
elintarv ike##</w>
c la
an c
L u
9 5</w>
yhteis kunnan</w>
weap on##</w>
vä k
tar get##</w>
pr ice</w>
orig in##</w>
ohj elma</w>
myö n##</w>
le ad##</w>
la use</w>
koulutuks e##</w>
ki in##</w>
int i</w>
int ent##</w>
in e##</w>
el s</w>
de f##</w>
comp ens
br ie
6 0</w>
yy ttä</w>
yhte en##</w>
w ise</w>
vaar all##</w>
ud it##</w>
ttu a</w>
ris k##</w>
occ asi
la des
hyväks y
hin d</w>
b order##</w>
b or
ang lades
O r
M on
yhte en
y ttä
valm ist
vaike a</w>
under stand##</w>
tulis i</w>
tapa uksissa</w>
ser ious##</w>
r un
prop er</w>
olu m
nat ural##</w>
meas ure</w>
lik e##</w>
la te</w>
jo iden##</w>
ib ilities</w>
hel pot##</w>
ex ic
ev el
dy na
M exic
täy ttä##</w>
ta ho##</w>
t op
st e</w>
sol v
sc ho
re duce</w>
päätö s</w>
p .
ot u##</w>
markk in
markkin at</w>
llis iä</w>
kor va##</w>
ind ustri
ik ke##</w>
fle x##</w>
encoura ge</w>
en s##</w>
com mer
Saks a##</w>
D evel
z ##</w>
vall itse##</w>
val tojen</w>
vah in
työ h
toimenpit eitä</w>
tehd y##</w>
te mp
tark ista##</w>
ta ka
selv it##</w>
pid ät##</w>
pa in</w>
os an</w>
lu ettel
ll istä</w>
huol i##</w>
g iv##</w>
d o
ast o##</w>
ad d##</w>
Jan u##</w>
7 0</w>
w ar</w>
väest ö##</w>
vo ima
sopim ukseen</w>
p ik##</w>
nä hd
nt ö</w>
no on</w>
mu kana</w>
läh et##</w>
lu ke##</w>
liiken te
kk ä##</w>
kiinno s##</w>
kahd en</w>
gin n##</w>
fac ##</w>
en sa</w>
emm in##</w>
contr a##</w>
con dem
a att
Ira k##</w>
Devel op##</w>
C he##</w>
B anglades
viik o##</w>
tunn e##</w>
tr y##</w>
spec t</w>
sovel let##</w>
sotila allis##</w>
s ett##</w>
oh jo
myön net##</w>
mahdollisuu den</w>
lo t</w>
ir a##</w>
han d##</w>
hallin no##</w>
con ta
c au
R o##</w>
P ohjo
Kosov o##</w>
tule va
tu otta##</w>
t r##</w>
sääntö jen</w>
säänn öt</w>
re t</w>
propos e</w>
mis elle</w>
mec han##</w>
ko i##</w>
kala sta##</w>
joh tu##</w>
is tic##</w>
id a
experi ence</w>
de ter
d ict##</w>
crimin al</w>
ce ed##</w>
N AT
K re
yh tä##</w>
uu t##</w>
ty mis##</w>
to tal</w>
politiik kaan</w>
lä s
la in##</w>
k tor
er o##</w>
emer ge##</w>
el tava</w>
ar ily</w>
am p
ad d</w>
M on##</w>
H ##</w>
yrity kset</w>
yks een</w>
vi era
valm ista##</w>
ur ge</w>
tilin tarkastus##</w>
te ur
sivi ili##</w>
si z
pen al##</w>
pa kot##</w>
miel estä</w>
maks u##</w>
kan ssa##</w>
ivä t##</w>
is m##</w>
is issa</w>
edust aja</w>
ar ran
ap u##</w>
a pu
Por tugali##</w>
GM O##</w>
yle is
y t</w>
ve to
vapau ttamis##</w>
täm istä</w>
ter min##</w>
teke vä##</w>
tasav allan</w>
ta pa##</w>
sug ar</w>
ste p##</w>
saata v##</w>
ratif io
ra ted</w>
pos ing</w>
pa ho
muka ista</w>
luonn on##</w>
laati ma</w>
la ki##</w>
l iv##</w>
is oi##</w>
henkilö stö##</w>
for e##</w>
compet itive</w>
c ri
av usta##</w>
asian tun
Ir lan
I r##</w>
B ud
ta mmik
sup ple##</w>
stan ti
speec h</w>
ro h
rajo itta##</w>
rahoit ukse##</w>
opp i##</w>
mater ial</w>
kuljetu s##</w>
kilpailu kyky##</w>
ist an##</w>
ex per
eh ti##</w>
e ivät##</w>
dist ribut##</w>
ac count##</w>
M eksi
F o##</w>
ö n##</w>
tammik uu##</w>
suff er##</w>
siir ty##</w>
radi o##</w>
pur pose</w>
ongel man</w>
mu oto##</w>
ma l</w>
l im
kor os##</w>
im mä##</w>
im mä
ib ly</w>
fra u
ex pla
elec tr##</w>
commer cial</w>
ce ed</w>
c el
E P##</w>
A g
w ish##</w>
var m##</w>
ty pe</w>
tavoitte et</w>
sub stanti
se arch</w>
san ction##</w>
pöytä kirja##</w>
prov e</w>
prac tical</w>
nu ori##</w>
menettely ä</w>
ll e##</w>
ka hd##</w>
k ki##</w>
ext end##</w>
elä mä
el tä</w>
cap a##</w>
brea k</w>
bal ance##</w>
arvio id
P r
P PE</w>
Min ister##</w>
L i
2 4</w>
val mis##</w>
ud et</w>
sy vä##</w>
s our
r yhdy##</w>
päätö kseen</w>
puu tte
nat ural</w>
n n##</w>
myö he##</w>
lu pa##</w>
kor kea</w>
il l</w>
ig ur##</w>
h ou
f igur##</w>
dep end##</w>
cre d##</w>
c las
L a
G e
2 2</w>
va pa##</w>
työ stä</w>
turvapa ikka##</w>
turvallisuu tta</w>
thin k##</w>
t ku
str ong##</w>
sa fe
safe gu
puol ust
prob ##</w>
pl an##</w>
mm a##</w>
merkity s</w>
merkity s##</w>
kunn allis##</w>
konferen ssi##</w>
kehity s
inter pre
fo reign</w>
effici ency</w>
direktiiv i</w>
dang er##</w>
b road</w>
an a##</w>
yksity is
viel ä##</w>
tr i##</w>
tote ut##</w>
tiete ell##</w>
tavo ite</w>
ta sa</w>
s et
riippu mat##</w>
raho itta##</w>
olog ia##</w>
m er</w>
luu le##</w>
llisyy den</w>
kau pun
järke vä##</w>
intro duce##</w>
inte gra
hallit usten</w>
enti re</w>
enn e</w>
effici ent</w>
Kos o##</w>
w at
vi ra
ver o
vahv iste##</w>
tku t</w>
sit iv##</w>
sen sitiv##</w>
sch em
requ ire</w>
pro cess##</w>
pr ice##</w>
par empi</w>
mahdol lista##</w>
m al##</w>
leg it
ky v
kan san
jo tkut</w>
ess aan</w>
es sion</w>
emp i##</w>
ch ec
ann ual</w>
Is o##</w>
tämä t##</w>
työh ön</w>
terr or
te ita</w>
säh kö##</w>
ra v
po or</w>
palvelu jen</w>
pal l##</w>
over ty</w>
ma g##</w>
kau pall##</w>
is ellä</w>
in iti
grap h</w>
f ri
elintarv ikke##</w>
co l</w>
ca me</w>
apu a</w>
alue ita</w>
ajatu ks##</w>
Ukra ina##</w>
P ap
Ag ri##</w>
A udit##</w>
8 ##</w>
yksityis kohta##</w>
valio kunta##</w>
tote a##</w>
toimin ta
sta tus</w>
siir tä##</w>
ryh mien</w>
risti ri
ref us##</w>
prosess i</w>
pot ential</w>
poliitt isten</w>
p overty</w>
oo d##</w>
lead er##</w>
koh taa</w>
kas va
jo i##</w>
is mi##</w>
har ki##</w>
happ en</w>
el in##</w>
da mag##</w>
cur r##</w>
alu ksi</w>
OLA F</w>
K olum
F in##</w>
C ol
vaikutu ksia</w>
u ine</w>
tun te##</w>
traff ic##</w>
s o##</w>
o tta</w>
maase udu##</w>
läh te##</w>
kom ite
koh ta
keskust ella</w>
ke l</w>
immä is##</w>
il me##</w>
ett ava##</w>
emm e##</w>
dec ide</w>
bo ard</w>
ar t##</w>
ann oun
ab le##</w>
Kan sa##</w>
B ru
B o##</w>
väl istä</w>
vi en
var mis##</w>
valm is</w>
ty mä##</w>
tull ut</w>
ss els</w>
sosiaal itur
sopim usten</w>
sc ale</w>
olo g##</w>
ol eva</w>
neu vo##</w>
m ob
ko ko
kann an</w>
it si##</w>
hom e</w>
frau d</w>
exp lo
er g##</w>
epäil y##</w>
en i##</w>
con du
alu e##</w>
aino a</w>
a su
Ko rea##</w>
Ital ia##</w>
Bru ssels</w>
ä n##</w>
yhd istä##</w>
vars in</w>
tuke e</w>
tu ho
tu a</w>
toimin ta</w>
ta minen</w>
struc tural</w>
si vu##</w>
s ala##</w>
res er
rajo it
pä ä</w>
puolu een</w>
pr om##</w>
pensi on</w>
ma s</w>
lin k##</w>
käyttö ä</w>
kär si
kustann ukset</w>
jud ici##</w>
itta va##</w>
he s##</w>
em b##</w>
ei ght</w>
d or
ap point##</w>
a te
P ak
Mon t##</w>
Inter net##</w>
E C##</w>
Br y
wh ere##</w>
w on
väl ttä##</w>
väl it##</w>
vä hi##</w>
viranoma iset</w>
va a##</w>
v enti
tu lla</w>
po is</w>
oikeud et</w>
oc rat##</w>
matkust a##</w>
lan gu
kulj etta##</w>
ksi lle</w>
kesk itty##</w>
ke ino##</w>
ig n##</w>
histor ia##</w>
fir m</w>
ett ei##</w>
e w##</w>
ch iev##</w>
ca us##</w>
aj a
Macedon ia</w>
Dem ocrat##</w>
wor d</w>
wh om</w>
wee k##</w>
wa ste</w>
vic tim##</w>
v ed
tull e##</w>
tte ko</w>
tett y</w>
te o##</w>
te et</w>
sat is##</w>
politiik asta</w>
mi grant##</w>
metho d##</w>
maail man##</w>
l ic##</w>
k kuu
k kojen</w>
instituti onal</w>
infrastruktu uri##</w>
il mi</w>
etu ja</w>
et y##</w>
ehdotuks esta</w>
edell is##</w>
arran ge##</w>
Ukra ine</w>
Ger man##</w>
B la
: ssa</w>
8 0</w>
2 3</w>
ä mis##</w>
ver ko
tuotan to##</w>
to tal##</w>
to isen</w>
säänn ö
s p##</w>
ru g##</w>
pl ann##</w>
muuto s##</w>
mu ista##</w>
merkittä vä</w>
main tain##</w>
maail massa</w>
kiel tä##</w>
isuu s##</w>
i g##</w>
hu oma##</w>
ess a##</w>
comple te</w>
ase massa</w>
u u</w>
tu o</w>
tavoitte ita</w>
tas on</w>
reser v##</w>
re a</w>
prof essi
ol e
n ime##</w>
mov ##</w>
mob il##</w>
men d</w>
maa han##</w>
koti maa##</w>
koke mu##</w>
ki en</w>
it etta</w>
ho ito##</w>
gre e
g er
että vä##</w>
d y</w>
crim i##</w>
alu e</w>
ala a</w>
Al ban
. .</w>
vuo teen</w>
v ital</w>
tt o
to iseen</w>
sp read</w>
prop or
os itta##</w>
o stu##</w>
n au
laaj e##</w>
kär si##</w>
ks esta</w>
komit ea##</w>
jou st
jat ku##</w>
j en##</w>
iv i##</w>
huol ehti##</w>
f all##</w>
ex act##</w>
est e##</w>
busin ess##</w>
En vir
A gree
yhteis kunnallis##</w>
y on
vapa a
ur an
työsken tel
tu sti</w>
tt e##</w>
ta ck
si x</w>
sa an
re mind</w>
päätöks en
par e##</w>
pa id</w>
p ack##</w>
na me</w>
mul ti##</w>
la adi##</w>
kump pan##</w>
komite an</w>
kil l##</w>
joh d##</w>
id ence</w>
het k##</w>
he ad##</w>
cap ##</w>
cam pa
Y ugosla
WT O##</w>
Envir on##</w>
ö mä##</w>
wr it##</w>
väl itt
välitt ömä##</w>
uudelle en##</w>
ur he
täy ty##</w>
tekniik an</w>
tarkast ele##</w>
sid e##</w>
sa ast
poh ti##</w>
kysym yksiin</w>
k ää
he ar</w>
for ##</w>
ex tr
elä ke##</w>
e k
cor por
Meksi ko##</w>
M or##</w>
Col om
toteu tu##</w>
sovel tamis##</w>
sa ma</w>
ref er</w>
ra te##</w>
ra d
os ku
osku s</w>
oper ate</w>
lim it</w>
legit im##</w>
laati ma##</w>
la w##</w>
kok ous</w>
jat ke##</w>
j oskus</w>
h a</w>
gra t##</w>
ff ##</w>
enemm istö##</w>
dis crimi##</w>
d ate</w>
Fisch ler</w>
yl it##</w>
wel come##</w>
vih re
velvo it##</w>
vast uu</w>
vaike u##</w>
uran ium</w>
ttom an</w>
tied ä</w>
th ou##</w>
suunnit el##</w>
st on</w>
sor t</w>
sitou mu
simil ar</w>
s ession</w>
ratkais u</w>
or m##</w>
o c##</w>
mo d##</w>
la st##</w>
käsittel evä##</w>
kä ä</w>
kysymyks et</w>
ka tta##</w>
ik o##</w>
id ent</w>
hd i##</w>
g a##</w>
ec e</w>
eas i##</w>
cri b##</w>
compens ation</w>
as k
Gre ece</w>
Americ a</w>
ö iden</w>
to i</w>
sy y</w>
sh are##</w>
ra jat</w>
myö nn
markkino ille</w>
m ess##</w>
lää kke##</w>
käyte ttä
kan ta</w>
it y##</w>
istun n
is istä</w>
h ti##</w>
f all</w>
ex ist</w>
ener g
e ks
c are</w>
C 5</w>
yon d</w>
vi ita##</w>
va t
v än</w>
u mi##</w>
tu va##</w>
toim itta##</w>
tekijö itä</w>
sosiaalitur va##</w>
puh e##</w>
p ann
od a##</w>
mil jar
le hd
käy ttä
ist ö</w>
interpre t##</w>
gra mm##</w>
elm i##</w>
ed er
e f</w>
con cept</w>
be yond</w>
avo id</w>
ain eiden</w>
aih etta</w>
Pro gramm##</w>
Pe ople</w>
Palest in
Ma a
E T
C o##</w>
Amer i##</w>
Al ger
u a</w>
tu minen</w>
st o</w>
si ja
rajo it##</w>
pl ant##</w>
näkö kul
markkino illa</w>
l ta##</w>
jä ä</w>
ha aste##</w>
ens in</w>
de sign##</w>
W or
S outh</w>
Isra el##</w>
Hu man</w>
E L
B an
A f
äär immä##</w>
yd in##</w>
väest ön</w>
vuos itta##</w>
un i
tarv itta##</w>
sanott u##</w>
päätöksen teko##</w>
pa t##</w>
lä p
leag ue</w>
ks u##</w>
ken e##</w>
ka t
int end</w>
in him
inhim ill##</w>
f t##</w>
f ish</w>
er o
el le
compet itive##</w>
comb in##</w>
br u##</w>
b ill##</w>
aloitte en</w>
ab ilities</w>
N a
Fun d##</w>
Bry ssel##</w>
1 7</w>
yks essä</w>
vat ko</w>
valm istelu##</w>
uud et</w>
us e
tä viä</w>
tuot annon</w>
torjun ta##</w>
tie tojen</w>
thir d##</w>
ten sa</w>
ta ul
st er</w>
s av##</w>
regula tor##</w>
ratka ista</w>
rat ing</w>
puol ten</w>
pla ce##</w>
mu u##</w>
mu t##</w>
min e</w>
min e##</w>
merkittä vi##</w>
mahdollisuu det</w>
la it##</w>
kuu kau
kuukau d##</w>
kiinn it##</w>
ker ro##</w>
ke i##</w>
jou kko##</w>
it age</w>
glob al##</w>
esit etty</w>
enti re##</w>
e th
e e</w>
c oh
c al
anc ing</w>
al i
aika taul
H ea##</w>
F ra
1 .</w>
yhdenmuka ista##</w>
vak av##</w>
saat a##</w>
saa tava</w>
puheenjohtajavalti o##</w>
per f
ma ita</w>
lu vu##</w>
kri isin</w>
kka ita</w>
him o##</w>
exp la##</w>
el se</w>
crit ical</w>
cre te</w>
bod ies</w>
S ol##</w>
P ub
C A
B ö
Agree ment</w>
9 1</w>
2 7</w>
u ja##</w>
tu s
toim ista</w>
to i##</w>
si joitta##</w>
saf e</w>
s ä##</w>
r n##</w>
puol esta##</w>
pala u##</w>
n aan</w>
määr it
k ka</w>
int ens##</w>
in i##</w>
i an
esit ä##</w>
esit ety##</w>
e es</w>
cap ital</w>
c os
asio ihin</w>
Pub lic</w>
NAT O</w>
yhteis kunta##</w>
uud ist
tosi asia##</w>
to ista</w>
teho kkuu
tarv itse</w>
tal o##</w>
ta ha##</w>
sur pr
surpr is##</w>
produ ct</w>
ol la##</w>
ol in</w>
no sta##</w>
laat u##</w>
kasva tta##</w>
istunn ossa</w>
industri al</w>
im mun##</w>
i ra
her ät##</w>
gu e##</w>
exper t##</w>
doub t##</w>
del iv
d ivers##</w>
c ut</w>
attemp t</w>
S ecu##</w>
Rus sia</w>
Ira q</w>
E l</w>
yhteen kuulu
vaar a##</w>
ur aani##</w>
u te##</w>
työ ttö
tod en
toden näkö
todennäkö i##</w>
tilante eseen</w>
tied ot##</w>
th or
suojel e##</w>
sor kka
poliitt isia</w>
perint e##</w>
pain o##</w>
ke hy
k in##</w>
ha s##</w>
en orm##</w>
di pl
compreh ensive</w>
ac qu
Pap er</w>
L ä
Afr ika##</w>
vo c##</w>
vir all##</w>
va i
ttä isiin</w>
tekijä n##</w>
ta mista</w>
siir tymä##</w>
se ktor
r iv##</w>
pää sy##</w>
puol et</w>
p t</w>
oikeu te##</w>
ni ght</w>
miel i##</w>
main tain</w>
len to##</w>
lainsäädä nnö##</w>
istun to##</w>
fron ti
d ition</w>
ch en##</w>
as kel</w>
So cial</w>
Sch eng
In d
E tel
Ch r
y ttä##</w>
y li
x em
urhe ilu##</w>
u p##</w>
sub mit##</w>
sop i##</w>
ratkais eva##</w>
rakente e##</w>
po is##</w>
pa ss
ohjel mien</w>
lan ko##</w>
laajen ta##</w>
la ill##</w>
hy l
ap pre
al us##</w>
ag ing</w>
acc ident##</w>
T ##</w>
S ol
A lanko##</w>
3 7</w>
ä sti</w>
yttä mis##</w>
yks e##</w>
x im##</w>
tu u##</w>
ttav at</w>
traff ic</w>
suo si
substanti al</w>
stand ar
st op</w>
so i##</w>
re turn</w>
qu e</w>
prom ise##</w>
politiik assa</w>
p. m##</w>
n one##</w>
lu enc##</w>
liitty mis##</w>
kala st
k im##</w>
inf luenc##</w>
if ##</w>
hallin non</w>
h elmi##</w>
gene ett##</w>
f in##</w>
ex erc##</w>
est en</w>
esit etty##</w>
epä ile##</w>
e y
corre ct</w>
char ac
be ar</w>
an sa
ad ap
U S</w>
Mexic o</w>
H e
A m
y ttä</w>
vi itta
tu ki</w>
th ought</w>
tau ti</w>
tapa a</w>
t old</w>
sopim uksia</w>
r ural</w>
päätö kset</w>
pyy de##</w>
pers on</w>
ord in
oike a</w>
m al
luettel o##</w>
la ter
kunn ian
kunnian himo##</w>
konflik ti##</w>
it or
im in
fin e</w>
f a
ex port##</w>
dist in
d ä</w>
aihe u
advanta ge</w>
G o##</w>
Etel ä</w>
1 2
wh at##</w>
ulo ttu
ulottu v##</w>
trans port##</w>
toiminta ohjelma##</w>
t ant##</w>
str ict</w>
stoc k##</w>
ro oli##</w>
rau ta##</w>
r ary</w>
pol l##</w>
periaatt een</w>
peria ate
oll o##</w>
o tettu</w>
mis sa</w>
koordino i##</w>
ko on</w>
keino ja</w>
it ud
eu vo
de e
b oo
att itud
an tama##</w>
Lu xem
Ch ar##</w>
v ol
u m##</w>
tuomioistu in</w>
tulo ksia</w>
ta ma</w>
sp ir
solv ed</w>
sequ ent##</w>
pää t
ple t##</w>
periaate tta</w>
p ing</w>
on a</w>
mon op
ma ihin</w>
le arn##</w>
kust ann##</w>
kor kei##</w>
kompromis si##</w>
ko ke##</w>
kil au
kilau su
kehitys yhteistyö##</w>
ka ud
jul kilausu
j un
ima te##</w>
im press##</w>
huu me##</w>
hel po##</w>
g ood##</w>
ev idence</w>
de plet##</w>
d an</w>
c over</w>
asem a</w>
alku per
Q u
Ge org
Alban ia##</w>
4 5</w>
yst ävä##</w>
ver s##</w>
va ka
v et
uu tta##</w>
ut ka##</w>
täy den##</w>
tä mme</w>
ty yd
toteu ttamis##</w>
ta po
sol ida
sisäll ö##</w>
ru o
rik ollisuu
repe at</w>
ratifio i##</w>
ran ge</w>
p ur##</w>
om a</w>
näkökul ma##</w>
monim utka##</w>
med ia</w>
ma ista</w>
käytt ö##</w>
kysymyks istä</w>
kir joit##</w>
kas v
järjest yksen</w>
jo issa##</w>
is ivät</w>
i m</w>
her itage</w>
ehkä ise##</w>
e ta</w>
cr op##</w>
comb at</w>
appe ar</w>
P o##</w>
Nor th</w>
Kre ika##</w>
I I</w>
A ss
wor th</w>
tt er##</w>
ti t</w>
tar pe##</w>
ss ani</w>
s ound</w>
rikollisuu den</w>
od ota##</w>
nähd ä</w>
myön tämis##</w>
menest ykse##</w>
m in</w>
l v##</w>
l in</w>
kunn o##</w>
knowled g##</w>
hel pp
har k
dra ft##</w>
co ordin
appre ci##</w>
announ ce##</w>
all o##</w>
ac knowledg##</w>
En g
D e
B os
1 9</w>
äänest ys##</w>
ä vä</w>
yy n</w>
yhteis ö</w>
wr ong</w>
viest intä##</w>
uu dis
uudis tamis##</w>
tra l</w>
toteu te
toteute ttav##</w>
te illä</w>
st at
sopim uksessa</w>
sig n</w>
ref lect##</w>
r un</w>
qu ota##</w>
päivä nä</w>
ou s
om en</w>
main itse##</w>
m illä</w>
m ar##</w>
ker ta
jou du##</w>
jon kin</w>
ist y##</w>
is issä</w>
if y##</w>
fl o##</w>
ex emp
ell isen</w>
ehdotuks et</w>
am ber</w>
alue elle</w>
alo ite</w>
allekir joitta##</w>
a in##</w>
R ule##</w>
Guin ea</w>
yhd yt##</w>
vä he
vien ti##</w>
vi it
var ma##</w>
valtu us
tä s
ty nyt</w>
tuleva isuuden</w>
toimenpit e
to issi
toissi ja
teki jö##</w>
tavoitte iden</w>
ta istelu##</w>
t onni##</w>
su ku
ra s##</w>
qu ant##</w>
pää asia##</w>
professi onal</w>
p tion</w>
mon th</w>
kö yhdyt##</w>
jul ka
j e
hu n</w>
gra d##</w>
gr ound##</w>
con o##</w>
at h</w>
an to##</w>
Yhd y##</w>
Mar k##</w>
H er
E cono##</w>
Afric a</w>
2 8</w>
yksin kerta
välin eitä</w>
tu oda</w>
to a</w>
ti ma
terve yd
tavoitte en</w>
tah to##</w>
respon d</w>
ra ise</w>
päätö sten</w>
pää ttävä##</w>
puh uja##</w>
ou th##</w>
maanviljeli jö##</w>
l o##</w>
kor ja##</w>
kes k##</w>
itta ma##</w>
is ta
ho id
hel l##</w>
ex port</w>
di men
des er
con firm##</w>
Pohjo is</w>
Ban k</w>
A g##</w>
ó n</w>
ä sk
äsk että##</w>
ä ni</w>
val it##</w>
vaar an##</w>
toiminn a##</w>
ti lo
te en##</w>
si a##</w>
see m</w>
ro kot##</w>
rauh an</w>
rapi d</w>
ra por
p es
o ta</w>
nop e
muu tama</w>
mel ko</w>
luon te##</w>
llis een</w>
le vi
kil o##</w>
ih in##</w>
h en##</w>
erä ä##</w>
en ter</w>
em pää</w>
de ssa##</w>
con stitu
atu zz
asiantun ti
ar r
ann ettava</w>
a o##</w>
Wor ld</w>
C ar##</w>
B el##</w>
viljelijö iden</w>
vihre ä##</w>
vi i##</w>
ver kko##</w>
te istä</w>
suunnit elma</w>
st ro
spir it</w>
sa ira
pub lis
pit o##</w>
pan e##</w>
p has##</w>
ous ly</w>
ne w##</w>
na ud
miljar di##</w>
menet el
m pa
lausu n
kir ja</w>
kehity s</w>
i pu
fe ed##</w>
defin e##</w>
cre d
cl im##</w>
ca t##</w>
ass u
ans wer##</w>
ala isten</w>
advanta ge##</w>
Turk ki</w>
: ##</w>
2 6</w>
whil st</w>
var ma</w>
vaatimu ksia</w>
tois en##</w>
tod ista##</w>
thre at</w>
tavoitte e##</w>
t in
sub ject##</w>
ss e
soker i##</w>
se par
saat u</w>
pros es
proses sia</w>
p yö
op u##</w>
ongel mien</w>
min kään##</w>
li it##</w>
in form</w>
id ea##</w>
i vo
g er</w>
for c##</w>
etta isiin</w>
eläk elä
eläkelä is##</w>
e il##</w>
d ata</w>
conc ent##</w>
be ef</w>
av un</w>
asem an</w>
arvio inti##</w>
ab us##</w>
P a
F atuzz
D R</w>
7 1</w>
0 5</w>
y er</w>
velv ollisuu
val ta</w>
vaiku ttava##</w>
ty ö</w>
tr ust</w>
tark ka
ta ist
repe at##</w>
rel ig##</w>
prof ess##</w>
os asto##</w>
me ts
maail ma##</w>
lu opu##</w>
lis ään
later al</w>
ke t
ka mp
ja tta##</w>
intro duce</w>
hallin no
etu n</w>
en ter
ehkä is
clas s##</w>
b i##</w>
ati c</w>
ar m</w>
ac y</w>
Tra d##</w>
So cial##</w>
PV C##</w>
N et##</w>
Gre en</w>
vakuu tta##</w>
va kau
tö miä</w>
tark istus</w>
rik ko##</w>
re hu##</w>
min or##</w>
miel en
lu ov
lop etta##</w>
leg al##</w>
kuuka usi##</w>
inno v##</w>
initi al</w>
hä v
hil jatta##</w>
ele ment##</w>
deta il</w>
condem n##</w>
conclu de##</w>
am ong##</w>
al ist##</w>
L am##</w>
Kolum bia##</w>
E x##</w>
9 4</w>
yle ensä</w>
va i##</w>
uud istus##</w>
u tion</w>
tapahtu ma##</w>
ta stro
t elu##</w>
suunn a##</w>
strateg i
str ö
sov ell
s ke##</w>
s in</w>
reg ret</w>
re duce##</w>
rapporte ur##</w>
r ann
or ies</w>
mu ista</w>
mp ien</w>
m et</w>
lev ittä##</w>
käytt ö</w>
koske mat##</w>
kohd at</w>
kee p##</w>
kansan terveyde##</w>
ka tastro
investo inti##</w>
inc enti
incenti v##</w>
gener al##</w>
esimerk ki##</w>
en dor
elim in##</w>
e ko</w>
b our##</w>
b le</w>
avo im
attitud e</w>
ap art</w>
al ku##</w>
M c
L am
I t##</w>
C osta</w>
B ur
5 5</w>
12 .##</w>
1 7
w el##</w>
ti i
tii vii##</w>
see k</w>
rajo i##</w>
puu t##</w>
polic e</w>
paik ka##</w>
p t##</w>
no sta</w>
muuto ksia</w>
mu kau
mieli pi##</w>
man date</w>
kr ite
jul k##</w>
ic al##</w>
gr ant</w>
ex cl
excl us##</w>
ehd i##</w>
cop y##</w>
c lu
bur g</w>
alu etta</w>
Bel g
B ri##</w>
yrity ksiä</w>
u te</w>
ty vä##</w>
tied on</w>
tie tä##</w>
re present</w>
pre z</w>
pe to
pap er</w>
os aa</w>
m y
liik ke
le mis##</w>
le ct</w>
kuu lemis##</w>
ktiiv is##</w>
k kää##</w>
i j
happ y</w>
h ab
ett e##</w>
ehdotuks essa</w>
edell yty
dis ast
confl ict##</w>
c ul##</w>
a ktiivis##</w>
T h##</w>
S i
De prez</w>
C h##</w>
wa it</w>
viik ko##</w>
tr ies</w>
to iv
tied e##</w>
tapa us</w>
ta sa##</w>
se en
se a</w>
res ur
pos ition##</w>
ponn istelu##</w>
per usta</w>
ord in##</w>
offic ial</w>
nt i</w>
mets ä##</w>
lau gh
lab el##</w>
la un
käytettä vissä</w>
järjestel mien</w>
ja s##</w>
is en##</w>
in a
ili ation</w>
edist e##</w>
eas y</w>
da m##</w>
conc iliation</w>
alo ite##</w>
Mac ##</w>
D en##</w>
Colom bia</w>
C or
A C##</w>
ä ske##</w>
vir ka##</w>
ve h
val la##</w>
tt y
transf er##</w>
temp o##</w>
teki jä</w>
strateg ian</w>
sop iva##</w>
sel vä</w>
sa ira##</w>
rakenn us##</w>
pää s##</w>
pos t</w>
pid ettävä</w>
ov em##</w>
n ation##</w>
min ä##</w>
merkity kse##</w>
lou kka
len to
käytä vä##</w>
ky seen
kans o##</w>
i ent##</w>
huolest u##</w>
fronti er</w>
equ ate</w>
eläk ke
des crib##</w>
defin ition</w>
conclu de</w>
col lect##</w>
ch a##</w>
aiko ina</w>
T anska##</w>
N ovem##</w>
J ap
Chr ist##</w>
Bud get##</w>
Ass emb##</w>
vall at</w>
tä hd
tu omio##</w>
tt an
tr u##</w>
tol er##</w>
tack le</w>
sup er##</w>
si jo
s vallat</w>
ro ko
rav into##</w>
puhem ie
pass eng
parha a##</w>
p ika##</w>
oikeus perusta##</w>
ob tain</w>
määrä ä</w>
muka inen</w>
mu s</w>
merk it##</w>
kri isi</w>
im pose##</w>
ig n
i gh
huol en
for get</w>
fav our##</w>
f are</w>
ext end</w>
er in##</w>
elim et</w>
ch e
bi g</w>
ai l</w>
a u##</w>
Y ##</w>
S a##</w>
Ma y</w>
Bos n
vähe mm
viest i##</w>
vi ivo##</w>
vaik utuks
vaikutuks et</w>
v an##</w>
transf er</w>
tiedo tus
suosi on
suosion osoit##</w>
sour ce</w>
sano ttava</w>
s ala
rajo jen</w>
päiv ä</w>
puolust us##</w>
ob oda</w>
nä h##</w>
ny ky
nn än</w>
ma xim##</w>
läh tö
lap si##</w>
la id</w>
kol mas</w>
ka ttava##</w>
ka h
k estä##</w>
it us</w>
is o##</w>
ill ä##</w>
hallin ta##</w>
g in##</w>
fri end##</w>
fin d##</w>
f alu
falu ss
ex change</w>
enn alta</w>
en ing</w>
arvioid a</w>
ar k
ar ies</w>
a g##</w>
P at##</w>
G ö
EL DR</w>
: tä</w>
3 5</w>
yks istä</w>
vis it</w>
vapau tta</w>
us i</w>
tra dition##</w>
tekn ologia##</w>
tarv ittava##</w>
suunta vi
stat istic##</w>
spe ed</w>
solida ar
ro kra
radi o
radio aktiivis##</w>
pä te
publis h##</w>
politiik kojen</w>
mma ksi</w>
mar ras##</w>
läs nä</w>
le h
la w
l ic
käytö ssä</w>
kysymyks en##</w>
id a##</w>
hank ke##</w>
f ound##</w>
el tiin</w>
cy c
cen tral</w>
ca use##</w>
ass ure</w>
Ser b##</w>
C y
9 3</w>
yrity s##</w>
y ö</w>
verko sto##</w>
venti on##</w>
uu dis##</w>
u oto##</w>
ttav aa</w>
tra vel</w>
tr o
tou ko##</w>
si v
si e
san d##</w>
s en##</w>
paik koja</w>
offic ial##</w>
off ice</w>
ob vious</w>
nel jä##</w>
ne itä</w>
määr än</w>
min d##</w>
mi esten</w>
liik e##</w>
kuol em
koh tuu##</w>
kas vien</w>
ka h##</w>
its eva##</w>
inv it##</w>
in k##</w>
hä tä##</w>
esimerk ki</w>
ci p
by rokra
bur den</w>
ap par##</w>
anal yy
a ma##</w>
T set
S E</w>
Palestin ian</w>
P er
Ind us##</w>
Cy pr
ö l
vähen tämis##</w>
valvon ta</w>
val o##</w>
v is</w>
ul tima
thre at
ter ve##</w>
teollisuu s</w>
te iltä</w>
ta kaa##</w>
suur en</w>
siz e##</w>
scho ol##</w>
r inn
pros pec
pri or
pre f
politiik ka##</w>
os uus</w>
op pose##</w>
naud an
mu m</w>
ll ään</w>
lausu nn
kiinti ö##</w>
ki it
is u##</w>
ind ik
indik aatt
ik ko##</w>
foc us##</w>
de ath</w>
aikataul u##</w>
aff ect</w>
N at
Fatuzz o</w>
D an
yksinkerta ista##</w>
wat er##</w>
wa it##</w>
v uus</w>
tär ke##</w>
tu neita</w>
tra g
toim i</w>
tell en</w>
tel ev
teh ty##</w>
st ory</w>
siir to##</w>
re ag
päätö stä</w>
päiv än</w>
ponn ist##</w>
poli isi##</w>
plic ation##</w>
p h
onn is##</w>
olog ies</w>
oikeu teen</w>
occasi on##</w>
o jen</w>
myö h
mp a##</w>
mis essä</w>
lää ke##</w>
la aja</w>
käynn istä##</w>
kri itt##</w>
komit ea</w>
kohd assa</w>
järjestelm ä##</w>
is em
id ä##</w>
i p##</w>
fron t</w>
fe el##</w>
erä s</w>
epä onnis##</w>
e ett##</w>
dela y</w>
comb at##</w>
cho ice</w>
ch ance</w>
c ust
Tset sen
N S</w>
G al
BS E##</w>
yhteist yö</w>
vin vo
val taa</w>
v it##</w>
v it
un ivers##</w>
toimenpit eet</w>
tied ot</w>
talou tta</w>
selke ä</w>
ranga istu##</w>
ra ha
per i##</w>
par as</w>
o it##</w>
nn assa</w>
myöh ä##</w>
mm eko</w>
mietinnö stä##</w>
läp i</w>
käs ity
kysymyks estä</w>
ko t
ki ell
ka sta</w>
j an##</w>
hy vinvo
hy lä##</w>
di g
charac ter##</w>
b ro
am ma
a id
P er##</w>
En erg##</w>
C ar
y er##</w>
we a
välin e</w>
vuod esta</w>
vol un
vastuu n</w>
valti on##</w>
v ice</w>
työsken n##</w>
tuott aj
tila sto##</w>
tar ke##</w>
schem e</w>
ra ja</w>
prosen tin</w>
prof it##</w>
par ent</w>
osa puolten</w>
ne igh
n ess##</w>
mo ott
lu e##</w>
ll äni</w>
ll ä##</w>
liik a##</w>
le ase</w>
laaj en##</w>
j au
is illa</w>
invest oi##</w>
i el##</w>
h und
h te
g an
f r##</w>
dela y##</w>
bu rea
attemp t##</w>
asso ci
ac k</w>
Rus sia##</w>
G ene##</w>
yy teen</w>
yhti ö##</w>
ten a</w>
sul ke##</w>
stand ard</w>
st er
s outh##</w>
s ett
riippu va##</w>
respon d##</w>
re mark##</w>
rau ha##</w>
r isti##</w>
qu a##</w>
po s##</w>
on eu
na ap
monit or</w>
markkino ita</w>
lu u##</w>
käytä ntö##</w>
kysymyks essä</w>
koordino inti##</w>
jo ki##</w>
integra te##</w>
in ta##</w>
explo it##</w>
enti al##</w>
enter pr
ent er##</w>
emph asi
emphasi s</w>
ehdotuks een</w>
dest ro
d estä</w>
corre ct##</w>
comple x</w>
alkuper äis##</w>
ala inen</w>
aj oneu
W h
Bel gia##</w>
yrity ksille</w>
yr ite##</w>
yr i##</w>
wi th
väk ivalta##</w>
viis umi##</w>
vars ina##</w>
vaatimu kset</w>
u den</w>
täy d
ty pe##</w>
te st</w>
st ood</w>
poikke ukse##</w>
peria ate</w>
ol d##</w>
no ja##</w>
mod ern</w>
m ää
la in</w>
kysymy sten</w>
kr itiik
id e
f eder
et si##</w>
et elä##</w>
en jo
el im##</w>
da ali##</w>
c at
bar ri##</w>
arvo st
am er
ajan kohta##</w>
a h
NG O##</w>
C NS</w>
Banglades h</w>
ö jä</w>
ä l
yksi kk
y stä</w>
vähemm istö##</w>
väh intä##</w>
veh ic
tä isi</w>
työ llis##</w>
tuott eita</w>
tu ho##</w>
tu han
teur ast##</w>
te eseen</w>
stu ff##</w>
str ik##</w>
ss ään</w>
sov i##</w>
siir r##</w>
sat is
san otu##</w>
rajo ja</w>
r ound##</w>
num er##</w>
ne g##</w>
n s</w>
mmä lle</w>
me kan
käytö stä</w>
kunn alle</w>
kohd e##</w>
in spect##</w>
im p##</w>
ik ka</w>
hava i##</w>
fun d</w>
fo rest##</w>
el tu##</w>
dimen sion</w>
b an##</w>
amer ikk##</w>
af ter##</w>
Tsetsen ia##</w>
G ar
C O
4 2</w>
2 1</w>
ö istä</w>
yksi kö##</w>
ust r
us ko
uh ri##</w>
työsken tele##</w>
turvallisuu teen</w>
tur s
tu ne
te m##</w>
te ki</w>
tapa uksia</w>
taka isin</w>
säil yttämis##</w>
sosi al
sil ti</w>
san oma##</w>
ren ew##</w>
päätöslaus elma</w>
päät el##</w>
pää stä##</w>
py syvä##</w>
ponn ist
per spec
pan kin</w>
pal kki
ole ell##</w>
o il</w>
määrä yksiä</w>
mä stä</w>
mä ssä</w>
mater ial##</w>
mahd ot
lu j
liitt o##</w>
k id
järjest ön</w>
is iksi</w>
gre e</w>
f our##</w>
er i
elm ä</w>
de gree</w>
d on##</w>
conf us##</w>
ask ele##</w>
al en
ajoneu vo##</w>
ajatt ele##</w>
ad o
a sta##</w>
a jo##</w>
S t##</w>
P SE</w>
N or##</w>
G en
A ustr
3 3</w>
1 .##</w>
väär in##</w>
vasta av
va l</w>
u tta</w>
u fac
ttav ia</w>
sen s##</w>
s em
ra ge##</w>
pyr kim##</w>
poli it
pid e</w>
p lu
ongelm ista</w>
ol es
oc cu
occu p##</w>
muka isia</w>
löy d##</w>
lab or##</w>
kustann usten</w>
kaup paa</w>
kap pal
iv il##</w>
i gh</w>
hu omi
h inn
gen e##</w>
finan ce##</w>
ex cess##</w>
er y</w>
ell i##</w>
e e##</w>
dis pos##</w>
com pli
com mend</w>
c ivil##</w>
b our</w>
b ind##</w>
alue ille</w>
ala isen</w>
P att
Li be##</w>
K OM</w>
Irlan n##</w>
Gö te
Direc tive</w>
yy s</w>
y ttävä##</w>
vaikutu s</w>
us oikeus
tä h
tulo kset</w>
tte ja</w>
trans it##</w>
tom uuden</w>
te tta##</w>
t onta</w>
su hd
strate gia##</w>
rah a</w>
r ä
pyy ntö##</w>
pre ce
prece d##</w>
per usoikeus
ott o##</w>
o to</w>
men et##</w>
lis ään##</w>
kä teen</w>
kes ä
kertom uksen</w>
kan a##</w>
j al
is in##</w>
is aatio##</w>
heik en##</w>
he av##</w>
g an##</w>
e ir
char ge##</w>
brie f##</w>
basi c##</w>
Yugosla v##</w>
Tamper e##</w>
Qu est
Or gan##</w>
Maa il
Ky oto</w>
Göte bor
D A</w>
ö no
yhteenkuulu v##</w>
velvollisuu s</w>
valv onn
valvonn an</w>
vaal e##</w>
us ko</w>
uksi lla</w>
tr al##</w>
to ive##</w>
tiu ka##</w>
tel laan</w>
talou s</w>
ta usta##</w>
ta sa
sy nn
sul j
suku pol
struc tur
strateg ia</w>
sosial isti##</w>
seur anta##</w>
se t##</w>
po st##</w>
p ö
ott i</w>
ohjel maa</w>
ny a</w>
naudan liha##</w>
muu nn
mietinnö ssä##</w>
maks u
lä mp
käyttö öno
kustann uksia</w>
kos me
kon e##</w>
kiel täyty##</w>
ki into##</w>
järjest öt</w>
jo in</w>
its em
is a##</w>
huolest u
huol ehdi##</w>
for th##</w>
expla in</w>
ele ment</w>
ed ellä</w>
di vid##</w>
ch nya</w>
ch air##</w>
ca te
ase maa</w>
Strasbour g</w>
Götebor g##</w>
Con su
yh tä
volun tar##</w>
vasta an##</w>
vapaa eh
vapaaeh tois##</w>
tämän päivä##</w>
tu ista</w>
to p</w>
tarkoit ukse##</w>
t ensi
su it##</w>
sor kka##</w>
sol mi##</w>
saan e##</w>
piir iin</w>
paik alla</w>
p k</w>
oma ksu##</w>
muu to##</w>
mon ta</w>
me t
mat ka
lo c##</w>
l ti</w>
l ess##</w>
käy tä##</w>
kor jaa##</w>
kann usta##</w>
il e</w>
hy vin##</w>
for mu
et c</w>
don esi
arvo st##</w>
ar vo</w>
appe al</w>
am ple##</w>
V al
Tamper e</w>
In donesi
Consu mer</w>
CA P</w>
yks i##</w>
won der</w>
val i##</w>
tuks een</w>
to istu##</w>
tett y##</w>
sää tä##</w>
sov ittelu##</w>
sel ke##</w>
sel it##</w>
sec ure</w>
s po
resid ent##</w>
pä is##</w>
puol ella</w>
pros ecu##</w>
poh jo
pohjo is##</w>
pitä vä##</w>
perf ect##</w>
pe ä##</w>
op pos
on ic</w>
moott ori##</w>
lin e##</w>
lausun to##</w>
la under##</w>
ky sy
kul ke##</w>
ku n##</w>
kokou sta</w>
ko ti##</w>
ki er
kans an</w>
järjest ys##</w>
johta ja##</w>
im e
har joit##</w>
h ard##</w>
er otta##</w>
er n##</w>
e dessä</w>
corpor ate</w>
cor d</w>
condu ct</w>
chec k##</w>
campa ign</w>
buil d</w>
as et##</w>
an to</w>
ad vis##</w>
Z im
Pr ime</w>
O c
Ital ian</w>
6 3</w>
yl im
yhtä lä##</w>
vi e##</w>
val ku
uu dessa##</w>
u su
työ voima##</w>
turs ka##</w>
tod iste##</w>
suhte ita</w>
suhte iden</w>
strö m</w>
se et</w>
sa avu
rik o
prote in</w>
po hdi##</w>
pit e##</w>
pet o##</w>
p om
p ic
op et##</w>
o ista</w>
o in##</w>
n cies</w>
mil loin</w>
löy ty##</w>
la isesta</w>
ku ka</w>
kesä kuu##</w>
jäl j##</w>
itte e##</w>
ima gin##</w>
huolen aihe##</w>
hi en
hankke ita</w>
fun ction##</w>
fe ar</w>
exc lud##</w>
el l</w>
e w</w>
deb t</w>
cla im##</w>
cau tion##</w>
brea k##</w>
b la
b ase</w>
asso si
am an
P os
Ki oto##</w>
K au
G U
A s##</w>
A m##</w>
väär is##</w>
vah va##</w>
usk onn
uks elle</w>
turvallisuu s</w>
tur vaa##</w>
tul i</w>
tu ote##</w>
tu kien</w>
su ku##</w>
structur ing</w>
strategi aa</w>
ristiri ita##</w>
ri ida##</w>
ren d
pää oma##</w>
pu ite
p ill##</w>
orig in</w>
oles k
mää ri
mä ttö
mä t</w>
menettel y</w>
menet elmä##</w>
me idät</w>
markk ina</w>
läh tö##</w>
li ittä##</w>
laad un</w>
la iseen</w>
ks issa</w>
jäl ke##</w>
j ur
i ina##</w>
hark itse##</w>
ga in</w>
f if##</w>
enn ak
ennak ko##</w>
eh rend
da i##</w>
cos me
b road##</w>
av ain##</w>
ansa itse##</w>
Scheng en##</w>
S ea</w>
Oc to##</w>
OLA F##</w>
M id##</w>
Ky pro
GU E</w>
B ehrend
vä ittä##</w>
vir he##</w>
viis a##</w>
valmist el
v olu
v illa</w>
utu a</w>
tä vien</w>
tu nti##</w>
tu misen</w>
ta an##</w>
suo stu##</w>
su osi##</w>
st ac
si hte
raho jen</w>
raho ja</w>
op etu
ob stac
näke m##</w>
nou se##</w>
mpä ä</w>
mielen kiinto##</w>
mie s##</w>
me d##</w>
mas s</w>
li a</w>
lainsäädä ntö</w>
la sten</w>
kuu le##</w>
kamp an
k ist
jä ll
ign or##</w>
h i</w>
g or
ess ani</w>
equ ip##</w>
elä män</w>
dr ive##</w>
citiz en</w>
cate g##</w>
b a</w>
ar ise</w>
al loc##</w>
S ep
Re g
Pos sel
Palest iina##</w>
K or
F O
Alger ia##</w>
A ra
, 5</w>
z one</w>
yks ellä</w>
yhteis päätös##</w>
väl ittä##</w>
vi ivä
vapa us</w>
u m
tämän hetk##</w>
tol ais##</w>
ta a
t ress##</w>
safegu ard##</w>
ris ke##</w>
puutte ell##</w>
pro ceed##</w>
pann a</w>
p p##</w>
op tim##</w>
onn ittele##</w>
nu ore##</w>
mu na</w>
minist erin
ministerin euvo
liber aali##</w>
l ie
invol ve</w>
inc e##</w>
heal th##</w>
grap h##</w>
g ot</w>
er o</w>
el ta##</w>
desi re</w>
def ic
c tion</w>
ati for
associ ate##</w>
asem a##</w>
arvi o</w>
ann ettu</w>
alue et</w>
ad voc##</w>
aa muna</w>
Strasbour g##</w>
S ec
P o
K atifor
H O</w>
Bus h</w>
9 2</w>
öl j
vä ä</w>
van sa</w>
ty ä</w>
tiedotus väline##</w>
tel e
teki jä##</w>
te ttävä</w>
te ollis##</w>
t yh
sta y</w>
ss i</w>
si vat</w>
rik o##</w>
re hell##</w>
pro to
perust elu##</w>
per form##</w>
pel kää##</w>
pakol l##</w>
or po##</w>
nn asta</w>
nel jä</w>
neigh bour##</w>
n it
monim uoto##</w>
med ic
me ja</w>
llis esta</w>
lis t##</w>
langu age</w>
l er##</w>
kir jan</w>
kalast uksen</w>
ka asu##</w>
k en</w>
it le##</w>
h y</w>
enterpr ise##</w>
en de
ende av
ehdo ttama##</w>
asian oma##</w>
asetu s</w>
al usten</w>
S M
Pro di</w>
Mac ao##</w>
I V</w>
Gen ev##</w>
Cypr us</w>
2 9</w>
z io</w>
voima kk##</w>
viit taa##</w>
ur y</w>
ultima te##</w>
tämä n##</w>
tervey den</w>
suhte et</w>
seur aa</w>
s ki</w>
ryhmä t</w>
ro oli</w>
ratka ista##</w>
ra hasto##</w>
ra han
rahan pes
päätöks en##</w>
pol tto
pid em
om ia</w>
oikeu tettu##</w>
mpa an</w>
main itsi##</w>
m itta##</w>
lo ka
lo ad##</w>
llisyy ttä</w>
liitty vä</w>
liik ku##</w>
la kka
l yö##</w>
l an</w>
kulj etu##</w>
keskust ella##</w>
ker ta</w>
kaud ella</w>
julkilausu ma##</w>
jud g
joust av##</w>
jou kkojen</w>
ja ks
j emme</w>
fiel d##</w>
extr a</w>
e pidem
e ar
dest ru
dang er</w>
d ic
d aan</w>
comm ittee##</w>
b om
ad just##</w>
Su om
NG L</w>
Ko rea</w>
F ish##</w>
Belg ian</w>
A L
ä ä##</w>
yks issä</w>
yhden tymis##</w>
viivä sty##</w>
tä neet</w>
tu kia</w>
tiedo tus##</w>
tic al##</w>
tan eet</w>
ta kaa</w>
säännö stö##</w>
sopim uksesta</w>
sa ttu##</w>
sa ta
s on##</w>
ri it
riit tämät##</w>
re su
re ject</w>
pää ministeri</w>
pl en##</w>
os an##</w>
ohj e##</w>
o g##</w>
mo de##</w>
men o##</w>
me al</w>
lää kin
loka kuu##</w>
lehd istö##</w>
laito sten</w>
kohd ista</w>
kiit oll##</w>
kehity kseen</w>
kans all
ina de
inade qua##</w>
h ill
etu t</w>
ess ä##</w>
en tä##</w>
en da</w>
e ase##</w>
cour t</w>
conta ct</w>
con sequent##</w>
ann ossa</w>
an ti
an sa</w>
amp ;</w>
ac ##</w>
a hd
Y R
T he</w>
Ser bia##</w>
S al
K es
He ad##</w>
Fra me##</w>
F YR
Am ster
& amp;</w>
yy destä</w>
y sa
var oi##</w>
vall o##</w>
vak ava</w>
va d
utu s</w>
tuks esta</w>
tuke va##</w>
tu tu
tutu stu##</w>
tila päis##</w>
tasa puol##</w>
tark ka##</w>
ta hd
t re
sup pose##</w>
separ ate</w>
saast u##</w>
reag oi##</w>
pää tö##</w>
po or##</w>
palkki o##</w>
p it##</w>
ne tään</w>
ne s##</w>
my y##</w>
men että##</w>
m massa</w>
m ille</w>
lif e##</w>
kin ta##</w>
ke ja</w>
kappal e##</w>
ist u</w>
inc orpo##</w>
he idät</w>
he art##</w>
f in</w>
encoura ge##</w>
dyna mic</w>
dis pu
destru ct##</w>
c ut##</w>
brie f</w>
b lo
asiakir ja</w>
aj an##</w>
ac tive##</w>
a u</w>
V itor
U N##</w>
Sal vad
Kypro k##</w>
F ree##</w>
Bus h##</w>
Amster dam##</w>
yleis ö##</w>
ydin voima##</w>
ust en##</w>
ur a##</w>
uksi lle</w>
tor sta
toissija isuus##</w>
toimenpit eiden</w>
tehokkuu tta</w>
te ista</w>
t onne##</w>
st y</w>
sorkka tauti##</w>
siir tolais##</w>
siir ry##</w>
sa apu##</w>
s cr
ratkais uja</w>
perspec tive</w>
pas s</w>
ott am
näkö kohtia</w>
nn issa</w>
n ed</w>
muunn ettu##</w>
mm istä</w>
mieli pit
mieh et</w>
ma ata</w>
la atu
käyte t##</w>
käy nti##</w>
kyv yn</w>
kuuka ut##</w>
kesk ity##</w>
katastro fi##</w>
kasv u</w>
jo ku</w>
in sur##</w>
i in
huoma a##</w>
he e##</w>
h aj
fam ili
ett y
be ar##</w>
av er
ar ch##</w>
ann e</w>
an no
H igh</w>
Eur o</w>
C a
3 2</w>
yh ty##</w>
y sten</w>
vi hd
vaih to##</w>
ud u
tulo s</w>
tu on
telev is
te i##</w>
syn tyy</w>
suor itta##</w>
su mm
st or
so dan</w>
sis t</w>
sanott u</w>
sa man</w>
run saa##</w>
rou s</w>
puol en</w>
pros essi
prosessi in</w>
ohjelm ia</w>
ne l</w>
n er</w>
mat ka##</w>
man age</w>
lo wer</w>
lin ja##</w>
laatu a</w>
kysymyks issä</w>
kuulu va##</w>
kuul u</w>
ku mma##</w>
kol og##</w>
kiel l##</w>
jä n##</w>
jo ille</w>
j our
is iin##</w>
in ä##</w>
im m##</w>
il u</w>
ib er##</w>
i i##</w>
hyvinvo inti##</w>
fin ance</w>
en force##</w>
ell yt</w>
een i##</w>
e jä</w>
cust om##</w>
avo id##</w>
assu me</w>
appro val</w>
ap e</w>
alu sta</w>
alo itetta</w>
aiheu ttama##</w>
C am
ö stä</w>
vis it##</w>
ver ta
vahin go##</w>
un it##</w>
työskentel y##</w>
tuott e
tuom it##</w>
tuks essa</w>
tekniik ka</w>
tarv etta</w>
syy ttä
se ikka##</w>
sa w</w>
re iter
py sty</w>
puite ohjelma##</w>
propor tion</w>
pri l</w>
oike uksista</w>
neuvo t##</w>
mo daali##</w>
mi a##</w>
man ufac
man n</w>
ma ille</w>
m yr
la i
l ö##</w>
ko e##</w>
kau pp
k er##</w>
inter modaali##</w>
inn o##</w>
in ais##</w>
i el
heik ko##</w>
etu sija##</w>
ed ut</w>
di gn##</w>
deter mine##</w>
as h
an ci##</w>
Pak istan##</w>
Nat o##</w>
M or
Isra el</w>
Euroop asta</w>
A pril</w>
. ..</w>
ä pitä##</w>
yll äpitä##</w>
wor se</w>
vapau te##</w>
u pu
tt ##</w>
tor ium</w>
tois in##</w>
threat en##</w>
te ttava##</w>
te ja</w>
te ihin</w>
ta so</w>
sym b
suoj ella</w>
sopim us##</w>
sopim ukset</w>
sisäl tyvä##</w>
si ksi##</w>
sett le##</w>
s ince##</w>
regula te##</w>
ref lect</w>
re v##</w>
re kist
pyr kim
poikke us##</w>
pel i##</w>
palvelu ja</w>
pa kko</w>
p us
organ is##</w>
or t##</w>
opin ion##</w>
ongel miin</w>
ny t##</w>
nu tta</w>
mu s##</w>
mattom ia</w>
ma att##</w>
lähtö kohta##</w>
liiken ne
lausunn on</w>
lai vast
kuljetu sten</w>
korva a##</w>
itt i##</w>
its ema##</w>
is empi</w>
ilma ise##</w>
ik o
i ght</w>
henkilö itä</w>
hankke iden</w>
hallit usten##</w>
experi ence##</w>
ent itle##</w>
enn a
endor se</w>
contra ct##</w>
coh erent</w>
cen tral##</w>
aver age</w>
ann o##</w>
al i</w>
af for
V a##</w>
yhte ens
yhteens ov
yhteensov itta##</w>
w ood</w>
väär in</w>
väh immäis##</w>
vuor o</w>
viljeli jä##</w>
veto a##</w>
vast ust##</w>
vapau teen</w>
top ic##</w>
toim isto##</w>
tilan te##</w>
t om##</w>
t end##</w>
sy d
stitu te</w>
st en##</w>
solidaar is##</w>
sisäl tö##</w>
sil mä##</w>
seik ka</w>
s ho
poltto aine##</w>
pi eni</w>
p ace</w>
om in##</w>
oikeud en
oh ja##</w>
nor mal</w>
no by
muod ostu##</w>
mit en##</w>
m ik
lin k</w>
la illa</w>
kärsi vä##</w>
korva us##</w>
kor ot##</w>
koh telu##</w>
jär ky
it si</w>
isyy ttä</w>
het ki</w>
g ing</w>
fi ght##</w>
fe ed</w>
ett i</w>
en immäis##</w>
ehdotu sten</w>
ed el
dyna am##</w>
del iber##</w>
dee p##</w>
de ksi</w>
compli ance</w>
com pat##</w>
co d</w>
ban k##</w>
b at##</w>
avoim uus</w>
asiantunti ja##</w>
asi an##</w>
ark alu
amma ti##</w>
al b
ac e##</w>
ac com
aa mmin</w>
Ni el
M an##</w>
Lä hi</w>
F or##</w>
E I
AL E</w>
1 5##</w>
we al
velvo itte
ut in##</w>
ul t##</w>
ul ar##</w>
täy si
tä v
työ markkina##</w>
tul ki##</w>
tar ve</w>
tapahtu va##</w>
ta b##</w>
t one</w>
t on##</w>
stor e</w>
st ab
si en</w>
raken tava##</w>
rahanpes u##</w>
r i</w>
puu v
perusoikeus kirja##</w>
per inn
paik kojen</w>
paho illa##</w>
nä ky##</w>
no te##</w>
mor a##</w>
mod al</w>
mattom an</w>
mal lia</w>
m on</w>
lämp im##</w>
laus el##</w>
l ose</w>
ky sel
ku va</w>
ke pt</w>
ke ino</w>
järjestel mään</w>
järjestel miä</w>
jol la##</w>
inf l##</w>
in t</w>
helpp o##</w>
g la
enna koi##</w>
el in</w>
ede ssä##</w>
disast er</w>
deliv er##</w>
contra dict##</w>
ap prove</w>
anta i##</w>
an ti</w>
alku perä##</w>
aj at##</w>
W o
T ran
M us
L at
K al
Ger man</w>
E Y##</w>
E C
3 8</w>
yksi lö##</w>
x t##</w>
w arn##</w>
vo itta##</w>
van g
vaati mu##</w>
uud esta##</w>
u ttamis##</w>
tu ollo##</w>
tran s</w>
toimenpite isiin</w>
to on</w>
ti vät</w>
thor ough</w>
tel le
tech no##</w>
te xt##</w>
tar k##</w>
ta vara##</w>
säil y##</w>
sy itä</w>
sotila s##</w>
selv i##</w>
se e##</w>
reg ret##</w>
re in
r ich</w>
q ##</w>
puutte e##</w>
prec ise</w>
poik ke##</w>
piir i##</w>
pid ä
pal est
palest iin
palestiin alais##</w>
paik an</w>
o x
nä hd##</w>
n al##</w>
mod ern##</w>
mo tion##</w>
mil k</w>
matka ilu##</w>
markk ino##</w>
mahdot on##</w>
lääkin tä##</w>
luott a
luon no
luj itta##</w>
kos sa</w>
k kä</w>
jäsen valtio</w>
ist en##</w>
is ina</w>
is estä##</w>
ipu l##</w>
individ ual##</w>
hu hti##</w>
h en</w>
fel t</w>
et yn</w>
ell ä##</w>
elec tor##</w>
el se##</w>
edist ysa
de ad##</w>
crimin al##</w>
be hav
b ab
av aa##</w>
assosi aatio##</w>
ar ise##</w>
ajatu s</w>
K T</w>
J o
I C##</w>
äär ä##</w>
vehic le##</w>
var at</w>
valtio issa</w>
vahv is##</w>
v el##</w>
u aal##</w>
työn tekijä##</w>
trans l##</w>
ti iv
tavo itte##</w>
talou teen</w>
syyttä jä##</w>
safegu ard</w>
s ex
reg ular##</w>
pää stö##</w>
ponnist el
po ke</w>
pit i</w>
perust us##</w>
pe ace##</w>
passeng er##</w>
p ed</w>
on te##</w>
no ti
la g##</w>
l u##</w>
kertom uksessa</w>
kann ust
k on</w>
istun to</w>
im pose</w>
hen g##</w>
g one</w>
funda men
esity ksen</w>
elle et</w>
elim en</w>
con firm</w>
cal cul##</w>
boo k##</w>
analyy si##</w>
all a##</w>
ala isia</w>
ala iset</w>
al e##</w>
a p</w>
a mm##</w>
Guin ea##</w>
E mp
3 1</w>
20 06</w>
1 1.##</w>
yhden mukai##</w>
wa iv##</w>
vira sto##</w>
van kilo##</w>
va u
uudist usten</w>
uks emme</w>
uin e##</w>
tö itä</w>
täs mä##</w>
työ järjestys##</w>
tun to##</w>
tull i##</w>
tt o</w>
tehtä viä</w>
teho sta##</w>
te tut</w>
te sti##</w>
tas k##</w>
suor i##</w>
ss a
sel vi
rakenn era
päiv ittä##</w>
puu tu##</w>
pub lic##</w>
prosess issa</w>
pros per##</w>
prior ite
poliitt isesti</w>
pala uttamis##</w>
pala a##</w>
organ isaatio##</w>
opetu s##</w>
occasi on</w>
o vatko</w>
muuto s</w>
menest y##</w>
lu otta##</w>
ll isiin</w>
käy nn##</w>
kuolem an##</w>
kti o##</w>
kas vi
itte et</w>
isyy teen</w>
isyy s</w>
istun non</w>
is emm
he inä##</w>
hank keen</w>
hall itse##</w>
f requ
et ene##</w>
ess ään</w>
el a</w>
dis cip
destro y##</w>
con tain</w>
cel ona</w>
c al</w>
ass a##</w>
ase maa##</w>
arkalu onte##</w>
ar v
a tor</w>
Wo ga
Tran s##</w>
S e
Pak istan</w>
L e
Bosn ia</w>
Banglades h##</w>
. 5</w>
ö i##</w>
ylim äärä##</w>
vir ka
valku ais##</w>
val ko##</w>
vaka us##</w>
vahin ko##</w>
use im##</w>
tuotan toa</w>
tu neet</w>
ttä ä</w>
te s</w>
syr jä
suojel u</w>
sp end</w>
sop e
sitou mu##</w>
si joit##</w>
sano i##</w>
s ar
re act##</w>
rakennera hasto##</w>
r u##</w>
po st
par ent##</w>
oikeus valtio##</w>
o st
määrä ykset</w>
mmä sty##</w>
maa han</w>
kaupp a</w>
kahd eks
kah teen</w>
i jas##</w>
he ijas##</w>
ha ir##</w>
h au
fin e##</w>
famili ar</w>
ehdo t</w>
e p</w>
distin ct##</w>
di c</w>
cel ona##</w>
b ra
att ra
ass ur
ass ist</w>
ans ka</w>
amoun t##</w>
am a</w>
Zim bab
V er
Ru le</w>
L I
K ar##</w>
K ar
C itiz
C hair##</w>
Bar celona##</w>
Af gh
A I
4 3</w>
yy s##</w>
vi isi</w>
ver t##</w>
varo vai##</w>
valtuus kunnan</w>
vaike i##</w>
uu si
tu t##</w>
tra ck</w>
tosi aan##</w>
tic le##</w>
ti vat</w>
ti re##</w>
ti o##</w>
tervey ttä</w>
televis io##</w>
syrj i##</w>
sur round##</w>
su spend##</w>
qu ar
puh kea##</w>
puh een</w>
pro ceed</w>
pien i##</w>
p o</w>
ot s
ong ol
o grap
num ber##</w>
nu or
mon e
mo tiv##</w>
mmä t</w>
mmä ksi</w>
mall i##</w>
mahdollisuu ksien</w>
loo d##</w>
liber al</w>
la isessa</w>
la ina##</w>
l eng
kohd asta</w>
ko ostu##</w>
kirj e##</w>
kesku st##</w>
kaik en##</w>
jon kin##</w>
j iin</w>
ittä vä</w>
isem paa</w>
ig ation</w>
ic h
g eeni##</w>
expla in##</w>
enemm istö</w>
el tävä</w>
cl os
ar z
ar me
an i##</w>
allekir joi##</w>
Maail man</w>
M ongol
G ra##</w>
F ede##</w>
Eng l##</w>
Emp loy##</w>
C F##</w>
B y##</w>
An g
5 6</w>
4 8</w>
vapa a</w>
vaih e##</w>
va ad
uud ella</w>
utu u</w>
utu misen</w>
tämä llä</w>
tutkim us</w>
tu mista</w>
tin est
tiedon anto##</w>
tavoitte ista</w>
tasapain o</w>
tar get</w>
tapa hd
tapa a##</w>
t lan
syd ä
sh a##</w>
sec t##</w>
scho ol</w>
ru g</w>
re mind##</w>
pur pose##</w>
pr ##</w>
pit kä
periaatte ita</w>
periaatt eiden</w>
paho it##</w>
p ie
n ette</w>
määrä ysten</w>
määr ittele##</w>
le ase##</w>
la tter</w>
kul ku##</w>
konflik tinest
jal kap
hä mmästy##</w>
ful fi
fulfi l</w>
fra g
for mal</w>
exemp t##</w>
em bar
ef ##</w>
ec o##</w>
cour t##</w>
com plic
avo in##</w>
arz em
ad v
a mm
SM E##</w>
Reg ion##</w>
Possel t</w>
N ev
M o##</w>
J arzem
Gre en##</w>
E rik
A tlan
6 5</w>
5 1</w>
3 9</w>
2 1##</w>
yksikk ö##</w>
y our##</w>
väk iv
viik on</w>
ven e</w>
vakuu tus##</w>
tömä sti</w>
työttö m##</w>
tuott e##</w>
tuho a##</w>
tu le</w>
tote si</w>
tek sti</w>
teho kas</w>
tapo ja</w>
t ine</w>
sp here</w>
sel ect##</w>
se ika##</w>
s yö##</w>
ro om</w>
rik kom
rapi d##</w>
propor tion##</w>
pre mi
olo issa</w>
ob tain##</w>
ne s</w>
määri ä</w>
mone tar##</w>
men nä</w>
me t##</w>
mar gin
main ittu##</w>
li i##</w>
lakka ut##</w>
la keja</w>
kysel y##</w>
ko ihin</w>
kahd en##</w>
järjestelmä stä</w>
jalkap allo##</w>
j än</w>
j iä</w>
it us
inc ident##</w>
in ta</w>
il lu
i ä##</w>
he art</w>
hallin to</w>
h ita##</w>
g a</w>
fortun ate</w>
f ast</w>
f ail</w>
että isiin</w>
esity s##</w>
en cies</w>
e tä</w>
dist ort##</w>
defin e</w>
coordin ate##</w>
cho os##</w>
ce il##</w>
bi g##</w>
b it</w>
au tu##</w>
att end##</w>
att ack</w>
ati iv##</w>
ast e</w>
ap u</w>
alo jen</w>
al aan</w>
ab ol
ab and
Sec ret##</w>
Ira q##</w>
äär i##</w>
yhd en##</w>
vie dä</w>
van ho##</w>
uks essa##</w>
tuks eksi</w>
tu o
tu al</w>
tru th</w>
trag ic</w>
ti uk
terr or##</w>
tensi on</w>
te e</w>
tapa an</w>
ta miseksi</w>
t z</w>
suc ceed</w>
sit o##</w>
si ght</w>
satis fi
satisfi ed</w>
roh ke##</w>
re cord</w>
raha ston</w>
ra port##</w>
pyy nnön</w>
pu ite##</w>
pros en##</w>
pan kki##</w>
pan i##</w>
ov ##</w>
on al##</w>
mukau tta##</w>
mu ita##</w>
lo g##</w>
levi ämis##</w>
laugh ter</w>
ky kene##</w>
kos ke</w>
koko on##</w>
is emp
is elta</w>
inf ect##</w>
ill is##</w>
il mi
hyö kkä##</w>
hol der##</w>
hien o##</w>
hal usi##</w>
g g##</w>
fun ction</w>
f arm</w>
eth n
est imate##</w>
er illis##</w>
er ent##</w>
epä varm##</w>
ell i</w>
di a##</w>
deser ve##</w>
de part##</w>
coun ter##</w>
cosme tic##</w>
ch em
an saa##</w>
am o##</w>
alen ta##</w>
alb aani##</w>
aika ansaa##</w>
adap t</w>
absolu te</w>
S A##</w>
Lat in##</w>
Fun d</w>
FYR OM</w>
F l
Citiz en##</w>
C r
5 7</w>
5 .##</w>
voim ia</w>
void a##</w>
ver on
ver kkojen</w>
usko ttav##</w>
tö myy
työ ssä</w>
ttan ut</w>
tra dition</w>
to isi##</w>
to ihin</w>
tie to
synn yt##</w>
suor it##</w>
sci ence</w>
s w
ru pt##</w>
ro p</w>
re me</w>
rat or##</w>
pää osasto##</w>
pää ll
puol i</w>
pun ish##</w>
prospec t##</w>
pref er##</w>
perust eltu##</w>
par empi##</w>
ot or##</w>
ot h</w>
nä ke##</w>
nor th##</w>
no ck</w>
muu alla</w>
monop ol##</w>
maahanmuu ton</w>
m otor##</w>
ly kä##</w>
langu age##</w>
laivast o##</w>
la ito##</w>
l isten##</w>
käyttö ön##</w>
ky ky
kumppan i##</w>
kom men
kokou kseen</w>
koh tiin</w>
kar a##</w>
kal ta
k y</w>
järjest ö</w>
j it##</w>
j ista</w>
isuu ksia</w>
is sä##</w>
inf laati
ic k</w>
ic ally</w>
i our</w>
hyöd yt##</w>
hyl kää##</w>
huomi oi##</w>
hu o##</w>
hen k##</w>
g as</w>
ex ec
exec ut##</w>
ethn ic</w>
esity s</w>
eng age##</w>
eläin lääkintä##</w>
dipl om
coura ge</w>
constitu tion</w>
con dition</w>
complic ate##</w>
behav iour</w>
ati c##</w>
at a##</w>
acc us##</w>
a z
T si
S om
Re port</w>
P lan</w>
N L</w>
Luxem bour
Inter net</w>
I tä##</w>
H el##</w>
F ran
E P</w>
Af gan
AI D##</w>
7 5</w>
0 .##</w>
ymmär re
vi v##</w>
var ha
van h
val io##</w>
v y##</w>
v uutta</w>
uudel le</w>
ulkom aan
täyd en
työttö myy
tyy pp##</w>
ty t</w>
tta essa</w>
tt ele##</w>
tied ott
tiedott amis##</w>
ti e</w>
tell ut</w>
teho kas##</w>
tavo itetta</w>
tar ttu##</w>
ta vasta</w>
t is##</w>
sää stä##</w>
syy t</w>
sugg est</w>
suff er</w>
stit u##</w>
stab il##</w>
sija itseva##</w>
s y</w>
ris ki
ra a
r ne</w>
py sä
pla in##</w>
pl or##</w>
pitä ä##</w>
pat h</w>
oh ja
occ ur##</w>
o i</w>
nyky aika##</w>
nn ista</w>
mp iä</w>
menettely jä</w>
menettel yyn</w>
matt om##</w>
main itsi</w>
lähest y##</w>
la ajo##</w>
kuul i##</w>
jäl jit##</w>
jä nn
isyy den</w>
ist ämis##</w>
il e
heik o##</w>
h our##</w>
h inno
fo or
fle et</w>
elä mään</w>
el der##</w>
diff erent##</w>
dec ad
clu b##</w>
chec k</w>
av ust##</w>
asian osa##</w>
ar n</w>
an z
ain eita</w>
ai o</w>
S an##</w>
D ef##</w>
D an##</w>
A u
: stä</w>
yrity ks
ympär ist
ympärist ön
yksi puol##</w>
yhd ist##</w>
vo itto##</w>
viera ilu##</w>
val uu
ulkomaan kauppa##</w>
ulkom in
ulkomin ist
tuks et</w>
tu ssa</w>
tu h
th er
tel l##</w>
tar tu##</w>
tapa usten</w>
sydä me##</w>
speec h##</w>
sm all##</w>
siv uut##</w>
sisäl tävä##</w>
se itsem
re place##</w>
proto col</w>
or ient##</w>
oikeud ellisen</w>
ohjel masta</w>
laad u##</w>
ku vit##</w>
ks ell##</w>
kos ki</w>
kar jan##</w>
ka amme</w>
k ki</w>
jää mä##</w>
it u##</w>
it le</w>
int elle
intelle c
ig er
hyväks i##</w>
huon o</w>
histor ic</w>
han ke</w>
gene tic##</w>
ext ensive</w>
ex change##</w>
et en
ehkäis y##</w>
ed un</w>
dra ma##</w>
d oll
con serv##</w>
com pon
cla im</w>
b ru
arvo sta##</w>
appro x
Vitor ino</w>
Parlia ment##</w>
N iger
Luxembour g</w>
K ur
K FO
Jo int</w>
I T</w>
I S##</w>
B yr
B ull##</w>
yli op
yl ittävä##</w>
yksin oma##</w>
yhten ä</w>
yh ##</w>
x 0
x0 17
x017 E</w>
wea k##</w>
vastaav an</w>
vast avu
vastavu or
vastavuor o##</w>
v es
uks i##</w>
uh kaa</w>
ud esta</w>
tuon ti##</w>
te sta
te isiin</w>
ta malla</w>
suffici ent##</w>
sta tut##</w>
spo ken</w>
siz e</w>
puheen vuoro</w>
po sti##</w>
pien en##</w>
pal ata</w>
p ati
ow ner##</w>
ot b
op tion</w>
on aal##</w>
olo t</w>
ol a##</w>
o d</w>
nel jän##</w>
n ettävä</w>
min uut##</w>
m illä##</w>
lop et##</w>
käytö ssä##</w>
kom mun
koh tien</w>
kar ja##</w>
järjestelmä t</w>
j yr
is to</w>
inte gro
in sist##</w>
im ul##</w>
im i##</w>
im a##</w>
ific ation##</w>
id emme</w>
huol ta</w>
hin ta</w>
gene tic</w>
fo otb
fi re</w>
es ittä
er ään##</w>
e k</w>
cyc le</w>
condu ct##</w>
con stitu##</w>
col labor##</w>
b ound</w>
b io
att ack##</w>
att ach##</w>
anal y
alu n</w>
aik ais##</w>
adap t##</w>
V ar
T al
S ad
E S</w>
D ut
Behrend t</w>
8 5</w>
z u</w>
yl ä##</w>
yhteis vastuu##</w>
yhteis kunnassa</w>
y t
w ind##</w>
vie t##</w>
var aa</w>
v i</w>
uusi utu##</w>
ul s##</w>
terveyd en
tervey teen</w>
talou dessa</w>
sääd ö##</w>
suunn ittelu##</w>
st imul##</w>
sh ##</w>
seura ava</w>
s ole##</w>
s low</w>
run n##</w>
re alist##</w>
rann iko##</w>
pääst öjen</w>
pyy ntö</w>
puh e
prom ote##</w>
pr e</w>
pp i##</w>
pid ettävä##</w>
pel kkä</w>
par an##</w>
pa k
pa a##</w>
os assa</w>
määrit elmä##</w>
muuto ksen</w>
maksu jen</w>
main ittu</w>
lu ku
llis ista</w>
li in##</w>
la sta</w>
la ki</w>
la isille</w>
la ck##</w>
käsitel ty</w>
kunn asta</w>
kest ävä</w>
ka ssa</w>
ka ise##</w>
ist ä
isemp ia</w>
intellec tual</w>
inn in</w>
huolestu ttava##</w>
har jo
hallit usta</w>
hallin n
h ib
ga in##</w>
es pan
enjo y##</w>
elämä n##</w>
edust ajan</w>
decis ive</w>
d on</w>
d er
cred it</w>
at ure##</w>
V er##</w>
Suom e##</w>
L an
K inno
H el
Dut ch</w>
C ab
Bö s
Bu ll
Ber liin##</w>
Afgh an##</w>
Afgan istan##</w>
3 .</w>
ää r##</w>
won der##</w>
with draw##</w>
w n</w>
w arm##</w>
vuo tia##</w>
viljelijö itä</w>
vil pit##</w>
vero tuks
verotuks e##</w>
ver sion</w>
vasta ava</w>
vaik ka##</w>
uudist uksen</w>
tu et</w>
ttä essä</w>
to a##</w>
tila a</w>
ss e##</w>
scr utin##</w>
san an##</w>
res ist##</w>
quot e</w>
pyö r
produ c
pitä isi##</w>
p u##</w>
nope utta##</w>
muo to
mpä nä</w>
mat on</w>
maanviljeli jä##</w>
ma ap
lä hd
la is##</w>
käyte ttävä</w>
kritiik ki##</w>
krite eri##</w>
koulutuks een</w>
kes ä##</w>
kann a##</w>
kahdeks an</w>
jol le</w>
j e##</w>
it tava</w>
it sen
il a##</w>
gen der</w>
ful f
fulf il##</w>
extr a##</w>
ext re##</w>
ess amme</w>
eläkke e##</w>
el ty</w>
el tu</w>
d omin##</w>
chil d</w>
bur g##</w>
buil t</w>
ban k</w>
asu kka##</w>
an ko</w>
an kara##</w>
al ista##</w>
a o</w>
a ie
Sch re
Pro di##</w>
P en##</w>
Min u
I B</w>
Direc tor##</w>
Afric a##</w>
A asia##</w>
A KT</w>
8 .##</w>
4 9</w>
ö in</w>
yty nyt</w>
ymmär tä
yhteis kunta</w>
vuo si
vero tus##</w>
vastuu n##</w>
val id</w>
vah v##</w>
vah ing
vahing oit##</w>
uud istus</w>
ulo ttu##</w>
tä ll
täll öin</w>
ty n</w>
tuotan to</w>
tuom itse##</w>
ttom ia</w>
tru ct##</w>
tra in</w>
toim een
tie to</w>
ti mme</w>
terveyd en##</w>
teollisuu tta</w>
teh tä##</w>
spe ed##</w>
sopim ukse##</w>
si mme</w>
si in</w>
selv en##</w>
s h</w>
resu me##</w>
rel i##</w>
reiter ate</w>
raken teiden</w>
raho ite##</w>
r a</w>
over e
os si
organ ise</w>
oppos ite</w>
olesk elu##</w>
off ice##</w>
o e
ne e##</w>
ne ar</w>
myö tä##</w>
mor aal##</w>
ministerineuvo sto##</w>
manufac ture##</w>
loc ation</w>
las ku##</w>
la isiin</w>
käyttööno tto##</w>
käyttä jä##</w>
kun nes</w>
kilpail u</w>
kiell on</w>
kesk it##</w>
ker tom##</w>
ka ks
k kaan</w>
jäl ki##</w>
jou kossa</w>
j ana</w>
itt y
is in
indikaatt ore##</w>
in st
ill ään</w>
if t</w>
ie b
henkil ö</w>
faluss y</w>
esittel i##</w>
en a##</w>
ed u##</w>
def end</w>
aw are##</w>
arvost elu##</w>
approx imate##</w>
appropri ation##</w>
appro ach##</w>
al alle</w>
S truct##</w>
Na ï
N ic
N ew</w>
G as
F A</w>
D upu
D ell</w>
C ot
Ber lin</w>
B a##</w>
8 9</w>
6 8</w>
0 9##</w>
0 5##</w>
yll ä##</w>
välin eiden</w>
vuosi kymmen##</w>
vir hee##</w>
vi ime
vet erin##</w>
veron maksa##</w>
vaatimu s</w>
u hel
uhel u</w>
tä vissä</w>
ty ssä</w>
tuhan sia</w>
tekijä t</w>
tapa usta</w>
ta r</w>
t w##</w>
sy ys##</w>
suo jaa##</w>
stitu te##</w>
st ed
signific ance</w>
seura us##</w>
se ka
sci ent
saast utta##</w>
s ing##</w>
ris es</w>
re cord##</w>
ra jan</w>
r is##</w>
qu ota</w>
qu i##</w>
päivä ä</w>
puh taa##</w>
prof it</w>
plu s</w>
pal ja
oso ittama##</w>
os alta##</w>
op le##</w>
obstac le##</w>
nor ma
myy nti##</w>
mel ke
mat onta</w>
lä n
luov utta##</w>
luotta mus</w>
law yer##</w>
käy tetty</w>
kansall ista</w>
jö sted
ist e</w>
is on</w>
investo inte
investointe ja</w>
in sist</w>
i er
halua isi</w>
gla d</w>
g le</w>
fer ence##</w>
esit tämä</w>
elim iä</w>
e kolog##</w>
deliv er</w>
defic it</w>
con v
con i</w>
ass ess</w>
S jösted
R om
M al
Hel sing##</w>
Georg ia##</w>
Dupu is</w>
Cot on
Con tr
Bla ir</w>
ölj y##</w>
väär ä##</w>
välin eet</w>
vä lia
välia ik
väliaik ais##</w>
vuorop uhelu</w>
virka mies##</w>
ved en</w>
valtu udet</w>
v ut</w>
ust e##</w>
tu esta</w>
tty ä</w>
tta isi</w>
torsta i##</w>
tod en##</w>
tiedon annossa</w>
taud i##</w>
talous arvio</w>
ta kana</w>
t oma
st ipul##</w>
sin ä##</w>
si l##</w>
sektor i##</w>
seik koja</w>
schem e##</w>
san an</w>
re vers##</w>
re tire##</w>
re call</w>
ratkais eva</w>
pöytä kirja</w>
pää määrä##</w>
puol een</w>
pu l
pu it
puit ed
puited ire
puitedire ktiiv
ponnistel uja</w>
pil ari##</w>
pid et##</w>
pe ople##</w>
pan o
paino sta##</w>
paik o##</w>
p sy
p hy
ma y##</w>
lu vut</w>
liit on</w>
le arn</w>
laajen n##</w>
käsitel tävä</w>
kuu nt
kiinno sta##</w>
kiel to</w>
k ön</w>
k ar##</w>
is ol##</w>
is el
i e##</w>
hu ll
hou se</w>
hallinno i##</w>
h am
gra s
gener ation</w>
ga p</w>
g ar
f lood##</w>
ett u
distin gu
desi ra
d y##</w>
cred it##</w>
conv ict##</w>
contin ent</w>
b en##</w>
ar rest##</w>
ai o
ad mit##</w>
W ur
T o
Sep tem##</w>
S LI
M ü
C as##</w>
8 4</w>
7 9</w>
3 6</w>
yliop isto##</w>
y llä</w>
vähen e##</w>
viitta si</w>
vi en##</w>
val lan
työskentel evä##</w>
ty y##</w>
tutkim uksia</w>
tilo jen</w>
t ant</w>
suuntavi iva##</w>
sur viv##</w>
st rea
ss on</w>
si vät</w>
sh e
sec ut##</w>
sc and
sa ar
ratif y</w>
ras ka##</w>
ras it##</w>
puuv ill
pu itteet</w>
produc tive</w>
pic ture</w>
per secut##</w>
pa ko
osa puoli##</w>
op ap
opap eri##</w>
o tetta##</w>
määrä ä##</w>
myön tämä##</w>
mon en##</w>
loo d</w>
liik enn
laun ch</w>
ksi a##</w>
kri isin
koh talo##</w>
ko it##</w>
kka a##</w>
kertom us</w>
kel po##</w>
jär ke##</w>
jau ho##</w>
is itte</w>
hon our</w>
hin tojen</w>
hen ki##</w>
hank ki##</w>
hab it##</w>
ha ke##</w>
er ence</w>
deter mine</w>
desira ble</w>
cou ple</w>
condem n</w>
coh erence</w>
bom b##</w>
av ust
ast u##</w>
arv opaperi##</w>
ak is</w>
adv ance</w>
a ste
Su p##</w>
SLI M</w>
Pal ac
M ed##</w>
Indonesi a##</w>
Georg ia</w>
Contr ol</w>
A n##</w>
ò li
yks isel
yksisel it##</w>
weal th</w>
viime isi##</w>
var a
vara ukse##</w>
vaih een</w>
v ul
uksi a##</w>
u it##</w>
tulo ksen##</w>
to iste##</w>
terror ismi##</w>
ter fe
ta van
ta isi</w>
su o##</w>
st ation##</w>
ssa olo##</w>
simil ar##</w>
sig nal</w>
sh ape</w>
saavu tettu</w>
s overe
ru ots
ruots alais##</w>
rajoit uksia</w>
politiik koja</w>
pl ant</w>
pitkä aikais##</w>
pie ce</w>
pan osta##</w>
pan o</w>
op is
ohjelm at</w>
od e</w>
ob oda##</w>
näkö kohdat</w>
nä h
n im
mu kana##</w>
medic ine##</w>
maase utu##</w>
maan tie##</w>
lu kuun</w>
llis istä</w>
llis essa</w>
laun ch##</w>
la y</w>
l taan</w>
käsittel y</w>
kyseen alais##</w>
kyseen ala
ks eksi</w>
kr it
ko t</w>
kir jo
ket ju##</w>
kanna ttava##</w>
ka pas
ka ksi##</w>
jä tt
juur i##</w>
jun ct##</w>
joh tuva##</w>
jaks o##</w>
itsen äis##</w>
issa an</w>
illu st##</w>
if ies</w>
if ic</w>
hä peä##</w>
hin ta##</w>
fe w##</w>
ev ä</w>
eth ical</w>
er ään</w>
energ ian##</w>
del le</w>
def end##</w>
campa ign##</w>
au tom
asetu s##</w>
as ettu##</w>
am pi##</w>
ak our
ain ee##</w>
ad mit</w>
acc ident</w>
W est</w>
U n
Tsi akour
Sw oboda##</w>
Sol ana</w>
Schre yer</w>
S ac
Quest ion</w>
H a##</w>
Gre ek</w>
Gre at</w>
Gas òli
ET Y</w>
D a##</w>
4 6</w>
4 4</w>
z en</w>
yö n##</w>
vä istä
väistä mät##</w>
vul ner##</w>
viranoma isen</w>
vihd oin##</w>
vi c</w>
veto om##</w>
ven e##</w>
var ain
valuu ta##</w>
val uutta##</w>
vaar o##</w>
ulkom a##</w>
tähd en##</w>
tä misestä</w>
ttav issa</w>
ttav ien</w>
tr end</w>
tosi asia</w>
te ta</w>
tavan om##</w>
tak ing##</w>
t omasti</w>
t in##</w>
sää de##</w>
syrjä yty##</w>
syr jä##</w>
suos itus##</w>
standar di##</w>
sta g##</w>
sour ce##</w>
sit ov
she ep</w>
serv ati
san a</w>
s pr
ro w##</w>
resur sse
ra j
pää te##</w>
pit kä</w>
pann a##</w>
p is
p ien</w>
nau tti##</w>
muka isen</w>
mp iin</w>
mor al</w>
min uu
min kä
minkä la##</w>
men ojen</w>
melke in</w>
läs nä
lä hen
ly k
lin ja</w>
liikku mis##</w>
liikenn että</w>
la imin
laimin lyö##</w>
l us##</w>
käynn iste##</w>
ky ky</w>
kuu den##</w>
ku m
kop io
konfliktinest o##</w>
konferen ssi</w>
kon servati
kir ja
kapas ite
kal atalous##</w>
ka i##</w>
jää d##</w>
jäll een
jud ge##</w>
is inä</w>
inter vene</w>
im peri
il mene##</w>
ie f</w>
häv ittä##</w>
hä ir
hund red##</w>
hib it##</w>
ha ke
h m##</w>
h ag
gent ly</w>
fu el</w>
fron t##</w>
err a</w>
ei j
defin ite##</w>
cul tiv##</w>
coun terfe
constitu tion##</w>
clos ure</w>
bo d</w>
b us##</w>
aste itta##</w>
as en
al uksi##</w>
a th##</w>
a .
Si erra</w>
R o
Patt en</w>
P eij
Luxem burg##</w>
KFO R</w>
H ar##</w>
Eng la##</w>
Au thor##</w>
6 2</w>
3 4</w>
y a</w>
vira ston</w>
vir tu##</w>
verta ilu##</w>
ve get##</w>
varain hoito##</w>
var o##</w>
var asto##</w>
va kaa##</w>
usu al</w>
uh re
uh ka##</w>
tä misen</w>
tu nne</w>
ttä vää</w>
tr a##</w>
te ct##</w>
tapa uksen</w>
t os
t omien</w>
syrj intä##</w>
suunn att
suu re
suhte issa</w>
sub mit</w>
sol di
si iv##</w>
sex ual</w>
seura am##</w>
rinn a##</w>
por tugali##</w>
par i</w>
pap eri##</w>
pal a##</w>
oike uksiin</w>
ograp h
o issa</w>
mu u</w>
mu is##</w>
mm ista</w>
mie h##</w>
mer i</w>
mer ge##</w>
menettely ssä</w>
mekan ismi##</w>
levi ä##</w>
la isella</w>
l us
kä vi##</w>
ky l
ky ken
koul utus</w>
kosme ti
kommen toi##</w>
kan toja</w>
k ke
jänn it##</w>
jä tte##</w>
jul is##</w>
jou k##</w>
inc lus##</w>
im an
huol to##</w>
hu ollo##</w>
hon est</w>
hin e##</w>
har m##</w>
ha z
