#version: 0.2
# #</w>
i s
t h
a ##</w>
t e
i n
i t
a n
e n
e n</w>
th e</w>
o n</w>
e ##</w>
i n</w>
a l
s t
t i
a r
o n
s i
e r
a n</w>
l l
t t
r e
t ##</w>
r o
ä ##</w>
o u
i ##</w>
t a
s ##</w>
o r
t o</w>
a t</w>
o f</w>
o m
t u
o l
i s</w>
o ##</w>
j a</w>
k s
an d</w>
e l
i k
s s
u ##</w>
in g</w>
m en
m a
o s
d e
r a
t ä
t a</w>
l a
o p
e d</w>
m is
u u
i m
i l
t o
j o
i c
a v
i d
e st
th at</w>
k a
k e
e tt
k u
v o
m e</w>
ä n</w>
i e
v a
a ti
e r</w>
a l</w>
w h
s e
p ro
is ##</w>
u ro
l y</w>
n e
d ##</w>
y ##</w>
o r</w>
l e
n ##</w>
i v
ss a</w>
p e
n o
E uro
s u
ett ä</w>
e m
s e</w>
p u
on ##</w>
v i
r ##</w>
er ##</w>
w e</w>
e t</w>
c on
ä ä
v al
a c
r e</w>
th is</w>
f or</w>
te n</w>
i t</w>
a p
k o
m u
t ä</w>
j ä
l i
al ##</w>
h d
y ö
- ##</w>
p ar
i ll
m me</w>
i on</w>
@ ##</w>
s a
l e</w>
t a##</w>
ks i</w>
te l
t ä##</w>
s t</w>
men t</w>
it ##</w>
te ##</w>
y h
in ##</w>
b e</w>
v ä
an ##</w>
ie s</w>
o v
p a
a t
k ä
id en</w>
ati on</w>
p or
c om
en ##</w>
al l
it ä</w>
u n
k a</w>
l d</w>
st a</w>
in en</w>
m i
is s
m e
h av
h e
no t</w>
a b
k an
r i
si on</w>
ou ld</w>
is ta</w>
e s
n n
e en</w>
en t</w>
hav e</w>
p o
u t</w>
k in</w>
q u
ic h</w>
k ##</w>
u s
wh ich</w>
b e##</w>
t ar
k si
c i
o ll
c e</w>
C om
r e##</w>
ou n
w it
p er
k i
p ol
m ##</w>
wit h</w>
l u
f or
g ##</w>
u l
ss ä</w>
t ö
k om
a g
Euro op
t r
ti on</w>
i a</w>
i h
it y</w>
re s
v a##</w>
mis ##</w>
e x
h o
jä s
ll ä</w>
h u
ap os
& apos
e t
m yö
u c
b y</w>
e i</w>
a si
v ä##</w>
h a##</w>
h y
il l</w>
u ks
th ##</w>
Euro pe
tä m
y s
yh te
ll a</w>
Europe an</w>
te r
w ill</w>
e d
si ##</w>
d i
l is
kom is
s h
g h
st a
a d
w a
k e##</w>
Com mis
e v
re a
m ä
t y
ll e</w>
to im
Euroop an</w>
al u
si d
men t
k os
al l</w>
iss a</w>
l o
ou r</w>
est i</w>
ti ##</w>
v u
f f
tt a</w>
er e</w>
e s</w>
ik e
th e##</w>
st i</w>
is tu
v ##</w>
k a##</w>
e c
ar ##</w>
it te
it i
u s##</w>
u r
M r</w>
it a</w>
al a
j en</w>
it y
w or
n i##</w>
tt a##</w>
ill e</w>
th er</w>
d en</w>
n y
st ä</w>
is i</w>
a i
c h
m p
m in
por t</w>
u s</w>
de ll
tt ä
t yö
par la
o t
v ar
a u
o ike
i on
v at</w>
p ää
ka ik
myö s</w>
ta an</w>
j a##</w>
Commis sion</w>
pu h
f i
is uu
tt av
ou t</w>
vo is
t o##</w>
est a</w>
y y
em b
at e</w>
re sid
m a##</w>
kä y
a s
w ould</w>
th e
2 0
w ##</w>
ol e</w>
ati on
m er
iv e</w>
&apos ;</w>
is tä</w>
ov at</w>
jäs en
vu o
ke s
val ti
hd o
d a
vois a</w>
is i
n ä
i o
c oun
t y##</w>
mi el
u st
ne u
or ##</w>
s el
m u##</w>
m o
n a
b ut</w>
por t##</w>
s o
s en</w>
r j
m an</w>
tt a
neu vo
j o##</w>
is en</w>
tu ##</w>
P resid
t in
e hdo
sh ould</w>
en t##</w>
p os
e ssa</w>
re c
f ro
re g
t e</w>
Presid ent</w>
fro m</w>
ny t</w>
ar voisa</w>
on e</w>
n ä##</w>
ö n</w>
ab le</w>
r is
t al
te n##</w>
U n
d o
is esti</w>
a r</w>
komis sion</w>
an t</w>
k i##</w>
id än</w>
k e</w>
v ä</w>
p ä
h a
li a
s uu
vä l
ksi a</w>
p it
y m
ta a</w>
th ere</w>
P ar
m uu
l ##</w>
p i
un ion
te r</w>
v el
s an
m on
y ks
m or
in te
yhte is
s it
m ie
m ar
parla ment
y o
jo ka</w>
a an</w>
a ik
a j
e ll
pu ol
m m
yo u</w>
n a</w>
täm ä</w>
puh em
ma an</w>
S ta
v e</w>
coun tr
h ##</w>
k ä</w>
u n##</w>
men t##</w>
it tä##</w>
k ys
l ik
is ten</w>
Par lia
emb er</w>
u d
neuvo st
an n
valti o##</w>
jä rj
puhem ies</w>
kan s
Parlia ment</w>
c an</w>
t ka</w>
k uu
jo tka</w>
mor e</w>
e ksi</w>
it tä
t h</w>
is i##</w>
s pe
de r</w>
s ää
Un ion</w>
n i</w>
gh t</w>
im ##</w>
ää r
the se</w>
m inen</w>
po s##</w>
f in
con c
d is
C oun
; ##</w>
&apos ;##</w>
ka u
u p</w>
ill a</w>
ci l</w>
i c</w>
st r
Coun cil</w>
pro pos##</w>
ti l
k u##</w>
si itä</w>
d o</w>
f u
tu r
ks en</w>
wa s</w>
jo h
ku nn
c u
h alu
tä y
ti on##</w>
g o
is ia</w>
komis si
p res
v er##</w>
ic ##</w>
s a</w>
va st
en n
g ra
d e</w>
me idän</w>
r ke
wh at</w>
ne et</w>
l e##</w>
s op
ih in</w>
st ##</w>
y r
lik e</w>
tal ou
v e
g e</w>
jäs en</w>
k o##</w>
mu t##</w>
er n##</w>
p ##</w>
m e##</w>
re port</w>
ol e##</w>
hu om
i r</w>
s itä</w>
c e
no w</w>
mie tin
qu ot
v a</w>
ttav a</w>
i f</w>
e t##</w>
an ce</w>
d e##</w>
l ä
n ut</w>
o ther</w>
ö ##</w>
k o</w>
in o
quot ;</w>
& quot;</w>
Sta te##</w>
est ä##</w>
ala is##</w>
i b
en t
in c
h al
ou s</w>
oike u
p al
uc h</w>
te n
hy vä
parlament in</w>
for e</w>
ku i##</w>
jäsen valtio##</w>
k er
te en</w>
d uc
en c
kes ku
hd oll
M ember</w>
ma hdoll
ment s</w>
tä rke
su p
vi r
k i</w>
il ##</w>
g u
ll a##</w>
täm än</w>
k y
a s##</w>
iti ik
s is
i te
ar y</w>
ke h
m an
g e##</w>
s om
ku in</w>
m äär
kos ke##</w>
ko h
pol itiik
ou r
p an
p e</w>
f ac
ehdo tu
ta pa
u n</w>
n e</w>
sop im
is ta##</w>
ta i</w>
t ra
kys ym
20 ##</w>
s ol
en ce</w>
s tel
va ik
im port##</w>
ation s</w>
m y</w>
wor k</w>
in g##</w>
ie v##</w>
rea t##</w>
countr ies</w>
ci al</w>
h all
si on##</w>
pu he
j ec
asi a
c es
tar k
ol isi</w>
j el
hyvä ks
ic al</w>
pää tö
tt ä##</w>
it u
g h</w>
te u
it t
s s</w>
p re
s e##</w>
all a</w>
c a
ev er</w>
gh t##</w>
ity is##</w>
v e##</w>
is et</w>
s er
tä än</w>
i a##</w>
s a##</w>
vo i##</w>
iv ä
o h
mu ka##</w>
te h
se kä</w>
it ta##</w>
em me</w>
p l
a m</w>
pit ä
Euro pe</w>
el ##</w>
c au
o b
m an##</w>
ku n</w>
p le
c ##</w>
er e##</w>
tö ##</w>
it ion</w>
c r
puhe en
e g
union in</w>
h än</w>
mer k
r i##</w>
ar d</w>
j ä</w>
ma a
va sta
ab out</w>
n ation
fi r
re e##</w>
on n
li it
de c
com m
po in
20 0
b et
r yh
isi in</w>
iss u##</w>
op ##</w>
wh o</w>
ff ic
e si
ti e
p la
y e
ka an</w>
uks en</w>
cau se</w>
te tt
komissi o</w>
jo s</w>
n o</w>
ar d##</w>
w i
ää n
ti me</w>
al o
le g
pol ic
h en
joh ta
op le</w>
e uro
i en</w>
kesku stel
ti iv
r a##</w>
em p
ho w##</w>
e ssä</w>
l op
an s
v er
c t##</w>
er ityis##</w>
lis ä##</w>
c e##</w>
ne ed</w>
s y
st a##</w>
ti ed
de vel
th ere##</w>
järj es
h e</w>
par ti
ma t
hy v
nation al</w>
kan ssa</w>
vo i</w>
pe ople</w>
ag a
alu e
j on
m a</w>
h ä
E U</w>
i r
a isi##</w>
ik ä</w>
: n</w>
te r##</w>
ti in</w>
polic y</w>
c ul
u t##</w>
wi th##</w>
h an
työ ##</w>
ol en</w>
os e</w>
kos k##</w>
pol i
ta ke</w>
en er
to is
k k
m än</w>
san o##</w>
k il
kos ke
o d</w>
est ä</w>
wa y</w>
g ro
w el
com e</w>
vo id
tar v
dell ##</w>
o c
istu ##</w>
p r
p en
y s</w>
al i##</w>
al ta</w>
hyväks y##</w>
oll a</w>
n ä</w>
on g
it ta
ne w</w>
su b
iss ä</w>
f e
ä än</w>
di rec
w n</w>
tt i</w>
devel op##</w>
a se
a m
l in
it ies</w>
id ##</w>
1 9
toim in
in v
vi en</w>
u tta##</w>
neuvost on</w>
s i</w>
p a</w>
itte e</w>
m ä</w>
va pa
j o</w>
qu est
järjes tel
mietin n
ai d</w>
men d##</w>
f ##</w>
ill ä</w>
c le
da y</w>
p on
puheen johta
E U
k tiiv
wh en</w>
e lla</w>
om a##</w>
ku n
ttav a##</w>
y ksi
ma ke</w>
t i</w>
t or
tu le
re e</w>
pol it
pro b
ivä t</w>
ib le</w>
b el
hyv in</w>
ttä vä</w>
b e
om a
i ä</w>
ong el
ks een</w>
k on
ta vo
miel estä##</w>
hal u##</w>
m ä##</w>
ta s
ell ##</w>
w e##</w>
jon ka</w>
os t</w>
is t##</w>
in a</w>
k ou
it se##</w>
to dell##</w>
ol i</w>
ar vi
i in</w>
vi el
an y</w>
som e</w>
de b
ra t
0 0</w>
ta k
all ##</w>
e con
asi o
Commis sion##</w>
de mo
la aj
v ie
poli itt
mis eksi</w>
econ om
ka is
h i
val io
e d##</w>
ku l
th ing</w>
s ä</w>
bet w
betw een</w>
s ov
j u
mis ta</w>
h ar
on g</w>
c o##</w>
si llä</w>
ra l</w>
for m##</w>
ag ree##</w>
sup port</w>
ap pro
s te
av a##</w>
k ol
j a
all is##</w>
j ä##</w>
j ou
n tö
i f
lä h
c t</w>
e dell
tar ko
ll ##</w>
ces s</w>
prob le
a ss
tel u##</w>
ed u
t y</w>
st an
r an
n ce</w>
f un
is h</w>
e lle</w>
k ka
res pon
ar e
su o
n u
tark istu
mu n##</w>
kaik ki</w>
hu ol
bel iev##</w>
y hd
yhte is##</w>
fir st</w>
tä tä</w>
ri ght##</w>
b as##</w>
mar kk
tt u##</w>
su l
t ro
ma de</w>
k en
op p
halu aisi##</w>
ff ec
viel ä</w>
a ssa</w>
r ik
st itu
ov ern##</w>
rea d##</w>
pu b
the m</w>
ic e</w>
mp ä
h el
in d
ks et</w>
per i
to iv
ta l</w>
un d
p ri
el ä
e ivät</w>
a su
polit ical</w>
a mend##</w>
jec t##</w>
e h
tärke ä##</w>
pos s##</w>
ra te
li ik
b ud
ko hd
de ssä</w>
tel e##</w>
m itä</w>
op er
re ktiiv
ag e##</w>
di rektiiv
os o
ust a##</w>
ed is
pro v
is e</w>
huom io
en ti
sis ä
li c</w>
va h
teh tä
sa a
m il
kunn an</w>
er s</w>
ra ho
re la
ta va</w>
vi a</w>
m ost</w>
or der</w>
si ih
conc ern##</w>
Com m
oh jel
ce p
sa y</w>
per us
ov er</w>
ittä in</w>
siih en</w>
direc t##</w>
i p
x t</w>
v an</w>
kä än</w>
id e##</w>
iv e##</w>
mä än</w>
a d</w>
y s##</w>
a t##</w>
su h
pro duc
ol ##</w>
o tta
ka s
koske va##</w>
poin t</w>
j at
tu r##</w>
k y##</w>
al ly</w>
j ul
c o
es itte
v en
l i##</w>
y le
sol u
g et</w>
u tu
se lla##</w>
t w
vi im
ma in
to teu
fac t</w>
r i</w>
spe ci
k ra
an te
a te
tur val
te k
mar ke
ys te
in n
is ion</w>
k or
ju st</w>
ki r
esitte li
ho w</w>
toim i##</w>
myö n
p a##</w>
ou r##</w>
tt ö
u ra
ac h</w>
deb ate</w>
euro opp
uu den</w>
l ar
y mpä
Comm ittee</w>
ko ll
void aan</w>
c y</w>
tavo itte
si a
r u
d u
c er
com ##</w>
pub lic</w>
la in
th in
s yste
se en</w>
sää d
t tiin</w>
per us##</w>
mis een</w>
suu r##</w>
hy vä##</w>
it ä##</w>
aga in##</w>
jo ita</w>
jä l
tu t
ih mis##</w>
p yy
ati ve</w>
sa a##</w>
i g
Y hd
ai he
keh ity
mi en</w>
a in
i on##</w>
ev en</w>
e ther</w>
turval lis
u se</w>
parla men
me asu
te hd
ad op
ku u##</w>
m en</w>
ra p
kan n
d ra
toiv o##</w>
tt ä</w>
c or
s ten</w>
inte r##</w>
in ä</w>
et te
men tal</w>
e ss
k ö
cer ta
ri ght</w>
ympä ris
enc y</w>
va ati
h ere</w>
hä n##</w>
ch an
sit u##</w>
do es</w>
ti ve</w>
maa il
c our
m b
vuo ksi</w>
wh ere</w>
quest ion</w>
av a</w>
v o##</w>
hall it
se ura
wel l</w>
vie w</w>
il ity</w>
tw o</w>
pro te
ma a</w>
vä h
ter ro
iv ##</w>
rat kais
av u
19 ##</w>
in a##</w>
en s
th an
par ##</w>
o g
ev er
to i
p yr
la r</w>
su r##</w>
ra u
qu i
vir on
econom ic</w>
vä t</w>
kans alais##</w>
op e</w>
ro ##</w>
ty vä##</w>
mahdoll isuu
järj est
min u
va an</w>
s c
o do
uks et</w>
st rate
se e</w>
ol e
sääd ä
kysym yks
lain säädä
o d
ma ssa</w>
ttä ä</w>
c l
emb er##</w>
ha d</w>
ye ar##</w>
Com mun##</w>
c on##</w>
dis c
en d</w>
ke en</w>
e pä
mietinn ö
l an
w ant</w>
tar ka
te ke
te taan</w>
c an##</w>
a mp
parlamen tti</w>
ro u
e ffec
is yy
k im
ai r##</w>
str uc
pa ik
iti z
tapa h
rea s##</w>
demo kra
t om
inc lu
kan na
M r##</w>
f er
c ould</w>
so cial</w>
tu re</w>
thin k</w>
th ou
g an
so sia
to o</w>
it a##</w>
l a##</w>
b o##</w>
pro v##</w>
is ation</w>
uu tta</w>
g overn##</w>
u ksia</w>
t ri
et tel
halu a##</w>
sel v
for m</w>
et y</w>
s yy
vuo den</w>
o in</w>
id e</w>
sa me</w>
h yö
c h</w>
si ksi</w>
le ss</w>
g re
si b
ta mis##</w>
yhteis ön</w>
par t</w>
ti la
fu tur##</w>
wor k##</w>
iti on##</w>
inc reas##</w>
val mis
määr ä
tä hän</w>
i an</w>
miel tä</w>
enn en</w>
countr y</w>
ye ar</w>
lo y##</w>
a d##</w>
kan sa
is m</w>
pal j
hu man</w>
is l##</w>
mu ka
u se
a f
w e
e tu
kaik ##</w>
pro gra
solu tion</w>
jo iden</w>
cle ar</w>
con tin
v an
c itiz
jo ta</w>
tak en</w>
leg isl##</w>
measu re##</w>
m alla</w>
g iv
ac cep
ion s</w>
liit ty##</w>
d is##</w>
ksi en</w>
pres ent##</w>
ympäris tö##</w>
ny ky##</w>
si g
n sa</w>
o w##</w>
or d
en si
EU :n</w>
te ttava</w>
pä ä##</w>
palj on</w>
oper ation</w>
ag e</w>
tu ot
tr ans
pitä isi</w>
em ##</w>
ac h
reg u
til l</w>
e p
a tt
ään est
cour se</w>
peri a
sta an</w>
talou dell
mahdoll ##</w>
ar e</w>
h ap
in form##</w>
koll eg
fin an
m i##</w>
marke t</w>
respon sib
t ö</w>
nä mä</w>
por teu
k ä##</w>
mm ä##</w>
c ur
us e##</w>
e st</w>
disc us
pos ition</w>
di ff
g o</w>
rap porteu
I n
il u##</w>
cu r##</w>
inte re
res s</w>
huomio on</w>
a te##</w>
wh y</w>
vaik ka</w>
jec t</w>
t an
en sur##</w>
ehdo t##</w>
ko kou
j uu
en viron
A ##</w>
in no
ensi mmä##</w>
p id
kä si
puh u##</w>
im ple
te ho
th rou
f ur
in stitu
fu l</w>
v ic
ach iev##</w>
suu nn
m ill
pe ct</w>
un der</w>
duc ##</w>
se c
markk ino
mb er</w>
mis esta</w>
nn ö
vo te</w>
sel f</w>
de sta</w>
regu la
se con
s s##</w>
oll ut</w>
vä lis
citiz en##</w>
adop t##</w>
n ou
k now</w>
ra t##</w>
l ong</w>
kau p
pla ce</w>
s la
i al</w>
l u##</w>
comm on</w>
mis tä</w>
th er##</w>
l ta</w>
val l
se t</w>
el in
yhte y
kä sit
gh ##</w>
emp loy##</w>
p uu
h ope</w>
hen kil
pr in
ad d
it ys
it se</w>
käy tä
puol esta</w>
re sul
b r
nn e</w>
A r
contin u##</w>
go od</w>
tu om
ca se</w>
a ino
som e##</w>
j ien</w>
politiik an</w>
to r</w>
ki el
h is</w>
p el
av o
p er##</w>
tehd ä</w>
pitä ä</w>
ksi in</w>
is een</w>
ci p
t s
i l</w>
lop u##</w>
euroopp alais##</w>
ve l</w>
an a</w>
C on
la st</w>
prin cip
is ed</w>
in ter
ette i</w>
mi a</w>
isi ä</w>
vast a##</w>
ih mis
y our</w>
mis en</w>
o w</w>
ex amp
o wn</w>
uks essa</w>
f o
si inä</w>
neuvost o</w>
e llä</w>
me an##</w>
cu lar</w>
la ati
rea s
ki a</w>
r y</w>
e l</w>
men ettel
jäl keen</w>
vo it
si is</w>
tu lo
tu ral</w>
ma y</w>
ko ro
kans allis##</w>
ce ss
tu n
is e##</w>
wor ld</w>
tu nn
es ittä##</w>
parti cular</w>
os all
uu s##</w>
kansa in
kansain väl
e si##</w>
kansainväl is##</w>
iv at</w>
ab ility</w>
vah v
th or##</w>
komissi o##</w>
syste m</w>
ov er##</w>
or gan
ti et
mm in</w>
f ra
täy si##</w>
ou se</w>
ka a</w>
ne cess
re qui
pro cess</w>
kaik ki##</w>
to jen</w>
than k</w>
ob ject##</w>
ti on
pro s
ces s##</w>
ac tion</w>
poin t##</w>
ti c
vi ä</w>
u u##</w>
y l
t ing</w>
a mme</w>
tri b
c edu
talou s
te ki
rapporteu r</w>
nu mber</w>
tä lla##</w>
n al</w>
si d##</w>
ati on##</w>
pal vel
m ikä</w>
sid er##</w>
en g
cur r
S ##</w>
con sider##</w>
pu t</w>
en e
ul ##</w>
sit te##</w>
re f
mä r
te ell##</w>
tar pe
asi a</w>
ttä vä##</w>
ss a##</w>
d y
isuu den</w>
toim i
b ##</w>
a st</w>
ym mär
g ener
i ma
ou s##</w>
giv en</w>
examp le</w>
ko ko</w>
pro se
esi mer
te iden</w>
ne ed##</w>
ma ks
N ##</w>
s ä
valti o
esimer ki##</w>
im prov##</w>
tut kim
se cur##</w>
T ur
yle is##</w>
A f
are a</w>
asi an
discus s##</w>
Un it##</w>
f ar</w>
si ir
y st
vu on
le vel</w>
vuon na</w>
im me</w>
O ##</w>
n i
us el
gre at</w>
hal f</w>
a is##</w>
t or##</w>
pres ent</w>
ip pu
tt e</w>
per ust
au thor##</w>
pe ct##</w>
v i##</w>
lo o
ma iden</w>
e seen</w>
pe t
sa ad
g et##</w>
neuvo t
kaik ke##</w>
sla usel
proble m</w>
kka a##</w>
ma tta</w>
päätö slausel
ky se</w>
0 ##</w>
ter ve
talous arvi
H ouse</w>
m ov
dec ision</w>
juu ri</w>
i de
de t</w>
yhtey dessä</w>
mi ten</w>
väl i##</w>
lar ge##</w>
u h
ra jo
g ent
1 ##</w>
ty y
reg ard</w>
imple ment##</w>
is h##</w>
d el
he t
f oll
ul e##</w>
en i</w>
inv est
la d##</w>
us ten</w>
er i</w>
käy ttö
tapah tu
kuu lu##</w>
euro ##</w>
vasta an</w>
thou gh</w>
proble m##</w>
kil pa
ku lu
ab lis
tett u</w>
p ra
nou da
est ablis
a a</w>
jäsen et</w>
finan cial</w>
u tu##</w>
var o
sh i
viim e</w>
om en</w>
sopim uksen</w>
me illä</w>
Euroop pa</w>
de ssa</w>
san o
var mis
gent le##</w>
te tään</w>
necess ary</w>
s en
e taan</w>
er n</w>
arvi o
und er##</w>
sa f
fi c</w>
at ing</w>
is in</w>
is t
o tta##</w>
cr im
tr y</w>
sa a</w>
al th</w>
at al
yr ity
tä vä##</w>
sosia ali##</w>
tu ke
ö y
C ##</w>
valio kunnan</w>
ittä vä##</w>
k ala
oike us##</w>
c reat##</w>
B r
mat ter</w>
if ic
il ma
yhteis työ##</w>
x ##</w>
toim ia</w>
c tion</w>
el ec
a a##</w>
i r##</w>
ven tion</w>
f t</w>
C h
throu gh</w>
asia ssa</w>
it o
on g##</w>
i d</w>
menettel y
va ike
u re</w>
i o##</w>
qu al##</w>
ac t</w>
myön te##</w>
te xt</w>
k in
b ac
om ##</w>
k ke
su m
aino a##</w>
is esta</w>
j ö
isi on##</w>
er ent</w>
sää nnö
ust ##</w>
u e</w>
peria at
ks essa</w>
talousarvi o##</w>
leg al</w>
pro cedu
ett a</w>
aga in</w>
n im
ol ve##</w>
ar m##</w>
tarko it
te ll
te itä</w>
työ tä</w>
til ann
b er
u sta</w>
g a
laaj en
ett ava</w>
wh ##</w>
a il##</w>
vo im
pres s##</w>
vaik utu
I s
op in
con tro
ra ken
p an##</w>
ty y</w>
cul ar##</w>
I ra
ou t##</w>
an t##</w>
u sta
val v
i ous</w>
kä s
os alta</w>
al a##</w>
parti cular##</w>
m in</w>
la w</w>
inte n
requi re##</w>
ty mis##</w>
M ember##</w>
terro ris
m at</w>
pä iv
tta mis##</w>
em män</w>
raho it
tr an
tu s##</w>
u m</w>
tt u</w>
puheenjohta ja</w>
af ter</w>
ffic i
are a##</w>
con f
i tel
certa in</w>
osall istu##</w>
sisä l
tor j
jul k
si a</w>
stan d
pi de
tä ä
väl in
pros ent
w er</w>
to ja</w>
ne go
is ter
tärke i##</w>
fun d##</w>
val ta##</w>
a m##</w>
til ante
he idän</w>
ne ss</w>
G ro
wa ys</w>
h ol
lu on
uks en##</w>
suu n
y ksi</w>
fur ther</w>
reg ard##</w>
l tä</w>
m o##</w>
mon i##</w>
kans ala
esitteli jä</w>
ch ##</w>
P ##</w>
w ard##</w>
ffic ul
di fficul
te ch
ma k
uu d
ate d</w>
vir an
w omen</w>
asio iden</w>
viran oma
ac coun
ta b
res pect</w>
h is
i te##</w>
c ies</w>
tel u
uu s</w>
g reat##</w>
mietinn ön</w>
st o##</w>
bud get</w>
d a</w>
c oll
pra c
uu si##</w>
n ing</w>
conc lu
su or
ll y</w>
ter m##</w>
sis ä##</w>
p u##</w>
suunn itel
u r##</w>
lis ä
mp l##</w>
un d</w>
0 1</w>
päätöslausel ma##</w>
c all##</w>
n iti
ll oin</w>
d one</w>
ne xt</w>
go ing</w>
ac e</w>
vapa u
com ple
op port##</w>
la a
progra mme</w>
. ##</w>
edell een</w>
shi p</w>
pre v
c k</w>
kysym ys</w>
toi men
n op
avu lla</w>
cle ar##</w>
ar ti
k no
b u
si mpl##</w>
v il
on a##</w>
is t</w>
al alla</w>
P re
po h
in ti##</w>
f av
diff erent</w>
fer ence</w>
r ule##</w>
pu r
suo jel
fu lly</w>
ma atal
l and</w>
tech n
trib ut##</w>
jo illa</w>
con tribut##</w>
kann alta</w>
onn istu##</w>
tu l
ti c</w>
st us##</w>
pro g
nä än</w>
tä ntö
re present##</w>
accep t##</w>
täy täntö
ap p##</w>
vast uu##</w>
vic e##</w>
fra me##</w>
e f##</w>
ol i##</w>
at ti##</w>
m itä##</w>
spe a
d ition##</w>
ett a##</w>
M a
ever y##</w>
oso it##</w>
aik ana</w>
en large##</w>
te oll
prote ction</w>
st u##</w>
kä y##</w>
en a</w>
t re
institu tion##</w>
tä nään</w>
st o
responsib il##</w>
edis tä##</w>
intere st##</w>
comm it##</w>
sel vä##</w>
hap p
w ard</w>
ta ma##</w>
T reat##</w>
u e##</w>
su c
c ap
selv es</w>
union i</w>
se ur
mak ing</w>
kes k
keskustel u
par t##</w>
se ar
it e</w>
il man</w>
isuu s</w>
vaati mu
sub ject</w>
de f
min un</w>
opin ion</w>
inv olve##</w>
al ti
gro up</w>
nop e
pl ic##</w>
mu n
as k</w>
is im
e i
ma a##</w>
su r
ll inen</w>
ser vice##</w>
to te
hy vä</w>
ta a
ol ev
st ar
le t</w>
ag ree</w>
julk is##</w>
u al</w>
il e</w>
ro le</w>
u su
ar vo
edu sta
k ri
saf ety</w>
va ih
ta in##</w>
uks een</w>
w ish</w>
rela t##</w>
isuu tta</w>
ff air##</w>
va ar
qu it##</w>
ase tu
täm ä##</w>
mo t##</w>
os a</w>
ol tava</w>
Sta te</w>
nego ti##</w>
pri or
li ber
cl os
jo issa</w>
tule e</w>
nä kö
st u
Gro up</w>
asia sta</w>
strate g
jo lla</w>
tarv i##</w>
l im
it se
ma in</w>
foll ow##</w>
hi gh##</w>
19 9
va k
tule va##</w>
tapa uksessa</w>
valv on
yksi ä</w>
oll e##</w>
fe w</w>
tie ten##</w>
cul tural</w>
te et</w>
arti k
ic t##</w>
perus teell##</w>
asi a##</w>
th ree</w>
ki ittä##</w>
sec tor</w>
an d
secon d</w>
toteu tta##</w>
laajen tu
wh ole</w>
tied o
gra tion</w>
princip le</w>
mil jo
ill ##</w>
al ta##</w>
prosent ti##</w>
h all</w>
p re##</w>
it ive</w>
he alth</w>
est ä
prog ress</w>
kir ja##</w>
sear ch</w>
ki rj
c i##</w>
ex c
Is ra
mietinnö ssä</w>
uud istu
ti e##</w>
per s
as e##</w>
työ n
o tt
ti me##</w>
kys e##</w>
ks esta</w>
sel ke
ää ri
oikeu ksien</w>
kun ta</w>
tärke ä</w>
speci fic</w>
otta a</w>
nn ön</w>
me ille</w>
lin e##</w>
lin e</w>
to g
is tä##</w>
esitteli jä##</w>
A mer
h an</w>
enc e##</w>
saad a</w>
our ce##</w>
pro mot##</w>
is em
strate g##</w>
ke y</w>
ati ve##</w>
kou lu
do wn</w>
speci al##</w>
du r##</w>
p yst
an i</w>
ann e##</w>
ik e##</w>
aik a##</w>
c ar
o i##</w>
per usta
il d##</w>
2 ##</w>
ol og
e et</w>
mi ä</w>
käsit tel
al is
parla ment##</w>
os a
g en
tran s##</w>
bet ter</w>
pa a</w>
va sta</w>
n er##</w>
ra k
ks ista</w>
määr ä##</w>
in f
mietin tö</w>
for ward</w>
1 0</w>
tu ke##</w>
ma sta</w>
il ta</w>
Pre sid##</w>
200 1</w>
tä mis##</w>
do m</w>
th ir##</w>
m ääri
us ed</w>
pre par##</w>
el i</w>
pyr i##</w>
establis h##</w>
sit ou
M ad
tiet o##</w>
ik a##</w>
var i##</w>
p rec
ar ante
toimen pi
ac cor
huol i##</w>
d i##</w>
fun da
tehtä vä</w>
resul t</w>
ka ts
ti a##</w>
vo te##</w>
regula tion</w>
p er</w>
ac h##</w>
sid e</w>
Con vention</w>
ten t</w>
chan ge</w>
p resid
ind u##</w>
u p
väl ttä##</w>
men d
liit tyvä##</w>
N o</w>
ksi ä</w>
K ##</w>
varmis ta##</w>
h e##</w>
uu dell
tule va
a ih
es s##</w>
f ul
ever y</w>
ord in
koro sta##</w>
tä ä</w>
appro ach</w>
sisä ll
en ä</w>
y n</w>
gu arante
aik aan</w>
us k
si ja##</w>
va kuu
ll een</w>
an im##</w>
e de
te ita</w>
ti a</w>
min ister
enn e##</w>
a w
aj a
certa in##</w>
j av
pen d##</w>
ksi ##</w>
tog ether</w>
puheenjohta ja##</w>
ks en##</w>
f ree##</w>
ag ri##</w>
tää llä</w>
Yhd ys##</w>
und er
muu to
accor d##</w>
mu odo
kaik kia</w>
kansala isten</w>
va i
ks eni</w>
0 2</w>
s p
fin al##</w>
ig n</w>
ryh mä
prior it##</w>
lo b
kats o##</w>
fav our</w>
gener al</w>
ta a##</w>
di d</w>
st ate</w>
suh ta
wel come</w>
joh ta##</w>
curr ent</w>
ac ti
in e</w>
ryh män</w>
environ mental</w>
par an
wor d##</w>
vo ima
tak ing</w>
at ten
or y</w>
al an</w>
st and</w>
trans port</w>
c rat##</w>
mon e
ffic e</w>
com e##</w>
vu os
sa av
ex tre
c re
ka ksi</w>
asia a</w>
de fin
tett u##</w>
d u##</w>
s m
me et##</w>
ään estä##</w>
mm e##</w>
ll is##</w>
tuke a</w>
teki jö
oikeu dell
ta va##</w>
la usu
miljo ona##</w>
n sä</w>
pa in
mill ion</w>
vel vo
P ro
artik la##</w>
ap pe
so ci##</w>
d en
u p##</w>
het ke
terve y
saa tta##</w>
puheenjohta jav
puheenjohtajav alti
demo crat##</w>
con sum
hall in
comm ittee</w>
fi el
lo c
A mend
ex ##</w>
ite ttava##</w>
Mad am</w>
toimin ta##</w>
man age##</w>
prose ss
en d##</w>
ai r</w>
ess enti
ser v##</w>
o ther##</w>
kir jo
täm ä
ra cy</w>
n cy</w>
yh ä</w>
va t##</w>
or s</w>
li i##</w>
ac tu
con dition##</w>
yhd en
vi in</w>
ll isyy
yks in
kanna t##</w>
ker ra##</w>
ö n
in tro
il mo
accoun t</w>
a sta</w>
k ka##</w>
gu e</w>
intro duc##</w>
il y</w>
hetke llä</w>
ur g##</w>
ku in
h in
kuin ka</w>
tied ä##</w>
muka isesti</w>
produc t##</w>
hel p</w>
ener g
talou s##</w>
rela tion##</w>
a ali##</w>
se e
kulu tta
isuu dessa</w>
A ffair##</w>
tra de</w>
el u##</w>
turvallis uus##</w>
le ast</w>
la ad
käy tö
ko jen</w>
1 5</w>
se qu
200 0</w>
M in
tett y</w>
c ro
te ille</w>
com mun
sää ntö
ti en</w>
sä il
hav ing</w>
yh tä</w>
y ttä##</w>
vuo ro##</w>
kolleg at</w>
to inen</w>
demokra atti##</w>
te ttävä</w>
direktiiv in</w>
käy ttää</w>
hyö dy
ki in
uks ista</w>
n a##</w>
tt y##</w>
mietin tö
käs itte
reas on##</w>
er ä
fi ed</w>
b i
jo hd
prov ide</w>
mu iden</w>
ma t##</w>
parlament issa</w>
henkil ö##</w>
e ment</w>
var ma##</w>
em mis
res ource##</w>
tilann e</w>
tt uu
rec og
te d</w>
recog n##</w>
politiik kaa</w>
com ing</w>
ene f
b enef
f f</w>
is ista</w>
sh or
huom a
b o
d o##</w>
men e
sel vä
koske va</w>
st ä##</w>
ehdotu ksen</w>
hyväks y
ul ko##</w>
tek n
d en##</w>
pet ition</w>
es it
prov ide##</w>
n kin</w>
commun ic##</w>
kunn io
pe ace</w>
neuvost o##</w>
fin d</w>
ik ke
organ is
j at</w>
I r
ser ious</w>
c la
nope a##</w>
e iv##</w>
merk ity
pro mis
en ä##</w>
be come</w>
in e##</w>
aik o
o ff
li f
un d##</w>
ar vo##</w>
wh ile</w>
b al
sup port##</w>
d ing</w>
ur o</w>
P al
vahv ista##</w>
t oma
kul ttuu
ri ippu
inclu ding</w>
d ou
v is
ma in##</w>
T ##</w>
mis sä</w>
ex press##</w>
e e##</w>
var ten</w>
in g
l en
val itettava##</w>
sy n
ou ra
al le</w>
void a</w>
a sti</w>
ku va##</w>
tt y</w>
käsi tel
to a</w>
ans ka##</w>
o on</w>
Euroop assa</w>
EU R</w>
dou b
vä hen
vall a</w>
tuom io
pol i##</w>
isim man</w>
tic le</w>
te mp
parlament ti##</w>
l öy
p ris
is ing</w>
o s##</w>
b od
ka h
d ä##</w>
contro l</w>
aj an</w>
is eksi</w>
laajentu mis##</w>
g lob
e en##</w>
reg ion##</w>
k al
asi an</w>
perusta mis##</w>
all ow</w>
ion al</w>
alo itte
re duc##</w>
jou tu##</w>
täy tyy</w>
var si##</w>
lu o
i ksi</w>
3 ##</w>
re search</w>
kunn assa</w>
ti c##</w>
a k
b ro
re form</w>
palvel u
rahoit us##</w>
tuomio istu
procedu re</w>
C on##</w>
vaik utta##</w>
r en</w>
saav utta##</w>
Yhd is##</w>
pit kä##</w>
val tu
ta valla</w>
tu s</w>
par lia
käyttö ön</w>
struc t##</w>
c all</w>
n or
l yh
st ään</w>
istu n
ab ly</w>
sta in##</w>
lar ge</w>
m or##</w>
to de
pan o##</w>
seur a##</w>
200 2</w>
ä li##</w>
hi gh</w>
econom ##</w>
tarv itse##</w>
nim ittä##</w>
I tal
m ember##</w>
nouda t##</w>
oun d</w>
2 0</w>
kes ke
difficul t</w>
re d</w>
tar jo
In ter##</w>
ter m</w>
cul ture</w>
v ista</w>
P or
kul j
m yy
maa han
toim iv
ex ten
os a##</w>
ch ar
de m##</w>
voit aisi##</w>
rec eiv##</w>
ole massa</w>
p li
ittä mis##</w>
uks esta</w>
yh dessä</w>
kehity s##</w>
ic t</w>
u ot
h and</w>
is essa</w>
ac t##</w>
ma tt
for t##</w>
henkil ö
ci p##</w>
reas on</w>
ma jo
ac cess</w>
asian muka##</w>
com b
niti ative</w>
koh ta##</w>
bac k</w>
gro w##</w>
funda mental</w>
jo ista</w>
toimi el
puheen vuoro##</w>
olev an</w>
nä ke
voim a##</w>
ra te</w>
c ent</w>
si der</w>
ks emme</w>
for ce</w>
con sider</w>
o tetaan</w>
järjestel mä
M ar
w er##</w>
mone y</w>
oc racy</w>
majo r</w>
tta a</w>
puol u
th ing##</w>
re al</w>
pl an##</w>
essenti al</w>
pos e##</w>
luon no
b us
m in##</w>
his tor
l ing</w>
vil jel
ka a##</w>
il a##</w>
ne en</w>
an g
aihe utta##</w>
extre me##</w>
f is
lo g
oike us
o t</w>
sm all</w>
dec ision##</w>
quest ion##</w>
iv er
fiel d</w>
ta in</w>
mi in</w>
oike a##</w>
h an##</w>
t reat##</w>
p ys
environ ment</w>
pi en##</w>
va ad
par ha
pid ä##</w>
kor ke
keskustel u</w>
3 0</w>
5 0</w>
accep t</w>
gra tu
tu ll
kö yh
me di
k ö##</w>
se ik
sov el
res s##</w>
gratu l##</w>
con gratul##</w>
Amer ic
re port##</w>
in al</w>
ref er##</w>
jo h##</w>
ett e</w>
de m
ou ght</w>
p ala
si o##</w>
u t
kau tta</w>
kas v
huom au
conc ern</w>
valmis telu##</w>
it a
jat ka##</w>
ener g##</w>
Min is
par t
pos itive</w>
aw are</w>
neuvot telu
effec tive</w>
min d</w>
tion al</w>
mm it</w>
ehdotu s</w>
all i##</w>
k op
it u##</w>
i z
maatal ous##</w>
o d##</w>
0 3</w>
we e
tyy tyvä##</w>
resul t##</w>
har jo
asio ita</w>
loo k</w>
atten tion</w>
ap plic##</w>
ol d</w>
k iv
h er##</w>
E n
markkino iden</w>
sig n##</w>
miel ##</w>
mi ksi</w>
ke ho
p o##</w>
pres s</w>
as k##</w>
st ann
maahan muu
ell is##</w>
selke ä##</w>
4 ##</w>
mahdoll ista</w>
e ag
vuo tta</w>
ma j
i fied</w>
demokra tia##</w>
it si</w>
ss ä##</w>
ap ain
itta va##</w>
tel y##</w>
ta is
sig n
re ign</w>
te ttiin</w>
c ar##</w>
an al
Ar ticle</w>
ku mp
appro pri
it al</w>
mon et</w>
h on
syste m##</w>
teho kkaa##</w>
ful l</w>
ra tion</w>
er ila##</w>
h er</w>
ell e##</w>
vi ik
maj or##</w>
vo isi</w>
uudell een</w>
s ken
tta ma##</w>
ple as##</w>
S u
G overn##</w>
lainsäädä n
is te##</w>
g g
O ffice</w>
y stä</w>
su stain##</w>
rak enn
c iv
täytäntö ön
spea k##</w>
t s</w>
muu tta##</w>
R i
t u</w>
selvä sti</w>
tarka stel
nn ö##</w>
do cu
ko ja</w>
f le
tarkoit uksen##</w>
secon d##</w>
et ti##</w>
vai he
in nä##</w>
fo od</w>
te llä</w>
ar v
kilpa ilu##</w>
ett ##</w>
cr it
mä ttä</w>
jäs en##</w>
ei ther</w>
m ik
p ly</w>
tas apain
järjestel män</w>
si lloin</w>
min ist##</w>
oikeu ksia</w>
E ##</w>
f arm##</w>
est ##</w>
ta ge</w>
in str
Ital ia##</w>
kilpa il
bus in
aik a
coll eag
tark ist##</w>
torj u##</w>
vuo ro
inter nal</w>
ste p</w>
chan ge##</w>
o f##</w>
iv id
mi ght</w>
ind ivid
elin tarv
läh est
ens innä##</w>
k estä
mis estä</w>
om an</w>
minu sta</w>
ker ta##</w>
sta te
pos e</w>
union issa</w>
n e##</w>
av ail##</w>
l ong##</w>
1 2</w>
th em##</w>
ko kon
uu teen</w>
tan ut</w>
mu istu
use in</w>
f ree</w>
Tur k##</w>
is essä</w>
työ sken
a ffec
sa avu
k ar
oike us</w>
is ivat</w>
euroopp ala
vi ol##</w>
li ght</w>
ie r</w>
lop pu##</w>
op en</w>
te ri
mie h
im mä
ti es</w>
prac ti
ku stann
instr u##</w>
st i##</w>
e s##</w>
p op
ta voi##</w>
sa y##</w>
l ää
par em
n en</w>
uu desta</w>
parlia ment##</w>
s or
up on</w>
bud j
intere st</w>
ter nal</w>
keh ittämis##</w>
he ik
alu een</w>
fe el</w>
yr itys
pro f
responsib le</w>
na isten</w>
ett y##</w>
sa mo##</w>
käy nn
tion ed</w>
men tioned</w>
str eng
ker tom
ep ä##</w>
j ust
ed uc
alo gue</w>
v äär
per io
gro up##</w>
t te
näke m
0 0##</w>
ker s</w>
hap ##</w>
terro r##</w>
sign ific
tois eksi</w>
a se</w>
laati ##</w>
appropri ate</w>
parti cip##</w>
A l
k el
lyh y
v ice</w>
l ies</w>
keho t##</w>
suun ta
tu re##</w>
fis her##</w>
su os
par an##</w>
sub ##</w>
ka hd
yhteis työtä</w>
te mme</w>
la b
R e
tö n
conf l
an y##</w>
kä r
ad minist##</w>
j an</w>
com pro
compro mis##</w>
Ar voisa</w>
jä lleen</w>
alue ella</w>
invest ##</w>
cr is##</w>
j ud
ne iden</w>
emp i</w>
ongel mia</w>
muistu t##</w>
cro ss</w>
al le
var a##</w>
progra mme##</w>
kaup pa##</w>
toim iin</w>
Isra el##</w>
nä y
tur n</w>
ryh ty##</w>
il i
c k##</w>
c ent##</w>
G re
ris k</w>
b eg
suu ri</w>
ro w</w>
ati o##</w>
st ro
ov er
han kke
wa r</w>
edell y##</w>
toimin n
pyy dä##</w>
com mun##</w>
be st</w>
V en
emmis tö##</w>
viim e##</w>
mon it
m mä
puheenjohtajavalti o</w>
määr ä</w>
star t</w>
liik en
ex peri
k ö</w>
actu al##</w>
o ssa</w>
työn tekijö
es s</w>
1 1</w>
est in
maail man</w>
usk on</w>
ran t##</w>
tehtä vä
er a
oura g##</w>
s how##</w>
ys val
ffici ent</w>
kon fer
yks en</w>
n da</w>
c and
od a</w>
si l
all ow##</w>
stand ard##</w>
u ol##</w>
po wer</w>
k ym
hu ippu
ta minen</w>
di alogue</w>
ul kop
ulkop uol##</w>
m on##</w>
in t</w>
edis ty##</w>
br ing</w>
ki ito
kau den</w>
prev ent##</w>
tt le</w>
ll isesti</w>
ex ist##</w>
keh it
immä is##</w>
ma an
kun ta##</w>
y ty
re ach##</w>
tas olla</w>
200 3</w>
mil it
Ven ä
tu u</w>
tt o##</w>
lif e</w>
tur va##</w>
it tele##</w>
elin ten</w>
pyst y##</w>
sosia al
ole va##</w>
hu on
ra s
im p
avo im##</w>
kala stus##</w>
väh ä##</w>
s pan
m i</w>
ar ity</w>
wor kers</w>
sää n
Amend ment</w>
on ta</w>
o t##</w>
A n
vuoro puh
m om
vaati ##</w>
vä est
produc ##</w>
tavoitte en##</w>
cand id##</w>
S a
valtio iden</w>
under stand</w>
isuu s##</w>
mat ter##</w>
k ää
tois in</w>
pel kä##</w>
yl i</w>
laaj u##</w>
tr a##</w>
emp h
curr ent##</w>
yritys ten</w>
ol o
täytäntöön pano##</w>
n el
puu ttu##</w>
Ri ght##</w>
k re
syy stä</w>
osa puol
fi ght</w>
se s</w>
R us
enc ourag##</w>
ma issa</w>
kump pan
ca ses</w>
ymmär r
u k
id en##</w>
esi in</w>
ongel ma</w>
suh te
es itys
me d
tapah tu##</w>
se ver##</w>
kanna tta##</w>
huomio ta</w>
mon th##</w>
reg ion</w>
ac cess##</w>
st e</w>
me itä</w>
H u
tois aa##</w>
kno w
j ia</w>
pä ivä
y d
oike ud
w ant##</w>
jo ka##</w>
kym men
tal k##</w>
d er##</w>
C our
lu o##</w>
ust ri
M ##</w>
suor a##</w>
sis t##</w>
esit tämä##</w>
fir st##</w>
käsitte le
alue iden</w>
it telu##</w>
epä il
valio kunta</w>
li g##</w>
vast usta##</w>
part ner##</w>
jou k
milit ar##</w>
i g##</w>
vast uu
es ity
seura av
de al
it tu##</w>
f ail##</w>
t al##</w>
sta te##</w>
m it##</w>
koh taan</w>
b ur
lis ta##</w>
reg ional</w>
g rant##</w>
e iden</w>
ll aan</w>
B 5</w>
Ira k##</w>
väl inen</w>
säil y##</w>
lim it##</w>
ou gh</w>
streng th##</w>
c o</w>
val tojen</w>
Cour t</w>
maks a##</w>
happ en##</w>
bud get##</w>
iss a##</w>
e te
if y</w>
t is
la ck</w>
vaad i##</w>
järjest ö
lähest y
le d
so tila
ch ild##</w>
stan ce##</w>
mi gration</w>
for tu
energ ia##</w>
marke t##</w>
s pit
spit e</w>
tarkistu ksia</w>
9 9</w>
d ang
s u##</w>
o ike##</w>
itta va</w>
W ##</w>
B el
b an
aik aa</w>
ill is##</w>
dra ft</w>
com mend##</w>
know led
tu g
d i</w>
tuleva isuudessa</w>
merk ittävä##</w>
ehdo kas
pid ä</w>
ke ino
lo s##</w>
tek st
mu ita</w>
vo in</w>
seura ava##</w>
w r
ll is
im e</w>
ten t##</w>
ri ittävä##</w>
men ne
me th
tab le##</w>
kokou ksessa</w>
jat kuva##</w>
st r##</w>
a pu
ro und</w>
myö s##</w>
va al
pu t##</w>
ific ation</w>
lä he
ko ke
inclu de##</w>
yhte nä
ri ed</w>
po ikke
la p
esitys lista##</w>
ehdotu ksia</w>
du e</w>
ar is##</w>
m er##</w>
li ght##</w>
r in
no thing</w>
te le
ti ve##</w>
riippu mat##</w>
organis ation##</w>
a ie
menne ssä</w>
stu d##</w>
na te##</w>
f oc
ihmis ten</w>
pop ul##</w>
tu le##</w>
fortu nate##</w>
sub sid##</w>
y t</w>
eh kä</w>
l ed</w>
la s
an sio##</w>
rec t##</w>
yks ityis##</w>
an ta
mietintö ä</w>
ust us##</w>
tasapain o##</w>
yksi miel##</w>
ud u##</w>
produc tion</w>
ob lig##</w>
ov e</w>
o tettava</w>
kom ite
ib ility</w>
ehdotu sta</w>
kys y##</w>
mu l
kin d</w>
fin al</w>
e p</w>
il tä</w>
de mon
c el
jo ita##</w>
demon str##</w>
enc ##</w>
ate s</w>
n on</w>
E span
ett u</w>
yhd y##</w>
experi enc##</w>
perio d</w>
kunnio it##</w>
B er
kom promis
2 5</w>
su gg
pit ä##</w>
op er##</w>
mov e</w>
torj un
vasta a##</w>
min i##</w>
D i
tuot an
tu n</w>
j ##</w>
e qu
ra ha##</w>
ent istä</w>
ehdokas valtio##</w>
ta maan</w>
pyr ki##</w>
kesk it
toimiel im##</w>
per ä##</w>
str ict##</w>
vaih to
me an</w>
educ ation</w>
isi ja##</w>
ens isija##</w>
am oun
ohjel man</w>
t ti##</w>
princip le##</w>
jä rke
tell ä##</w>
to ista##</w>
op en##</w>
lisä ä##</w>
co st##</w>
sovel tamis##</w>
S o
us la
he i##</w>
est a##</w>
s alli##</w>
parha i##</w>
M ed
loc al</w>
mu o
kulttuu ri##</w>
käy ttä
sol id##</w>
or ig
mä ttö
jo ihin</w>
e ar
mom ent</w>
Venä jä##</w>
con tra
kul u##</w>
tarko itta##</w>
pa ss##</w>
prev ent</w>
mahdollisuu s</w>
5 ##</w>
si en</w>
keskustel un</w>
jo t##</w>
parem m##</w>
kon kre
aja tu
exc el##</w>
e en
is sa
de pen
o re
am b
syy tä</w>
com pe
f ic##</w>
mo d
for ce##</w>
G er
i an
keskustel u##</w>
ec t##</w>
vak ava##</w>
p h
il o##</w>
lyhy e##</w>
ou s
kestä vä##</w>
jo int</w>
Por tug
toma sti</w>
iv a##</w>
con struct##</w>
Yhd ysval
ki inn
mä tön
an i##</w>
Yhdysval l##</w>
0 1##</w>
er in
ne t##</w>
mätön tä</w>
te idän</w>
maail man
d y##</w>
m el
L i##</w>
ar e##</w>
budj etti##</w>
acti v##</w>
tab le</w>
le ad</w>
as pect##</w>
suojel u##</w>
R anska##</w>
p öy
rela tion</w>
huoma ttava##</w>
than k##</w>
pa st</w>
ab ove</w>
it o##</w>
effec t</w>
syn ty##</w>
politiik ka</w>
res pect##</w>
koll e
as etta##</w>
P ro##</w>
ol isi##</w>
de ta
d ä</w>
tr ue</w>
mp i</w>
muu n</w>
ma ke##</w>
iver s##</w>
yh ti
al ka##</w>
vi ra
ett u##</w>
po wer##</w>
ide a</w>
ou th</w>
s ett
pa itsi</w>
lainsäädä nnön</w>
ki itä##</w>
pli ed</w>
ne t
pa ino
koulu tu
konkre ett##</w>
en g##</w>
toiminn an</w>
itt u</w>
te ty
si lle</w>
il i##</w>
f ish##</w>
el ta</w>
erin oma##</w>
vuoropuh elu##</w>
ra ha
ki i
tt ##</w>
sopim us</w>
mä llä</w>
jäsen ten</w>
union i##</w>
fur ther##</w>
Y K##</w>
paik allis##</w>
ass ess##</w>
pre vi
e ment##</w>
o ff</w>
os in</w>
järjestel mä</w>
e qual##</w>
pä in</w>
ks e##</w>
eh kä
pää ttä##</w>
ta ke##</w>
sy rj
clos e##</w>
solu tion##</w>
s ci
oun d##</w>
est i
u ksiin</w>
l ent</w>
asi aan</w>
R eg
muu t</w>
lainsäädän tö##</w>
e uro</w>
aik a</w>
kun ing
tie te
u b
mu r
min ä</w>
liik enne##</w>
uks issa</w>
affec t##</w>
ymmär tä##</w>
individ ual</w>
vel ##</w>
l ar##</w>
matt om
bod y</w>
ai o##</w>
valvon ta##</w>
K i
us ko
yksin kerta##</w>
ki a##</w>
dec lar##</w>
prov ision##</w>
tuomioistu im
ihmis oikeus##</w>
pu n
ous ly</w>
ab sol
käy ttä##</w>
käytä nnö##</w>
id ä
c tion##</w>
laa ja##</w>
ist s</w>
ll e##</w>
te ttä
läh e##</w>
kor va
con sul
is ille</w>
Tur key</w>
Ira q</w>
merk it
mene tel
spe cial</w>
pää tty##</w>
markk ina##</w>
kokou ksen</w>
Euroop pa##</w>
hu man##</w>
l i</w>
enn a##</w>
is to##</w>
teh nyt</w>
kol m
ic k##</w>
c ent
e u
j ille</w>
alue ell##</w>
tied on
se em##</w>
pro ject##</w>
uu si</w>
ti l</w>
min kä</w>
ä is##</w>
wa ter</w>
tt u
kal ta
ind ic##</w>
er i##</w>
uc ##</w>
kan san
pla y</w>
n ation</w>
tic al</w>
pers on
e k
un til</w>
tra in##</w>
toimi elinten</w>
sh e</w>
K an
guarante e</w>
ad van
hall inno
en ss
comple te##</w>
ch all
chall eng##</w>
lainsäädä ntö
halu a</w>
ci r
ed e##</w>
ob serv##</w>
kysym yksiä</w>
kolm anne##</w>
saa ta
ti m##</w>
h a</w>
log ical</w>
sta t##</w>
ik ka##</w>
kehity ksen</w>
oikeu den</w>
hyö ty##</w>
yhteis ö
välis en</w>
absol ut##</w>
stan d##</w>
ac tion##</w>
l ou
l o</w>
0 2##</w>
liber al##</w>
es ter
vuo si##</w>
ta pa</w>
h er
ob vi##</w>
ker to##</w>
cr uc##</w>
var a
mä t##</w>
kasv u##</w>
f o##</w>
Par t##</w>
v ision</w>
to o
techn olog
ac c
vapa a##</w>
pri vat##</w>
si ja
hi m</w>
tarjo a##</w>
perust usla
po ista##</w>
st ö##</w>
o m</w>
f am
J u##</w>
tö mä
päätö ks
ni men
keskustelu a</w>
1 3</w>
to si
te h##</w>
konfer enss
huol est
con ne
ryh mä</w>
vi lle</w>
u g
toim ien</w>
käy tt
kolle go
kä ä##</w>
v issa</w>
ss el
ste lla</w>
hy l
jo lloin</w>
ser vice</w>
sh are</w>
päiv ä##</w>
practi ce</w>
F ##</w>
h ie
bal ance</w>
ä s
ol enna##</w>
monit or##</w>
ö l
techn ical</w>
lis ään
pl an</w>
inclu de</w>
koh ta</w>
adop t</w>
er o
id a
p onn
na me##</w>
taa s</w>
lo w</w>
talou den</w>
mon im
loo k##</w>
ill a##</w>
Espan ja##</w>
mar k##</w>
hel d</w>
j ää
is enä</w>
sen se</w>
mov e##</w>
yy den</w>
dra w</w>
shor t</w>
kä si##</w>
conne ct##</w>
a ktiiv
ta u
pla y##</w>
prose s
kokon ais##</w>
vä kiv
jä ttä##</w>
cr it##</w>
F R</w>
h im
civ il</w>
hallit uksen</w>
i o</w>
t in</w>
ep t##</w>
I ##</w>
imp act</w>
rat ka
mietinnö stä</w>
is ena</w>
add ition</w>
ai m</w>
tä vä</w>
con tain##</w>
it us##</w>
confl ict</w>
0 00</w>
hie man</w>
v issä</w>
ul kom
luonno ll##</w>
it te</w>
ic e##</w>
ex press</w>
wh o##</w>
tu en</w>
turvallis uuden</w>
ol ivat</w>
ittä vä</w>
t ou
H e
man d##</w>
Af ri##</w>
knowled ge</w>
ar vois
EU ##</w>
gen u
consum er##</w>
O M</w>
ti etty##</w>
ne t</w>
si vat</w>
kulj etu
diff er##</w>
itta ma##</w>
c he
S ec
qu est</w>
käsitel tävä##</w>
F r
state ment</w>
voima kkaa##</w>
val vo##</w>
199 9</w>
n or</w>
signific ant</w>
ass ist##</w>
kon f
ko s##</w>
si jo
e tu##</w>
tut ki##</w>
mm än</w>
sitou tu##</w>
as is##</w>
guarante e##</w>
re main##</w>
procedu re##</w>
emph asis##</w>
consul t##</w>
inten d##</w>
toim et</w>
U N</w>
vie w##</w>
huomau t##</w>
use a##</w>
yhte en
valio kunnassa</w>
muu ta</w>
teke mä
at temp
su ff
en na</w>
pi an</w>
neuvost ossa</w>
ta kia</w>
L a
poliitt inen</w>
myö nn
k an##</w>
ratkais e##</w>
liik ku
jo ta##</w>
F r##</w>
lan gu
Bel g
inte gration</w>
M E
jat ko##</w>
de lle</w>
kysymyks en</w>
tu ki##</w>
op e##</w>
hallit us</w>
re pe
pu itte
ite m</w>
oll ee##</w>
miel i
har mon##</w>
a al
ki inno
ik ##</w>
pa y
työ llisyy
com pet
varo ja</w>
val tion</w>
elä in
ett ä##</w>
alo itta##</w>
Su mmit</w>
ne e##</w>
kaik en</w>
1 .</w>
use ita</w>
pro ##</w>
depen d
ryhmä ni</w>
k lo</w>
N or
konf lik
K os
jo ten</w>
de stä</w>
liit tymis##</w>
ta h
P oli##</w>
presid e##</w>
re al
tr i##</w>
con stitu
st on</w>
re main</w>
ks issa</w>
itu sta</w>
K re
D em
nimen oma##</w>
suc cess##</w>
respon se</w>
b order</w>
b on</w>
han k
R ##</w>
vaihe essa</w>
colleag ue##</w>
de mand##</w>
M ar##</w>
m it</w>
benef it</w>
Minis ter</w>
m ember</w>
dec ide##</w>
a st##</w>
ä kuu##</w>
consum er</w>
vaihto eh
kol me</w>
i la
da m</w>
tek ni
id enti
al ku
Kos ov
tie tä##</w>
toi vo
reg re
minister i</w>
de ter
crit ic##</w>
ca use##</w>
Ch i##</w>
f i##</w>
a im##</w>
ma te</w>
ord er##</w>
ans wer</w>
an ce##</w>
y oun
no ssa</w>
is ella</w>
de lla</w>
velvo ll
B ud
minu lla</w>
kol man
exc lu
tu t</w>
tarkistu sta</w>
hyvä ksi</w>
ill eg
fir m##</w>
us ko##</w>
tode ta</w>
sa man
tu o
rik oll
e an</w>
tta isiin</w>
S tra
an teen</w>
a ma##</w>
sopim ukseen</w>
p ä</w>
os ten</w>
löy tä##</w>
h om
tarkoit us</w>
de si
käsit tele##</w>
mis sa</w>
4 0</w>
sano i</w>
glob al</w>
viljel i
tutkim us##</w>
keh itys
toimin taa</w>
spe c
vast oin</w>
spea k</w>
difficul t##</w>
kun tien</w>
ar i##</w>
vi itta
throu gh##</w>
ran ga
cl ar##</w>
käsi tellä</w>
na ture</w>
struc ture</w>
esi merk
til anteen</w>
ol ette</w>
Af rik
av ##</w>
tilann etta</w>
il d</w>
tehd ään</w>
st ance</w>
equ al</w>
el im
& #
&# 9
sä h
suhta udu##</w>
na an</w>
re st</w>
b on##</w>
1 4</w>
pa y</w>
lisä ä</w>
for t</w>
S ch
tapahtu u</w>
b an</w>
S E</w>
alue illa</w>
f air</w>
N o##</w>
ky llä</w>
tas k</w>
over ty</w>
re form##</w>
hon our##</w>
teh ty</w>
välin e
f t##</w>
desi r##</w>
clos ed</w>
ste ad</w>
ref le
establis h</w>
en si##</w>
vah in
suc cess</w>
ord ino
johd on
is estä</w>
6 ##</w>
op im
ta sa</w>
rea d</w>
ko ordino
pöy tä
suhta utu##</w>
p overty</w>
re ach</w>
käsittel y
ittä is##</w>
ci al##</w>
uu n</w>
ol ve</w>
a de
ve to
l uu
0 4</w>
ar t</w>
kuning as##</w>
oikeud en
edell yty
ris ti
effec tive##</w>
ett om
asio ista</w>
oikeu tta</w>
j ar
Med i##</w>
vall an</w>
ro h
merkit see</w>
lu m</w>
da ta</w>
appro ve##</w>
institu tional</w>
il it##</w>
ks a##</w>
y ll
Pal estin
teke e</w>
si ellä</w>
yle is
tekemä ä##</w>
pa ko
depend ent</w>
ki en</w>
yh te##</w>
Euro ##</w>
ver o##</w>
määri tel
kaik kia##</w>
asetu ksen</w>
täytäntö ön</w>
ta pa##</w>
poliitt isen</w>
mis essa</w>
dis crim
L ä
D ##</w>
öl j
yhtenä is##</w>
kuu lu
att ac
aik av
ty ö</w>
re strict##</w>
re al##</w>
lab our</w>
m paa</w>
liiken teen</w>
B ar##</w>
määrä raho
busin ess</w>
poh j
otta mu
lu ottamu
ede s</w>
Br it##</w>
direktiiv i##</w>
aktiiv ##</w>
aikav äli##</w>
teke mä##</w>
ss ur##</w>
previ ous</w>
pre ssur##</w>
käsi tellä##</w>
ka s</w>
ro ad</w>
minu lle</w>
anal ys##</w>
tekni ik
onn ettom
mu a##</w>
youn g</w>
hol d</w>
y ty##</w>
tarkistu ksen</w>
u no
työllisyy s##</w>
ter r##</w>
del eg
kirjo it##</w>
lausu n
l y
huom enna</w>
ta x</w>
muu ta##</w>
av e</w>
as y##</w>
l ive</w>
varo jen</w>
tur vapa
star t##</w>
no in</w>
niti ative##</w>
jäsen en</w>
L issa
suunta vi
ac tive</w>
kehity stä</w>
itu ksia</w>
b rea
mov ##</w>
kan taa</w>
vaike a##</w>
0 3##</w>
f ound</w>
men est
he itä</w>
min e</w>
ta x##</w>
sisäll yttä##</w>
it ar
muu tama##</w>
con st
ordin ation</w>
Lissa bon##</w>
sugg est##</w>
kahd en</w>
ny ky
m pa
ex pect##</w>
cl ose</w>
yksi in</w>
wa ste</w>
ss aan</w>
laa tu##</w>
cap ac
tämä n
tas av
seuraav an##</w>
sopim usten</w>
sequ ence##</w>
regula tion##</w>
maailman laaju##</w>
just ice</w>
doub t</w>
asi at</w>
al e</w>
con sist##</w>
pro ject</w>
perust u
enc h</w>
pain o##</w>
nation al##</w>
kohd alla</w>
viim e
con v
ksi lle</w>
val ue##</w>
p ac
va i</w>
en tti</w>
gu ide##</w>
kompromis si##</w>
as te
miel essä</w>
paran tamis##</w>
palvelu jen</w>
mor e##</w>
gra te##</w>
ma teri
v istä</w>
tur n##</w>
sääntö jä</w>
ed usta##</w>
speci fic##</w>
kysym ystä</w>
P a##</w>
ity is
ky se
uno h
ex p
ade qu
idä t</w>
o p</w>
f our</w>
S ch##</w>
mik ä##</w>
ap ##</w>
R uot
uu dis
ru le</w>
Rus sia</w>
wee k</w>
tu ho
ill e##</w>
av i##</w>
ma at</w>
viranoma isten</w>
spe ec
lis t</w>
add ress##</w>
val mi
oc i##</w>
h or
Fr ench</w>
ce ed##</w>
su fficient</w>
id ent##</w>
no te</w>
tiet y
poliitt ista</w>
ker taa</w>
l y##</w>
tarpe en</w>
puu t
ta vat</w>
illeg al</w>
oll ##</w>
nä kö##</w>
j ust##</w>
ver k
F und##</w>
terroris min</w>
p ap
mer en</w>
b io##</w>
ter ran
s pi
r iv##</w>
lan d##</w>
fac e</w>
car e##</w>
koh ta
ic al##</w>
C O##</w>
ys ten</w>
da y##</w>
kans an##</w>
direktiiv i</w>
ev er##</w>
g i##</w>
r on
e ita</w>
yhd en</w>
terran ean</w>
pa ho
direc t</w>
c over##</w>
S ept##</w>
le vel##</w>
ku ts
kans a##</w>
ex ternal</w>
B al
prosess in</w>
p e##</w>
ke ep</w>
c ost</w>
r y##</w>
hallin to##</w>
E ast</w>
m ol
alo illa</w>
b r##</w>
tar jo##</w>
in tä##</w>
appe ar##</w>
aih e</w>
ti u
en emmistö##</w>
kaup an</w>
mahdollisuu ksia</w>
lainsäädäntö ä</w>
g an##</w>
W or
o il</w>
kolman s##</w>
väh e##</w>
sy ys
ex cep
en si</w>
tä ll
työntekijö iden</w>
kysymyks een</w>
def ence</w>
äänest ys##</w>
äänest i##</w>
syys kuu##</w>
isem min</w>
tuot teiden</w>
sa tis
invest o
f ri
lu ov
kiinn ittä##</w>
elec tion##</w>
bu ild##</w>
bac k##</w>
add ition##</w>
d le</w>
Isra el</w>
yhteis ö##</w>
u ttava##</w>
taloudell is##</w>
kulutta ja##</w>
devel op</w>
c a</w>
re le
kuts u##</w>
har k
sov el##</w>
add ress</w>
pen s##</w>
yks e##</w>
ratkais u
m it
k alais##</w>
uc le
w ar
ucle ar</w>
prac tical</w>
fac ilit##</w>
yks ityis
maatal ou
crim e</w>
myön tä##</w>
am mat
yst ä
re ject##</w>
qu ick##</w>
l ann
k ie
yks ittäis##</w>
h o##</w>
h ir
V äli##</w>
R e##</w>
ss e
ou ##</w>
rele v##</w>
nä hd
amoun t</w>
y ssel
tr u
mo de
keh ittä##</w>
tie toja</w>
ta stro
ver o
johdon muka##</w>
conclu sion</w>
ell ow</w>
str ong</w>
prec ise##</w>
mieli pi
me et</w>
alu e##</w>
r s</w>
s ä##</w>
z a##</w>
to dis
jo b##</w>
ex er
pyr kim
b order##</w>
too k</w>
n uclear</w>
prote ct</w>
com ment##</w>
isuu teen</w>
yy ttä</w>
lähesty mis
g o##</w>
palvel u##</w>
l ive##</w>
In d
asio issa</w>
cre ation</w>
äänest yks
pa kol
järjestelmä ä</w>
as u##</w>
si ltä</w>
p p
giv ing</w>
union iin</w>
f ellow</w>
di g
sitou mu
puol ustus##</w>
la st##</w>
cir cu
he ad</w>
at ors</w>
äänest ys</w>
presid entti</w>
ke in
B ar
ess a##</w>
pur su##</w>
del a
oikeu det</w>
k an</w>
ist an##</w>
n on##</w>
koh tia</w>
kas va##</w>
foll ow</w>
sa i
nn in</w>
Afrik a##</w>
per in
nn e##</w>
le ar
jou st
capac ity</w>
en d
toimiv alta##</w>
pro per##</w>
contro l##</w>
asia kirj
1 8</w>
Stra s
val ue</w>
aie mmin</w>
yhd is
e va##</w>
len to
a mu
200 4</w>
pää stä</w>
puol usta##</w>
p il
foc us</w>
lähe s</w>
s how</w>
v ol
isuu desta</w>
te tta##</w>
t ol
st oc
sc ope</w>
ip pu##</w>
tel l</w>
po ll
a s</w>
nä ky
histor ia##</w>
aj at
tett y##</w>
ilmo itta##</w>
dem and</w>
P o
L a##</w>
i an##</w>
täy dell##</w>
määr in</w>
con dem
ll isen</w>
h uu
tie to
sc ri
pi en
le ft</w>
järj estä##</w>
de pend##</w>
ko ko
itar ian</w>
ett ä
L at
gro und</w>
valti o</w>
työ n</w>
po tent##</w>
is elle</w>
arvois a##</w>
vi h
st i
la ito
a way</w>
dis as
us ten##</w>
poll ut##</w>
pr im##</w>
kää n##</w>
aj an
A m
in iti
docu ment##</w>
direc tion</w>
com par##</w>
asian tun
ki er
hallit usten</w>
sy istä</w>
Sa ksa##</w>
re fu
tt o
d ivers##</w>
tal k</w>
ja a##</w>
hin d</w>
com pan
kohd an</w>
discrim in##</w>
is issa</w>
ap plied</w>
vaar all##</w>
sopim usta</w>
rik os##</w>
neuvot telu##</w>
jou lu
ch o##</w>
docu ment</w>
inn on</w>
vic tim##</w>
tömä sti</w>
t ter</w>
ratkais u</w>
D e##</w>
ec ##</w>
spe ct##</w>
varmis te##</w>
kesku s##</w>
or i##</w>
han d##</w>
imple ment</w>
da ma
1 6</w>
th re
t on</w>
kala st
itt i</w>
on e##</w>
kes ki##</w>
er ies</w>
it us</w>
myö tä</w>
prote ct##</w>
at ory</w>
wor ##</w>
ll ista</w>
i ous##</w>
S w
9 0</w>
sov elle##</w>
L e##</w>
menettely n</w>
vuos ina</w>
s ens
pi i
läh i##</w>
aino a</w>
mis sion##</w>
ass o
maail massa</w>
tilante essa</w>
polit ic##</w>
ku t</w>
jo b</w>
effec t##</w>
f a
yy n</w>
aih e##</w>
te er
he ad##</w>
alle kirjoit##</w>
yhte en</w>
mi h
dang er##</w>
conclu sion##</w>
sov ell
ku ol
it te##</w>
suu ri##</w>
ne taan</w>
n om
ma an##</w>
lop ul
g e
B ##</w>
po t##</w>
c k
ad d</w>
Con stitu
aihe utu##</w>
G u
te ko##</w>
päätö kseen</w>
ot o##</w>
me chan
lu ettel
kär si##</w>
see k##</w>
ra tive</w>
pä in##</w>
compe te##</w>
Bal kan##</w>
tie toa</w>
tote a##</w>
sääntö jen</w>
la ista</w>
työ h
puol i##</w>
id ent</w>
P e
Br u##</w>
technolog y</w>
pro per</w>
lu oda</w>
circu m##</w>
mer i##</w>
ain e##</w>
ttä mis##</w>
tel i##</w>
keskustel e##</w>
at h</w>
N iz
näy ttää</w>
vahv is##</w>
e hd
va sti</w>
r un
työ stä</w>
ma l</w>
aiko o</w>
ra ja##</w>
pys y##</w>
D ec##</w>
teki jä
lu onn
teoll isuuden</w>
pu hu
onn ite
tuomioistuim en</w>
sec tor##</w>
oikeuden muka##</w>
kii re
turvallis uutta</w>
kol me##</w>
ha sto##</w>
ihmis iä</w>
ev ent##</w>
mis sion</w>
s ter
em min##</w>
te ral</w>
he s##</w>
bro ad</w>
om a</w>
i um</w>
crim inal</w>
w ise</w>
väl it##</w>
ter n##</w>
t op
seura a##</w>
ete en
tilante esta</w>
päätö s</w>
ne g
hallit usten##</w>
y vä##</w>
uu det</w>
toimin ta</w>
tiety sti</w>
hav a
Americ an</w>
val u
h erä
tavo ite</w>
kno wn</w>
Niz za##</w>
pää st
mat ku
fi gu
a ja##</w>
ka tastro
joulu kuu##</w>
et tiin</w>
e il
korke a##</w>
keskustelu ssa</w>
const itu##</w>
y li##</w>
koh ti</w>
Di rect##</w>
per usta##</w>
ke hy
ilmo it##</w>
discus s</w>
au to##</w>
merk ittävä</w>
eteen päin</w>
G en
under stand##</w>
o tta</w>
vir all##</w>
alu ksi</w>
C ent
to is##</w>
myö he##</w>
laaj en##</w>
deta il##</w>
beg in##</w>
pi ir
mil jar
sub stan
pää s
r o</w>
mol em##</w>
lik e##</w>
br ie
n ti##</w>
am i##</w>
substan ti##</w>
no t##</w>
d iv
onnite lla</w>
k s##</w>
id a##</w>
cap ##</w>
ap u##</w>
men ##</w>
vois imme</w>
en i##</w>
ty pe</w>
ko ti
k u</w>
di pl
mis sä##</w>
täy den
he ard</w>
deb ate##</w>
7 ##</w>
is te
Wor ld</w>
ö n##</w>
res er
me ss##</w>
avo im
Reg ul##</w>
vuo teen</w>
elintarv ike##</w>
tu va##</w>
pöytä kirja##</w>
re view</w>
saad aan</w>
tu lis
m y##</w>
le ad##</w>
esi in
poliitt isten</w>
ryh mien</w>
Ch ar##</w>
täy ttä##</w>
dra w##</w>
I I</w>
tul o##</w>
toimenpi teitä</w>
pris e##</w>
g or##</w>
sään tely##</w>
struc ture##</w>
o ffic
käsittele vä##</w>
L ##</w>
miel estä</w>
jat ku##</w>
h ard</w>
com mer
lin k##</w>
kau pun
finan c##</w>
pr ice</w>
laati ma##</w>
ex pla
b ill
sisäl tä##</w>
kolleg a</w>
G ener
ud e</w>
e th
v in</w>
mechan is##</w>
ky ky##</w>
r yhdy##</w>
ov a##</w>
yhteis kunnan</w>
to isen</w>
te isiin</w>
or m
op t##</w>
reser v##</w>
muodo sta##</w>
b or
tan eet</w>
odo tta##</w>
sci enti
k ko##</w>
M on
elec tr
oper ation##</w>
väl ttä
välttä mät##</w>
minu a</w>
yrity kset</w>
to si##</w>
car ry</w>
co hes##</w>
suff er##</w>
r ann
im b
pan o
mar k</w>
W T
A ustri
maahanmuu t##</w>
id a</w>
in ti</w>
U S</w>
tä ys
st o</w>
sens it##</w>
fam ily</w>
tosi asia##</w>
Gener al</w>
on a</w>
ohjel ma</w>
se ud
w ide</w>
ty mä##</w>
en sä</w>
tr y##</w>
B an
Af gh
w ill##</w>
yssel i##</w>
thin k##</w>
mo tion</w>
Br ysseli##</w>
8 0</w>
tulis i</w>
ser ious##</w>
il me##</w>
J ust##</w>
y ester
yester day</w>
ette i##</w>
m ma
: ssa</w>
mode l</w>
ke l</w>
kir ja</w>
ad er##</w>
tu o##</w>
re st##</w>
Kre ika##</w>
ra por
pit kä
avo id</w>
oc rat##</w>
ite ttu</w>
accoun t##</w>
Dem ocrat##</w>
tavoitte et</w>
p ik##</w>
bal ance##</w>
välis tä</w>
prov ision</w>
n au
a atio##</w>
ris k##</w>
päätö ksen</w>
laaj ##</w>
att ##</w>
vo i
teke vä##</w>
kau an</w>
toteu tu##</w>
raho itta##</w>
pen al##</w>
min e##</w>
al tern##</w>
vaike a</w>
kä y</w>
w ish##</w>
d ic
ve si##</w>
quest ##</w>
mat ka
hyödy n
In ter
toimin ta
le ader##</w>
ivä t##</w>
con tent</w>
vakuu ttu##</w>
tu al</w>
cre d##</w>
br ing##</w>
6 0</w>
z ##</w>
ss ani</w>
k kuu
all a##</w>
läh ti##</w>
rau ta
pää tel
pää se##</w>
i el
exp lo
tull ut</w>
tarka stus##</w>
ongel mat</w>
muka ista</w>
Am ster
va a</w>
työh ön</w>
tied ä
p ati
ann ual</w>
refu ge##</w>
lann in</w>
excep t##</w>
con tra##</w>
v än</w>
trib u##</w>
ott u
osall istu
f lo
D ev
rau han##</w>
ponn is
pac ka
hu ge</w>
to tal</w>
str ong##</w>
comple te</w>
tote si</w>
Palestin ian</w>
jäsen iä</w>
si a##</w>
käs ity
en na
mo b
si v
esti in
estiin alais##</w>
all an</w>
pur pose</w>
maahanmuu tto##</w>
Sec ur##</w>
rajo itta##</w>
em er
Ruot si##</w>
D E</w>
ste p##</w>
C o##</w>
rik o
ks estä</w>
kan ta</w>
hdo t##</w>
struc tural</w>
ka t
ver ko
lä p
c are</w>
ten sa</w>
M on##</w>
ess aan</w>
elä mä
e ivät##</w>
conf id##</w>
Ger man##</w>
vuos i</w>
pen sion##</w>
järke vä##</w>
käytö n</w>
ho ito##</w>
ac ##</w>
pal estiinalais##</w>
mahdollisuu den</w>
eh ti##</w>
man da
par ty</w>
rate d</w>
pyy tää</w>
genu ine</w>
I n##</w>
saata v##</w>
for m
f er##</w>
al a</w>
y t##</w>
tu otta##</w>
nn on</w>
muu ttu##</w>
viel ä##</w>
shor t##</w>
päätö ksiä</w>
ul ottu
L u
h i</w>
beg in</w>
par ag
parag rap
mill a##</w>
d ru
Z imb
yhteis kunn
päiv än</w>
kuol em
En viron
il mi</w>
h il
ehdotu ksesta</w>
adequ ate</w>
vi era
ris t##</w>
con duc
L ib
v ed
tunn usta##</w>
en tä##</w>
ad d##</w>
pro cess##</w>
merk ittä##</w>
markk in
1 7</w>
po or</w>
joh tu##</w>
ce ed</w>
au ttaa</w>
ann on</w>
pi en</w>
off er##</w>
sta tus</w>
kolleg ani</w>
vaikutu ksia</w>
olev a</w>
ma hdot##</w>
benef it##</w>
an ts</w>
muu ten</w>
O r
os an</w>
laati ma</w>
we ap
te emme</w>
is istä</w>
tu ur
si x</w>
lä s
ap point##</w>
it ive##</w>
strateg i
sa fe
safe gu
kiire ell##</w>
g ing</w>
sotila allis##</w>
s on</w>
S e
ru p
pre hen
la inen</w>
kes ke##</w>
säännö t</w>
sh are##</w>
odo t##</w>
la in##</w>
kiel tä##</w>
oc cu
e se</w>
de ath</w>
al i
em me##</w>
bill ion</w>
vapau den</w>
si in</w>
sequ ent##</w>
mu u##</w>
ja ka##</w>
char ge</w>
tiedon an
puitte issa</w>
pla c##</w>
A gre
ma ita</w>
Kan sa##</w>
tapa uksissa</w>
tä s
off er</w>
na sta</w>
it or
at u</w>
I re
ev ent</w>
Ire land</w>
va ka
periaat teen</w>
pain op
ehdotu kset</w>
d an</w>
E C</w>
unoh ta##</w>
apu a</w>
ol isivat</w>
näkö kul
ent is##</w>
ar gu
valtu us
sor t</w>
saa tava</w>
ip s</w>
i vo
con ta
myön net##</w>
st y##</w>
om i##</w>
kann an</w>
min or##</w>
meth od</w>
dama ge</w>
wee k##</w>
tu lla</w>
nn ut</w>
ear l##</w>
par i##</w>
rauta tie##</w>
ne ita</w>
er ä##</w>
ens in</w>
len to##</w>
Minis ter##</w>
f ound##</w>
suu re
ka s##</w>
deal ing</w>
me istä</w>
jul ki
N e
organ isation</w>
la it##</w>
l ie
estä ä</w>
Americ a</w>
sh ips</w>
vi est
v ital</w>
sett ing</w>
uks ella</w>
terve ys##</w>
miljar di##</w>
maatalou den</w>
kan ssa##</w>
edell is##</w>
perus te##</w>
koke mu
harjo itta##</w>
to ista</w>
tr uc
scienti fic</w>
perustu va##</w>
pa id</w>
huon o##</w>
val it##</w>
re mind</w>
lo t</w>
ic ial</w>
reg ime</w>
mie sten</w>
f ed
ref er</w>
eurooppala inen</w>
toteu ttamis##</w>
pid ä
säh kö##</w>
se par
ranga istu
ko k
main tain##</w>
conv inc
vapa a
ka p
conc ent##</w>
on d</w>
fir m</w>
opp i##</w>
ho ita##</w>
ar ily</w>
vahv is
sa ma</w>
to de##</w>
ar ran
lop etta##</w>
la illis##</w>
yksityis kohta##</w>
L e
w ide##</w>
st ress</w>
exten d##</w>
er o##</w>
e ett
M id##</w>
F o##</w>
Re public</w>
mu m</w>
comb at</w>
ta van</w>
exer c##</w>
Ban k</w>
go od##</w>
ex pect</w>
til a##</w>
oh j
eläin ten</w>
ris h</w>
pohj alta</w>
re turn</w>
ehkä is
aihe u
miel en
tel u</w>
polic e</w>
tie tojen</w>
com ment</w>
sh ##</w>
e ase</w>
ad v
defin ition</w>
A ra
teoll isuus##</w>
pide tään</w>
hu man
tavoitte ita</w>
par empi</w>
duc tion</w>
B us
tutkim uksen</w>
ke ttä##</w>
E co##</w>
käytä nnön</w>
is tic##</w>
hel pot##</w>
an a##</w>
R u
8 ##</w>
tiedä tte</w>
organ ise##</w>
jä ä##</w>
puhem ie
if i##</w>
an c
va l</w>
su mmit</w>
ha it
yle iss
yleiss opim
no sta##</w>
markkino illa</w>
käy tettä
te st##</w>
ov ##</w>
measu re</w>
en ter
il e
d on##</w>
se k
ol o##</w>
la w##</w>
dis tribu##</w>
busin ess##</w>
K ore
u llis##</w>
ti o##</w>
puolu een</w>
medi um</w>
lop ullis##</w>
kok ous</w>
speec h</w>
äs kettä##</w>
pa ke
invest ig##</w>
sopim uksia</w>
rann ik
ate tta</w>
mih in</w>
main ita</w>
tur al##</w>
ri ittä##</w>
Lä hi</w>
su ku
prob ##</w>
hall innon</w>
ti fi
mahdoll ista##</w>
Amend ment##</w>
spe c##</w>
el tä</w>
l iv##</w>
it si##</w>
he ti</w>
pala ut##</w>
m is</w>
hol d##</w>
til in
tu otta
separ at##</w>
poliitt isia</w>
käsittely ssä</w>
kuu l
E uro</w>
vak avi##</w>
it ude</w>
epäil e##</w>
e ffici
3 7</w>
t ti
l er</w>
G ##</w>
tarpe ellis##</w>
merkity s</w>
Ki ina##</w>
yhteis kunta##</w>
peria atetta</w>
Environ ment</w>
sol ida
e ar##</w>
an sa</w>
sid e##</w>
prehen s##</w>
kysym yksiin</w>
L A
vapa utta##</w>
paran n##</w>
packa ge</w>
huom io##</w>
yr ittä
el op
b er</w>
g en</w>
dec ide</w>
y ond</w>
u u</w>
tarkistu s</w>
jäsen tä</w>
be yond</w>
äär immäis##</w>
vi is
taloudell isen</w>
sta ff</w>
manda t##</w>
c ra
av un</w>
arv os
com pens##</w>
person al</w>
Agre ement</w>
R om
def i##</w>
ase ma</w>
N G
inf ra##</w>
b an##</w>
Portug ali##</w>
y ttämis##</w>
ex per
meth od##</w>
kymmen en</w>
Ma a
7 0</w>
vasta a</w>
sto p</w>
itu re</w>
b our##</w>
I rish</w>
po is</w>
hel p##</w>
os la
ic k</w>
arvio inti##</w>
merkity stä</w>
ind ustri
c oh
r ant</w>
ug osla
sub mit##</w>
maa ssa</w>
ll isten</w>
käyttö ä</w>
ite tta</w>
Ir lannin</w>
viranoma iset</w>
tarkastel e##</w>
jo iden##</w>
id ence</w>
9 8</w>
sopim uksessa</w>
risti ri
päivä nä</w>
happ en</w>
kesku stella</w>
Dev elop
o w
val mis</w>
sosiaal isen</w>
respon d</w>
k estä##</w>
al one</w>
Ch rist##</w>
wh ere##</w>
ur he
ten ce</w>
olo g##</w>
conc ili
ass u
Hu man</w>
Develop ment</w>
nä h
neuvottelu jen</w>
ca me</w>
wh at##</w>
ex pend##</w>
vapau ttamis##</w>
pers on##</w>
mul ti##</w>
ff ic</w>
exten s##</w>
ra h
tar get##</w>
kan so
ur ge</w>
st an</w>
köyh i##</w>
kk ä##</w>
d om
ann ettava</w>
tavoitte iden</w>
inno v##</w>
er al</w>
an ta##</w>
v ity</w>
lim it</w>
k en##</w>
acti vity</w>
ME P##</w>
ra jat</w>
pää asia##</w>
main tain</w>
epä onnistu##</w>
com prehens##</w>
net work##</w>
k ala##</w>
e tel
tra ffic</w>
to i##</w>
sano ttu##</w>
istu va##</w>
Af gan
dra ft##</w>
to den
selv ittä##</w>
ongel man</w>
ole via</w>
pos ition##</w>
il ta##</w>
to tal##</w>
as pect</w>
weap on##</w>
ity s##</w>
S pa##</w>
2 1</w>
wor d</w>
na ssa</w>
ita aris##</w>
i i##</w>
human itaaris##</w>
f ish</w>
k ki##</w>
järjest ö##</w>
päätö s##</w>
deleg ation</w>
coll ect##</w>
arran ge##</w>
A ss
järjest yksen</w>
is illa</w>
exclu s##</w>
suojel e##</w>
sc ale</w>
i gh
I tä##</w>
tas on</w>
pro du
is imme</w>
turvapa ikka##</w>
ic ally</w>
e es</w>
vaatimu ksia</w>
emer ge##</w>
K y
osallistu mis##</w>
de scri
ta so
suun taan</w>
poli isi##</w>
ser ve</w>
langu age</w>
k in##</w>
enti re##</w>
regre t</w>
produ ce</w>
minister i##</w>
man n##</w>
ep t</w>
el ement##</w>
bod ies</w>
al li
Bud get##</w>
spi r
perus oikeus
ett ava##</w>
emp i##</w>
concili ation</w>
kri teer
F is
yhte en##</w>
ta kais
t lan
ste lla##</w>
comb at##</w>
O LA
o sta</w>
la ter</w>
conc ept</w>
ta kaa##</w>
tu sta</w>
la un
ell ä##</w>
C 5</w>
tom an</w>
puheenjohtajavalti o##</w>
ro oli##</w>
laad i##</w>
fri end##</w>
ex ist</w>
edis ty
si vi
m et</w>
sen su
ra tifi
p ide##</w>
kiel te##</w>
ehdotu ksessa</w>
co l</w>
r ing</w>
na tural##</w>
kysymyks et</w>
le ave</w>
R ule##</w>
requi re</w>
puol esta##</w>
e as##</w>
kulutta jien</w>
k ill##</w>
ett y</w>
asia kirjo
kilpail u
joh to##</w>
f all</w>
refle ct##</w>
ratka ista</w>
kuu n
hyödy ll##</w>
A ge##</w>
si mi
ca mpa
J oh
ta ge##</w>
d om##</w>
ala a</w>
ko on</w>
hu r
R o
uot o##</w>
torjun ta##</w>
simi lar</w>
real is##</w>
politiik kaan</w>
na tural</w>
inter pre
enti re</w>
puu n</w>
periaat te
viik olla</w>
mon op
2 2</w>
toden näkö##</w>
san ction##</w>
maail man##</w>
al en
E C##</w>
p ri##</w>
ryh mä##</w>
fle x
eu vo
lu ku
la id</w>
ib il##</w>
flex ibil##</w>
li g
ite ttava</w>
ä mme</w>
hyö dy##</w>
end or
en orm
direktiiv iä</w>
wh om</w>
rakenn era
qu e</w>
lu ku##</w>
markkino ille</w>
ko ko##</w>
i m</w>
mä t</w>
ex a
yd in
väh emmistö##</w>
jo in</w>
dis h</w>
Afgan istan##</w>
vast uu</w>
elec t##</w>
his to##</w>
dy na
k ke##</w>
da m##</w>
mel ko</w>
v uus</w>
ma s</w>
jou ko
ch em
itta mis##</w>
uu tta##</w>
u te</w>
sc he
ru ral</w>
enn e</w>
1 9</w>
va a##</w>
ne igh
just ifi##</w>
tilante eseen</w>
taloudell ista</w>
pääst ö
de ksi</w>
0 4##</w>
vu n</w>
tuur i##</w>
s pend##</w>
menettely ä</w>
lopul ta</w>
jat ke##</w>
g en##</w>
S we##</w>
ig n##</w>
ky v
julki lausu
pu ite
os itta##</w>
Cent ral</w>
s ter##</w>
de sign##</w>
for c##</w>
G re##</w>
pr ice##</w>
appe ar</w>
tuotan to##</w>
produc t</w>
mietin tö##</w>
kiinno stu##</w>
m all
is tamis##</w>
aihe esta</w>
esi tetty</w>
pää ttävä##</w>
min kään##</w>
s esti</w>
rakennera hasto##</w>
po hd
Fis ch
u gu
re lig
pu r##</w>
pers on</w>
e ce</w>
actu al</w>
tois een</w>
pu l
kes äkuu##</w>
kau si##</w>
it ur
colleag ue</w>
valtio t</w>
täll a
mis elle</w>
liikku v##</w>
kansala is
ja a</w>
d ition</w>
con sensu
teho kkuu
p ing</w>
in st
c li
ra di
itse ma##</w>
as te##</w>
yh tä##</w>
uu t##</w>
an ti</w>
S er
vo c##</w>
onn an</w>
kär si
doub t##</w>
cap ital</w>
bo ard</w>
str uk
mahdollisuu tta</w>
in i##</w>
T anska##</w>
tu o</w>
oikeudell is##</w>
ian s</w>
thou ght</w>
rau han</w>
per spec
etu jen</w>
to i</w>
pl en##</w>
mu ista##</w>
kehit ty##</w>
paragrap h</w>
2 4</w>
toivo ttava##</w>
te istä</w>
k r
bur g</w>
rate s</w>
vuos itta##</w>
tarpe e##</w>
ta ul
tra ffic
var ma</w>
traffic k##</w>
ke jä</w>
deal t</w>
ohjel ma##</w>
0 6</w>
n cies</w>
WT O##</w>
2 3</w>
yhti ö##</w>
valvon taa</w>
politiik assa</w>
monim ut
inf lu
attemp t</w>
alis ti##</w>
So cial##</w>
wr ong</w>
u al##</w>
men o
matka ilu##</w>
de g
T ra
ymmärr ä##</w>
ment al##</w>
for e##</w>
compan y</w>
prosess i</w>
p i##</w>
oso itta
mu kau
lop puun</w>
in fra
ra d
perustusla ki##</w>
n o##</w>
ett a
J an
jä ll
r ene
ksi a##</w>
infra struk
hir d
hird ly</w>
hom e</w>
F und</w>
tu s
tiiv ii##</w>
ilma ista</w>
tunn us##</w>
ks u##</w>
yhteiskunn allis##</w>
rec t</w>
jä r
as kel</w>
dra wn</w>
teh d##</w>
jo is##</w>
i ght</w>
sop i##</w>
muuto ksia</w>
di men
teh ty##</w>
t onn
ma ihin</w>
e fficient</w>
san a##</w>
net work</w>
convinc e##</w>
b y
asiantun ti
Q u
tra dition##</w>
tu ki</w>
mm ik
Ma y</w>
te gor##</w>
sup er##</w>
puol is##</w>
inv o##</w>
Afgh ani##</w>
yhteisö jen</w>
tarv ittava##</w>
ratkais eva##</w>
him o##</w>
mahdollisuu det</w>
aika taul
ty neiden</w>
käytt ö##</w>
huol en
de ssa##</w>
consensu s</w>
W h
S outh</w>
v ää
pide ttävä</w>
huol ehti##</w>
crit ical</w>
cor rect</w>
tta essa</w>
nu or##</w>
yö ##</w>
te ke##</w>
arvio i##</w>
T he</w>
na me</w>
kehitys yhteistyö##</w>
y li
tarv itse</w>
wel come##</w>
suo ja##</w>
A C##</w>
tu ista</w>
mietintö ön</w>
il ities</w>
käynn istä##</w>
y ä</w>
su mm
rapporteu r##</w>
ka mp
for ##</w>
So cial</w>
spir it</w>
koh tu
pa ten
Pro cedu
uks e##</w>
g in##</w>
el se</w>
tou ko
si on
lisään ty##</w>
He alth</w>
tulo ksia</w>
h ou
b lo
vaar an##</w>
kohd istu##</w>
conclu de</w>
alue ita</w>
tiete ell
koulu tus##</w>
f all##</w>
Procedu re</w>
ty s##</w>
lää kke
la isia</w>
keskustel uun</w>
is ta
vaihtoeh to##</w>
sisäl tyy</w>
seud un</w>
käytt ö</w>
ca tegor##</w>
U S##</w>
ty neen</w>
ohjel mien</w>
c ut</w>
touko kuu##</w>
päätöks en
ite ttu##</w>
gra ph
en ta
bi g</w>
tuom io##</w>
o issa</w>
sa ta
glob al##</w>
ass oci##</w>
P E</w>
p .
min ä##</w>
sup ple
op pos
me t
jo issa##</w>
dang er</w>
puol ue##</w>
neuvot tel
g a##</w>
re present</w>
ai l</w>
ttu a</w>
terroris t</w>
os uh
ol osuh
jä ä</w>
h ope##</w>
t on##</w>
ru o
wh il
whil st</w>
kol men</w>
n ro</w>
L i
mi grant##</w>
jon kin</w>
men d</w>
it s
he ar</w>
ra il</w>
attac k##</w>
asio ihin</w>
kunn ian
k en</w>
järjestel mien</w>
E rik
j en##</w>
in ta##</w>
e ik
va t
es itä##</w>
ol in</w>
w on
pro por
po st##</w>
h u##</w>
alku perä##</w>
ve h
tu ksen</w>
la is##</w>
P at##</w>
yh tä
see k</w>
k ki</w>
aj ate
ll iset</w>
l v##</w>
istun nossa</w>
Jan u##</w>
wr it
politiik asta</w>
neigh bour##</w>
teke m##</w>
sy y</w>
jud icial</w>
cent ral</w>
toteu te##</w>
kansa in##</w>
P oh
tälla isen</w>
s ound</w>
pä ä</w>
prec i##</w>
kilpailu kyky##</w>
keskit ty##</w>
vaatimu kset</w>
suu r
j e
eil en</w>
r un</w>
med ia</w>
maks u##</w>
neuvottel ut</w>
maks u
is tic</w>
sisäll y##</w>
itu ksi##</w>
poliitt iset</w>
kiito s</w>
kan ta##</w>
char ac
y ri
mu ihin</w>
kohd assa</w>
ib ly</w>
ev idence</w>
e k</w>
S t##</w>
leg iti
korke a</w>
sup ply</w>
Ber l
qu o
ka tta##</w>
alu e</w>
l ic##</w>
ex act##</w>
U K</w>
b le</w>
uudis tamis##</w>
so dan</w>
f rau
e qui
compet itive</w>
ag ing</w>
I tal##</w>
valtu u
kohd at</w>
interpre t##</w>
l ä##</w>
f ron
aih etta</w>
Hu sse
po is##</w>
vähen tämis##</w>
r ary</w>
te en##</w>
ra il##</w>
D an##</w>
toimin taan</w>
st or
nyky isen</w>
happ y</w>
gro und##</w>
od a##</w>
C y
C he
ttö myy
ha s##</w>
oikeudell isten</w>
ac e##</w>
stand ing</w>
sek tor
merk ille</w>
inter vention</w>
ell a##</w>
ap preci##</w>
se a</w>
dis tin
av a
we a
ta mmik
kehity s</w>
exper t##</w>
be ar</w>
monim uoto##</w>
industri al</w>
con firm##</w>
Amer ika##</w>
H a
vuo sien</w>
ig n
P act</w>
tiete ellis##</w>
thre at</w>
oun c##</w>
o tettu</w>
nom ic</w>
kuu le
huippu kokouksessa</w>
g er
Che ch
mpä ä</w>
käytä vä##</w>
ää n##</w>
disas ter</w>
tu han
tammik uu##</w>
sig n</w>
inten tion</w>
descri b##</w>
vakuu tta##</w>
re ä##</w>
mo d##</w>
koh taa</w>
luo k
kans a</w>
erä s</w>
strateg ian</w>
raken ta##</w>
merkity kse##</w>
isyy ttä</w>
enorm ous</w>
val ta</w>
str ict</w>
kunnian himo##</w>
jou du##</w>
ed ust
tu e##</w>
tru st</w>
qu al
an sa
Constitu tion</w>
rene w##</w>
kyse en
ks ella</w>
f re
P ub
ymmär re
toi mista</w>
ta po
ne s##</w>
in ais##</w>
ur g</w>
sov ittelu##</w>
ris ti##</w>
p has##</w>
it sen
ik ä
ty ne##</w>
las ke##</w>
j os
eurooppala iset</w>
conclu de##</w>
ain eiden</w>
per he
ku s</w>
etu ja</w>
deg ree</w>
täy ty##</w>
2 7</w>
vir ka
täy si
toiminta suunnitel
lear n##</w>
kiin ni##</w>
iti ous</w>
Pub lic</w>
so si
näkem ykse##</w>
tark ka
na iset</w>
laajentu minen</w>
d it</w>
jos kus</w>
inten s##</w>
va mma
poh ti##</w>
liik ke
kymmen ##</w>
ku m
hyv in
esimerk ki##</w>
x emb
valmis ta
järjes te##</w>
g r##</w>
vaka us##</w>
tarka st
suo j
s in
kuu kausi##</w>
commer cial</w>
sa ar
le h
kon e##</w>
inv it##</w>
ide a##</w>
vä it##</w>
repe at</w>
j un
m me
c ho
yrity ksiä</w>
rik ko##</w>
elintarv ikke
Belg ia##</w>
kä ä</w>
1 2
re sur
perin te##</w>
k k##</w>
perust us##</w>
h au
del iv
wi th
tode ta##</w>
state ment##</w>
men e##</w>
G o
tais telu##</w>
b our
L an
pla ce##</w>
mi c</w>
kuule mis##</w>
C OM</w>
taloudell inen</w>
koordino i##</w>
hel po##</w>
H ##</w>
C ar
yhteis työ</w>
re ject</w>
määrä ä</w>
defin e##</w>
condem n##</w>
respon d##</w>
p t</w>
m illä</w>
vasta an
tiedo t##</w>
rec or
pa ko##</w>
otta maan</w>
en o##</w>
con ference</w>
person al##</w>
fun d</w>
Pe ople</w>
päätöksen teko##</w>
päätö kset</w>
per f
lä mp
kiin ni</w>
civ il##</w>
aloitte en</w>
tämä n##</w>
nn an</w>
vuo desta</w>
viljeli jö
sp ace</w>
kansalais järjestö##</w>
keske inen</w>
is a##</w>
influ ence</w>
yd in##</w>
ra in##</w>
le hd
en sa</w>
väh immäis##</w>
tavoitte en</w>
see m</w>
erä ä##</w>
siir ty##</w>
kom a##</w>
isyy s</w>
il ma##</w>
väl ##</w>
truc tur##</w>
mu kais
koh te
f er</w>
ess ä##</w>
S tructur##</w>
saf e</w>
qui r##</w>
monimut ka##</w>
ksi lla</w>
koti maa##</w>
vat ko</w>
sc ho
au tta##</w>
ase maa</w>
Lu xemb
op pose##</w>
la use</w>
va kau
u m##</w>
is ti##</w>
fav our##</w>
P PE</w>
y c
medi ate##</w>
main i##</w>
ma alis
a kaan</w>
vi estin
temp o##</w>
elä ke##</w>
yle ensä</w>
rak enne##</w>
p ill
ks u
gener al##</w>
x im##</w>
strateg ic</w>
sano ttava</w>
perusoikeus kirja##</w>
tö myy
taloudell isia</w>
pää ministeri</w>
prosent in</w>
järjestö jen</w>
com pli
valu ation</w>
osapuol ten</w>
l a</w>
s po
exten d</w>
eik ö</w>
väh i##</w>
su m##</w>
raken tamis##</w>
ma ista</w>
ll isia</w>
c over</w>
Por t##</w>
Br it
2 8</w>
sa an
peria ate</w>
pe ace##</w>
maalis kuu##</w>
väkiv alta##</w>
t yh
pen sion</w>
lähesty mis##</w>
fac tor##</w>
form er</w>
ann ounc##</w>
Kosov o</w>
t old</w>
stand ar
la te</w>
e y
contra ct##</w>
tarko ita##</w>
proses sia</w>
our ce</w>
oc c
lähestymis tapa##</w>
con ver
c ou
vamma is##</w>
tuleva isuuden</w>
tiedo t</w>
th ern</w>
re mark##</w>
p ika##</w>
kysymyks istä</w>
ik kalais##</w>
cli mate</w>
san d##</w>
mielipi te##</w>
e ir
per usta</w>
men ette
mar ras
ma ille</w>
e vä##</w>
yhd istä##</w>
wa it##</w>
välin e</w>
sija itse##</w>
periaat te##</w>
ex is
an ut</w>
var muu
jo ille</w>
exis tence</w>
es sion
3 ;</w>
0 8</w>
&#9 3;</w>
nouda ttamis##</w>
lausun to##</w>
la sten</w>
3 5</w>
menette ly</w>
var ain
tu nut</w>
tervey d##</w>
s yr
prof ession
ks essä</w>
kin ta##</w>
kansan terveyd##</w>
in him
1 ;</w>
&#9 1;</w>
sa atu</w>
kka asti</w>
ker ta
in d##</w>
advan tage</w>
tom ia</w>
pal k
ex change</w>
Rus sia##</w>
Gre ek</w>
yhden tymis##</w>
v ittä##</w>
urhe ilu##</w>
ul ti
tulo s</w>
suu ren</w>
solida ar##</w>
orig in</w>
liber aali##</w>
itse va##</w>
ven tion##</w>
vapaa eh
tilin tarkastus##</w>
or gan##</w>
appro pri##</w>
an ne
ne w
konflik ti##</w>
h ag
ven tä##</w>
tu oda</w>
kais e##</w>
j our
en tr
de p
asi on##</w>
ad ap
ris e</w>
marras kuu##</w>
henkilö iden</w>
as y</w>
Austri a</w>
hyväksy mis##</w>
d ict##</w>
väline itä</w>
pitkä llä</w>
oma a</w>
ni ght</w>
is en##</w>
a ff
siir tä##</w>
jä t
g al</w>
cur r##</w>
9 5</w>
v uuden</w>
ky ken
par ent</w>
no ja##</w>
laa ja</w>
j al
to isi
p ed</w>
kokon a
amb itious</w>
V er
tto aine##</w>
Ky pro##</w>
C a
res olve</w>
attemp t##</w>
syr jä
op le##</w>
käy dä</w>
u fac
Tra de</w>
yy s</w>
trans it##</w>
oma sta</w>
occ asion##</w>
main itse##</w>
kor va##</w>
kno w##</w>
ch ance</w>
thou sand##</w>
inte grate##</w>
emmis tö</w>
seur anta##</w>
neuvottelu issa</w>
in sur##</w>
huolen aihe##</w>
ab ol
te tä##</w>
tarka sti</w>
sivi ili##</w>
mä stä</w>
yll ä
yhden muka##</w>
läp i</w>
enter prise##</w>
ulkom a
m ille</w>
hyl ä##</w>
Kosov o##</w>
9 2</w>
ta usta##</w>
h i##</w>
Ger man</w>
Europe an##</w>
va ali##</w>
os aa</w>
il e##</w>
foc us##</w>
constitu tional</w>
un it##</w>
q u##</w>
matku sta##</w>
it le##</w>
em a##</w>
wa ter##</w>
tarka stella</w>
ks eksi</w>
spe ed</w>
ima te##</w>
uu dessa</w>
la itt
laitt om##</w>
istun to##</w>
is o##</w>
ex pen
että vä</w>
käytä ntö
kulu tta##</w>
itte e##</w>
veh ic
tied ä</w>
effici ency</w>
N A##</w>
G al
E tel
to ki</w>
pro ceed##</w>
poh jois##</w>
ott o##</w>
g ar
repe at##</w>
näkökul masta</w>
lä hen
komite a##</w>
vi a##</w>
alu ssa</w>
is ivät</w>
yhteis ö</w>
tiedo tus##</w>
oso ittava##</w>
oike a</w>
ta ma</w>
suhte essa</w>
ra ja</w>
mp i##</w>
fe ar</w>
esimerk ki</w>
elä kke
z e</w>
se e##</w>
if y
tehtä vä##</w>
ta misesta</w>
s ym
rau han
sel vi
ign or##</w>
g ene
tte ko</w>
ongel maa</w>
huippu kokouksen</w>
bu ild</w>
val u##</w>
sy nn
v an##</w>
siir tymä##</w>
järjest ön</w>
ify ing</w>
valv onnan</w>
n er</w>
inten d</w>
O c
pe ople##</w>
me ts
itsen äis##</w>
im press##</w>
for get</w>
to den##</w>
takais in</w>
i ik
figu re##</w>
ö ö
ttä isiin</w>
s al
keskit y##</w>
comple x</w>
fin d##</w>
ase massa</w>
ac y</w>
P r##</w>
velvoll isuu
st at
raho itusta</w>
o ffici
ku n##</w>
in al##</w>
dimen sion</w>
u tta</w>
ta ck
re k
offici al##</w>
la t##</w>
frau d</w>
ex emp
vol un
pris on##</w>
mis to##</w>
konferenss in</w>
institu tion</w>
edusta ja</w>
o ista</w>
en jo
cel ona</w>
vi ita
mm at</w>
aj on
a ffair##</w>
os uus</w>
cor por
av ar
ttav ##</w>
rajo jen</w>
ta sa##</w>
ehdotu kseen</w>
vasta av
Pal esti
P er
P at
pi d</w>
explo it##</w>
att u</w>
th y</w>
selv i##</w>
val ko##</w>
tila isuus</w>
suo sion##</w>
1 1.</w>
tois essa</w>
neg at##</w>
iz ed</w>
inte ll
sis t</w>
ik o
an ti
ö i##</w>
s ter</w>
ne l</w>
ko o
f el
valio kunn
myön tämis##</w>
ko vin</w>
fun ction##</w>
enn alta</w>
al usten</w>
ss a
pyst y</w>
hu n</w>
200 6</w>
tekn is##</w>
nähd ä</w>
ölj y##</w>
vä lia
työ ttömyy
to ber</w>
offic ial</w>
kustann ukset</w>
de stro
Oc tober</w>
Brit ann
ver ra
usk onn
to ihin</w>
terroris mi##</w>
tekijä t</w>
in e
ase man</w>
ans wer##</w>
a id
ma te##</w>
Etel ä</w>
pakol ais##</w>
kuu n</w>
k y</w>
c al
t our##</w>
op u##</w>
läh tö##</w>
lu ke##</w>
d oll
te na</w>
sai ra
r ä
mä ssä</w>
katastro fi##</w>
hyv än</w>
ch air##</w>
voi maan</w>
supple ment##</w>
practi ce##</w>
kans an</w>
tar ##</w>
ratkais un</w>
ke ep
fe el##</w>
199 8</w>
u ll##</w>
tuke ma##</w>
ke a##</w>
jul istu
ja ks
cla im##</w>
an tama##</w>
vu or
henkilö stö##</w>
d riv##</w>
appe al</w>
E S</w>
turvallis uuteen</w>
tapahtu va##</w>
om is##</w>
julkilausu ma##</w>
hu ippu##</w>
fle x##</w>
p lu
me idät</w>
mu tual</w>
ma xim##</w>
hag en</w>
he in
dru g##</w>
Portug al</w>
toim i</w>
tark ista##</w>
V an</w>
Sw ede##</w>
oso ituksia</w>
markkin at</w>
cel ona##</w>
Bar celona##</w>
shi p##</w>
rah at</w>
jäl j##</w>
infrastruk tuuri##</w>
etel ä##</w>
alue elle</w>
ad voc##</w>
medi ate</w>
ll ä##</w>
lab el##</w>
köyh yyden</w>
k ko</w>
er g
dig n##</w>
An g
teho sta##</w>
s h</w>
äs ke##</w>
v uutta</w>
Nor th</w>
vaal e
tta isi</w>
t alais##</w>
pan kin</w>
C A
tuot teita</w>
parha a##</w>
muu tama</w>
lu pa
yks et</w>
pub lis
o ffice</w>
inv olve</w>
tu pa
ra sis
lo ka
initi al</w>
h ä##</w>
for mal</w>
e p##</w>
Wh it##</w>
2 9</w>
koulutu ksen</w>
ka ks
or i</w>
kiin ti
Al ger
A g
te ttava##</w>
lu opu##</w>
kilpail un</w>
pyy de##</w>
mu issa</w>
mmä lle</w>
loka kuu##</w>
lan koma##</w>
iv i##</w>
inn an</w>
en ter##</w>
elä män</w>
Palesti ina##</w>
A lankoma##</w>
u re##</w>
stoc k##</w>
ratifi oi##</w>
pys yvä##</w>
sopim ukset</w>
re t##</w>
ra v
pala u
orig inal</w>
kiito ksia</w>
keske yt##</w>
keino ja</w>
Ne w</w>
viestin tä##</w>
selke ä</w>
satis fac
satisfac tor
perus telu##</w>
määräraho ja</w>
c ol
aiko ina</w>
parlamen ta
cor rect##</w>
T ran
väest ön</w>
pä te
läh että##</w>
ch ild</w>
advan tage##</w>
compet itive##</w>
B ro
taa kseen</w>
pe t##</w>
n al##</w>
lainsäädä nnö
jo is</w>
C ha
periaat teita</w>
mu od
ki it
pay ment##</w>
Y ##</w>
vapaaeh tois##</w>
pide ty##</w>
hel p
appro val</w>
9 7</w>
tämä t##</w>
työsken tele##</w>
ty t</w>
tu mis##</w>
te tu##</w>
ta ud
kou lu##</w>
B ol
2 6</w>
ve ss
saavu te##</w>
langu age##</w>
it ory</w>
a mer
Gre en</w>
ex port</w>
deter mi##</w>
ta malla</w>
siv u##</w>
ma ss##</w>
g u##</w>
c ust
alue et</w>
ac qu
ta mme</w>
läs nä</w>
fac ##</w>
aikataul u##</w>
Poh jois</w>
yhteen kuulu
ugu ese</w>
llisyy den</w>
heik entä##</w>
de ks
vasta ava##</w>
mieh et</w>
ke t</w>
cul ##</w>
confl ict##</w>
johd o##</w>
g y
3 1</w>
yhti ö
verra ttu##</w>
tuomioistu in</w>
suuntavi ivo
me kan
liiken te
te ki</w>
tas k##</w>
arvio inn
ratkais u##</w>
mon th</w>
mar i##</w>
lainsäädän tö</w>
kalta is##</w>
k elu##</w>
by ro
s en##</w>
palvelu ja</w>
mon ta</w>
i vast
de struct##</w>
Fisch ler</w>
ku r
j u##</w>
isuu dessa##</w>
em min</w>
bu rea
re ite
pääs y##</w>
pan na</w>
n hagen</w>
lu oma##</w>
En g
dis put##</w>
yksi l
turvallis uus</w>
hein äkuu##</w>
expla in</w>
byro kra
mekan is
ff ##</w>
en emmistö</w>
ede llä</w>
suh teen</w>
op etu
järjestel mä##</w>
äär ä##</w>
yksi ##</w>
miel ellä##</w>
kuljetu s##</w>
vapau tta</w>
th rea
st ress##</w>
selv ity
sel vä</w>
res olve##</w>
jäll een
ammat ti##</w>
yr ittä##</w>
pr us</w>
im mat</w>
Pal ac
Cy prus</w>
y ttävä##</w>
ta miseen</w>
sto jen</w>
ra ha</w>
ass ure</w>
ab le##</w>
G e
vaik uttava##</w>
te illä</w>
päätö sten</w>
na apu
määr än</w>
ka amme</w>
Cha mber</w>
sääd ö
nu mer##</w>
veto om
valmis telu
tu on
kah ta</w>
en ter</w>
deta il</w>
ar ies</w>
ap art</w>
y y##</w>
te ttävä##</w>
ol a##</w>
h ab
es te##</w>
es itti</w>
cla ss##</w>
K OM</w>
välin e##</w>
us i</w>
perus tel
kaik en##</w>
dela y</w>
yleissopim uksen</w>
vähen tää</w>
tun te##</w>
t on
s ho
rat ing</w>
min d##</w>
keske isi##</w>
is tö##</w>
emp ia</w>
s av
poliitt isesti</w>
muodo ssa</w>
kunn o##</w>
kahd en##</w>
herä ttä##</w>
com pla
te ja</w>
ohjel maa</w>
hallit ukset</w>
avoim uutta</w>
vahin go
tunn e##</w>
toim itta##</w>
inn än</w>
het k##</w>
ha aste
an toi</w>
is teri
hallinno llis##</w>
direktiiv issä</w>
markkino ita</w>
luu le##</w>
käytö stä</w>
elec tion</w>
paik koja</w>
ex port##</w>
el in##</w>
Stras bo##</w>
ty vä</w>
tote si##</w>
riippu va##</w>
rau ta##</w>
ran ge</w>
e x</w>
S ol
j it##</w>
dela y##</w>
äänest yksen</w>
po or##</w>
järjest ä
ha a
fi f
er e
valmi ita</w>
ro oli</w>
leg al##</w>
V ##</w>
d on
yl im
tarkistu ksista</w>
isi ksi</w>
ex cess##</w>
Ir an##</w>
A K
odo ta##</w>
conc re
ad ver
v isi
tä r
pitä vä##</w>
ob st
ik a
ho id
N L</w>
ä ni</w>
yrity ksille</w>
vira ston</w>
sp ent</w>
onn ittele##</w>
le ss##</w>
edusta jat</w>
con sum##</w>
c oura
ty ne
tulo kset</w>
flo or</w>
b ind##</w>
w el##</w>
so ta##</w>
pää stä##</w>
oikeud en##</w>
kamp an
individ ual##</w>
identi fi##</w>
an no
Stras bour
union ia</w>
per he##</w>
ent itle##</w>
el ement</w>
aloitte ita</w>
tel tiin</w>
säil yttämis##</w>
ongel ma##</w>
muka ista##</w>
kie ll
dic ta
5 00</w>
om ia</w>
kuu ll
toimintasuunnitel ma##</w>
toimiel in##</w>
sett le##</w>
kiit oll##</w>
fac ed</w>
b ar##</w>
ol u
in form</w>
im ä##</w>
concre te</w>
arvio ida</w>
4 5</w>
y jä</w>
politiik kojen</w>
ongel mien</w>
luonn on##</w>
j e##</w>
brie f##</w>
prof it##</w>
im pose##</w>
f ail</w>
en em
charac ter##</w>
ä n##</w>
po l</w>
kann usta##</w>
d er
Belg ian</w>
oikeu tetu##</w>
j an##</w>
sp read</w>
käsittel y##</w>
alku per
1 .##</w>
velvo itte
obst ac
im plic##</w>
h und
teho kka##</w>
te e</w>
pap er</w>
oll e</w>
keep ing</w>
vasta us</w>
us te##</w>
stat istic##</w>
n ations</w>
ima gin##</w>
ide mme</w>
tied e##</w>
päiv ä</w>
alo jen</w>
poh ja##</w>
liik a##</w>
jon kin##</w>
gra mme</w>
amoun t##</w>
12 .##</w>
perspec tive</w>
pa y##</w>
nähd ä##</w>
ab s
käsittele mä##</w>
hyö k
M or##</w>
Chech ny
Ag ri##</w>
taloudell isten</w>
sosiaal itur
la use
ka ttava##</w>
hy viä</w>
ec o##</w>
volun tar
uh re
teki jä</w>
se x
kanso jen</w>
for th##</w>
ca te##</w>
N S</w>
E gy
Britann ia##</w>
f la
ajat tele##</w>
Strasbour g##</w>
Chechny a</w>
tiu k##</w>
si h
o s</w>
menettel y##</w>
man ufac
ke don
b ad</w>
b a##</w>
attac k</w>
V itor
M ac##</w>
mp iä</w>
laaj u
h ti
ar riv##</w>
tuot te
rik kom
nn issa</w>
ks elle</w>
fo or
väh intä##</w>
vaikutu kset</w>
tarv etta</w>
s si
parlamenta aris##</w>
sil ti</w>
oikeus perusta##</w>
mu ista</w>
mme ko</w>
mene e</w>
F ra
va tiiv
s si##</w>
rup t##</w>
paik alla</w>
l o##</w>
terroris ti##</w>
r on</w>
ö no
yy s##</w>
tasav allan</w>
sy y##</w>
l d##</w>
is ellä</w>
fin e</w>
all o
Vitor in
ti uk
seuraav an</w>
lu jit##</w>
Ru le</w>
oikeus valtio##</w>
Con sum
9 6</w>
re alis
le tter</w>
ge o##</w>
compli ance</w>
P ak
valmis te##</w>
vi hdo
var at</w>
nel jä
men ne##</w>
ker ro##</w>
tas o##</w>
et si##</w>
Ser b
A ud
is empi</w>
wa it</w>
uks elle</w>
ty nyt</w>
ku ka</w>
ati c</w>
Tran s##</w>
täyden tä##</w>
to bac
ta mista</w>
stand ard</w>
ri ida##</w>
on ic</w>
d istu
a amu
v en##</w>
tr u##</w>
pyy ntö
perusta a</w>
men että##</w>
ks istä</w>
ete ne
vih reä##</w>
tobac co</w>
s day</w>
ni missä</w>
mättö miä</w>
Consum er</w>
0 5</w>
yhtä lä##</w>
väär in</w>
tämän hetk##</w>
s ala##</w>
n neet</w>
käytö ssä</w>
ehdo ttama##</w>
ty pe##</w>
pakol a
sää de
ans ka</w>
A u
tehtävä nä</w>
suos it##</w>
suh teell##</w>
med ic
ex ec
C ope##</w>
B ur##</w>
valti on##</w>
no ise</w>
nego ti
kesk en</w>
uudell een##</w>
te x
poli it
ko ihin</w>
arv o</w>
alo ite</w>
G ö
öö pen
ööpen ha
ööpenha min
väl ittä##</w>
työ järjest
ott anut</w>
käyttö öno
comm ittee##</w>
K ööpenhamin
suh teiden</w>
satisfactor y</w>
nouda ttama##</w>
ann ettu</w>
aja tus</w>
P P##</w>
s ina##</w>
oll aan</w>
in spect##</w>
affec t</w>
var sina##</w>
tu oll
tex t##</w>
he art</w>
er o</w>
b ase</w>
S ol##</w>
na isia</w>
ik ka</w>
ha a</w>
vi e##</w>
us ko</w>
tie tävä##</w>
E T
tu al##</w>
t te##</w>
pyy tä##</w>
f ran
b a
acc ident##</w>
A tlan
kohd ista</w>
inte gr##</w>
fac tor</w>
stoc k</w>
ob tain</w>
leg it
komite an</w>
entr al##</w>
ap par##</w>
al i</w>
tär ke##</w>
tull e##</w>
ra tion##</w>
dipl oma##</w>
bro ad##</w>
a u</w>
Or gan##</w>
Kööpenhamin a##</w>
ö stä</w>
un i
p. m
p.m .</w>
im pose</w>
foor u
ajan kohta##</w>
vapau ksien</w>
sopim uksesta</w>
pur pose##</w>
neuvottelu ja</w>
go al</w>
fi ght##</w>
J a##</w>
re ag
ne ss##</w>
mp ##</w>
burea uc
a g##</w>
sub ject##</w>
ra pid</w>
päätö stä</w>
ll isiä</w>
j ur
elintarvikke iden</w>
alue ille</w>
uu t
tuot annon</w>
tekst in</w>
ta an
kaup all##</w>
is issä</w>
Inter net##</w>
re d##</w>
i al##</w>
ester n</w>
ain e
z one</w>
occu p
käytettä vissä</w>
työsken tely##</w>
suu ll##</w>
sop iva##</w>
equi p##</w>
amer ikkalais##</w>
F in##</w>
saman la##</w>
he ll##</w>
G M##</w>
viljel y##</w>
työ stä##</w>
tied on</w>
suh teita</w>
pri l</w>
kohd istuva##</w>
hyväksy tty</w>
all o##</w>
A pril</w>
v en</w>
uudistu s##</w>
t os
par as</w>
mob il##</w>
alo ite##</w>
vaikutu s</w>
toimenpi teet</w>
todis te##</w>
tarkistu ksessa</w>
raken tava##</w>
me at</w>
isyy den</w>
3 3</w>
ss e##</w>
b i##</w>
asian oma##</w>
D R</w>
vis it</w>
tekn olog
op is
com pati
av aa##</w>
ala an</w>
Zimb ab
1 4##</w>
real ist##</w>
ol es
ma ss</w>
kuul u</w>
kau della</w>
ivast o##</w>
ehd i##</w>
te ll##</w>
tarkistu sten</w>
iv ity</w>
d ään</w>
yhden mukaista##</w>
ik ä##</w>
he esi
Ge or
ongel mista</w>
kuu kauden</w>
järjestel mään</w>
elä im
c anc
Ma kedon
tra vel</w>
ri en</w>
promis e##</w>
pa ss</w>
ko heesi
e ta</w>
tois sija
taloudell iset</w>
st ava##</w>
sijo itta##</w>
regula tor##</w>
pitä mä##</w>
im in
Aud it##</w>
u ksien</w>
täys istunnossa</w>
tul k
ti mme</w>
la teral</w>
st ön</w>
ot sa
20 0</w>
tämän päivä##</w>
paho illa##</w>
oikeu teen</w>
min isteri
il u</w>
endor se</w>
edell een##</w>
yksin oma##</w>
viitta a##</w>
työ voima##</w>
ttav at</w>
to on</w>
ryhmä t</w>
näkö kohtia</w>
mietinnö ssä##</w>
l ti</w>
it al##</w>
campa ign</w>
varain hoito##</w>
me an
lin k</w>
B el##</w>
strateg ia</w>
poliit ik
kein o</w>
ev en##</w>
al th##</w>
vir he
tt o</w>
suun ta##</w>
re in
kol mas</w>
jo ki##</w>
f are</w>
def end</w>
ar k
vastuu ta</w>
markk ina</w>
lämp imä##</w>
kysymyks essä</w>
kuu lla</w>
isyy teen</w>
a mis##</w>
koh telu##</w>
ed el
uu de
edusta jien</w>
A z
tä hd
paik kojen</w>
mon i
b ar
Gre en##</w>
yleis ö##</w>
wor th</w>
oc cur##</w>
lo wer</w>
kul ku##</w>
f air##</w>
con solid##</w>
as kel
tutkim usta</w>
tell eet</w>
su it##</w>
rakenn us##</w>
be ar##</w>
yhteis päätös##</w>
nel jä</w>
n ed</w>
es ittä
e ase##</w>
tur vaa##</w>
publis h##</w>
kysymyks issä</w>
iss ä##</w>
fin ance</w>
yksi kö
un e##</w>
ser ve##</w>
legiti mate</w>
char ge##</w>
ulti mate##</w>
tu n##</w>
sto od</w>
seik ka##</w>
sa tama##</w>
ra c##</w>
l is##</w>
joust av##</w>
asso ci
nouda tettava</w>
luov utta##</w>
inn o##</w>
brea k##</w>
äänestyks essä</w>
vil p
vi ivä
v ing</w>
sosiaalitur va##</w>
sosi alisti##</w>
ristiri ita##</w>
ri a</w>
pii ri##</w>
kor ja##</w>
kesk en##</w>
dec is
brea k</w>
veto a##</w>
safegu ard##</w>
profession al</w>
kysymyks estä</w>
o inti##</w>
käyttä mä##</w>
conduc t</w>
Reg ion##</w>
oso itus</w>
oma ksu##</w>
kka ita</w>
järjestä yty##</w>
hu hti
compla in##</w>
OLA F</w>
r iv
mit kä</w>
in ta</w>
huol ellis##</w>
huhti kuu##</w>
aiheu ttama##</w>
väär in##</w>
työ n##</w>
kyse isen</w>
y le##</w>
vi lla</w>
te lla</w>
ratkaisu a</w>
käy ttävä##</w>
Mar ket</w>
valvon ta</w>
per i##</w>
pel kää##</w>
nä yttä##</w>
neu vo##</w>
ic i##</w>
hall ituksi##</w>
fac t##</w>
dis appoint##</w>
bur den</w>
yl ittä##</w>
ha aste##</w>
en de
ehdotu sten</w>
K es
vaati va##</w>
th o
sy d
kiel täyty##</w>
er otta##</w>
av er
s ource</w>
de ad##</w>
ar t##</w>
o a</w>
va c
st ra
ri ippu##</w>
rahoit uksen</w>
p k</w>
Rom an##</w>
tra gi##</w>
tehtävä ä</w>
s ource##</w>
rikoll is##</w>
h ib
eurooppala isia</w>
asso sia
9 ##</w>
valio kun
un g##</w>
sen s##</w>
san oma##</w>
materi al</w>
co ast##</w>
4 8</w>
tho rou
saman aika##</w>
myö hä##</w>
kor jaa##</w>
ie t
histor ic</w>
g la
vah va##</w>
onnettom uu
mp ia</w>
contin ent</w>
M c
vastuu n</w>
ta isi</w>
sul ke##</w>
refle ct</w>
osapuol i##</w>
monit or</w>
ki o##</w>
Amster dam##</w>
ss amme</w>
puol ella</w>
pl ant##</w>
lää ke##</w>
assosia atio##</w>
C ub
väest ö##</w>
la u
ehkä ise##</w>
citiz en</w>
Lib eral</w>
vis it##</w>
turval lis##</w>
qual ified</w>
muka inen</w>
am ma
Pro to
ih in##</w>
ende av
cust om##</w>
alu etta</w>
adv is##</w>
mone tar##</w>
mar g
Proto col</w>
C an##</w>
AK T</w>
sov ere
mielen kiin
is m##</w>
electr ic##</w>
Kore a##</w>
D en##</w>
un iver
genu ine##</w>
electr onic</w>
cu t##</w>
a tor</w>
tan t##</w>
puolu e
opin ion##</w>
kehity kseen</w>
U ##</w>
vää ris
ttä nyt</w>
tiedo tus
rec over##</w>
merk kejä</w>
anta i##</w>
lähestymis tapa</w>
lap si##</w>
g rant</w>
esi tetty##</w>
elä k
aik ais##</w>
tr a</w>
ratkaisu ja</w>
nn yt</w>
is ina</w>
in kin</w>
enem pää</w>
Amster dam</w>
ta miseksi</w>
pub lic##</w>
perf ect##</w>
0 5##</w>
ó n</w>
tö ön</w>
tuom itse##</w>
toimenpi teiden</w>
con firm</w>
at o##</w>
al ku##</w>
toissija isuus##</w>
sugg est</w>
käsittel yn</w>
ko t
hyödyn tää</w>
asi s</w>
ter ve##</w>
tark ka##</w>
seik ka</w>
o tti</w>
kuu le##</w>
hyök käy
ett i</w>
He ad##</w>
ongel miin</w>
o od</w>
ku t
edusta ja##</w>
Pre sti
tarkastel tava</w>
prec ise</w>
lä n
inc enti
incenti v##</w>
voluntar y</w>
tu on</w>
tiedotus väline##</w>
te bor
läh tö
tuke va##</w>
sotila s##</w>
re su
pos ed</w>
ohjel mia</w>
m al##</w>
laun ch##</w>
käy dään</w>
it ti##</w>
Gö tebor
C r##</w>
tety t</w>
tekniik an</w>
tarko ita</w>
se t##</w>
r in</w>
koordino inti##</w>
En erg
D o
voit ava</w>
tä h
ja tta##</w>
hil jatta##</w>
h ard##</w>
N iel
suor i##</w>
proses siin</w>
pol ttoaine##</w>
istu nnon</w>
inhim illis##</w>
contra dict##</w>
E K
yhteenkuulu v##</w>
tar ve</w>
puhemie he##</w>
pii ri
off ##</w>
o l</w>
la in</w>
ek en</w>
brie f</w>
tyy dy
kysym ysten</w>
he idät</w>
crim e##</w>
kaup pa</w>
NG O##</w>
suh teet</w>
me ja</w>
kustann uksia</w>
fed er
edis tämis##</w>
aika an
tapa us</w>
maa ta</w>
Bud get</w>
vall itse##</w>
sy vä##</w>
saata isi##</w>
pol ##</w>
määrä yksiä</w>
kaup paa</w>
emph asis</w>
cho os##</w>
7 5</w>
vi isi</w>
val taa</w>
tel ##</w>
Bus h</w>
ti vat</w>
si e
realis tic</w>
or po##</w>
ku va</w>
Euroop asta</w>
yhden mukais
pys ä
jouk ko##</w>
exa mine</w>
se cu
perustusla in</w>
om e</w>
mod ern##</w>
man age</w>
le a
käsittel yyn</w>
Husse in</w>
val o##</w>
tta ja##</w>
konfer ens
on ia</w>
k er##</w>
il mi
väh en##</w>
ver ta
tar ke##</w>
oike uksista</w>
ob tain##</w>
en du
ann e</w>
vaik u
to p</w>
n s</w>
demokra att
3 8</w>
vä ll##</w>
vah ing
tu vat</w>
ta ho
mielenkiin to##</w>
mi ten##</w>
halu si##</w>
B ul
B u
yo to</w>
univer s
huol ehdi##</w>
dis tor
K yoto</w>
3 2</w>
vess el##</w>
visi o##</w>
r y
or al</w>
lausu nnon</w>
jäsen elle</w>
. .</w>
piiri in</w>
K ar
tr ies</w>
s ou
perus te
gen der</w>
com mend</w>
ban k##</w>
K uu
välis essä</w>
m oun
lo w##</w>
fiel d##</w>
etu sija##</w>
def end##</w>
Bul gar
toi mis
pl ies</w>
en ia##</w>
be g##</w>
I tä</w>
tuoll o##</w>
painop iste##</w>
kor ke##</w>
it uu
in to##</w>
aamu na</w>
vapa us</w>
työ markkina##</w>
säännö ll##</w>
loc ation</w>
huol to##</w>
e ther##</w>
J ugosla
Comm on</w>
viivä sty##</w>
var ova##</w>
si ve</w>
sa s
lento yhtiö##</w>
kri isi##</w>
järjestel miä</w>
g one</w>
f il
de ep##</w>
cor e</w>
a ture</w>
Ir an</w>
yhteis työhön</w>
trans fer##</w>
tervey den
ordin ary</w>
kum ma##</w>
k el##</w>
c lu
vehic le##</w>
technolog ies</w>
te is##</w>
mod ern</w>
m id##</w>
dec a##</w>
a isi</w>
writ ten</w>
tied on##</w>
määräraho jen</w>
cent re</w>
yrittä ä</w>
ylim äärä##</w>
vo ice</w>
ver ra##</w>
ri er##</w>
r ies</w>
periaat teiden</w>
mill ään</w>
koro ste
it or##</w>
argu ment##</w>
alo it##</w>
oc ca
occa sion</w>
menest ykse##</w>
da i##</w>
löy de##</w>
examp le##</w>
eir a</w>
Pro di</w>
tra d##</w>
inte gro
elä in##</w>
w n##</w>
pay ment</w>
p tion</w>
onn e##</w>
fle et</w>
ek en##</w>
asetu s</w>
La eken##</w>
Ki oto##</w>
tom ien</w>
suunnitel ##</w>
rek ister
lis t##</w>
inc orpo##</w>
he ug
harjo itta
Makedon ia##</w>
u te##</w>
threa ten##</w>
rikoll isuuden</w>
lainsäädä nnö##</w>
ite ttävä</w>
ede ssä##</w>
rauhan oma##</w>
pu l##</w>
menettely jä</w>
c at
E x##</w>
ur y</w>
konferenss issa</w>
it t##</w>
hy v##</w>
h our##</w>
anal yy
ta p
ole ell##</w>
nä h##</w>
its est
gra du##</w>
fel t</w>
est i##</w>
ess ään</w>
y n
vak ava</w>
tois ista##</w>
defin e</w>
br u##</w>
Palac io</w>
val la
teho kas</w>
sov i##</w>
rajo it
nel jä##</w>
lif e##</w>
B as##</w>
relig ious</w>
pro ceed</w>
j an
bi lateral</w>
Energ y</w>
v iv##</w>
sex ual</w>
re hell##</w>
mu ille</w>
ll ään</w>
ka asu##</w>
j au
i que</w>
exec u##</w>
E mp
1 1.##</w>
tois in##</w>
re v##</w>
mill oin</w>
cou p
appro ve</w>
ta hd
so ta</w>
huom aa##</w>
etta isiin</w>
er i
e jä</w>
demokraatt isen</w>
b io
tyy pp
su ffici
sano ttu</w>
kas va
inclu s##</w>
in sist</w>
an ia##</w>
Au thor##</w>
pos t</w>
mis essä</w>
la tter</w>
hyvin vo
f y</w>
H i
tw en##</w>
tarko itu
tarko ite##</w>
p re</w>
m alli
koroste ta##</w>
j emme</w>
g ed##</w>
vaike uksia</w>
su hd
le ik
käyttö ön##</w>
j ö##</w>
aw are##</w>
Jugosla via##</w>
toimiv a##</w>
tar i
t ant</w>
mahdollisuu ksien</w>
ha ki
ev e##</w>
eth n
F e##</w>
C or
ponnis telu##</w>
lisään tymis##</w>
com pl
Is o##</w>
r ich</w>
pill ar</w>
os alta##</w>
koko on
k id
esiin ty##</w>
edisty sas
d ik
täm inen</w>
todis ta##</w>
tack le</w>
sisäl tyvä##</w>
raha ston</w>
os u
o inn
c in##</w>
alu sta</w>
s in</w>
m man</w>
ga s</w>
Al ban
tää kseni</w>
tu kien</w>
tu h
sil mä##</w>
sig nal</w>
pos ing</w>
ex ami##</w>
eläk elä
eläkelä is##</w>
edellyty kset</w>
F i
uudistu ksia</w>
si te
s yö
m ing</w>
laati mis##</w>
kri isin</w>
kap pal
Mar o
H ome</w>
perustel tu##</w>
kertom uksen</w>
ke ja</w>
d y</w>
Lat in</w>
9 1</w>
kala sta
i .
be hav
ab l##</w>
H a##</w>
sup pose##</w>
prosess issa</w>
manufac ture##</w>
ist an</w>
i. e##</w>
dik ta
H O</w>
F ish##</w>
safegu ard</w>
nu or
avo id##</w>
yl ittävä##</w>
uu si
tu ssa</w>
tar get</w>
säännö ksiä</w>
regre tt##</w>
pl an
p y
käy nti##</w>
hankke iden</w>
ab ilities</w>
F ree##</w>
5 5</w>
vast ust##</w>
tehtä viä</w>
te ta</w>
op tim##</w>
f use##</w>
toim een
ta sa
su ku##</w>
sa ine##</w>
s ala
päätö ksen##</w>
per form##</w>
3 6</w>
2 1##</w>
tavo itetta</w>
tarpe et##</w>
suo stu##</w>
raken teell##</w>
q ##</w>
määri te##</w>
main itsi##</w>
ma ap
liik enn
lear n</w>
ka pa
jär ky
hyväks y</w>
ev a</w>
el ä##</w>
I G
yks een</w>
suojel un</w>
sche me</w>
ne llä</w>
fo rest##</w>
ymmärr y##</w>
suoj ella</w>
pro hib
koro st##</w>
koh tien</w>
expla in##</w>
e dessä</w>
ak ka</w>
vi ä##</w>
vakuu tus##</w>
vah v##</w>
sa apu##</w>
ig er
en ti##</w>
deb t</w>
av e##</w>
s all
ik ais##</w>
hä tä##</w>
bud s##</w>
S ad
N iger
8 9</w>
yh ty##</w>
valtio issa</w>
strategi aa</w>
ss ään</w>
sol ve</w>
seura a</w>
ro om</w>
menettely ssä</w>
ksu aali##</w>
keskustelu ja</w>
jaks o##</w>
ha ke
en abl##</w>
tapa an</w>
suku pol
muodo stu##</w>
cour t</w>
ul t##</w>
tu ksia</w>
on esi
mb er##</w>
emb ##</w>
Zimb a##</w>
W a
Ira q##</w>
Ind onesi
välia ikais##</w>
täysi määrä##</w>
pul s##</w>
la h
järjestel y##</w>
hankke ita</w>
funda mental##</w>
fo ot</w>
arvo sta##</w>
A asia##</w>
ta jien</w>
miel i##</w>
j än</w>
ed ut</w>
condem n</w>
Ass emb##</w>
u den</w>
tervey den</w>
lis ten##</w>
ä l
vaatimu sten</w>
ta vasta</w>
pen d</w>
mu iste##</w>
heik o##</w>
ga in</w>
for mu
ehkäis y##</w>
Qu est
yh ##</w>
r a</w>
paik an</w>
näh d##</w>
nä ky##</w>
ly k
li a##</w>
kie lle##</w>
ker ta</w>
iet na
con vention</w>
co oper
V ietna
Emp loy##</w>
yll ä##</w>
won der</w>
te iltä</w>
sisäl ty##</w>
monop ol##</w>
maan viljeli
käy tettävä</w>
hank keen</w>
bo o
allo cate##</w>
voit u</w>
valtio ita</w>
pros per##</w>
n ce##</w>
mp a##</w>
as s##</w>
z z
trans l##</w>
deter mine##</w>
c al</w>
velvoll isuus</w>
sa man</w>
s pend</w>
aik om
S ad##</w>
IG C</w>
tutkim us</w>
suure mpi</w>
palau ttamis##</w>
f our##</w>
destro y##</w>
cra ft</w>
associ ate##</w>
Ind us##</w>
valio kunta##</w>
ulkom in
ulkomin ister
ki is
fer ence##</w>
ethn ic</w>
asiakirj an</w>
alo ja</w>
vasta inen</w>
täs mä
täsmä llis##</w>
re li##</w>
polit ical##</w>
man a</w>
elä ä</w>
coh erent</w>
uudistu ksen</w>
tas o</w>
spe ct</w>
f ru
ongel maan</w>
kehit tyne##</w>
enc ies</w>
en force##</w>
ar m</w>
ön tä</w>
vol u
val ta
usko a##</w>
ur a##</w>
se itse
maa han</w>
la itte
itsest ään</w>
isem paa</w>
im e##</w>
che ck##</w>
4 9</w>
uudis ta##</w>
ssa olo##</w>
produc tive</w>
pl ann
plann ed</w>
läh te##</w>
k av
ad just##</w>
un ion</w>
ta kaa</w>
spo ken</w>
päätöslausel ma</w>
o ja</w>
la it
ila is##</w>
ic ate##</w>
euvo sto##</w>
ett u
essenti al##</w>
Lat in##</w>
väkiv allan</w>
van h
kokona isuudessa##</w>
kapa site
Y or
D u##</w>
4 2</w>
sm all##</w>
kuulu va##</w>
hel mik
e ties</w>
ä ltä</w>
vasta ista</w>
s on##</w>
rin na
mietinnö stä##</w>
b urg##</w>
war n##</w>
uude staan</w>
tek sti</w>
sopim us##</w>
sel ittä##</w>
os e##</w>
is oi##</w>
helmik uu##</w>
emb ar
tulo ksen##</w>
satis fied</w>
s inc
p ie
luottamu s##</w>
vilp it##</w>
ul ar##</w>
tarkistu ksesta</w>
taloudell isesti</w>
pit o##</w>
muka isia</w>
loc k##</w>
koulutu sta</w>
gener ation</w>
decis ive</w>
amb it##</w>
Sch eng
with draw##</w>
tapahtu mat</w>
mi d</w>
lo va
kesku stella##</w>
ke pt</w>
jo lla##</w>
i ja##</w>
Zimbab we##</w>
tasapain o</w>
t it
sääde t##</w>
suor itta##</w>
siir ry##</w>
it y##</w>
viljelijö iden</w>
va kauden</w>
pan e
lait osten</w>
gla d</w>
en e##</w>
aste itta##</w>
toimenpi teisiin</w>
sel ke##</w>
saavu tettu</w>
kom men
go t</w>
e ksi
cla use</w>
af ter
vapa a</w>
tila isuuden</w>
par e##</w>
m itta##</w>
li itt
ku vi
el o
alkuper äis##</w>
toimin nasta</w>
tapa a</w>
ro und##</w>
n tö</w>
menest y##</w>
medic ine##</w>
legit im##</w>
d a##</w>
chan ging</w>
as en
after no
ö r
yksin kerta
trans fer</w>
tila is##</w>
su u##</w>
reg is
o ita</w>
lu pa##</w>
cla im</w>
v ina</w>
sum ma##</w>
he alth##</w>
er illis##</w>
el i##</w>
con dition</w>
acc us##</w>
vastaav an</w>
us con
tul i</w>
raha sto
kin ä##</w>
il t</w>
aver age</w>
P a
po st
per mit##</w>
olog y</w>
nor mal</w>
ist u</w>
hall itusta</w>
en immäis##</w>
E C
Berl uscon
kas vun</w>
deliv er##</w>
te tun</w>
kasv u</w>
exemp t##</w>
pro ve</w>
pide ttävä##</w>
lu omis##</w>
he av
con tain</w>
an tu##</w>
Maa ilman</w>
tt ö##</w>
taud in</w>
ll istä</w>
Vitorin o</w>
tro l</w>
prose cu
na is##</w>
ko ke##</w>
epäil y##</w>
af for
S M
pel a
gra d##</w>
esity ksen</w>
ar me
ab ##</w>
A T
9 4</w>
tasa puolis##</w>
puu tu##</w>
afterno on</w>
acc ident</w>
valmis tele##</w>
tu ho##</w>
rau ha##</w>
puol ##</w>
käsittely ä</w>
j ista</w>
is u##</w>
inten tion##</w>
endu m</w>
b om
ation al</w>
4 4</w>
tavoitte ista</w>
tarka stella##</w>
l er##</w>
käynn issä</w>
er y</w>
el se##</w>
Ara f
van oma##</w>
tuho a##</w>
ttav ia</w>
ta vanoma##</w>
re hu##</w>
poikke us##</w>
hyväksy ttävä</w>
con vention##</w>
ttav ien</w>
kä teen</w>
go al##</w>
Presid ent##</w>
vi it
vi enti##</w>
uh kaa</w>
tun to##</w>
tu le</w>
mo ott
i ent##</w>
h ouse</w>
est imate##</w>
ala isen</w>
vac cin##</w>
oh ja##</w>
o tamme</w>
main itsi</w>
la illa</w>
la ck##</w>
joust ava##</w>
ilma ise##</w>
h inn
An d
seura ukset</w>
rea k
pro to##</w>
muo to
mon en
la te##</w>
kä v
fe ed</w>
P o##</w>
4 1</w>
työntekijö itä</w>
pu ite##</w>
po istamis##</w>
osa sto##</w>
opis kel
käsit tä##</w>
f ill##</w>
qu ant##</w>
ow ner##</w>
offic e##</w>
el i
dom est
disas ter##</w>
behav i
Kore a</w>
va u
or e##</w>
o iden</w>
ka ava##</w>
coura ge</w>
st ab
kka a</w>
kan tojen</w>
tied otta
saan e##</w>
saa stu
ponnis telu
li ha##</w>
kulj etta##</w>
jo in##</w>
is la
Kuu ba##</w>
uskonn o##</w>
tu tu
osapuol et</w>
fi l</w>
täll ö
tyne essä</w>
tila isuutta</w>
sub mit</w>
st rea
main itsema##</w>
inc ident##</w>
ga in##</w>
conta ct</w>
c ard</w>
C o
suffici ent##</w>
oppos ite</w>
liit on</w>
deb a##</w>
adap t##</w>
P T</w>
tu a</w>
pyr kiv
maail ma##</w>
m mistä</w>
liit tyvä</w>
kri itt##</w>
ill ä##</w>
h en##</w>
L u##</w>
valtuus kunnan</w>
to tu
ti lo
techn o##</w>
ro ad##</w>
pyy tä
prior ite
materi al##</w>
ke t
er ent##</w>
compe tent</w>
behavi our</w>
Y ugosla
w arm##</w>
ll i##</w>
köyh ##</w>
k risti
quo ta##</w>
po ke</w>
pi te##</w>
pe ä##</w>
mu illa</w>
b ru
argu ment</w>
al e##</w>
Mon t##</w>
pal ja
pa tent##</w>
johd an
f os
elec tor##</w>
amma ti##</w>
S to
Ir la##</w>
tällö in</w>
qu ar
pro of</w>
otsa kke##</w>
o jen</w>
määr ittä##</w>
hallin to</w>
gu id##</w>
fron t</w>
conduc t##</w>
compati ble</w>
ab use</w>
Götebor g##</w>
Gen e##</w>
viranoma isen</w>
sym b
ne itä</w>
kes kinä##</w>
ex tra##</w>
domest ic</w>
aikaan saa##</w>
T un
teoll isuus</w>
obstac le##</w>
kohtu ull##</w>
huom ion</w>
aie mpaa</w>
3 9</w>
vaik ut##</w>
pun ish##</w>
poikke uks
mat on</w>
i ed</w>
hi eno##</w>
har m##</w>
ei ght</w>
distor t##</w>
co t##</w>
teh tiin</w>
syd ä
ss opim
kom mun
jo ku</w>
V al
M ol
3 4</w>
1 7
sit o##</w>
rajo ja</w>
r en
k kä</w>
I sla
3 00</w>
ympäris tön
utu s##</w>
suo si##</w>
run ning</w>
pi eni</w>
mul tila
mieh en</w>
main ita##</w>
inte gra
edis te##</w>
ac cu
3 .</w>
tapo ja</w>
pan o</w>
laad un</w>
h op##</w>
doub le</w>
coun ter##</w>
al koh
K a
reite rate</w>
lu n</w>
kysymyks en##</w>
ful fil</w>
edis tetä##</w>
d t</w>
O m
G M
tutu stu##</w>
te st</w>
reg ular##</w>
ohjel massa</w>
koh tiin</w>
tö ä</w>
tulo kseen</w>
sisä markkina</w>
presid ent
minister in
merk in
i en##</w>
asian osa##</w>
ai o</w>
yhdenmukais tamis##</w>
u d</w>
tiedotta mis##</w>
oikeu tettu##</w>
näkö kohdat</w>
mill ion##</w>
la y##</w>
la isen</w>
kustann usten</w>
ks ell##</w>
is el
isel itte##</w>
il os
huolest une##</w>
coun ter</w>
coun t##</w>
ain eita</w>
Gu ine
usko ttav##</w>
toivo t##</w>
teoll isuu
stab il##</w>
in sist##</w>
er t</w>
al ha##</w>
Joh anne##</w>
1 5##</w>
uu delle</w>
toteu tettava</w>
puolu eiden</w>
pris e</w>
pan e##</w>
ma h
assu me</w>
V er##</w>
T ai
M an
tu ettava</w>
te ihin</w>
pros ent##</w>
pe to
ol i
kr itiik
kann ust
jud ge##</w>
investo inte
elä mään</w>
d ro
arv on</w>
ved en</w>
val vo
turvallis uudesta</w>
puut teell##</w>
os ana</w>
kokou kseen</w>
bi olog##</w>
0 6##</w>
vaal ien</w>
sopim uksiin</w>
sa w</w>
r al
pit i</w>
periaat teet</w>
ongel mana</w>
is mi##</w>
fu el##</w>
S lova
Lä n
voit te</w>
valmistelu kunta</w>
v er</w>
tel i</w>
recor d</w>
rau haa</w>
fun ction</w>
er ing</w>
wea k##</w>
välis iä</w>
suunn ittelu##</w>
suc ceed</w>
pyrkiv ä##</w>
propor tion##</w>
mu ita##</w>
mis s##</w>
lu otta##</w>
kau tu##</w>
hab it##</w>
ehdo t</w>
ati ##</w>
Om buds##</w>
vuo si
tervey ttä</w>
tapahtu i</w>
p ä##</w>
m illa</w>
im a##</w>
er ään</w>
y tymis##</w>
vi iden</w>
s ka##</w>
llisyy ttä</w>
komite a</w>
cooper ate</w>
constitu te</w>
H er
sou thern</w>
s cr
ohjel maan</w>
men nä</w>
l eng
kys el
hä mmä
yr itä##</w>
vapau teen</w>
tol er##</w>
struc tur
siir to##</w>
sci ence</w>
m outh</w>
la w
han ke</w>
blo od</w>
P u
9 3</w>
y llä</w>
vuo d##</w>
tru th</w>
tety n</w>
s esta</w>
pyy nnön</w>
painop iste
kuu kautta</w>
im peri
ehdotu ksista</w>
ed un</w>
N a
yhteis vastuu##</w>
regula te##</w>
pro spect##</w>
im man</w>
f ence</w>
ede tä</w>
au di
H ar
un ila
o u</w>
käsitel tävä</w>
dipl oma
ac knowledge</w>
CA P</w>
top ic##</w>
sov itta##</w>
main ittu</w>
enna kko##</w>
tulo sta</w>
tau ti##</w>
p hen
la ivasto##</w>
d it##</w>
S i
vaati o##</w>
v y##</w>
sta ja##</w>
luon te##</w>
kal atal
iti o##</w>
ik ke##</w>
hark itse##</w>
ajon eu
C itiz
tra dition</w>
olo issa</w>
mu s##</w>
ma u
m yr
huoma tta##</w>
5 .</w>
välis ten</w>
viik on</w>
scho ol##</w>
ol a</w>
mi a##</w>
ko ti##</w>
c co</w>
arvo ja</w>
tehtä vän</w>
spe ed##</w>
organis aatio##</w>
kah teen</w>
an sa##</w>
torjun ta</w>
oso ittama##</w>
n an</w>
mattom ia</w>
al alle</w>
acti ve##</w>
é ##</w>
uudistu s</w>
tell en</w>
prof it</w>
perust u##</w>
in t##</w>
etu n</w>
et c</w>
enna ko
en han
stor e</w>
se ven</w>
s in##</w>
main ittu##</w>
lu v
tö n</w>
tapahtu mien</w>
sy itä</w>
llis ty##</w>
figu re</w>
Sad dam</w>
vaikutu sta</w>
ulkom a##</w>
suunnitel man</w>
p om
mau saine##</w>
koulutu kseen</w>
corpor ate</w>
arvo a</w>
syy ttä
structur ing</w>
r ö
p ho
liber al</w>
inst ituu
be come##</w>
Sta t##</w>
palvel ut</w>
p an</w>
om ista
lääkke iden</w>
keino in</w>
järjestelmä stä</w>
eng er##</w>
diff erent##</w>
asi al
analyy si##</w>
univers al</w>
ta kan
puhu ja##</w>
maa tt##</w>
het ki</w>
he ar##</w>
for ma
ohjel masta</w>
määrä rahat</w>
ka usi</w>
is on</w>
i el##</w>
hallinno i##</w>
e i##</w>
car ry##</w>
ass ess</w>
anne s
tarko itettu##</w>
talou s</w>
selvä sti##</w>
r ic
r ans
n is##</w>
huu mausaine##</w>
bu ilt</w>
att ach##</w>
4 3</w>
, 5</w>
v is##</w>
tti vät</w>
ordin ate##</w>
minu te##</w>
le vittä##</w>
in ate</w>
an kar
alo itetta</w>
Sec ret##</w>
Constitu tion##</w>
tuo te##</w>
talousarvi o</w>
ri d</w>
puite ohjelma##</w>
ki ä</w>
gen er##</w>
f in</w>
con serv##</w>
ab and
B yr
yrity s##</w>
vetoom us##</w>
s valta##</w>
mon ik
m ot
lu vun</w>
kehity ksestä</w>
jäsen valtio</w>
jäsen enä</w>
istun to</w>
hen g
ev it##</w>
com p
alo itte##</w>
T hur
Erik ##</w>
vuosi kymmen##</w>
varo it##</w>
vaike i##</w>
sur viv##</w>
suff er</w>
määri tellä</w>
lu kuun</w>
er im
Tai w
Joh annes
Citiz en##</w>
ra a
prec ede##</w>
necess arily</w>
muuto s</w>
laajen n##</w>
kumppan i##</w>
kertom us</w>
järjestö t</w>
ill ust##</w>
asia kirja</w>
ajoneu vo##</w>
Parlia ment##</w>
ö m</w>
ymmärr ä</w>
ver on
tele visio##</w>
pä te##</w>
parlia ment</w>
haaste e##</w>
fu el</w>
Pro di##</w>
E Y##</w>
A sia</w>
var aa</w>
thre s##</w>
ra ct##</w>
keskustelu issa</w>
kah desta</w>
in evit##</w>
hu oll
ab o##</w>
Tur kki</w>
vi esti</w>
uh rien</w>
tark is
sih te
radi o##</w>
paten tti##</w>
nu tta</w>
jouk kojen</w>
appro ach##</w>
aj ien</w>
päiv ittä##</w>
pa th</w>
kut su
direktiiv iin</w>
ci ent##</w>
c yc
vasta ava</w>
ut in##</w>
tu et</w>
toteu tetta##</w>
suuntavi iva##</w>
sa ttu##</w>
puh e##</w>
ar rest</w>
Gen eve##</w>
199 7</w>
välin eiden</w>
rajo ite##</w>
puh taa##</w>
om inais##</w>
lähtö kohta##</w>
kiito kset</w>
en vis
doll ari##</w>
var au
sta tu
sec re
re action</w>
o he
kuolem an
ex plic##</w>
B ur
ä nsä</w>
ven e</w>
utu va##</w>
siv uut##</w>
r in##</w>
oikeudell isen</w>
määr ää
ki ih
kaks in
hyväksy ttävä##</w>
graph ic##</w>
for tun
eth ical</w>
cau tion##</w>
be l</w>
Sa har
yksi kk
v ul
tarkistu s##</w>
si ght</w>
muu n
muod oll##</w>
kiinti ö
jää vä##</w>
ho ide
de part##</w>
ass ur
F a
tett ä</w>
su p##</w>
ratkais eva</w>
pako tta##</w>
pa kko</w>
ole ma
kyv yn</w>
hake mu
Thur sday</w>
Fra me##</w>
1 .
uot is##</w>
tion al##</w>
ro ot##</w>
pitä isi##</w>
la y</w>
kyseen ala
juu ri##</w>
iv uotis##</w>
he del
fu se</w>
fam ili
B ö
: ta</w>
yksi puolis##</w>
viis u
tä nne</w>
ks ellä</w>
etu t</w>
equ i##</w>
demokra tia</w>
Johannes burg##</w>
J o##</w>
yks iselitte##</w>
to distu
tarjo ama##</w>
s ati##</w>
politiik ka##</w>
lä hd
konferenss i</w>
jo lle</w>
huolest u##</w>
huol ta</w>
W estern</w>
K al
4 6</w>
tois en##</w>
n cial</w>
lu oda##</w>
knowled ge##</w>
kaupun ki##</w>
istun tos
ik an##</w>
histor ic##</w>
et nis##</w>
ch a
T he
SM E##</w>
E ast##</w>
Alger ia##</w>
: tä</w>
6 5</w>
tekst iä</w>
suunnitel ma</w>
suojel u</w>
se ksuaali##</w>
prog ress##</w>
le ase</w>
koheesi o##</w>
h im##</w>
D A</w>
työsken n##</w>
te ly</w>
te issa</w>
pää oma##</w>
n ier</w>
luon te
ll u
kohd asta</w>
intell ig##</w>
av oin</w>
va kaa##</w>
saavu ttama##</w>
new s</w>
ke tta</w>
b la
ympäris töön</w>
vä li
van g
syrj intä##</w>
ro ut##</w>
maa sta</w>
er t##</w>
Hi gh</w>
too l</w>
se a##</w>
oikeu ksiin</w>
kunnio ittamis##</w>
hallin ta##</w>
adv ance</w>
La my</w>
I V</w>
Egy p
void a##</w>
us tettu##</w>
tu kia</w>
ot te##</w>
käynn is
tuhan s##</w>
ttä mä##</w>
menettely jen</w>
maail maa</w>
lu ettu##</w>
esiin tyy</w>
abs ence</w>
valtuu det</w>
utu a</w>
tta koon</w>
tor sta
propor tion</w>
ku stan
jud g
inno vaatio##</w>
halu aisi</w>
ha ke##</w>
an ee##</w>
a an##</w>
Maro ko##</w>
vasta usta</w>
valtio ta</w>
vaatimu s</w>
tiedon annon</w>
tah toa</w>
re turn##</w>
n ti</w>
is elta</w>
hoid on</w>
de z</w>
G a
D u
välis et</w>
ohe lla</w>
m elu##</w>
exclu de##</w>
eett isesti</w>
ajatu sta</w>
vul ner##</w>
sel ity
pres er
paino st##</w>
o ro##</w>
käsitel ##</w>
kein o##</w>
er ro
el der##</w>
J ar
Austri a##</w>
4 .</w>
ystä vä##</w>
y our##</w>
toimiv alla##</w>
teu ra
suc ceed##</w>
ra te##</w>
käsitte ly</w>
j yr
j iin</w>
Sw ob
Bro k</w>
z emb
sovere ign##</w>
regu lar</w>
kyseen alais##</w>
kor ja
kohd e##</w>
jä nn
el o##</w>
coh er
Jar zemb
tu esta</w>
ro ko
pal a##</w>
oper a
kohta isesti</w>
e ja</w>
compl icate##</w>
Sto ck##</w>
ään la##</w>
v in##</w>
tä mme</w>
lento kone##</w>
laun ch</w>
er äänla##</w>
distin ct##</w>
ase iden</w>
Luxemb our
vaikutu sten</w>
v it
pre fer##</w>
poliitt isesta</w>
kanna sta</w>
heug en</w>
f i</w>
ey e</w>
ap e</w>
vaik ka##</w>
uni form</w>
tin e</w>
kä dessä</w>
koro t##</w>
konferens si##</w>
inf rin
hait all##</w>
fortun ate</w>
de mo##</w>
U E</w>
I N##</w>
Dem o
äär i##</w>
viera ilu##</w>
terroris t##</w>
syrj ä##</w>
signific ance</w>
puol i</w>
coher ence</w>
yks in</w>
ti re##</w>
talou tta</w>
po sti##</w>
pala ta</w>
if ic##</w>
eng age##</w>
ass a##</w>
Con trol</w>
v yyttä</w>
ta ke
myönn ettävä</w>
muu alla</w>
ll iseen</w>
jäl j
en ed</w>
el u</w>
eh toja</w>
aff ir
ac knowledge##</w>
E Y</w>
vi ksi</w>
ta en</w>
phen om
liit te##</w>
emb ry
coll abo##</w>
ac quir##</w>
V ice</w>
5 1</w>
u mp
täy s##</w>
s ki</w>
pa tent</w>
mä ä</w>
kustan n##</w>
hank ki##</w>
ero ja</w>
sta ma##</w>
s chem
nu mber##</w>
luo ta##</w>
ehd o##</w>
an ia</w>
yks istä</w>
viranoma isille</w>
seik koja</w>
muuto kset</w>
la imin
koko on##</w>
it uksen</w>
ett ama##</w>
div ide##</w>
con vic
D S</w>
ys i</w>
vie dä</w>
schem e##</w>
myö tä
mat onta</w>
laajen tamis##</w>
kier ro
diploma atti##</w>
R anska</w>
5 8</w>
ystä väll##</w>
talou teen</w>
sia an##</w>
painopiste alue##</w>
kiel i##</w>
kalast uksen</w>
ehdotu ksen##</w>
arvio it
ark alu
arkalu on
F ina##</w>
Americ an##</w>
sovell ettava</w>
ne ar</w>
mon ista</w>
kel po
fo re
acqu is</w>
Luxembour g</w>
vaikutu ksista</w>
u ral</w>
työn tekijät</w>
tuom i##</w>
no ti
ch ap##</w>
arvi o##</w>
to siaan##</w>
tapa hd
sh ad
nim e##</w>
liit to
jä t</w>
hon our</w>
convic t##</w>
co de</w>
viest i##</w>
vast avu
vaal it</w>
ttä viä</w>
th u
syy llisty##</w>
relig io##</w>
l or##</w>
korva a##</w>
hava it##</w>
exa mine##</w>
cour t##</w>
artik la</w>
a jo##</w>
Euro pol##</w>
Ass oci##</w>
välis estä</w>
sektor in</w>
pl ant</w>
pal o##</w>
maailman laaju
ken e##</w>
kau ka##</w>
jäl ke##</w>
ib ##</w>
ex tra</w>
alti o##</w>
N ato##</w>
vuo deksi</w>
ver sion</w>
vau hd
uh ka##</w>
th en
r uu
poikkeuks ell##</w>
maailmanlaaju istu##</w>
käy tetty</w>
edusta jia</w>
e pide
c it##</w>
ap u</w>
alen ta##</w>
200 5</w>
speec h##</w>
so taa</w>
sin k##</w>
määri tellä##</w>
im mista</w>
anal ys
ympäristön suojelu##</w>
un ivers##</w>
täy den</w>
mor al</w>
lis ten</w>
kin d##</w>
ed er##</w>
T am
vä is
verk kojen</w>
ver si
ve to</w>
vastaan otta##</w>
tu ne
tehtä vät</w>
pit ki##</w>
p ic
osoitta u##</w>
n t</w>
is ilta</w>
c ar</w>
atten d##</w>
Scheng en##</w>
M ic
taan ko</w>
nuor iso##</w>
kokou s##</w>
edu ll##</w>
av ustus##</w>
ase maan</w>
T our##</w>
Min ute##</w>
L am
H el
F eder##</w>
D ut
vakuu t##</w>
tt om##</w>
ta vara##</w>
sche d
sched ul##</w>
med ical</w>
lähest y##</w>
liikenn että</w>
henkilö itä</w>
yhdis ty##</w>
toisi a##</w>
syrj i##</w>
si c##</w>
resid ent</w>
pyy nnö
puol et</w>
part ner</w>
le z</w>
kos ke</w>
investo inti##</w>
huolest uttava##</w>
et te##</w>
er iko
en a##</w>
L on
varo ista</w>
tarkistu ksissa</w>
tak ing##</w>
koh tal
fi re</w>
fac tion</w>
cr at</w>
0 7</w>
ään ty##</w>
ti e</w>
sosiaal i
päivä ä</w>
pon ent##</w>
ol ate##</w>
määrä ä##</w>
järjestelmä t</w>
huippu kokous</w>
e f</w>
as ettama##</w>
Di rec
res ist##</w>
ol imme</w>
na a
l yö##</w>
g er</w>
c it</w>
Fa tu
toiv e##</w>
tic le##</w>
seura ava</w>
pää sse##</w>
poliitt iseen</w>
perustu va</w>
järjest ö</w>
heav y</w>
fe w##</w>
dru g</w>
Po ssel
E ch
yhtey ttä</w>
vaar assa</w>
tun te
ten d##</w>
paino t##</w>
määrä ysten</w>
m ala##</w>
kulj ett
en e</w>
dicta tor##</w>
cor respond##</w>
benef ici##</w>
Pat ten</w>
Fatu zz
5 7</w>
su spend##</w>
pri or</w>
määrä tieto##</w>
käy tä##</w>
keino t</w>
edellyty s</w>
S ha##</w>
Palestin ian##</w>
B la
0 .
van kil
sosiaali demokraatti##</w>
roh ke
resid e##</w>
re mind##</w>
paik kansa</w>
n ia</w>
kommen toi##</w>
fron t##</w>
