#version: 0.2
# #</w>
i s
t h
a ##</w>
t e
i n
a n
i t
e n
e ##</w>
th e</w>
e n</w>
o n</w>
i n</w>
a l
s t
t i
s i
a r
o n
a n</w>
e r
t t
l l
r o
r e
t ##</w>
i ##</w>
ä ##</w>
o u
a t</w>
s ##</w>
t o</w>
o r
o f</w>
t a
o m
t u
o ##</w>
o l
j a</w>
i s</w>
k s
an d</w>
e l
i k
e s
in g</w>
m en
m a
r a
u u
is t
l a
is ##</w>
o p
s a</w>
d e
i m
t ä
e d</w>
o s
t o
k a
i l
j o
i c
k u
th at</w>
i d
a v
e st
u ##</w>
m m
v o
e tt
ä n</w>
v a
i e
e r</w>
a ti
a l</w>
u ro
u s
w h
on ##</w>
y ##</w>
l y</w>
p ro
n ##</w>
o r</w>
d ##</w>
i v
E uro
s u
e t</w>
n e
p e
t a</w>
k e
ett ä</w>
l e
p u
v i
s e
m is
mm e</w>
r e</w>
w e</w>
v al
ä ä
a c
r ##</w>
n o
c on
f or</w>
i t</w>
m u
te n</w>
a p
j ä
th is</w>
h d
l i
k o
s a
er ##</w>
h e
y ö
p ar
- ##</w>
te ##</w>
in ##</w>
i ll
@ ##</w>
l e</w>
i on</w>
ks i</w>
an ##</w>
a t
a s
te l
men t</w>
k a</w>
b e</w>
it ##</w>
ie s</w>
o v
y h
v ä
u n
s ä</w>
ist a</w>
t a##</w>
k ä
id en</w>
p or
c om
t ä</w>
m e
ati on</w>
p a
e en</w>
t ä##</w>
in en</w>
k an
al l
st a</w>
p o
m i
h av
en ##</w>
a b
no t</w>
si on</w>
n n
al ##</w>
r i
si ##</w>
s sa</w>
hav e</w>
l d</w>
en t</w>
u o
r e##</w>
u t</w>
k in</w>
p er
b e##</w>
c e</w>
t ar
s e</w>
w it
u l
ou n
C om
ll a</w>
wit h</w>
c i
p ol
ic h</w>
m ##</w>
ou ld</w>
wh ich</w>
a g
f or
re s
i a</w>
k si
ti on</w>
Euro op
v a##</w>
k e##</w>
k om
it ä</w>
jä s
i h
h o
t r
k i
ap os
& apos
e t
c t##</w>
m is##</w>
l u
e x
v ä##</w>
h u
h a##</w>
ll ä</w>
k ##</w>
b y</w>
Euro pe
il l</w>
y s
m yö
e d
Europe an</w>
a si
m p
g ##</w>
w ill</w>
h y
u s##</w>
e i</w>
o ll
tt ä
yh te
th ##</w>
kom is
u ks
si d
tä m
to im
g h
te r
a d
Euroop an</w>
d i
n i##</w>
ll e</w>
s h
Com mis
l o
t ö
w a
m e</w>
l is
is sa</w>
ou r</w>
m b
al l</w>
men t
q u
est i</w>
is tu
ti ##</w>
u r
u st
it y</w>
e v
tt a</w>
f f
ar ##</w>
th e##</w>
er e</w>
pu he
M r</w>
m a##</w>
v ##</w>
al a
al u
ik e
w or
st i</w>
e s</w>
it te
ist ä</w>
j en</w>
it a</w>
it i
y y
tt a##</w>
re a
n y
a j
it y
d en</w>
us t</w>
u c
i on
st ä</w>
de ll
par la
vo is
re sid
u s</w>
m in
v at</w>
it t
ill e</w>
a i
por t</w>
v ar
c h
at e</w>
o ike
p ää
ol e##</w>
n ä
ka ik
m ä
tt av
m o
va st
ou t</w>
f i
Commis sion</w>
s o
myö s</w>
2 0
is i</w>
k i##</w>
iv e</w>
kä y
k o##</w>
ta an</w>
est a</w>
th er</w>
s el
es sa</w>
w ##</w>
jäs en
m er
r j
ol e</w>
is uu
w ould</w>
val ti
s o</w>
v uo
po s##</w>
ov at</w>
k es
k os
k uu
is i
i o
hd o
vois a</w>
c oun
al so</w>
ne u
n a
d a
s t</w>
por t##</w>
m on
mi el
neu vo
ny t</w>
tu ##</w>
P resid
en t##</w>
s en</w>
e hdo
b ut</w>
t yö
Presid ent</w>
on e</w>
s sä</w>
sh ould</w>
U n
t al
m or
is en</w>
komis sion</w>
f ro
fro m</w>
v ä</w>
m ust</w>
ö n</w>
m an</w>
k a##</w>
tt a
re g
ar voisa</w>
p ä
ab le</w>
t in
id än</w>
te n##</w>
a r</w>
vä l
k e</w>
d o
s uu
; ##</w>
&apos ;##</w>
y ks
li a
m uu
e mb
an t</w>
&apos ;</w>
un ion
ö ##</w>
t e</w>
ksi a</w>
kan s
an n
t o##</w>
P ar
y o
ist a##</w>
p it
j o##</w>
parla ment
in te
th ere</w>
s it
yo u</w>
h a
v el
u d
m ie
es sä</w>
is esti</w>
pu ol
es s</w>
ma an</w>
j a##</w>
jo h
n ä##</w>
m ar
a ik
or ##</w>
k ä</w>
p i
s pe
coun tr
S ta
jo ka</w>
täm ä</w>
u n##</w>
r is
s an
s a##</w>
te r</w>
t y
l ik
M emb
Par lia
neuvo st
k ys
m ies</w>
jo t
e t##</w>
jä rj
Parlia ment</w>
n i</w>
t h</w>
n a</w>
puhe mies</w>
mor e</w>
us e</w>
ka an</w>
Un ion</w>
v i##</w>
c t</w>
uo t
es e</w>
ää r
s ää
e ct##</w>
it ta##</w>
e ksi</w>
v e</w>
ti l
c an</w>
p ##</w>
c a
is ten</w>
e ll
m inen</w>
st r
tu r
s op
C oun
ati on##</w>
i c</w>
jot ka</w>
ci l</w>
gh t</w>
v a</w>
Coun cil</w>
st a
de r</w>
ih in</w>
p res
ka u
t ra
th ese</w>
im ##</w>
f u
u p</w>
wa s</w>
h ##</w>
ku nn
men t##</w>
d o</w>
pro pos##</w>
f in
ill a</w>
k y
ks en</w>
wh at</w>
en n
l ##</w>
tal ou
c er
komis si
v er##</w>
si itä</w>
l e##</w>
me idän</w>
di re
d e</w>
jäs en</w>
g o
n ut</w>
uot ;</w>
q uot;</w>
& quot;</w>
c e##</w>
hu om
ti on##</w>
lik e</w>
tä y
g ra
h alu
i r</w>
ala is##</w>
i a##</w>
h al
o w</w>
mu t##</w>
Sta te##</w>
jäsen valti
y r
l ä
s is
it tä
k o</w>
re port</w>
i f</w>
g e##</w>
an ce</w>
en t
parlament in</w>
mie tin
g e</w>
p al
ac c
o ther</w>
st ##</w>
ne et</w>
ttav a</w>
en ce</w>
sop im
p os
in o
ti c
est ä##</w>
tä r
m an##</w>
on al</w>
is i##</w>
te en</w>
Memb er</w>
v e
i b
kes ku
k i</w>
for e</w>
is ia</w>
k er
hy vä
m e##</w>
oike u
p e</w>
20 ##</w>
va ik
es s##</w>
ku i##</w>
su p
ta a</w>
as sa</w>
te tt
a u
in c
ou s</w>
ar y</w>
il ##</w>
en s
it u
p an
c o##</w>
y m
ll a##</w>
hd oll
ie v##</w>
te h
täm än</w>
iti ik
c y</w>
ma hdoll
s om
c h</w>
d is
ku in</w>
ehdo tu
ko h
s tel
ke h
te n
vi r
t y</w>
ta pa
ic al</w>
wor k</w>
m y</w>
m äär
si on##</w>
it tä##</w>
pol itiik
iv e##</w>
t y##</w>
ic ##</w>
f ac
n e</w>
Euro pe</w>
ta i</w>
im port##</w>
kos ke##</w>
ol isi</w>
rea t##</w>
in g##</w>
s ol
se kä</w>
countr ies</w>
p re
a s##</w>
h all
r i##</w>
kys ym
g h</w>
n ati
ment s</w>
mar k
te r##</w>
o h
te u
gh t##</w>
puhe en
e mm
pää tö
hyvä ks
ev er</w>
v e##</w>
s er
yhte is
d e##</w>
e mme</w>
j el
p l
ää n
20 0
all a</w>
tar k
iv ä
e p
ity is##</w>
g u
joh ta
union in</w>
a m</w>
ab out</w>
re e##</w>
on n
p le
o b
ci al</w>
u n</w>
ku n</w>
ou r
ar d</w>
mer k
m an
s e##</w>
j ä</w>
y e
h än</w>
fi r
er e##</w>
com m
wh o</w>
de c
b et
p la
it ion</w>
pit ä
E U</w>
uks en</w>
ic e</w>
is su
ta vo
u la
o iden</w>
ar d##</w>
isi in</w>
ti e
po in
ti me</w>
n o</w>
jo s</w>
os e</w>
kesku stel
op le</w>
s y
r yh
komissi o</w>
ma a
w i
a al
d uc
e mp
tär ke
ca use</w>
li itt
: n</w>
le g
e uro
ho w##</w>
h en
a an</w>
ä r
op p
kan ssa</w>
nati onal</w>
h e</w>
st a##</w>
lis ä##</w>
v er
per ust
c ##</w>
m ä##</w>
j on
er ityis##</w>
ku ten</w>
ag a
y hd
la aj
pe ople</w>
w el
y s</w>
ti iv
n tö
an s
ne ed</w>
m a</w>
ti ed
i en</w>
tä än</w>
pol i
th ere##</w>
th e
de vel
ti in</w>
i r
ov er
pro c
järj es
ma t
d u
se c
E U
ik ä</w>
is et</w>
p r
h ä
ne w</w>
i te
pol ic
vo i</w>
c r
tt i</w>
com e</w>
b el
polic y</w>
hy vi##</w>
ta va</w>
o d</w>
en er
g ro
est ä</w>
b o
e si
wi th##</w>
ta ke</w>
is sä</w>
puheen johta
hyväks y##</w>
h el
s ka</w>
kos ke
vo id
k il
de mo
hal u##</w>
ttav a##</w>
i ä</w>
f e
da y</w>
wa y</w>
a se
w n</w>
s i</w>
ttä vä</w>
p a</w>
pol it
in v
alu e
vo i##</w>
istu ##</w>
h an
va pa
on g
neuvost on</w>
jäsenvalti o##</w>
er s</w>
tu le
n ä</w>
a isi##</w>
toim in
i f
con om
vi en</w>
l in
uc h</w>
tu o
parla men
con cer
devel op
p en
ks een</w>
su b
ul ##</w>
u tta##</w>
järjes tel
tt ä##</w>
mietin n
wh en</w>
ill ä</w>
m ä</w>
al o
re e</w>
ar vi
ku n
e g
ai d</w>
c le
Commis sion##</w>
p on
in a</w>
ä än</w>
c on##</w>
y s##</w>
itte e</w>
mu ka
poli itt
st itu
ma ke</w>
qu est
asi a
j o</w>
jon ka</w>
it ies</w>
j ä##</w>
men d##</w>
to dell
tark istu
ol i</w>
al ta</w>
w e##</w>
ivä t</w>
mis eksi</w>
ou r##</w>
miel estä##</w>
e dell
ong el
pro b
e conom
pro s
vast a##</w>
h i
el ##</w>
di ff
os t</w>
er i##</w>
c o
k ra
th ing</w>
kaik ki##</w>
k tiiv
de b
om a##</w>
j a
som e</w>
om a
v u
ol e
k ou
ib le</w>
tar ko
k ka
st an
toim i##</w>
for m##</w>
j ou
is h</w>
v ie
an y</w>
ag ree##</w>
sup port</w>
san o##</w>
lä h
si llä</w>
k on
bel iev##</w>
h ar
s en
a m
ra t
w een</w>
bet ween</w>
k no
ks et</w>
vi el
k ol
ih mis##</w>
val io
y ksi
f un
ka s
us e##</w>
par tic
j e
tel u##</w>
ri ght##</w>
u ra
sol u
ap pro
res pon
all is##</w>
su o
e d##</w>
kaik ki</w>
ku l
t i</w>
polit ical</w>
m ista</w>
it ä##</w>
r an
is t##</w>
n u
prob le
su l
yhte is##</w>
b as##</w>
it se##</w>
a su
fir st</w>
l op
all ##</w>
to is
the m</w>
id e##</w>
i in</w>
ar e
k en
ter ro
pu b
c ra
s ov
rat ka
ll ##</w>
t ro
ell ##</w>
mark k
vast a
e lla</w>
ist ö##</w>
os o
tu r##</w>
tä tä</w>
te d</w>
op er
es t</w>
j ect##</w>
viel ä</w>
ta l</w>
ol i##</w>
teh tä
su h
ra ho
p ri
u tu
in d
rea d##</w>
0 0</w>
la us
el ä
j at
to iv
per i
1 9
r a##</w>
ko hd
ag e##</w>
un d
va h
ov er</w>
e ivät</w>
o lla</w>
ttä ä</w>
li c</w>
is e</w>
tärke ä##</w>
vi im
b ud
m il
i g
g et</w>
huom io
kunn an</w>
e ff
ma in
or der</w>
li ik
on g</w>
sa y</w>
void a##</w>
m itä</w>
et te
id ##</w>
a d</w>
m ost</w>
pro v
x t</w>
ttä in</w>
a mend##</w>
uu den</w>
e lle</w>
sis ä
i p
concer n##</w>
Y hd
yhte ist
koske va##</w>
ed ist
j ul
en cy</w>
as e</w>
t w
vi a</w>
mä än</w>
over n##</w>
tavo itte
tur val
to teu
kä än</w>
per us
b e
v an</w>
r ik
v o##</w>
k y##</w>
Com m
terro ris
si ih
so si
es itte
siih en</w>
al ly</w>
oh jel
halu aisi##</w>
issu e</w>
ex ##</w>
poin t</w>
demo kra
ho w</w>
dire ktiiv
com ##</w>
myö n
is ion</w>
euro opp
an te
y le
in n
v en
ta ke##</w>
la in
y d
sää d
ac h</w>
k or
deb ate</w>
ust a##</w>
u h
l ar
aga in##</w>
it ta
esitte li
tar v
turval lis
pub lic</w>
mis een</w>
fac t</w>
l i##</w>
kuu ##</w>
e h
ys te
ma ssa</w>
k ing</w>
m en</w>
p a##</w>
f ##</w>
s te
sa a
ta s
kan n
t tiin</w>
r i</w>
a in
j ust</w>
duc ##</w>
l an
dire ct##</w>
jä l
tu t
toiv o##</w>
y mp
con c
spe ci
t or
P ##</w>
h i##</w>
hy vä##</w>
maa il
ro ##</w>
tt ä</w>
te k
inte r##</w>
jo ita</w>
il ity</w>
keh ity
tel e##</w>
Comm ittee</w>
sa a##</w>
ra p
u re</w>
suu r##</w>
s yste
o c
ad op
ev en</w>
k ä##</w>
k ö
d ra
yhteist yö
tta a</w>
hä n##</w>
va ati
ai he
me asu
ko ll
ra l</w>
p yy
av a##</w>
mb er</w>
c ess##</w>
th in
ion s</w>
mi en</w>
ma a</w>
ku ##</w>
ol ##</w>
vuo ksi</w>
in ä</w>
val l
e pä
men tal</w>
c l
tw o</w>
sit u##</w>
do es</w>
se lla##</w>
as t</w>
pu h
EU :n</w>
wel l</w>
työ ##</w>
nn ö
e si##</w>
ri ght</w>
vie w</w>
th an
te hd
in a##</w>
econom ic</w>
ro u
hall it
ev er
se ura
ye ar##</w>
c ur
per us##</w>
aal i##</w>
cer ta
uu d
a tt
wh ere</w>
pro te
i an</w>
p yr
mu kaan</w>
h ere</w>
ymp är
sääd ä
lain säädä
uu tta</w>
ke en</w>
ha d</w>
is e##</w>
h op
n sa</w>
19 ##</w>
th ou
quest ion</w>
i on##</w>
m än</w>
it a##</w>
a t##</w>
te taan</w>
en d</w>
euroopp alais##</w>
av u
c our
mahdoll isuu
iti z
c ul
tu re</w>
parlamen tti</w>
f er
järj est
todell ##</w>
fu tur##</w>
a d##</w>
u ksia</w>
iv ##</w>
k im
countr y</w>
h er</w>
s yy
t te
av a</w>
is yy
kan sa
w ant</w>
inc lu
ittä ä</w>
ai r##</w>
l uo
mietinn ö
vuo den</w>
tapa h
u r##</w>
rea s##</w>
e e</w>
m istä</w>
kan na
so cial</w>
te ke
va an</w>
a mp
h yö
con tin
tt ö
kysym yks
dis c
ati ve</w>
ti la
halu a##</w>
or g
ä ä</w>
iti on##</w>
s c
to day</w>
c an##</w>
si g
g re
ään est
par t</w>
pa ik
at ing</w>
wor k##</w>
develop ment</w>
c itiz
inc reas##</w>
b u
sa me</w>
qu i
ksi en</w>
et tel
i al</w>
si b
l ess</w>
ki rj
to o</w>
hu man</w>
et y</w>
liitt y##</w>
mu ni##</w>
pal j
nn e</w>
tä hän</w>
or d
Com muni##</w>
me an##</w>
ye ar</w>
for m</w>
r y</w>
sel vä##</w>
enn en</w>
vä t</w>
ette i</w>
a f
mu ch</w>
id e</w>
o do
I n
b r
yhteis ön</w>
o w##</w>
jäsenvalti oiden</w>
v an
thin k</w>
oper ation</w>
kaik ##</w>
cle ar</w>
ar e</w>
kans alais##</w>
C on
M r##</w>
ch an
te ttava</w>
is l##</w>
measu re##</w>
a te##</w>
ac h
pres ent##</w>
palj on</w>
en a</w>
ny ky##</w>
til l</w>
ens u##</w>
leg isl##</w>
w e
ag e</w>
pä ä##</w>
jo iden</w>
en si
acc ep
vaik ka</w>
ula r</w>
val mis
A r
jo ta</w>
res s</w>
d a</w>
si ksi</w>
b ##</w>
te ho
str u
solu tion</w>
in stitu
h ap
fin an
tr ans
in form##</w>
suu nn
m alla</w>
miel tä</w>
respon sib
talou dell
ou se</w>
lo y##</w>
n ou
s et</w>
ic e##</w>
por teu
citiz en##</w>
peri a
ach iev##</w>
pitä isi</w>
väl is##</w>
f ur
y our</w>
fu l</w>
as e##</w>
nä mä</w>
je ct</w>
rap porteu
mark et</w>
p id
tt u##</w>
bo th</w>
t om
th rou
de m
pos ition</w>
ta mis##</w>
huomio on</w>
mm ä##</w>
cour se</w>
av o
ensi mmä##</w>
tu om
lop u##</w>
asi o
im ple
contin u##</w>
oll ut</w>
puol esta</w>
de sta</w>
m ill
disc us
vo te</w>
kä si
käy tä
wh y</w>
f ra
sel f</w>
g ive##</w>
go od</w>
mis esta</w>
pro gra
adop t##</w>
re c
in no
tar ka
pla ce</w>
tett u</w>
laaj en
el in
mu n
j uu
sel v
th er##</w>
puh u##</w>
uu ##</w>
re sul
ko kou
isi ä</w>
s ä
som e##</w>
l ong</w>
sta an</w>
hop e</w>
res pe
kno w</w>
c u
hen kil
un der</w>
st ra
se con
kau p
markk ino
la st</w>
is ation</w>
l a##</w>
el e
d is##</w>
it se
g overn##</w>
mahdoll is##</w>
wor ld</w>
talou s
comm on</w>
i men
kansa in
kansain välis##</w>
p er##</w>
i l</w>
c tion</w>
neuvost o</w>
ympär istö##</w>
koll eg
politiik an</w>
c ase</w>
määr ä
ksi in</w>
p el
y l
gh ##</w>
e l</w>
a ino
H ouse</w>
os all
it se</w>
to jen</w>
ki el
to r</w>
tu lo
en vir
uu s##</w>
us ten</w>
if ic
o wn</w>
re as
an a</w>
l u##</w>
ve l</w>
r u
in ter
tu nn
ad d
tehd ä</w>
pr in
te ll
jäl keen</w>
liitt y
kä sit
ko ro
sopim uksen</w>
partic ular</w>
Yhd ys##</w>
is een</w>
emm än</w>
ab ility</w>
mm in</w>
mi a</w>
kans ala
d y
te ki
th or##</w>
tu n
vah v
ob ject##</w>
proc ess</w>
emp loy##</w>
it ys
mis en</w>
la ati
tu ral</w>
tä lla##</w>
than k</w>
uks et</w>
uks essa</w>
c i##</w>
men ettel
t ri
is ed</w>
prin ci
n al</w>
va ka
t ing</w>
aj a##</w>
ti et
ol o
I s
ma y</w>
f o
te g
ttä vä##</w>
min u##</w>
ov er##</w>
mon i##</w>
si inä</w>
il u##</w>
ex c
a is##</w>
cur r
päätö s
täy si##</w>
t an
pal vel
ser v
ratka is
g ener
os sa</w>
Un it##</w>
vu on
lar ge##</w>
nu mber</w>
vuon na</w>
g e
pu t</w>
rapporteu r</w>
talous arvi
m ikä</w>
re qui
i te##</w>
sh i
oll e##</w>
m i##</w>
y mm
ma iden</w>
ac tion</w>
is in</w>
o ff
syste m</w>
poin t##</w>
ymm är
tt e</w>
asi an
u tu##</w>
ne cess##</w>
ne ed##</w>
kans allis##</w>
s ä##</w>
y st
ou s##</w>
g ent
ko ko</w>
princi p
en e
ka a</w>
Euroop pa</w>
amp le</w>
at te
issu e##</w>
tu s##</w>
la d##</w>
tut kim
gre at</w>
e llä</w>
thou gh</w>
san o
de t</w>
pitä ä</w>
ku lu
esi mer
nou da
tar pe
reg ula
. ##</w>
eff ect##</w>
sit te##</w>
m ov
gent le##</w>
ra jo
sid er##</w>
con sider##</w>
A ##</w>
esimer ki##</w>
tarko it
om ##</w>
in ce</w>
I ra
t yy
g et##</w>
ma ks
lo o
ti ve</w>
neuvo t
A f
tapah tu
ö n
es een</w>
dec ision</w>
jäsen et</w>
le vel</w>
om en</w>
viim e</w>
sa ad
yle is##</w>
au thor##</w>
en i</w>
si a</w>
si is</w>
are a</w>
discus s##</w>
komissi o##</w>
perus te
ett a</w>
ul e##</w>
in iti
n im
f oll
asi a</w>
f ar</w>
si ir
l ta</w>
ac t</w>
mi ten</w>
kaik ke##</w>
ter ve
finan cial</w>
vo i
inv est
p uu
e tu
ip pu
imple ment##</w>
toim ia</w>
su m##</w>
yhte yd
is h##</w>
pros es
pe t
ist y##</w>
ki r
reg ard</w>
talousarvi o##</w>
in e</w>
ka t
he t
t ö</w>
resid ency</w>
hal f</w>
n ce</w>
k al
pres ent</w>
a a</w>
N ##</w>
kil pa
re f
p ra
al th</w>
t or##</w>
o i##</w>
vä lis
g ive</w>
isuu den</w>
g y</w>
c ies</w>
oike us##</w>
tor j
er i</w>
proble m</w>
yhteyd essä</w>
tu ke
ar m##</w>
ul ar##</w>
juu ri</w>
j ö
cra t##</w>
i de
ab lis
i o##</w>
puheenjohta ja</w>
laus el
f t</w>
myön te##</w>
O ##</w>
en g
est ablis
throu gh</w>
käy ttö
qu al##</w>
päätös lausel
vo it
se e
ed ust
te itä</w>
euro ##</w>
sa f
und er##</w>
ch ##</w>
0 ##</w>
com mun
ou t##</w>
sa a</w>
til ann
sec ur
secur it##</w>
kuu lu##</w>
suh te
ks essa</w>
osall istu##</w>
e a##</w>
proble m##</w>
re st##</w>
to te
ist ä##</w>
ky se</w>
at al
g a
väl i##</w>
is m</w>
me illä</w>
it us##</w>
ra ken
c reat##</w>
pä iv
ett ava</w>
il ma
Memb er##</w>
i la
isi on##</w>
k ke
par an
a ted</w>
ne go
it o
var o
asi assa</w>
er ent</w>
u e</w>
aga in</w>
fi c</w>
valio kunnan</w>
wh et##</w>
vaik utu
is ter
pres s##</w>
s ten</w>
nä än</w>
tta mis##</w>
kka a##</w>
m pa
en ti
tr an
edell een</w>
ven tion</w>
mat ter</w>
i ous</w>
i r##</w>
tel u
yr ity
ann e##</w>
vapa u
tr y</w>
merk ittä
k ala
ma tta</w>
te xt</w>
k in
ta b
a il##</w>
la w</w>
n ess</w>
cr im
i d</w>
af ter</w>
shi p</w>
T ur
toim i
aino a##</w>
con tro
leg al</w>
ll y</w>
su r
pros ent
is esta</w>
an t##</w>
i tel
kä s
o t</w>
inv ol
vä h
val v
valti o##</w>
jul k
ta a
y n</w>
d one</w>
ic i
stan d
fur ther</w>
w er</w>
al ti
he idän</w>
fun d##</w>
uu si##</w>
w ard##</w>
st us##</w>
tä vä##</w>
oso itta##</w>
w omen</w>
requi re##</w>
te tään</w>
tär ke##</w>
ke y</w>
so ci##</w>
are a##</w>
inte n
b er
bud get</w>
en large##</w>
til ante
h ol
x ##</w>
partic ular##</w>
conc lu
to de
g reat##</w>
com ple
m ista##</w>
vir an
tta ma##</w>
vi ä</w>
reg ard##</w>
viran oma
ust ##</w>
ic ul
diff icul
ö y
y ksi</w>
to ja</w>
f av
tä ntö
uu s</w>
täy täntö
u m</w>
c all##</w>
d ition##</w>
uc ##</w>
op port##</w>
C ##</w>
ne xt</w>
sisä l
p re##</w>
val ta##</w>
certa in</w>
g o</w>
im pro
ac e</w>
ac coun
stra teg
sosi aali##</w>
u sta</w>
str uc
op in##</w>
c k</w>
l tä</w>
u al</w>
c oll
sis ä##</w>
suunn itel
Is ra
respe ct</w>
pra c
o f
pro g
al alla</w>
ll inen</w>
proc ed
mietinn ön</w>
ty vä##</w>
fu lly</w>
org an
to imen
v il
sää nnö
union i</w>
esitteli jä</w>
asi a##</w>
asi oiden</w>
tek n
0 1</w>
jo illa</w>
ti on
a mme</w>
su or
in ti##</w>
h ist
su c
aik ana</w>
go ing</w>
suu n
r ule##</w>
l and</w>
b ac
on g##</w>
un d</w>
par ##</w>
taloudell is##</w>
e f##</w>
tu l
ter m##</w>
si mp
tä nään</w>
simp l##</w>
ever y##</w>
w ish</w>
avu lla</w>
hu ol
ic t##</w>
B r
w ard</w>
tä ä
c ap
e taan</w>
diff erent</w>
se ur
res t</w>
pre v
ma atal
st o##</w>
institu tion##</w>
wa ys</w>
S ##</w>
responsib il##</w>
pu r
ti a##</w>
en ce##</w>
po h
fra me##</w>
ll isesti</w>
or d##</w>
comm it##</w>
il e</w>
nego ti##</w>
on a##</w>
hap p
l et</w>
M a
tett u##</w>
re present##</w>
vo im
yhteistyö ##</w>
enn e##</w>
accep t##</w>
sov el
kann alta</w>
serv ice##</w>
spe a
an d
suo jel
arvi o
päätöslausel ma##</w>
a mis##</w>
h e##</w>
a te
iv at</w>
gro up</w>
ro le</w>
va ih
K ##</w>
k ri
T reat##</w>
r an</w>
cle ar##</w>
el im
te ch
ol tava</w>
g n##</w>
inte rest##</w>
m itä##</w>
ag ree</w>
ma a##</w>
progra mme</w>
s s</w>
tule va##</w>
ma king</w>
1 ##</w>
pro du
prote ction</w>
cl os
selv es</w>
se ar
s o##</w>
e i
at ti##</w>
st u##</w>
ma in</w>
kys e##</w>
mä t##</w>
il man</w>
u e##</w>
c or
ol ev
ksi ä</w>
de f
te oll
isuu s</w>
perust a##</w>
kysym ys</w>
s u##</w>
as k</w>
mietin tö
uud istu
ta in##</w>
l ing</w>
gra tion</w>
julk is##</w>
ff air##</w>
fer ence</w>
os alta</w>
ra u
pri or
ar ti
prog ress</w>
st ar
n op
jo lla</w>
hy vä</w>
ett a##</w>
peruste ell##</w>
mo t##</w>
invol ve##</w>
foll ow##</w>
vast uu##</w>
G ro
va ike
aik a##</w>
ä ä##</w>
henkil ö##</w>
par t##</w>
Sta te</w>
th ree</w>
määr ä##</w>
tar vi##</w>
oikeu ksien</w>
sel ke
to ge
ti c</w>
var mista##</w>
ih mis
sub ject</w>
f ree##</w>
do m</w>
ta ma##</w>
u a</w>
uks een</w>
k si##</w>
he alth</w>
puheenjohta ja##</w>
saf ety</w>
al is
prosent ti##</w>
pro mot##</w>
o in</w>
cul tural</w>
tel y##</w>
o tt
fe w</w>
sis t##</w>
os a
it e</w>
o sa</w>
pi de
n ing</w>
jo issa</w>
nn ön</w>
va ar
sit ou
mu o
tie ten##</w>
lainsäädä ntö
ehdo t##</w>
isuu tta</w>
L is
li ber
secon d</w>
per s
qu it##</w>
bet ter</w>
hi gh##</w>
ar e##</w>
asia sta</w>
t re
mil jo
ti me##</w>
ne e##</w>
m ää
mietinnö ssä</w>
c ou
p an##</w>
nä kö
ase tu
union i##</w>
h all</w>
sear ch</w>
vaati mu
wh ole</w>
pro v##</w>
vo te##</w>
p yst
st u
n sä</w>
kou lu
tu mis##</w>
tehtä vä</w>
h in
u t##</w>
pro duc
for ward</w>
sec tor</w>
työ n
väl in
m at</w>
j av
esitteli jä##</w>
arti k
do wn</w>
st o
muu to
sid e</w>
Gro up</w>
tiet o##</w>
kun ta</w>
min un</w>
pit kä##</w>
con sum##</w>
ki ittää</w>
u p
re la
tu ke##</w>
tule e</w>
uks en##</w>
ä vä##</w>
hu oli##</w>
huom a
tärke ä</w>
ti e##</w>
mää ri
tran s##</w>
su ff
develop ##</w>
ks ista</w>
tapa uksessa</w>
fun da
fav our</w>
toimen pi
j ien</w>
va sta</w>
ti en</w>
os a##</w>
to is##</w>
min ister
ac h##</w>
l opp
0 2</w>
kansala isten</w>
tule va
toge ther</w>
in f
im me</w>
resul t</w>
peria atte
an im##</w>
yksi ä</w>
n kin</w>
mu ka##</w>
prior it##</w>
ti a</w>
me ille</w>
mb er##</w>
f ul
ri ittä##</w>
du r##</w>
s p
valv on
ever y</w>
s sa
toimin ta##</w>
200 1</w>
ik e##</w>
ar vo##</w>
va kuu
mi ä</w>
ig n</w>
ks esta</w>
pen d##</w>
or s</w>
chan ge</w>
demo crat##</w>
pa in
il d##</w>
cra cy</w>
our ce##</w>
kas v
appro ach</w>
wel come</w>
ks eni</w>
princip le</w>
dem o##</w>
con f
lin e</w>
th ir##</w>
saad a</w>
A mer
suh ta
ll een</w>
con dition##</w>
st ä##</w>
Con vention</w>
ar ante
tett y</w>
P al
es it
koro sta##</w>
D e
curr ent</w>
jav alti
ag ri##</w>
lo b
uu dell
speci fic</w>
1 0</w>
spe ct##</w>
di d</w>
o ttaa</w>
ään estä##</w>
ap pe
st ate</w>
establis h##</w>
l im
n er##</w>
a w
al ta##</w>
saa tta##</w>
ks en##</w>
kirj a##</w>
var i##</w>
b er</w>
liitty vä##</w>
fi ed</w>
speci al##</w>
und er
us la
ord in
gu arante
Tur k##</w>
sa av
el ect##</w>
puheenjohta javalti
vu os
ma sta</w>
ar vo
el i</w>
teki jö
aj a
tt u</w>
kulu tt
va i
gu e</w>
en d##</w>
en ä</w>
sää ntö
acc ord##</w>
fin al##</w>
al le</w>
wor d##</w>
st and</w>
jäs en##</w>
ma t##</w>
at ten
nä itä</w>
al a##</w>
ite ttava##</w>
ka ksi</w>
ta king</w>
me et##</w>
envir on
com e##</w>
certa in##</w>
todell is##</w>
gener al</w>
P ro
p er</w>
li ia##</w>
d essa</w>
vahv ista##</w>
ten t</w>
kir jo
hav ##</w>
M ad
2 ##</w>
y ttä##</w>
regula tion</w>
mietin tö</w>
aik aan</w>
al an</w>
onn istu##</w>
il ta</w>
ac ti
fi el
aj an</w>
te ttävä</w>
parlament issa</w>
ta vall
neuvost o##</w>
ke m
al i##</w>
c ro
sisä ll
u p##</w>
mill ion</w>
tuke a</w>
C h
ati ve##</w>
ai r</w>
muka isesti</w>
g ia##</w>
us k
hyö dy
yks in
s m
tuo tte
asia a</w>
ryh mä
k est
miljo ona##</w>
ill ##</w>
lo c
ku in
im man</w>
d el
il mo
y stä</w>
kuin ka</w>
u t
tt y##</w>
ad i##</w>
es sen
p as
m in</w>
se qu
essen ti
In ter##</w>
trans port</w>
it u##</w>
vi in</w>
ik ke
tra de</w>
puol u
hel p</w>
tied o
de fin
com ing</w>
re d</w>
kä y##</w>
tää llä</w>
vel vo
o ther##</w>
käy tö
raho itus##</w>
sä il
A ffair##</w>
tied ä##</w>
talou s##</w>
oikeu dell
joh ta##</w>
a ih
hall in
tra te##</w>
or y</w>
a ff
organ is
het ke
väl ttä
b ene
kunn io
yh tä</w>
bene f
be come</w>
N o</w>
g o##</w>
G re
ind us##</w>
M in
es ittää</w>
ra k
men d
h er
ac tu
d o##</w>
g en
accoun t</w>
tt uu
i ksi</w>
yhd en
wh ile</w>
ta in</w>
in tro
tilann e</w>
d ing</w>
kolleg at</w>
viim e
intro duc##</w>
yh ä</w>
0 3</w>
mm e##</w>
le ast</w>
toteu tta##</w>
mon e
comm ittee</w>
op ##</w>
a sta</w>
ap ##</w>
politiik kaa</w>
inclu ding</w>
ehdotu ksen</w>
c ri##</w>
prov ide##</w>
re co
reco gn##</w>
to inen</w>
välttä mät##</w>
turvallis uus##</w>
de al</w>
pe ace</w>
mu iden</w>
hetke llä</w>
a sti</w>
C on##</w>
ex tre
perust usla
man age##</w>
seur a##</w>
kat so##</w>
Yhd isty##</w>
artik la##</w>
p ris
e iv##</w>
il e##</w>
produ ct##</w>
käy ttää</w>
kes ke##</w>
ki in
kanna t##</w>
terroris m</w>
kor ke
d i##</w>
ryh män</w>
Ar voisa</w>
mor ##</w>
environ mental</w>
I tal
me mber##</w>
demokra tia##</w>
io istu
si en</w>
muka i##</w>
d ou
asian mukai##</w>
uks ista</w>
sup port##</w>
voi ma
tuom ioistu
i z
laajen tumis##</w>
par lia
ta so
3 ##</w>
u tion</w>
li f
reas on##</w>
puheen vuo
val itettava##</w>
ul ko##</w>
200 2</w>
jo hd
kul ttuu
merk ity
1 5</w>
aik o
prov ide</w>
jä r
d en
g lob
ex ist##</w>
oike us
demokra atti##</w>
is t</w>
pan o##</w>
me di
fin d</w>
id ent##</w>
m u##</w>
i vo
v äär
sta in##</w>
k ka##</w>
e et</w>
lin es</w>
saav utta##</w>
parlament ti##</w>
ne en</w>
Mad am</w>
res ource##</w>
ap p##</w>
d ist
käs itte
vaik utta##</w>
ri ippu
ex press##</w>
b al
va t##</w>
sh or
pos it##</w>
i fied</w>
ett e</w>
Euroop assa</w>
tu u</w>
t in</w>
ser ious</w>
en ä##</w>
men n
I r
c all</w>
tyy tyvä##</w>
te ille</w>
re form</w>
ku va##</w>
koske va</w>
c ent</w>
A mend
e en##</w>
ac t##</w>
EU R</w>
tu s</w>
edell y
c la
si ja##</w>
ko jen</w>
V en
ter m</w>
uu n</w>
pro mis
pos e##</w>
pol i##</w>
void a</w>
cou ra
käsi tel
ma in##</w>
dou b
sosi aal
k iv
palvel u
ll isyy
is te##</w>
mpa a</w>
th ing##</w>
b ro
stru ct##</w>
pl ic
ila is##</w>
muu tta##</w>
tä ä</w>
re search</w>
Ven ä
val tu
ma tt
for t##</w>
difficul t</w>
olev an</w>
lu onn
com b
S e
is ing</w>
tar jo
mä ttä</w>
ta va##</w>
yhd essä</w>
econom ##</w>
aj ien</w>
par t
to a</w>
contro l</w>
ic t</w>
kunn assa</w>
huom au
direktiiv in</w>
var ten</w>
parlamen ti
p o##</w>
ke ho
is ista</w>
M ar
all ow</w>
ka h
funda mental</w>
hi gh</w>
sig n##</w>
vä hen
d ä##</w>
se ik
w er##</w>
cul ture</w>
tu ll
rec eiv##</w>
jou tu##</w>
pet ition</w>
Pal est
vois i##</w>
o on</w>
par ti
lar ge</w>
ar v
ser v##</w>
oun d</w>
bac k</w>
v ista</w>
ex ten
ks emme</w>
käyttö ön</w>
ci p##</w>
sa avu
h and</w>
mie h
T ur##</w>
acc ess</w>
p ys
sy n
i ik
re duc##</w>
menettel y
ker ta
ab ly</w>
neuvot telu
for ce</w>
reas on</w>
nop ea##</w>
s esti</w>
G overn##</w>
alo itte
h on
tavall a</w>
n or
gro w##</w>
asi an</w>
ma jo
ific ation</w>
bo d
2 0</w>
k el
jat ka##</w>
uks esta</w>
valmis telu##</w>
te ttiin</w>
fiel d</w>
re al</w>
c iv
d iv
e tel
p li
järjestel mä
työ s
t reat##</w>
mi in</w>
200 3</w>
reg ion##</w>
r en</w>
essenti al</w>
a k
kö yh
si o##</w>
ku mp
ker ran</w>
tt y</w>
majo r</w>
is essa</w>
dec ision##</w>
k ö##</w>
an g
perust amis##</w>
est ##</w>
f is
res s##</w>
Min is
kehity s##</w>
proced ure</w>
jo ista</w>
täytäntö ön
ra uh
o tetaan</w>
keskustel u</w>
tic le</w>
uu teen</w>
torj u##</w>
koh ta##</w>
un d##</w>
vil jel
Ital ia##</w>
l yh
täm ä
loo k</w>
Isra el##</w>
tur va##</w>
s or
ti onal</w>
ex pe
con tri
Amer ic
su r##</w>
su stain##</w>
ett ä##</w>
mu odo
atten tion</w>
sig n
selke ä##</w>
s in</w>
ta a##</w>
str eng
acc ess##</w>
ä li##</w>
su mm
vi ik
u re##</w>
ma j
ittä mis##</w>
we e
resul t##</w>
er o
b us
pi en##</w>
mon et</w>
jo sta</w>
tarkoit uksen##</w>
p ala
sm all</w>
maj or##</w>
is eksi</w>
aw are</w>
vuo tta</w>
maatal ous##</w>
h er##</w>
ehdotu s</w>
tic ##</w>
re ign</w>
as k##</w>
O ff
gra tu
oikeu ksia</w>
l öy
re port##</w>
nim ittä##</w>
nä kem
commun ic##</w>
gratu l##</w>
k ar
joh ##</w>
con gratul##</w>
h an</w>
quest ion##</w>
l en
pres s</w>
toimin n
ka hd
yks en</w>
k op
puheenvuo ro##</w>
läh est
min d</w>
3 0</w>
aihe utta##</w>
ra t##</w>
kun ta##</w>
ener g##</w>
5 0</w>
cr it
isuu dessa</w>
c re
tarka stel
accep t</w>
si der</w>
con sider</w>
nouda t##</w>
ful l</w>
envir on##</w>
hyväks y
e ag
o d##</w>
b ur
di a##</w>
ou ght</w>
F r
si ll
ens in
Off ice</w>
te llä</w>
et ti##</w>
edist y##</w>
v in
miel ##</w>
ensin nä##</w>
contri b##</w>
ch ar
avo im
voit aisi##</w>
mone y</w>
kau tta</w>
inter nal</w>
v is
yhteistyö tä</w>
concer n</w>
te lla</w>
oike a##</w>
lu on
parlia ment##</w>
tavo in</w>
i re
op en</w>
E ##</w>
im p
P or
chan ge##</w>
appro pri
ap ain
pu hel
extre me##</w>
ans ka##</w>
kes k
4 ##</w>
pro mis##</w>
ol d</w>
mahdoll ista</w>
vai he
ste p</w>
d en##</w>
vi ol##</w>
esit täm
d u##</w>
kasv u##</w>
m men
j ust
syste m##</w>
pid ä##</w>
f arm##</w>
var si##</w>
ist o##</w>
markkino iden</w>
l ed</w>
la a
te t##</w>
asio ita</w>
na isten</w>
initi ative</w>
an al
uudell een</w>
ei ther</w>
pre c
al le
kump pan
kilpa il
käy nn
st ään</w>
ku st
kala stus##</w>
in stru
f le
jä lleen</w>
inte rest</w>
he ik
coll eag
p ly</w>
o t
as s
it si</w>
Con stitu
c ar##</w>
prac ti
n cy</w>
union issa</w>
spea k##</w>
n on</w>
an ta
ys sä</w>
uu desta</w>
9 9</w>
lo gue</w>
Venä jä##</w>
suc c
ur o</w>
ion al</w>
u ll##</w>
tas apain
järjestel män</w>
sign ific
e ct</w>
mi ght</w>
is essä</w>
lopp u##</w>
R us
oike us</w>
sta te
av ##</w>
f ree</w>
emp h
p op
m yy
sa y##</w>
cro ss</w>
R i
ra ha
mis estä</w>
R e##</w>
ky mmen
f am
mon it
keho t##</w>
a ati
laati ##</w>
ker s</w>
g g
E n
v än</w>
tur n</w>
a mb
val tojen</w>
l ong##</w>
iv id
ind ivid
ap plic
elin tarv
var a##</w>
com promis##</w>
secon d##</w>
me d
suun ta
yksin kerta
j ud
har jo
conf l
c k##</w>
Ira k##</w>
in g
vuo ro
the m##</w>
t s</w>
wa r</w>
bus in
sill o##</w>
fo od</w>
ed e##</w>
tt o##</w>
tarkistu s##</w>
oike ud
I ##</w>
m it##</w>
teho kkaa##</w>
ta ge</w>
is ivat</w>
teke mä##</w>
vois i</w>
ma issa</w>
ag o</w>
ole massa</w>
k ää
li ght</w>
Ar ticle</w>
pro f
si ja
kä r
k ö</w>
if y</w>
maail man</w>
c ent##</w>
alu een</w>
puheenjohtajavalti o</w>
parti cip##</w>
do cu
b eg
ks e##</w>
käsit tel
työn tekijö
c and
min u
of ten</w>
keh ittämis##</w>
hist or
m o##</w>
de al##</w>
br ing</w>
ett ##</w>
is te
ro w</w>
A l
fis her##</w>
1 2</w>
up on</w>
s how##</w>
gro up##</w>
ko kon
re ach##</w>
pyy dä##</w>
on al##</w>
S a
han kke
pos e</w>
yle is
po wer</w>
appropri ate</w>
la tion</w>
b est</w>
aik a
tion ed</w>
men tioned</w>
lo g
yr itys
ll is##</w>
all ow##</w>
terve y
l ää
tehtä vä
is sa##</w>
hap ##</w>
ra s
av ail##</w>
a ie
mu istu
invest ##</w>
t u</w>
kilpa ilu##</w>
k ia</w>
itt e</w>
mi ksi</w>
C our##</w>
per io
impro ve##</w>
ed uc##</w>
la tion##</w>
ty mis##</w>
streng th##</w>
ne iden</w>
p h
2 5</w>
S u
tab le</w>
i g##</w>
ki ito
ka a##</w>
ik a##</w>
B el
tois eksi</w>
responsib le</w>
pyst y##</w>
wor kers</w>
ongel mia</w>
ar ity</w>
R om
it a
it al</w>
t oma
maa han
mil it
ti es</w>
työ tä</w>
cand id##</w>
va al
suojel u##</w>
E s
kau den</w>
tarv itse##</w>
fe el</w>
täytäntöön pano##</w>
suu ri</w>
m i</w>
pä ivä
fi ght</w>
lähest y
e u
ad min
ma an
bud j
an y##</w>
nä y
pel kä##</w>
vuoro puhel
ko ja</w>
tois in</w>
elin ten</w>
on ta</w>
ker tom
B ar
sov ell
ty y</w>
star t</w>
määr ä</w>
ici ent</w>
tt le</w>
toim iin</w>
n da</w>
ymmär r
m ik
kust ann
ib ility</w>
s all
mp i</w>
tek st
ole va##</w>
par ha##</w>
jou k
itt y##</w>
ul kop
ulkop u
f ail##</w>
er ilais##</w>
prev ent##</w>
sopim us</w>
liik en
lif e</w>
0 0##</w>
si s</w>
ple as##</w>
ris k</w>
syy stä</w>
kes ke
yl i</w>
dra ft</w>
stand ard##</w>
edist ä##</w>
merkittä vä##</w>
te iden</w>
re com
st ro
1 1</w>
osa puol
w le
sta te##</w>
ra tion</w>
actu al##</w>
tech n
tä mis##</w>
järjest ö
es ittä##</w>
ta is
w ant##</w>
part ner##</w>
te tu
n el
a pu
en coura
encoura g##</w>
mä llä</w>
jo in
m om
it te##</w>
W T
it o##</w>
e qu
under stand</w>
väh ä##</w>
valti oiden</w>
us sa</w>
me itä</w>
ill is##</w>
la ad
sub ##</w>
ate s</w>
torj un
ran t##</w>
mi gration</w>
käytä nnö
var ma
g u##</w>
e s##</w>
rik o
usk on</w>
t is
f oc
vaati ##</w>
milit ar##</w>
ke t##</w>
vä est
bud get##</w>
A n
wle d
ex peri
väl inen</w>
kno wled
isuu s##</w>
hu on
huomio ta</w>
er a
vi ra
curr ent##</w>
200 0</w>
vast usta##</w>
happ en##</w>
rak enn
se ver##</w>
an sio##</w>
suor a##</w>
mat ter##</w>
hu ippu
mon th##</w>
il i
toim iv
0 4</w>
sol id##</w>
pro duc##</w>
ohjel man</w>
menn essä</w>
kanna tta##</w>
en emm
reg ion</w>
ref er##</w>
er s##</w>
c he
h an##</w>
su os
c ar
n en</w>
es ity
yritys ten</w>
ke ino
tuleva isuudessa</w>
at a##</w>
tal k##</w>
si l
koh taan</w>
isi ja##</w>
ens isija##</w>
seura ava##</w>
po ikke
kokon ais##</w>
er n</w>
ent istä</w>
pid ä</w>
Ira q</w>
e ar##</w>
e de
pyr ki##</w>
alue ella</w>
Y K##</w>
id ence</w>
s pit
spit e</w>
for tu
kulttuu ri##</w>
m el
ov e</w>
maahan muu
e te
st r##</w>
vaih to
li g##</w>
ou gh</w>
la s
commun it##</w>
so tila
fer ens
kokou ksessa</w>
c oh
lu o##</w>
produc tion</w>
kon ferens
n a##</w>
Ri ght##</w>
de mon
Es pan
mu ita</w>
org an##</w>
mis sä</w>
mu l
demon str##</w>
valio kunta</w>
ro und</w>
yhte nä
u g
o t##</w>
aik aa</w>
w r
va adi##</w>
parlamenti lle</w>
om an</w>
progra mme##</w>
op en##</w>
ud u##</w>
d er##</w>
laus un
fir st##</w>
me th
d y##</w>
c ase##</w>
tu g
ongel ma</w>
com pe
op er##</w>
jo ka##</w>
fin al</w>
ett u</w>
ti u
na te##</w>
ik ##</w>
la ck</w>
yks e##</w>
o ike##</w>
työs ken
organis ation##</w>
in e##</w>
pop ula
l ista##</w>
jat kuva##</w>
ryh ty##</w>
il tä</w>
to si
u b
puu ttu##</w>
fortu nate##</w>
ehdotu ksia</w>
seura av
e p</w>
i an
es sa
te le
mov e</w>
Amend ment</w>
for ce##</w>
si d##</w>
alue iden</w>
vä h##</w>
mu r
ku t
jo ita##</w>
myö s##</w>
tab le##</w>
ker to##</w>
lä he
d ang
stan ce##</w>
riippu mat##</w>
pyy tä##</w>
im mä
impro ve</w>
es itys
vo in</w>
no thing</w>
o tettava</w>
lim it##</w>
käsitte le
oikeud en
jäsen ten</w>
ett y##</w>
k re
is emm
g rant##</w>
ehdotu sta</w>
P ro##</w>
p resid
mahdollisuu s</w>
liitty mis##</w>
yh ti
kom promis
emp i</w>
kest ävä##</w>
it telu##</w>
ten t##</w>
pu t##</w>
id en##</w>
Euroop pa##</w>
tuo tan
str ict##</w>
keskustel u##</w>
kans an##</w>
vasta a##</w>
G ##</w>
viime is##</w>
st e</w>
ob lig##</w>
jo ll
reg ional</w>
ener gia##</w>
er ia</w>
valti o
kys y##</w>
henkil ö
inclu de##</w>
ep ä##</w>
mietintö ä</w>
e qual##</w>
ch ild##</w>
yks ityis##</w>
he i##</w>
taso lla</w>
li ght##</w>
dec l
tasapain o##</w>
ell is##</w>
mar ket##</w>
an i</w>
200 4</w>
yksi miel##</w>
vaka va##</w>
stu d##</w>
koll e
du e</w>
to ista##</w>
su gg
sovel tamis##</w>
B er
tarkistu ksia</w>
pro ##</w>
ri ed</w>
tarko itta##</w>
syy tä</w>
pre par
ab ove</w>
est a##</w>
o tta
de pen
am oun
r in
l ie
te idän</w>
est i
EU ##</w>
than k##</w>
ra te</w>
pää tty##</w>
kun ing
b on</w>
maks a##</w>
tett y##</w>
markk ina##</w>
n e##</w>
l ent</w>
oun d##</w>
er in
ki itä##</w>
sub sid##</w>
il o##</w>
kuning as##</w>
tell ä##</w>
ki inn
tuomioistu im
budj etti##</w>
tapah tu##</w>
princip le##</w>
me an</w>
ehdo kas
clos e##</w>
par emm
perio d</w>
nä ky
e iden</w>
aal ta</w>
aati o##</w>
paremm ##</w>
kaup pa##</w>
lyh y##</w>
lainsäädä nnön</w>
itta va##</w>
mo d
voim a##</w>
r ing</w>
vuoropuhel u##</w>
ust us##</w>
käy ttä
kom ite
con struct##</w>
p ast</w>
uks issa</w>
con tra
varma sti</w>
esitys lista##</w>
sy rj
or ig
in tä##</w>
K an
tavoitte ena</w>
muu n</w>
erin oma##</w>
la p
R eg
J u##</w>
mom ent</w>
it tava</w>
uu si</w>
huoma ttava##</w>
b on##</w>
kin d</w>
ll is
tr ue</w>
prev ent</w>
id ä
ma ke##</w>
exc el##</w>
il i##</w>
pl an</w>
d i</w>
b i
pit ä##</w>
h ti##</w>
ol isi##</w>
G er
Por tug
fam i##</w>
keskustel un</w>
jo ihin</w>
iv a##</w>
de ta
jä ttä##</w>
ehdokas valtio##</w>
d es
tu ksen</w>
0 00</w>
po wer##</w>
all en
cl ar##</w>
tta isiin</w>
täy tyy</w>
si lle</w>
respe ct##</w>
itt u</w>
b an
r ic
tr i##</w>
recom mend##</w>
politiik ka</w>
as te
tote a##</w>
ihmis oikeus##</w>
co st##</w>
le ad</w>
j an</w>
1 .</w>
as etta##</w>
hi m</w>
res ol
pl an##</w>
o m</w>
turvallis uuden</w>
ktiiv ##</w>
ter nal</w>
maail man
aik a</w>
ou th</w>
al ka##</w>
join t</w>
U N</w>
con sul
cr it##</w>
acti v##</w>
eh kä
Constitu tion</w>
L a
c tion##</w>
vel ##</w>
terroris min</w>
j ää
halu a</w>
ett u##</w>
e k
laaj a##</w>
cr uc##</w>
järjestel mä</w>
läh e##</w>
os in</w>
vi est
t ou
ehdo tta##</w>
f ish##</w>
lis ään
ta pa</w>
han k
sitou tu##</w>
ne t
muu t</w>
ti m##</w>
5 ##</w>
eh kä</w>
Lis sa
pre vi
ll isen</w>
it tu##</w>
individ ual</w>
teh nyt</w>
un ti
Lis bon</w>
ymmär tä##</w>
loc al</w>
pla y</w>
ko ke
ch allen
unti l</w>
bod y</w>
v ic
fur ther##</w>
Lissa bon##</w>
kolle go
ass ess##</w>
yhteis ö
civ il</w>
us ko##</w>
tie te
s ci
ide a</w>
talou den</w>
is ille</w>
nn e##</w>
nu or
kysym yksiä</w>
t ti##</w>
valvon ta##</w>
ne t##</w>
to o
ic ial</w>
pli ed</w>
per ä##</w>
re main##</w>
toiminn an</w>
edell y##</w>
u ksiin</w>
käy tt
vi lle</w>
stan d##</w>
la b
edist ää</w>
tarjo a##</w>
se t##</w>
pä in</w>
päiv ä##</w>
na me##</w>
men etel
ord er##</w>
syn ty##</w>
sall i##</w>
tech n##</w>
el ta</w>
pet it
st i##</w>
l ou
käy ttä##</w>
huomau t##</w>
pu n
eff ect</w>
l i</w>
i ina##</w>
com petit
maailman laaj
kor va
pyr i##</w>
päätö ks
pla y##</w>
toimi elinten</w>
prov ision##</w>
Espan ja##</w>
tri bu
es ter
H e
lainsäädäntö ##</w>
of f</w>
te et</w>
keskustel ua</w>
tode ta</w>
ind ic##</w>
vuo si##</w>
it t##</w>
tu re##</w>
guarante e</w>
ön tä</w>
re al##</w>
tied on
hel d</w>
paik allis##</w>
min kä</w>
pyr itä##</w>
ou s
j at</w>
tu le##</w>
hallit uksen</w>
asi aan</w>
B 5</w>
jo ten</w>
d ä</w>
lo w</w>
ic k##</w>
ad van
comple te##</w>
mov e##</w>
po ista##</w>
p u##</w>
mm ä
essa an</w>
enn a##</w>
elä in
practi ce</w>
mar k##</w>
b order</w>
u va##</w>
toim et</w>
at ory</w>
Par t##</w>
re main</w>
pa itsi</w>
ko s##</w>
monit or##</w>
vah in
itta ma##</w>
De mo
solu tion##</w>
yy den</w>
yksinkerta i##</w>
confl ict</w>
ci r
ob serv##</w>
ist an</w>
inte gration</w>
f lik
jäsen en</w>
toim ien</w>
pri vat##</w>
kehity ksen</w>
as is##</w>
B ud
sh are</w>
hall inno
gen u
emph asis##</w>
sää n
a im##</w>
bal ance</w>
m in##</w>
re form##</w>
kol m
yhd y##</w>
man d##</w>
pi an</w>
loo k##</w>
see m##</w>
aj an
liik enne##</w>
is e
jär ke
te m##</w>
kä ä##</w>
mis essa</w>
imp act</w>
lop ull##</w>
spe cial</w>
välis en</w>
con ne
aff ect##</w>
1 3</w>
alue ell##</w>
ain e##</w>
n or</w>
a ktiiv##</w>
huol est
mietinnö stä</w>
liik ku
val tion</w>
f o##</w>
tic al</w>
kon flik
itse va##</w>
lis ää##</w>
kolm anne##</w>
dra w</w>
var mis
säil y
luonn o##</w>
suc cess##</w>
signific ant</w>
hyö ty##</w>
poliitt inen</w>
hallit us</w>
solu t##</w>
ex press</w>
ab solut##</w>
th u##</w>
pa ino
i o</w>
sen se</w>
ä kuu##</w>
v ision</w>
oikeu den</w>
ill a##</w>
crim in
v issa</w>
ol ette</w>
vaihto eh
pro ject##</w>
hist o##</w>
sa mo
ous ly</w>
ä s
ai m</w>
joll oin</w>
sh e</w>
decl ar##</w>
tu en</w>
merk itse
inclu de</w>
tu sta</w>
ratka ise##</w>
perustusla ki##</w>
v is##</w>
con stitu
a m##</w>
oikeuden muka##</w>
kokou ksen</w>
Gre e
lan gu##</w>
ka s</w>
olo gy</w>
tra ff
samo in</w>
consul t##</w>
c ep
ö l
uu de
p e##</w>
con st
me mber</w>
h im
Minis ter</w>
diff er##</w>
conne ct##</w>
v issä</w>
adop t</w>
e an</w>
käsitel tävä##</w>
b r##</w>
myö nn
kon kre
ryhmä ni</w>
tra in##</w>
resol v##</w>
hu man##</w>
ryh mä</w>
ol enna##</w>
at h</w>
vast uu
minister i</w>
o tta##</w>
to ivo
popula tion</w>
p ide##</w>
min ä</w>
miel i
log ical</w>
kuu lu
alo itta##</w>
Rus sia</w>
ust ri
e tu##</w>
vie w##</w>
o re
koh ta</w>
istu n
M ed
tarkoit us</w>
e en
ill e
jat ko##</w>
Palest in
guarante e##</w>
vahv ist##</w>
la te##</w>
var a
te ri
p öy
att ac
re pe
en ter##</w>
ill e##</w>
R anska##</w>
y oun
con tain##</w>
reg re
kol me</w>
an ce##</w>
atte mp
kun tien</w>
a ma##</w>
matt om
te ty
vä kiv
t on</w>
us ko
ratkais u##</w>
ille g##</w>
ob vi##</w>
k ko##</w>
en na</w>
ta sa</w>
depen d
pa y
muu ta</w>
de mand##</w>
val ue##</w>
ele c
as sist##</w>
shor t</w>
it us</w>
add ition</w>
glob al</w>
z ##</w>
uud essa</w>
varo ja</w>
neuvost ossa</w>
respon se</w>
al ity</w>
es sa##</w>
f air</w>
colleag ue##</w>
p ac
tilann etta</w>
ris ti
te mme</w>
kul je
h om
L ä
p onn
n imen
ist an##</w>
konkre ett##</w>
h ie
fir m##</w>
state ment</w>
esi merk
e m##</w>
R ##</w>
s s##</w>
M ##</w>
tö m##</w>
tä vä</w>
h o##</w>
voima kkaa##</w>
exc lu
Isra el</w>
edust aj
over ty</w>
a de
tut ki##</w>
P oli##</w>
st ö##</w>
is enä</w>
wh o##</w>
da ta</w>
alu e##</w>
äänest i##</w>
vall an</w>
p overty</w>
ul kom
u ja</w>
techn ical</w>
qu est</w>
yhtenä is##</w>
ti etty##</w>
benef it</w>
taa s</w>
us ea##</w>
täytäntö ön</w>
suhta udu##</w>
kal ta
hie man</w>
ma at</w>
valio kunnassa</w>
just ice</w>
lis ää</w>
han d##</w>
dell ##</w>
ite m</w>
til an
vaihe essa</w>
is tamis##</w>
ac tion##</w>
työ llisyy
succ ess</w>
tr a##</w>
teke e</w>
c el
S ep
l o</w>
mon g</w>
minu lla</w>
val vo##</w>
proced ure##</w>
liber al##</w>
inten d##</w>
ter min
equ al</w>
ll ista</w>
suhta utu##</w>
kysymyks en</w>
it tele##</w>
sopim ukseen</w>
kaik en</w>
de si
spea k</w>
m er##</w>
jo ta##</w>
st on</w>
velvo ll
nimen oma##</w>
d ele
m y##</w>
ittä is##</w>
pro ject</w>
ro h
j ar
is ena</w>
ex p
dec ide##</w>
kä si##</w>
kol man##</w>
kesku ste
luo tta
serv ice</w>
si v
löy tä##</w>
e uro</w>
tas k</w>
lähesty mis
tehd ään</w>
ref le
a a##</w>
j ille</w>
l ive</w>
m er</w>
lo s##</w>
s sa##</w>
desi r##</w>
ki inno
difficul t##</w>
alo illa</w>
puol usta##</w>
viljel i
re ach</w>
cor re
C hi##</w>
youn g</w>
ik ka##</w>
ulkopu ole##</w>
toimin taa</w>
for t</w>
laajen tu##</w>
k an##</w>
tilan teen</w>
p ä</w>
al ku
nä kö##</w>
coh e##</w>
S tra
ru le</w>
S ch
re l##</w>
M ar##</w>
ar vois
ta u
pres sur##</w>
hon our##</w>
y ll
na ture</w>
cl ose</w>
si jo
rea d</w>
mu a##</w>
Su mm
0 2##</w>
b order##</w>
ans wer</w>
teh ty</w>
kans an
expe ct##</w>
s sä##</w>
käsi tellä</w>
a st##</w>
0 1##</w>
throu gh##</w>
lab our</w>
laa tu##</w>
mov ##</w>
id a
asio ista</w>
j e##</w>
m it</w>
kehity stä</w>
ed usta##</w>
c o</w>
ste ad</w>
käsit tele##</w>
pöy tä
os ten</w>
il d</w>
re strict##</w>
lu m</w>
clos ed</w>
u no
poliitt isen</w>
depend ent</w>
tarkistu kset</w>
en tti</w>
struc ture</w>
ord ino
y vä##</w>
kompromis si##</w>
ko ordino
kala st
tekn iik
ro ad</w>
poliitt ista</w>
ks a##</w>
as y##</w>
l ies</w>
varmis tet##</w>
prepar e##</w>
oikeu tta</w>
har mon
avoim e##</w>
ar t</w>
ta kia</w>
men est
K re
sovel ta##</w>
nn in</w>
istu nn
ä vä</w>
h uu
uno h
str ong</w>
E ast</w>
hol d</w>
de stä</w>
ky se
es sä##</w>
vast oin</w>
val mi
r on
kahd en</w>
gu ide##</w>
cap ac
Summ it</w>
add ress##</w>
määrä raho
öl j
rik oll
hy l
tutkim us##</w>
ca use##</w>
c en
huom enna</w>
tur vapa
spe e
ny ky
ta x</w>
he itä</w>
ky llä</w>
ki en</w>
tur n##</w>
pa y</w>
poh j
f ound</w>
ar ian</w>
tas av
tapahtu u</w>
ac tive</w>
& #
sopim usta</w>
lan d##</w>
&# 9
idä t</w>
alle kirjo
establis h</w>
ra h
lainsäädäntö ä</w>
välin e
tt ##</w>
ch o##</w>
sääntö jä</w>
tar jo##</w>
ill aan</w>
te ta##</w>
is estä</w>
st ance</w>
anal ys##</w>
ä sti</w>
institu tional</w>
ic al##</w>
e e##</w>
av e</w>
pää s
no in</w>
pain o##</w>
l ive##</w>
kan taa</w>
ede s</w>
ilmo itta##</w>
f ic##</w>
määri tel
itu sta</w>
ar is##</w>
mon im
kan a</w>
kunnio itta##</w>
Af ric
odo t##</w>
ura l</w>
tu ki##</w>
im pi
asi at</w>
yh te##</w>
pl ies</w>
muu ta##</w>
m ma
doub t</w>
sugg est##</w>
onn ett
ver o##</w>
star t##</w>
käsi tellä##</w>
h ir
O M</w>
yks et</w>
ks issa</w>
hall inn
ve to
me t
kut su##</w>
hel po##</w>
busin ess</w>
f t##</w>
muu tama##</w>
histor ia##</w>
k lo</w>
palvelu jen</w>
k alais##</w>
pa ho
g an
Sep tem##</w>
M E
spe c
maailmanlaaj u##</w>
viranoma isten</w>
tö ##</w>
työllisyy s##</w>
m ole##</w>
il it##</w>
4 0</w>
wee k</w>
applic ation</w>
tu ho
proses sin</w>
appro ve##</w>
varo jen</w>
p p
wa ter</w>
tu n</w>
vaike a##</w>
työntekijö iden</w>
sy ys
ar i##</w>
alue illa</w>
tämä n
puol i##</w>
vi itta
syys kuu##</w>
sequ ence##</w>
mor e##</w>
ta maan</w>
puolu een</w>
initi ative##</w>
tote si</w>
aik av
f ri
rauh an##</w>
previ ous</w>
fac ##</w>
f our</w>
conclu sion</w>
aikav äli##</w>
s s
im mä##</w>
asetu ksen</w>
p tion</w>
itu ksia</w>
v ent##</w>
invest o
direktiiv i##</w>
S pan
tt o
ar n##</w>
yhd en</w>
ti o##</w>
te ttä
lu ov
j ust##</w>
il y</w>
da m</w>
c k
ma te##</w>
ens i</w>
F ##</w>
toma sti</w>
seuraav an##</w>
ker taa</w>
hyvä ksi</w>
B ar##</w>
paran tamis##</w>
mik ä##</w>
yy ttä</w>
se en</w>
ran ga
la ista</w>
jou st
lis t</w>
ma teri
fac e</w>
l y##</w>
ev er##</w>
tarkistu ksen</w>
keh ittä##</w>
liiken teen</w>
suunta vi
enemm istö##</w>
yks ity
kysym ystä</w>
yksi in</w>
keh itys
ex ternal</w>
ala inen</w>
no te</w>
dire ct</w>
N or
v istä</w>
add ress</w>
u ttava##</w>
harmon is##</w>
dele g##</w>
ll e##</w>
rela te##</w>
kulutt aja##</w>
en d
sisäl ty##</w>
ko ko
he ad</w>
g iv
ell ow</w>
bac k##</w>
tu o##</w>
suff icient</w>
mahdollisuu ksia</w>
as u##</w>
käytännö ssä</w>
b an</w>
B al
ta x##</w>
o s</w>
foc us</w>
am mat
aie mmin</w>
sitou mu
kiel tä##</w>
muo d
l ann
ko ti
me et</w>
e ed##</w>
al e</w>
sano i</w>
o p</w>
r y##</w>
bu ild##</w>
yks ittäis##</w>
tä ll
palvel u##</w>
le vel##</w>
yhte en
pu itte
nä hd
isemm in</w>
In d
D ##</w>
p il
merkitse e</w>
c are##</w>
le v##</w>
Demo crat##</w>
h or
presid entti</w>
kysymyks een</w>
f ellow</w>
tie toja</w>
no t##</w>
kans a##</w>
ade qu
ma te</w>
contro l##</w>
Span ish</w>
ma an##</w>
K y
ke ep</w>
sisäll yttä##</w>
d le</w>
o il</w>
muistu tta##</w>
c re##</w>
ksi lle</w>
koh ta
l uu
pen s##</w>
kiinn ittä##</w>
F R</w>
too k</w>
ex am
exam in##</w>
päätö kseen</w>
is ella</w>
W or
per in
C O##</w>
ra por
k an</w>
jo b##</w>
z a##</w>
ky ky##</w>
teh nee##</w>
nn ut</w>
b io##</w>
toimiv alta##</w>
i an##</w>
vuos ina</w>
re ject##</w>
polit ic##</w>
mer en</w>
e va##</w>
yhden muka
sid e##</w>
sa tis
da ys</w>
compe te##</w>
hallit usten</w>
at ors</w>
sopim usten</w>
paran n##</w>
hu ole
e a
te er
ordin ation</w>
suu ri##</w>
n et</w>
b our
emb ##</w>
p ap
järjestelmä ä</w>
ä mis##</w>
S ch##</w>
la itt
y ä</w>
tarpe en</w>
mieli pi
kaup an</w>
A ge##</w>
te ko##</w>
experi ence</w>
capac ity</w>
WT O</w>
tar kas
myön tä##</w>
de pend##</w>
sä h
kal a##</w>
ell e##</w>
st oc
ist s</w>
speci fic##</w>
oikeu det</w>
strateg i
prac tical</w>
v ol
d ru
si ellä</w>
mm at</w>
vapa a##</w>
luotta mu
devel op</w>
al ter##</w>
U S</w>
tuomioistuim en</w>
maail massa</w>
reg im
con dem
sta ted</w>
nati onal##</w>
ys ten</w>
th re
pyr kim
prote ct</w>
jou lu
id dle</w>
spe ct</w>
asio issa</w>
C y
exc ep
ex er
seura a##</w>
Af gh
const itu##</w>
R uot
R e
maatal ou
giv ing</w>
P e
g over
k ie
tel l</w>
pur su##</w>
uks e##</w>
äänest ys</w>
ou ##</w>
kas va##</w>
instru ment##</w>
pro per##</w>
koh tia</w>
amoun t</w>
Fr ance</w>
mer i##</w>
P E</w>
tie tää</w>
d ic
a way</w>
cir cu
T ##</w>
tie to
muodo sta##</w>
la st##</w>
De c##</w>
turvallis uutta</w>
ratkais u</w>
s how</w>
n on##</w>
ette i##</w>
ys sel
ta ka
täy ttä##</w>
on ni##</w>
tuotte iden</w>
ku t</w>
D ire
l y
re lev##</w>
dem and</w>
de l</w>
si in</w>
regula tion##</w>
c over##</w>
S E</w>
t ol
kul u##</w>
val ue</w>
to i##</w>
foll ow</w>
säil y##</w>
pl ic##</w>
op e</w>
joulu kuu##</w>
le ft</w>
hallin to##</w>
it si##</w>
con sist##</w>
aino a</w>
ver o
leg it
täy dell##</w>
G u
te mp
ris h</w>
itt i</w>
Euro ##</w>
Dire ct##</w>
täm ä##</w>
qu ick##</w>
ip pu##</w>
yhteis ö##</w>
ta h
pää stä</w>
t on##</w>
po tent##</w>
ki er
1 4</w>
ke in
tal k</w>
ad er##</w>
prec ise##</w>
ul ott
see k##</w>
L a##</w>
mi la
sääntö jen</w>
oc c
n uc
lähe s</w>
com ment##</w>
ole vien</w>
mis sion</w>
c ost</w>
ra ja##</w>
pr im##</w>
ter ran
tilante essa</w>
nuc le
div ers##</w>
direktiiv i</w>
J ust##</w>
tribu te</w>
päätö s</w>
le ader##</w>
tavoitte et</w>
sy istä</w>
merkittä vä</w>
kää n##</w>
i terran
tu nut</w>
iterran ean</w>
in alais##</w>
res er
fac ilit##</w>
Med iterranean</w>
ympär ist
pys y##</w>
def ence</w>
re ference</w>
vähen tä##</w>
tode t##</w>
it arian</w>
wa ste</w>
hin d</w>
ta pa##</w>
san i</w>
järj estä##</w>
imple ment</w>
i um</w>
gro und</w>
pain op
tom an</w>
ser ve</w>
na an</w>
ite ttava</w>
dire ction</w>
pal esti
palesti inalais##</w>
nucle ar</w>
en i##</w>
ag rap
0 3##</w>
u ma##</w>
työ stä</w>
e ita</w>
t op
prote ct##</w>
tu t</w>
uu det</w>
saad aan</w>
la ito
B ##</w>
6 ##</w>
b rea
V äli##</w>
add ition##</w>
raken ta##</w>
li it
com par##</w>
Reg ul##</w>
ru p
toimenpi teitä</w>
so d
jo b</w>
puol ustus##</w>
paran taa</w>
id a##</w>
ku ole
kes ki##</w>
i ght</w>
määr in</w>
I rish</w>
ta stro
oll ##</w>
työ n</w>
wor ##</w>
sc ope</w>
emm in##</w>
en si##</w>
appe ar##</w>
so ci
mis sion##</w>
aj at
keskustel e##</w>
au to##</w>
kohd alla</w>
j ia</w>
Sa ksa##</w>
D e##</w>
vakuu t##</w>
tul o##</w>
teki jä
neuvot telu##</w>
lu ettel
G ener
en sä</w>
c are</w>
H u
on muka##</w>
johd onmuka##</w>
asia kirj
m ess##</w>
L u
tavo ite</w>
pa ko##</w>
hd i##</w>
er ies</w>
aihe utu##</w>
Palestin ian</w>
kohd an</w>
k u</w>
alu ksi</w>
N o##</w>
ra ti
crim e</w>
kno wn</w>
hav a
jäsen iä</w>
per i##</w>
kol me##</w>
koh ti</w>
ll isia</w>
str ong##</w>
pas s##</w>
I I</w>
i ous##</w>
N iz
: ssa</w>
vall at</w>
ris t##</w>
miel essä</w>
accoun t##</w>
laitt om##</w>
keskustel ussa</w>
aih e</w>
w ise</w>
Americ an</w>
under stand##</w>
riko s##</w>
he ad##</w>
h il
h d##</w>
deb ate##</w>
aiko o</w>
ra tive</w>
e c
docu ment##</w>
crim in##</w>
pac ka
f f</w>
h i</w>
circu m##</w>
us sel
tu al</w>
tarka stus##</w>
kan ta##</w>
gover n
tilante esta</w>
te ral</w>
poliitt isten</w>
lik e##</w>
laati ma##</w>
M on##</w>
vic tim##</w>
tel i##</w>
puol ##</w>
menettel yn</w>
del a
näy ttää</w>
b our##</w>
ussel s</w>
isuu desta</w>
asian tun
Br ussels</w>
oc cu
kesku s##</w>
bro ad</w>
Gener al</w>
to isen</w>
tan ut</w>
myö he##</w>
luo da</w>
ad d##</w>
jat ku##</w>
ita ar##</w>
ten sa</w>
saa ta
mil jar
le ad##</w>
beg in##</w>
br ing##</w>
ap plied</w>
vuo teen</w>
suu ##</w>
ch an##</w>
1 8</w>
sop i##</w>
kär si##</w>
ittä vä##</w>
isuu teen</w>
pää ttää</w>
ilmo it##</w>
r un
pris e##</w>
onn istu
Niz za##</w>
il e
fi gu
vi h
tarka st
deta il##</w>
w ill##</w>
pää st
ihmis iä</w>
de lla</w>
arv os
on e##</w>
dis crimin##</w>
conclu sion##</w>
Se cur
tu va##</w>
t kin</w>
vi era
mo del</w>
p ik##</w>
ne g
n cies</w>
a s</w>
Ir lann
onnett om
al ist##</w>
R o
päiv än</w>
he ard</w>
u d</w>
stan ti##</w>
tiiv i##</w>
ad d</w>
val u
knowled ge</w>
e ase</w>
dis as
de lle</w>
aja tu
ver k
cre d##</w>
ryh mien</w>
pöytä kirja##</w>
inte gra
esittäm ä##</w>
st o</w>
re view</w>
govern mental</w>
ol o##</w>
is m##</w>
f er##</w>
1 6</w>
toimin ta</w>
t ter</w>
sään tely##</w>
s es
in i##</w>
i gh
ed er
sub stanti##</w>
orig in##</w>
id ent</w>
tie toa</w>
b ill
to tta</w>
k kuu
L ib
u u</w>
instru ment</w>
bal ance##</w>
tiet y
C o##</w>
yhte en</w>
re duc
hyödy n
elintarv ike##</w>
e ment</w>
F und##</w>
r ann
me chan##</w>
benef it##</w>
st i
L e##</w>
y ty##</w>
ho ito##</w>
ai o##</w>
v ent</w>
is istä</w>
miel estä</w>
f ound##</w>
äänest yks
is tic</w>
sc he
r it##</w>
ssa an</w>
ud e</w>
toteu tu##</w>
g ar
s bour
h ard</w>
en tä##</w>
dang er##</w>
Stra sbour
Bal kan##</w>
pää se##</w>
merkittä v##</w>
koro s
br ie
da ma
vä he
mä ssä</w>
kymmen en</w>
ete en
et te##</w>
Ch rist##</w>
m all
vaka us##</w>
yksity is
läh i##</w>
h ön</w>
A ra
ke l</w>
eteen päin</w>
eläin ten</w>
pa kol
Kan sa##</w>
ke hy
dra w##</w>
docu ment</w>
s issa</w>
o w
eu vo
suff er##</w>
lin k##</w>
korke a##</w>
Wor ld</w>
Secur ity</w>
min ist##</w>
maahanmuu tto##</w>
it y##</w>
G en
päätö ksen</w>
perust uva##</w>
i tettu</w>
we ap
mo tion</w>
ja a##</w>
S o
sec tor##</w>
ov a##</w>
B us
puu tte
jäsen tä</w>
car ry</w>
ap point##</w>
g ian</w>
an sa</w>
va sti</w>
f lo
ssa kin</w>
ryh mä##</w>
min i##</w>
in ti</w>
kau pun
I re
k ka</w>
Ire land</w>
wee k##</w>
n tö</w>
legit im##</w>
discus s</w>
Ky pro##</w>
ra ha##</w>
q uo
ongel mat</w>
tosi asia##</w>
pää tel
pro per</w>
pi i
es s
U kra
tied ä
ste p##</w>
pid ä
Br yssel
yhteis kunnan</w>
us ten##</w>
pi en
Bryssel i##</w>
sh are##</w>
ester day</w>
aih e##</w>
Af gan
ne igh
koke mu
r s</w>
oper ation##</w>
mahdollisuu den</w>
al i
tä ys
tull ut</w>
mer ge##</w>
ser ious##</w>
y esterday</w>
re fu
sci enti
k en##</w>
vaar all##</w>
admin is##</w>
Irlann in</w>
ex pla
crit ic##</w>
rati fi
pr ice</w>
hu man
M on
ohjel ma</w>
or m
all an</w>
at u</w>
ivä t##</w>
c ed
b or
ag ##</w>
Lä hi</w>
6 0</w>
w ide</w>
rajo itta##</w>
regim e</w>
luon no
kilpail u
thin k##</w>
on a</w>
kans sa##</w>
mis sä##</w>
jot kut</w>
hu g##</w>
genu ine</w>
beg in</w>
M iddle</w>
muu ttu##</w>
w ish##</w>
se ud
vuos i</w>
tu lis
tunn usta##</w>
O r
uu tta##</w>
teke vä##</w>
s us
A gre
9 0</w>
teoll isuuden</w>
pä in##</w>
äär immä##</w>
t ti
oikeudell is##</w>
er ä##</w>
arvois a##</w>
F o##</w>
perust us##</w>
mä stä</w>
hdo t##</w>
en na
d a##</w>
7 ##</w>
vaike a</w>
g ent</w>
au ttaa</w>
väl istä</w>
si x</w>
ka tastro
terve ys##</w>
ann ual</w>
mar k</w>
is elle</w>
D E</w>
vaikutu ksia</w>
u al##</w>
raho itta##</w>
immä is##</w>
e ivät##</w>
avo id</w>
tavoitte ita</w>
len to##</w>
off er##</w>
mo b
C ent##</w>
sequ ent##</w>
par agrap
miel en
expe ct</w>
til in
ta ul
min or##</w>
väl it
ma ita</w>
käsittele vä##</w>
ar gu
tr y##</w>
ha aste
to si##</w>
sen sit
sa fe
safe gu
ö n##</w>
pu hu
näkem ykse##</w>
Ger man##</w>
struc ture##</w>
crimin al</w>
struc tural</w>
olo g##</w>
la illis##</w>
va l</w>
tuo t
sol ida
u tion##</w>
j ##</w>
f idence</w>
raho it
pla ce##</w>
S w
mill a##</w>
k r
B an
9 8</w>
til a##</w>
kul j
kann an</w>
con ta
kuu le
il me##</w>
su ku
na sta</w>
la in##</w>
tulis i</w>
ma hdot##</w>
par ty</w>
käsit tely##</w>
e ed</w>
bill ion</w>
uks ella</w>
sa i
päätö ksiä</w>
prov ision</w>
muu ##</w>
sisäl tä##</w>
myön net##</w>
emm e##</w>
comple te</w>
v in</w>
packa ge</w>
käs ity
est ää</w>
lis ä
elim e##</w>
K ore
ma l</w>
kä y</w>
unoh ta##</w>
spee ch</w>
pi ir
Portug al##</w>
neuvottelu jen</w>
hu ole##</w>
b le</w>
s pi
ks estä</w>
demokra att
mp i##</w>
ä is##</w>
välit töm##</w>
kau an</w>
en ch</w>
tarpe ell##</w>
re par
pers onal</w>
Afgan istan##</w>
yksityis kohta##</w>
ent r##</w>
päivä nä</w>
apu a</w>
poliitt isia</w>
tuo tta##</w>
pre hen
käytö n</w>
saata v##</w>
re turn</w>
di pl
P act</w>
rela tion
r o</w>
off er</w>
n ation</w>
myö tä</w>
kan ta</w>
järke vä##</w>
saa tava</w>
pen al##</w>
ehdotu ksesta</w>
ac y</w>
A s
yrity kset</w>
g ing</w>
V ##</w>
toimi elime##</w>
säännö t</w>
meth od</w>
tu ur
peria at
par ent</w>
mä ttö
tu lla</w>
vapau den</w>
er o##</w>
po or</w>
is issa</w>
human itaar##</w>
con tent</w>
ka s##</w>
finan c##</w>
al a</w>
shor t##</w>
lo t</w>
il mi</w>
huom io##</w>
s on</w>
ris k##</w>
ne ita</w>
suu re
käytä nnön</w>
minister i##</w>
miljar di##</w>
main ita</w>
istu mis##</w>
K os
tie tojen</w>
tais telu##</w>
os an</w>
k k##</w>
ja ka##</w>
koros te##</w>
Afgh an##</w>
quest ##</w>
ent is##</w>
D ev
R u
san a##</w>
lä p
f eder
1 7</w>
sovell e
mu kana</w>
d r
to ista</w>
ann on</w>
Kre ika##</w>
t al##</w>
euroopp alainen</w>
vähe mm
tiedä tte</w>
läh ti##</w>
la w##</w>
k ki##</w>
esi in
ens in</w>
sa ma</w>
köyh ##</w>
raken te
len to
hallinn on</w>
exp lo
to den
comb at</w>
8 0</w>
te emme</w>
om a</w>
main tain##</w>
ase ma</w>
edelly t
de ath</w>
Fr ench</w>
ulott u
pide tään</w>
ehdotu kset</w>
vapa a
ar ily</w>
E C</w>
to tal</w>
tutkim uksen</w>
w ide##</w>
pur pose</w>
cap ##</w>
Americ a</w>
sor t</w>
lop etta##</w>
kansala isia</w>
fir m</w>
epä onnistu##</w>
tavoitte iden</w>
epä ile##</w>
ref er</w>
ol isivat</w>
e th
19 99</w>
si a##</w>
kri teer
r yhdy##</w>
käsittel yssä</w>
hel p##</w>
Agre ement</w>
t lan
olev a</w>
y li##</w>
va a##</w>
rau ta
näkö kul
mis elle</w>
m is</w>
8 ##</w>
tas on</w>
st y##</w>
li g
ver ko
valtu us
ta minen</w>
P oh
vaka v##</w>
par i##</w>
ki laus
jul kilaus
adequ ate</w>
c li
organ isation</w>
neigh bour##</w>
f a
scienti fic</w>
re lig
def i##</w>
Ruot si##</w>
weap on##</w>
is a##</w>
el tä</w>
yhd istä##</w>
sto p</w>
me istä</w>
dec ide</w>
la inen</w>
im in
elec tr
P a##</w>
on d</w>
k ki</w>
exten d##</w>
is tic##</w>
Minis ter##</w>
ty pe</w>
pa id</w>
jä ä##</w>
N e
re mind</w>
lisään ty##</w>
per spec
kolleg ani</w>
end or
summ it</w>
ha sto##</w>
de sign##</w>
ar ran
k että##</w>
b ab
laaj e##</w>
sta tus</w>
par an##</w>
ate tta</w>
kir ja</w>
istu va##</w>
as su
v ital</w>
sopim uksia</w>
huon o##</w>
enti re##</w>
comb at##</w>
puheenjohtajavalti o##</w>
ma assa</w>
com mer
hol d##</w>
gra t##</w>
mat ku
co l</w>
ann ettava</w>
aika taul
sotila allis##</w>
äs kettä##</w>
rann ik
edell is##</w>
if i##</w>
to col</w>
laati ma</w>
el in##</w>
ap u##</w>
lä s
conc entr##</w>
tel u</w>
keh itty##</w>
terroris t</w>
periaat teen</w>
admin ist
ott an
val mis</w>
maatalou den</w>
con tra##</w>
viranoma iset</w>
peria atetta</w>
tunn us##</w>
respon d</w>
pol ice</w>
ian s</w>
ti v##</w>
kuu l
tur al##</w>
tar get##</w>
pen sion##</w>
itt y
tiety sti</w>
päätö s##</w>
jo in</w>
com prehen
tapa uksissa</w>
m it
it ude</w>
dy na
att ##</w>
main tain</w>
strateg ian</w>
vaatimu ksia</w>
toimin ta
suo ja##</w>
siir ty##</w>
l iv##</w>
d om
ca me</w>
markkino illa</w>
k in##</w>
exer c##</w>
wh om</w>
wh ere##</w>
lie r</w>
K iina##</w>
par empi</w>
hallit usten##</w>
turvapa ikka##</w>
kysym yksiin</w>
il men
tu s
keskuste lla</w>
go od##</w>
al one</w>
Ban k</w>
teoll isuus##</w>
id a</w>
taloudell isen</w>
he ti</w>
mu m</w>
Ma y</w>
toimenpi te
ll aan</w>
dama ge</w>
va t
toteu ttamis##</w>
proc ess##</w>
kaup pa
enn e</w>
vasta a</w>
ta van</w>
sis t</w>
lu v
kilpailu kyky##</w>
itu re</w>
bu t##</w>
reduc tion</w>
prob ##</w>
kunnio it##</w>
kes äkuu##</w>
fri end##</w>
L e
te ke##</w>
neuvot tel
g ies</w>
eff ici
järjest yksen</w>
ha it
com ment</w>
Bar ro
yst ä
valio kunta##</w>
measu re</w>
i m</w>
al li
tä s
sopim uksessa</w>
happ en</w>
el op##</w>
d om##</w>
vähemm istö##</w>
regre t</w>
man n##</w>
man d
G al
vaik e##</w>
käy tettä
et tiin</w>
com pens##</w>
B ul
pää asia##</w>
politiik kaan</w>
la un
Kos ov
Ch ar##</w>
n ti##</w>
merkity stä</w>
ka p
e ett
En vir
ko k
arvio inti##</w>
l er</w>
invest ig##</w>
yhteis kunta##</w>
y ond</w>
be yond</w>
allekirjo i##</w>
pos ition##</w>
S pa##</w>
Bul gar
tou ko
refu ge##</w>
ex pend##</w>
ehdotu ksessa</w>
defin ition</w>
ME P##</w>
var ma</w>
P o
Hu man</w>
wor d</w>
ve si##</w>
hyö k
Envir on##</w>
v ed
jo iden##</w>
valv onn
yy n</w>
ur ge</w>
po is</w>
neuvottel ut</w>
0 5</w>
ki ire
e es</w>
c e
wh i##</w>
touko kuu##</w>
meth od##</w>
k tor
p ati
Dev elop##</w>
Br it##</w>
ca mpa
va a</w>
merkity s</w>
ll isten</w>
ko on</w>
con v
busin ess##</w>
J oh
ic ally</w>
V al
yhteisö jen</w>
torjun ta##</w>
men o
hu r
ar r
sano ttu##</w>
sa man##</w>
lu ku##</w>
lim it</w>
la adi##</w>
ver rat##</w>
ele ment##</w>
ite tta</w>
inno v##</w>
ttä mis##</w>
or t##</w>
laaj u
develop ment##</w>
dist ri
toden näkö##</w>
il ta##</w>
distri but##</w>
la id</w>
So ci
tra l</w>
suunnitel ma##</w>
si vi
rauta tie##</w>
pr us</w>
Cy prus</w>
ta kaa##</w>
maail man##</w>
harjo itta##</w>
Af rik
coll ect##</w>
Bud get##</w>
sta ff</w>
g en</w>
cep t</w>
sen su
mis sa</w>
kan so
sosiaal isen</w>
pide ttävä</w>
inf ra##</w>
aihe u
äänest ys##</w>
jat ke##</w>
es si
tode ta##</w>
mul ti##</w>
ind ustri
g en##</w>
Z im
R ule##</w>
lan ko##</w>
kok ous</w>
inf lu
yd in
pohj alta</w>
pers on##</w>
attac k##</w>
arran ge##</w>
medi um</w>
m on##</w>
kuu n
b a##</w>
st ress</w>
r uo
exten s##</w>
v ity</w>
tarkastel e##</w>
d on##</w>
acti vity</w>
L ##</w>
tarkistu s</w>
myönn ett
an tama##</w>
pala ut##</w>
L A
A lanko##</w>
wh at##</w>
sub mit##</w>
knowled g##</w>
ac knowledg##</w>
terve yd
risti ri
p ann
täy si
ho ita##</w>
conc ili
ala a</w>
val lo
ie r</w>
appe ar</w>
voi massa</w>
refle ct##</w>
rauh an</w>
ole via</w>
ko ko##</w>
an ti</w>
yhti ö##</w>
ranga istu
ksi a##</w>
Rom an##</w>
J an##</w>
m et</w>
to i</w>
te tta##</w>
o sta</w>
mo d##</w>
is imme</w>
epä il
ratka ista</w>
ma s</w>
poli isi##</w>
e merge##</w>
7 0</w>
f ish</w>
puol esta##</w>
om i##</w>
A m
thou ght</w>
os uh
ol osuh
exclu s##</w>
an ts</w>
vapa utta##</w>
net work##</w>
käynn istä##</w>
ra jat</w>
ll iset</w>
valti ot</w>
proses si</w>
tuotan to##</w>
tu pa
terroris mi##</w>
te is##</w>
käytt ö##</w>
tr uc
mb ##</w>
kolleg a</w>
ex per
viik olla</w>
pu l
v uus</w>
l st</w>
ex ist</w>
es ten</w>
sensit ive</w>
pu ite##</w>
en orm
M o
viel ä##</w>
liikku v##</w>
le ave</w>
d ition</w>
vast uu</w>
si mila
simila r</w>
x ib
xib il##</w>
uks ena</w>
tilante eseen</w>
te s</w>
ratkais eva##</w>
fle xibil##</w>
pää ttävä##</w>
0 6</w>
spi r
na tural##</w>
muuto ksia</w>
mat ka
sopim us##</w>
mm ik
char ge</w>
an i##</w>
S t##</w>
suun taan</w>
lää kke
inter pre
esi tetty</w>
Ma a
hy vin
2 1</w>
s in
y t</w>
ponn is
esi tetty##</w>
osall istumis##</w>
os itta##</w>
muu ten</w>
bod ies</w>
teho kkuu
pl en##</w>
aihe esta</w>
wr ong</w>
te st##</w>
paragrap h</w>
ky v
it ur
concili ation</w>
pla c##</w>
for ##</w>
kär si
crit ical</w>
N ov
yh tä##</w>
valti o</w>
sovelle ta##</w>
it sen
f all</w>
challen ge</w>
asia kirjo
F is
l ess##</w>
ist ö</w>
y ty
tuur i##</w>
o ttama##</w>
markk in
elintarv ikke
9 5</w>
vä sti</w>
wel come##</w>
sovell ett
sovellett av##</w>
maks u##</w>
le hd
tarv ittava##</w>
requi re</w>
relation ship</w>
hom e</w>
enti re</w>
ongel man</w>
dra ft##</w>
bur g</w>
ag ing</w>
Zim bab
conclu de</w>
huol en
1 9</w>
mu ista##</w>
un iv
actu al</w>
vaal e
täll a
b y
va ali##</w>
produ ce</w>
bi g</w>
sc ale</w>
p i##</w>
is ta
hyödy ll##</w>
ig n##</w>
täy den
ses sion</w>
lu ku
tuom io##</w>
or i##</w>
for c##</w>
alis ti##</w>
r ies</w>
s sani</w>
sensu s</w>
kysymyks et</w>
O LA
pa ke
koti maa##</w>
N G
vapau ttamis##</w>
tu ki</w>
mahdollisuu tta</w>
b lo
U S##</w>
poliitt iset</w>
per he##</w>
om ia</w>
ity s##</w>
tta essa</w>
joh to##</w>
a ja</w>
stand ing</w>
mu kau
him o##</w>
politiik assa</w>
doub t##</w>
2 2</w>
ttav ##</w>
te g##</w>
nati ve</w>
yy s</w>
ty mä##</w>
pu r##</w>
med ia</w>
es itä##</w>
toivo ttava##</w>
to d
mi esten</w>
ma ihin</w>
vin ce##</w>
tulo ksia</w>
m al##</w>
con vince##</w>
In ter
käyttö ä</w>
valvon taa</w>
min ä##</w>
ka mp
jä ll
Nov em##</w>
ip s</w>
bo ard</w>
just ifi##</w>
selv ittä##</w>
con firm##</w>
v isi
oma ks
min d##</w>
lopp uun</w>
in spect##</w>
challen ge##</w>
j u
her ä
pääst ö
min kään##</w>
kiinno stu##</w>
po is##</w>
kuu kau
cap ital</w>
at o##</w>
as kel</w>
an sa
markkino ille</w>
keskustel uun</w>
de g
ro w##</w>
k ill##</w>
jo is##</w>
tarko i##</w>
ell ä##</w>
P ak
sh ips</w>
el se</w>
char ac
mar ras
i tettu##</w>
competit ive</w>
ymmärr ä##</w>
valtu u
thre at</w>
eff icient</w>
vaar an##</w>
attemp t</w>
na tural</w>
la u
kansa in##</w>
etu jen</w>
an c
suuntavi ivo
yhden tymis##</w>
tote si##</w>
muistu t##</w>
ke jä</w>
G e
Afric a</w>
yhteis kunn
mel ko</w>
ac e##</w>
dis h</w>
O c
säh kö##</w>
mietintö ##</w>
Amend ment##</w>
tr ust</w>
tois een</w>
to tal##</w>
see k</w>
na me</w>
dra wn</w>
tuo tt
ilma ista</w>
i ten</w>
in st
dis te##</w>
S oc
c ent
ab il
sa man
h ou
S we##</w>
ug os
ugos la
pers on</w>
mietintö ön</w>
marras kuu##</w>
mahdoll ista##</w>
jo s##</w>
direktiiv iä</w>
colleag ue</w>
ta mmik
sod an</w>
muka ista</w>
koh tu
spir it</w>
sel vi##</w>
vuo sien</w>
tra dition##</w>
ol in</w>
av un</w>
an ia##</w>
pr ice##</w>
laajen ta##</w>
hyö dy##</w>
tammik uu##</w>
rapporteu r##</w>
puitte issa</w>
kohd istu##</w>
s ter
net work</w>
merk ille</w>
ic k</w>
Pro ced
arvi oi##</w>
tark ka
päätöks en
op pos
koh te
elim in##</w>
T he</w>
perustusla in</w>
la isia</w>
0 4##</w>
koulu tus##</w>
ja a</w>
inv o##</w>
b an##</w>
Ber l
ent y##</w>
mi c</w>
il ma##</w>
corre ct</w>
cli mate</w>
T ra
Proced ure</w>
y li
elä im
Soc i##</w>
L at
po ll##</w>
jou du##</w>
civ il##</w>
nouda ttamis##</w>
f i##</w>
tu na</w>
politiik asta</w>
kol men</w>
as sa##</w>
vaatimu kset</w>
v idence</w>
stra teg##</w>
istunn ossa</w>
for e##</w>
pre ci##</w>
jud icial</w>
de termin
ase massa</w>
S er
A T
teh d##</w>
stru k
periaatte e##</w>
min iste
ea si##</w>
produc t</w>
he ar</w>
bel ##</w>
an ta##</w>
aikataul u##</w>
traff ic##</w>
vasta an
saavu t##</w>
p ing</w>
kiire ellis##</w>
itu ksi##</w>
e ile##</w>
lu pa
Europe an##</w>
rik ko##</w>
käytt ö</w>
WT O##</w>
x emb
ment al##</w>
en sa</w>
vir allis##</w>
san ction##</w>
s ett
kuule mis##</w>
taa ta</w>
esimerk ki##</w>
yö ##</w>
tta isi</w>
f ron
Pe ople</w>
vuos itta##</w>
tarv itse</w>
to den##</w>
n ation##</w>
kans all
in fra
H us
kunn ian
ap preci##</w>
yhte y
di men
dang er</w>
jä ä</w>
infra struk
1 00</w>
toteu te##</w>
sy y</w>
sig n</w>
pää ministeri</w>
l v##</w>
ai l</w>
va mma
hir d
hird ly</w>
ab le##</w>
tull e##</w>
tiete ell
emp ää</w>
comprehen s##</w>
puhe mie
mahdollisuu det</w>
is es</w>
h ag
avo im##</w>
C he
toim ista</w>
mu ihin</w>
menettely ä</w>
men d</w>
kat so
ase maa</w>
l ä##</w>
työ ttö
r ene
f all##</w>
yh tä
tälla isen</w>
s po
k ki
if y
asio ihin</w>
M ac
men e##</w>
kesk itty##</w>
k en</w>
ik an</w>
d ik
wi th
t yh
itse ma##</w>
c ut</w>
Hus se
strateg ic</w>
ify ing</w>
conclu de##</w>
2 4</w>
w on
merkity kse##</w>
deg ree</w>
sisäll y##</w>
pro por
K ar
He alth</w>
viljeli jö
toimin taan</w>
tilin tarkastus##</w>
re mark##</w>
huippu kokouksessa</w>
Lu xemb
Gree k</w>
esiin ty##</w>
an a##</w>
F und</w>
vakuu tta##</w>
vaihtoeh to##</w>
ri it##</w>
qu e</w>
op le##</w>
as soci##</w>
H a
op pose##</w>
lä mp
hop e##</w>
glob al##</w>
dru g##</w>
kesk ity##</w>
järjest ö##</w>
hu n</w>
spe c##</w>
järjestel mien</w>
jo issa##</w>
j our
administ ration</w>
state ment##</w>
kan sa</w>
inv it##</w>
pe ace##</w>
nyky isen</w>
mon op
ig n
s al
mi grant##</w>
inten s##</w>
yll ä
te ttaisiin</w>
shi p##</w>
sup ply</w>
nop e
kiito s</w>
wr it
tu o</w>
re ä##</w>
C ub
proses sia</w>
kas va
b ar##</w>
traff ic</w>
se ktor
kohd at</w>
av a
kulutt ajien</w>
in ta##</w>
uo to##</w>
isyy ttä</w>
v an##</w>
r un</w>
m illä</w>
kehity s</w>
j en##</w>
g r##</w>
en ta
väh immäis##</w>
happ y</w>
y ö</w>
monim uoto##</w>
jon kin</w>
e hd
Q u
Gree ce</w>
yhteiskunn allis##</w>
usk onn
t yssä</w>
p r##</w>
h u##</w>
enorm ous</w>
ö ö
v es
P o##</w>
kunnian himo##</w>
interpre t##</w>
cen tral</w>
kansala is
ex pl
constitu tional</w>
Oc to##</w>
sup er##</w>
lähestymis tapa##</w>
tiu k##</w>
pan o
rak enne##</w>
in d##</w>
asiantun ti
S outh</w>
Che ch
seud un</w>
s ound</w>
keske inen</w>
vähen tämis##</w>
vat ko</w>
vamma is##</w>
ma alis
kyse en
U K</w>
9 7</w>
0 8</w>
vi e##</w>
on ia</w>
nn an</w>
E uro</w>
1 1.</w>
ib ly</w>
käytä ntö
re sur
o tettu</w>
dist in
2 3</w>
tämä n##</w>
sa atu</w>
ma g
laaj ##</w>
k er##</w>
ta vat</w>
prosent in</w>
osapuol ten</w>
ett ava##</w>
as sum##</w>
2 7</w>
yhteist yö</w>
val ta</w>
maalis kuu##</w>
ris ti##</w>
mä t</w>
alu e</w>
n o##</w>
itsen ä##</w>
influ ence</w>
se par
oikeudell isten</w>
kiin ni##</w>
e ko</w>
del iv
t old</w>
pris on##</w>
käytä vä##</w>
for mer</w>
a mu
re ject</w>
pe ople##</w>
na apu
lou kka
lo ka
is illa</w>
sp ace</w>
op e##</w>
l ic##</w>
oun ce##</w>
competit ive##</w>
A C##</w>
ter ve##</w>
e y
tiete ellis##</w>
ma ille</w>
loka kuu##</w>
Portug al</w>
ex act##</w>
en ta##</w>
com pli
c y
tarko ita##</w>
san d##</w>
esittäm ää##</w>
P at##</w>
re present</w>
le arn##</w>
etu ja</w>
condem n##</w>
we a
päätöksen teko##</w>
rakenn era
P r##</w>
x im##</w>
lausun to##</w>
lainsäädä nnö
be ar</w>
ä s</w>
uud ista##</w>
ta po
pers onal##</w>
kohd assa</w>
tulo s</w>
pa k
otta maan</w>
laa ja</w>
fav our##</w>
ell a##</w>
industri al</w>
T anska##</w>
exten d</w>
elä mä
matku sta##</w>
emp i##</w>
aih etta</w>
C 5</w>
saf e</w>
inten tion</w>
i el
bu ild</w>
reg ul##</w>
per usta</w>
V i##</w>
tuleva isuuden</w>
sup ple
solida aris##</w>
qu al
prof essi
iti ous</w>
gra ph
str ict</w>
poh ti##</w>
ku n##</w>
inte ll
g a##</w>
foc us##</w>
Afrik an</w>
ul ti
resur s
järjestö jen</w>
Ir an##</w>
väkiv alta##</w>
taloudell inen</w>
sai ra
kiin ni</w>
W h
Rus sia##</w>
9 6</w>
suu r
ro us</w>
te en##</w>
perin te##</w>
hag en</w>
v in##</w>
fun d</w>
vä ll##</w>
sa ta
jul ka
K uu
ol a##</w>
ks ella</w>
ke a##</w>
L an
repe at</w>
odo ttaa</w>
tuo da</w>
Am ster
viim e##</w>
u te##</w>
tra g
rakennera hasto##</w>
mielipi te##</w>
kuu n</w>
im mat</w>
e ik
por ##</w>
opp i##</w>
isyy s</w>
E C##</w>
repe at##</w>
ksi lla</w>
commer cial</w>
p lu
ide a##</w>
E conom
thou sand##</w>
ri g
oike a</w>
is o##</w>
n s</w>
la te</w>
kä ä</w>
F in
var ain
valmis telu
main itse##</w>
huolen aihe##</w>
kor va##</w>
ik kalais##</w>
G o
mm an</w>
kymmen ##</w>
ää n##</w>
siir tä##</w>
maa han##</w>
var muu
liber aali##</w>
a id
comb in##</w>
fac tor##</w>
ven tä##</w>
un it##</w>
pyy ntö
Econom ic</w>
tied ot</w>
stand ar
ratifi oi##</w>
q u##</w>
ma ista</w>
kysymyks istä</w>
exper t##</w>
vi is
tavoitte en</w>
Bel gia##</w>
3 7</w>
se a</w>
tiedo t##</w>
teho sta##</w>
vi it
ra di
alue ita</w>
perus oikeus
na iset</w>
las ke##</w>
defin e##</w>
200 5</w>
ne w
mon g##</w>
is ivät</w>
institu tion</w>
esimerk ki</w>
sa an
respon d##</w>
no ja##</w>
mand ate</w>
har ki##</w>
en a##</w>
1 2
valu ation</w>
sov ittelu##</w>
sa ata##</w>
ris e</w>
huolest u##</w>
fe ar</w>
alku perä##</w>
P re
vuo desta</w>
teg o##</w>
p t</w>
ca tego##</w>
off ice</w>
rajo jen</w>
de ksi</w>
an c##</w>
al ussa</w>
union ia</w>
ra il</w>
mp ia</w>
ja ks
con ference</w>
n er</w>
d it</w>
200 6</w>
päätö kset</w>
kehitys yhteistyö##</w>
is ti##</w>
gener al##</w>
de p
rene w##</w>
pan e##</w>
n hagen</w>
suhte essa</w>
nn ö##</w>
kulje tu
attemp t##</w>
our ce</w>
liik ke
vapaa eh
or e</w>
mod er
Palest iina##</w>
te ttava##</w>
sen g
ohjel maa</w>
markkin at</w>
järjest ön</w>
D i
ke ep
mu tual</w>
korke a</w>
it ti##</w>
pe ä##</w>
ch ance</w>
ab ol
ölj y##</w>
suh teen</w>
for get</w>
tarka sti</w>
po st##</w>
pas seng
ky ken
in him
ila teral</w>
disas ter</w>
asi on##</w>
yhti ö
vo c##</w>
ty s##</w>
tu ista</w>
tt an
f er</w>
en jo
turvallis uuteen</w>
n neet</w>
kiel teis##</w>
figu re##</w>
appe al</w>
p ill
kka asti</w>
gro und##</w>
fun ction##</w>
lu j
isi a##</w>
ex port##</w>
vi a##</w>
tuke ma##</w>
er äs</w>
ka is##</w>
ist i</w>
yrity ksiä</w>
practi ce##</w>
neuvottelu issa</w>
jo ille</w>
epäil y##</w>
P ub
velvoll isuu
ve h
tuomioistu in</w>
ta sa
suu ren</w>
trans it##</w>
se mb##</w>
ehdotu kseen</w>
effici ency</w>
c over</w>
ver ta
tell en</w>
ki it
in sur##</w>
ette ly</w>
wa it##</w>
tervey de##</w>
pala u
off icial</w>
kansan terveyde##</w>
integra te##</w>
väline itä</w>
medi ate##</w>
m usten</w>
Pub lic</w>
E rik
ur he
raho itusta</w>
joh tuu</w>
fin d##</w>
ei ght</w>
tyy dy
ta usta##</w>
pyst y</w>
or e##</w>
men ettely</w>
ign or##</w>
poikke ukse##</w>
peria ate</w>
ku s</w>
inter vention</w>
da m##</w>
3 ;</w>
&#9 3;</w>
poh jois##</w>
occ asion##</w>
koh taa</w>
a ffair##</w>
ä mme</w>
yhte en##</w>
tte ko</w>
sivi ili##</w>
i el##</w>
h a</w>
ati ##</w>
1 ;</w>
&#9 1;</w>
ud it##</w>
ra tes</w>
pä te
ohjel mien</w>
contra ct##</w>
Lib er
valvonn an</w>
tekijä t</w>
main i##</w>
johd o##</w>
ri c</w>
oikeus valtio##</w>
ist u</w>
des cri##</w>
as y</w>
yle ensä</w>
valmis ta
suojel e##</w>
mä tö
Tra de</w>
terroris ti##</w>
sääd ö
inter ven
enemm istö</w>
T am
to ki</w>
le v
f el
duc t</w>
orig in</w>
r on</w>
la is##</w>
amb itious</w>
P at
yhteis ö</w>
to ihin</w>
p .
ks eksi</w>
ttä isiin</w>
tett ä##</w>
sc ho
köyh yyden</w>
it or
wel ##</w>
st at
p ika##</w>
op u##</w>
n ro</w>
ex change</w>
eik ö</w>
dr iv##</w>
comple x</w>
vapau tta</w>
ri a</w>
re k
temp o##</w>
huole hti##</w>
ad ap
la t##</w>
kno w##</w>
etel ä##</w>
aloitte en</w>
läh tö##</w>
käy dä</w>
g ent##</w>
Tam per
ur ge##</w>
ta ma</w>
j al
advan tage</w>
it le##</w>
Al g
teh ty##</w>
taka isin</w>
r ä
neg at##</w>
2 8</w>
wa ter##</w>
tan eet</w>
see m</w>
har k
vol un
ulkopu ol##</w>
tto aine##</w>
th ern</w>
nä h##</w>
kin ta##</w>
c al
ik o
he in
tehtä vä##</w>
p ri##</w>
im press##</w>
un g##</w>
tarpe e##</w>
siv u##</w>
ma xim##</w>
e p##</w>
vu or
ty t</w>
ri en</w>
ha a##</w>
ehdo teta##</w>
väest ö
val u##</w>
th y</w>
Nor th</w>
uudell een##</w>
siir tymä##</w>
jo is</w>
ad voc##</w>
L i
C A
ra ja</w>
om in
selke ä</w>
nähd ä##</w>
lu opu##</w>
ku mm
koulu tu
ar m</w>
D an##</w>
pay ment##</w>
g r
emp t##</w>
ch air##</w>
T h
ö i##</w>
vä lia
ka ks
inten d</w>
en ti##</w>
v ice</w>
raha a</w>
ain eiden</w>
väl ine</w>
proc eed##</w>
kie ll
kans an</w>
ase man</w>
E S</w>
yhteen kuulu
voi maan</w>
toim i</w>
kulu tta##</w>
div id##</w>
di gn##</w>
yd in##</w>
stoc k##</w>
si ve</w>
parlamen ta
palvelu ja</w>
al usten</w>
N AT
hava i##</w>
elä ke##</w>
A ustri
hel p
edelly ty
de struct##</w>
Poh jois</w>
sija sta</w>
min a##</w>
ammat ti##</w>
3 5</w>
öö pen
ööpen ha
välin e##</w>
ko vin</w>
ha a</w>
ar n</w>
K ööpenha
C ope##</w>
hi en
cel ona</w>
appro pri##</w>
tiedo tus
impi en</w>
as sosi
ans wer##</w>
valio kunn
va kau
hy vän</w>
gra mme</w>
d y</w>
te ki</w>
perspec tive</w>
ici al##</w>
de stro
vira ston</w>
ks essä</w>
g al</w>
d ict##</w>
vasta av
ti mme</w>
säily ttää</w>
fe el##</w>
V an</w>
P er
P PE</w>
veh ic
u tta</w>
tied ä</w>
tark ista##</w>
pub lis
perus te##</w>
medi ate</w>
mar i##</w>
en du
ar t##</w>
aj ia</w>
Kööpenha mina##</w>
us i</w>
periaatte ita</w>
määr ää</w>
fer endu
Ger man</w>
n ight</w>
mieh et</w>
ko o
c ust
tarkas tella</w>
jäl je##</w>
y y##</w>
itte e##</w>
dimen sion</w>
ab s
sec re
läp i</w>
kor ja##</w>
k s##</w>
Bud get</w>
koordino i##</w>
alku per
vaik uttava##</w>
toiminta suunnitelma##</w>
sett le##</w>
aj on
kiit oll##</w>
charac ter##</w>
o ista</w>
confl ict##</w>
Kuu ba##</w>
C OM</w>
sano in</w>
kiito ksia</w>
con ver
bu rea
tila isuus</w>
sa ar
onnistu nee##</w>
odo ta##</w>
k el##</w>
hein äkuu##</w>
ete ne
si h
or d</w>
es ittä
attac k</w>
pann a</w>
occu p
lainsäädä ntö</w>
jul istu
fi ght##</w>
u m##</w>
kah ta</w>
expl a##</w>
edist ämis##</w>
ta ge##</w>
rela tiv##</w>
markkino ita</w>
k ke##</w>
vi enti##</w>
pys yvä##</w>
ll ään</w>
ett i</w>
var ma##</w>
rikoll is##</w>
yr ittä##</w>
ymmär re
var at</w>
tois essa</w>
määräraho ja</w>
la use</w>
taa kseen</w>
r ary</w>
keep ing</w>
kansalais järjestö##</w>
isi ksi</w>
fra ud</w>
ener g
con ven
an toi</w>
by ro
te lla##</w>
ta ck
os uus</w>
ne l</w>
im ä##</w>
ex port</w>
aiko ina</w>
B ro
vä it##</w>
sy nn
muu tama</w>
menn e##</w>
ell i##</w>
byro kra
on ia##</w>
edist y
av e##</w>
me idät</w>
hu ippu##</w>
ann ounce##</w>
an n##</w>
turvallis uus</w>
läh että##</w>
julkilaus uma##</w>
er ää##</w>
dic ta
cel ona##</w>
appro val</w>
H ##</w>
Bar celona##</w>
vapaaeh tois##</w>
t on
koulu tuksen</w>
kamp an
ko he
kohe esi
invol ve</w>
excep tion##</w>
e ir
sc ri
pää ttä##</w>
lu oma##</w>
la sten</w>
itta mis##</w>
A u
painop iste##</w>
it s
riippu va##</w>
pääs y##</w>
k y</w>
infrastruk tuuri##</w>
ge o##</w>
näkökul masta</w>
satis fac
satisfac tor
rah at</w>
S ol
vi ä##</w>
tr u##</w>
te ttävä##</w>
spe ed</w>
rup t##</w>
nouda ttama##</w>
de ks
V er
E tel
2 6</w>
v uutta</w>
ta ud
s ho
lähesty mis##</w>
keino ja</w>
hallit ukset</w>
an to##</w>
kustann ukset</w>
k et</w>
istun to##</w>
exclu d##</w>
er o</w>
corre ct##</w>
an to</w>
advan tage##</w>
pitä vä##</w>
nähd ä</w>
explo it##</w>
alo it##</w>
n al##</w>
kauppa a</w>
ka ttava##</w>
g ene
us te##</w>
tunn e##</w>
avoim uutta</w>
yhteistyö stä</w>
vaikutu kset</w>
tuotte ita</w>
ongel maa</w>
iz ed</w>
edustaj at</w>
edust aja</w>
työsken tele##</w>
tulo kset</w>
tapahtu va##</w>
parlamenta aris##</w>
järjestel mä##</w>
ik ka</w>
tas k##</w>
päiv ä</w>
mon th</w>
huippu kokouksen</w>
es itti</w>
d essä</w>
sil ti</w>
rau ha##</w>
poliitt isesti</w>
poh ja##</w>
Gre en</w>
yksi l
u te</w>
na isia</w>
menest ykse##</w>
g y
T ran
tell eet</w>
re ite
pa ten
i vast
conc re
alue elle</w>
3 1</w>
äänest yksen</w>
vir ka##</w>
kann usta##</w>
si vat</w>
h ab
2 9</w>
jon kin##</w>
fo or
er ia##</w>
cur r##</w>
arvio inn
tar ##</w>
strateg ia</w>
ra il
pan kin</w>
h und
supple ment##</w>
sec ure</w>
poli it
perus tel
ob st
mon ta</w>
flo or</w>
concre te</w>
tun te##</w>
sel vä</w>
mm eko</w>
herä ttä##</w>
deta il</w>
compli ance</w>
4 5</w>
pen sion</w>
kilpail un</w>
keh ite##</w>
contin ent</w>
. 000</w>
cu t##</w>
I tä##</w>
ty ö</w>
suhte ita</w>
b ed</w>
A g
9 2</w>
sp read</w>
en ter</w>
viime inen</w>
th rea
ran ge</w>
man u
henkilö stö##</w>
fle x##</w>
perus telu##</w>
g an##</w>
yksin oma##</w>
väest ön</w>
truc tur##</w>
tarv etta</w>
raken tava##</w>
käytö stä</w>
het k##</w>
e ase##</w>
amoun t##</w>
S tructur##</w>
Constitu tion##</w>
v uuden</w>
tu oll
tu h
se e##</w>
paik koja</w>
luonn on##</w>
I ran</w>
pyy de##</w>
neu vo##</w>
f are</w>
ap art</w>
päätös ten</w>
os aa</w>
mar g
j un
in o</w>
du ct##</w>
Ne w</w>
äs ke##</w>
so ta##</w>
regre t##</w>
heik entä##</w>
fac tur##</w>
as te##</w>
C ha
op t##</w>
C a
äänestyks essä</w>
tiedo tus##</w>
obst ac
E x
Amer ikan</w>
toimi elin##</w>
stat istic##</w>
sano ttava</w>
nego ti
inhim illis##</w>
inc or
im pose##</w>
Mon t##</w>
valti on##</w>
men että##</w>
kri itt##</w>
expla in</w>
vasta ava##</w>
sopim ukset</w>
po or##</w>
nn issa</w>
arvio ida</w>
yy teen</w>
kiin ti
incor por##</w>
ele ment</w>
sy mb
re alist##</w>
mu ista</w>
me kan
manu factur##</w>
ku r
te x
säily ttämis##</w>
oma a</w>
muu tt
ks elle</w>
b ad</w>
acc o</w>
valmi it##</w>
ttav ia</w>
pää stä##</w>
mp ##</w>
ma ss</w>
kau della</w>
alue et</w>
Etel ä</w>
A z
yy s##</w>
vi hdo
l d##</w>
kon e##</w>
endor se</w>
an ko</w>
aloitte ita</w>
Ru le</w>
viest intä##</w>
velvo itte
val ko##</w>
tex t##</w>
sää de
kulje tus##</w>
ehkä ise##</w>
assu re</w>
He ad##</w>
tu on
ki i
foor u
f in##</w>
b ind##</w>
pi d</w>
llisyy den</w>
enn alta</w>
par a##</w>
myön tämis##</w>
katastro fi##</w>
initi al</w>
Y ##</w>
vih reä##</w>
rik kom
poliit ik
Rom ania##</w>
oikeu teen</w>
o inti##</w>
nu me##</w>
mekan is
lu ke##</w>
for th##</w>
tämän hetk##</w>
mmä lle</w>
ide mme</w>
h inn
Pro tocol</w>
täs mä
täsmä ll##</w>
sopim uksesta</w>
oikeus perusta##</w>
o ta##</w>
ad ver
Sw ede##</w>
kest ä
he art</w>
an ti
uudistu s##</w>
ut kais##</w>
teki jä</w>
str ik##</w>
seur anta##</w>
r iv
monim utkais##</w>
laaju is##</w>
ja tta##</w>
hil jatta##</w>
ala an</w>
uks elle</w>
työttö myy
suunnitel ma</w>
puolu e
ongel ma##</w>
l ti</w>
9 4</w>
rec over##</w>
kyse isen</w>
ka asu##</w>
in form</w>
elä kke
el ä##</w>
com pla
J o##</w>
5 00</w>
teho kka##</w>
menettel y##</w>
a att
vahin go##</w>
ust ava##</w>
to b
tehtävä nä</w>
sp ent</w>
nel jä
hyök käy
f ail</w>
dis put##</w>
se x
nouda tettava</w>
us ko</w>
te h##</w>
konferens sin</w>
ker ta##</w>
ker ro##</w>
go t</w>
leg al##</w>
gen der</w>
Cha mber</w>
veto om
te e</w>
off icial##</w>
ma hd##</w>
m ille</w>
komite an</w>
toimenpi teet</w>
suhte iden</w>
s en##</w>
qui r##</w>
perusoikeus kirja##</w>
kaik en##</w>
volun tar
vapau ksien</w>
työ voima##</w>
tob acco</w>
kulutt ua</w>
brie f##</w>
V er##</w>
Tur kki</w>
työ stä##</w>
tu al##</w>
tetu n</w>
sosiaal itur
oso itus</w>
ent itle##</w>
def end</w>
arv o</w>
stoc k</w>
kahd en##</w>
Bus h</w>
sää nnö##</w>
o s##</w>
i mag
he ug
hallinno llis##</w>
elintarvikke iden</w>
ann ettu</w>
Or gan##</w>
väh intä##</w>
tuom itse##</w>
ett y</w>
väär in</w>
seuraav an</w>
pa ko
ar k
20 0</w>
ympärist ö
tarkistu ksista</w>
sto jen</w>
oso it##</w>
kohd istuva##</w>
is en##</w>
euvo sto##</w>
bro ad##</w>
E gy
te illä</w>
o l</w>
neuvottelu ja</w>
lämp imä##</w>
ko ihin</w>
ehkä is
assosi aatio##</w>
Fin anc##</w>
Chech ny
s over
sover e
elä män</w>
d oll
alue ille</w>
jäll een
ha a
Euroop asta</w>
te istä</w>
isyy teen</w>
isyy den</w>
cla im##</w>
c anc
ö no
u aali##</w>
tuot annon</w>
tu han
selv ity
direktiiv issä</w>
dela y</w>
ri ida##</w>
inte gr##</w>
Chechny a</w>
B ur##</w>
toteu ttama##</w>
pakol ais##</w>
paik alla</w>
men ##</w>
k id
is ku##</w>
in kin</w>
a amu
to diste##</w>
tiedotus väline##</w>
campa ign</w>
K io
E T
yo to</w>
tur vaa##</w>
th u
l o##</w>
is ellä</w>
individ ual##</w>
de st
K yoto</w>
v en</w>
tra vel</w>
med ic
e ther##</w>
ar ies</w>
ta sa##</w>
st or##</w>
vasta us</w>
tasav allan</w>
ongel mien</w>
Bel gian</w>
suo sion##</w>
pitä mä##</w>
g la
ex cess##</w>
promis e##</w>
ulkom a
pap er</w>
no sta</w>
lis ää
ku ka</w>
aie mpaa</w>
varain hoito##</w>
tarkastel tava</w>
tehtävä ä</w>
tasa puol##</w>
s ala##</w>
p ett
mob il##</w>
comm ittee##</w>
12 .##</w>
1 4##</w>
tie tävä##</w>
mp ää</w>
ester n</w>
A udit##</w>
min uu
käyttö öno
e qui
aja tus</w>
tämän päivä##</w>
ro oli</w>
par as</w>
lin e##</w>
aj o##</w>
val taa</w>
työsken tely##</w>
suhte et</w>
re d##</w>
omaks u##</w>
matka ilu##</w>
hyväksy tty</w>
tar ke##</w>
rek ister
ka tta##</w>
ehdo ttama##</w>
ca te##</w>
valmis te##</w>
termin ation</w>
tel tiin</w>
päätö stä</w>
läs nä</w>
kunn o##</w>
kou lu##</w>
kanso jen</w>
NAT O</w>
yhtä lä##</w>
markk ina</w>
yl im
täys istunnossa</w>
rah a</w>
näkö kohtia</w>
muod ossa</w>
keske y##</w>
ie t
re ag
po l</w>
ho id
Kio to##</w>
Tran s##</w>
Is la
yrity ksille</w>
va ad
täysi määrä##</w>
työ järjest
rakenn us##</w>
po hd
f la
Strasbour g</w>
N L</w>
vis it</w>
sa s
ratka ista##</w>
osapuol i##</w>
liik a##</w>
tutkim usta</w>
tt o</w>
te na</w>
stand ard</w>
st ress##</w>
par ent##</w>
kein o</w>
f ran
a mer
terveyd en
safegu ard##</w>
lo va
käsittele mä##</w>
kuu lla</w>
järjest ä
att u</w>
alo jen</w>
ain e
relig ious</w>
ottan ut</w>
im plic##</w>
f r##</w>
ser ve##</w>
satisfactor y</w>
ongel mista</w>
le tter</w>
h our##</w>
G a
An g
työ hön</w>
oll e</w>
av ar
yleis sopimuksen</w>
liiken te
kohd ista</w>
im pose</w>
huol to##</w>
wa it</w>
th o
pri l</w>
paho illa##</w>
av aa##</w>
Wh it##</w>
A pril</w>
vastuu ta</w>
par haa##</w>
oll aan</w>
keh itty
h ä##</w>
Bel ar
äär ä##</w>
var s
vars ina##</w>
a tor</w>
Kore a##</w>
torjun n
Val ko</w>
val la
ulti mate##</w>
seik ka##</w>
raken tamis##</w>
professi onal</w>
viljel y##</w>
tuoll o##</w>
oso ituksia</w>
he ll##</w>
ff ##</w>
dela y##</w>
b ase</w>
al ku##</w>
yh ty##</w>
vah va##</w>
vaati va##</w>
summ ##</w>
re qu
kysymyks issä</w>
k risti
brea k</w>
b a
al th##</w>
G ö
C o
rahoit uksen</w>
puol ella</w>
per f
pa y##</w>
me at</w>
luu le##</w>
ll iseen</w>
ivast o##</w>
is u##</w>
genu ine##</w>
vir he
tu vat</w>
onn e##</w>
lin k</w>
f air##</w>
e vä##</w>
aff ect</w>
ty pe##</w>
sto od</w>
refle ct</w>
he av
asian oma##</w>
H a##</w>
ri ippu##</w>
os e##</w>
lo wer</w>
ka amme</w>
yhteis päätös##</w>
vi lla</w>
s pend##</w>
monit or</w>
hu hti##</w>
S ol##</w>
n ess##</w>
ma ss##</w>
hall ituksi##</w>
edust ajien</w>
ch ild</w>
A K
nel jä</w>
fi f
1 .##</w>
vah v##</w>
urhe ilu##</w>
ti ve##</w>
jouk ko##</w>
ik ä##</w>
cla ss##</w>
välia ik
luov utta##</w>
ko a</w>
iv ity</w>
A tlan
sel ##</w>
ob tain</w>
miel ellä##</w>
kol mas</w>
equ i##</w>
dis appoint##</w>
st ön</w>
pros per##</w>
luo k
is la
ed el
con duct</w>
väliaik ais##</w>
komite a##</w>
Reg ion##</w>
Ag ri##</w>
3 3</w>
yksi kö
tr u
ratkais ua</w>
käyttä mä##</w>
järjestel mään</w>
fac tor</w>
fac t##</w>
dec is
Con su
ta var
sen s##</w>
le ik
wor th</w>
mielen kiin
kes k##</w>
is tettu</w>
ev en##</w>
yleis ö##</w>
maa ta</w>
inn än</w>
con solid##</w>
kolleg a##</w>
tuke va##</w>
teke mistä</w>
strategi aa</w>
komissi ossa</w>
ev a</w>
av er
D o
B os
tra ge##</w>
jäsen elle</w>
joust av##</w>
Pal ac
P u
tö mä
tois sija
tety t</w>
maahanmuu ##</w>
kuul u</w>
kaup all##</w>
k kä##</w>
cust om##</w>
asi s</w>
tho rou
ri er##</w>
publis h##</w>
määr än</w>
lähestymis tapa</w>
käytö ssä</w>
Au thor##</w>
z one</w>
tied on</w>
reser va
kuu kauden</w>
Br it
vaikutu s</w>
un i
sotila s##</w>
ann e</w>
y ri
tarko ita</w>
tapa a</w>
ro ati
laun ch##</w>
kysymyks essä</w>
j u##</w>
y ksi##</w>
sosiaalitur va##</w>
pur pose##</w>
mis essä</w>
elä in##</w>
ajat tele##</w>
A asia##</w>
vis it##</w>
s ource</w>
paik kojen</w>
b ar
K es
Afric a##</w>
yhdenmuka ista##</w>
uudistu ksia</w>
merk kejä</w>
ke d
k estä##</w>
Gal ic
ssa mme</w>
o ja</w>
es te##</w>
en e##</w>
en de
ac com
Mar ket</w>
roh ka
kohd e##</w>
edust aja##</w>
p us
is su##</w>
B u
yhteenkuulu v##</w>
väl ttää</w>
sub ject##</w>
pas s</w>
ga s</w>
demokraatt isen</w>
alo ite</w>
aj at</w>
Strasbour g##</w>
Consu mer</w>
C ar
vo ice</w>
viitta a##</w>
toim itta##</w>
tied e##</w>
su ku##</w>
D ut
val ta
toimenpi teiden</w>
na mme</w>
määri te##</w>
he idät</w>
W ##</w>
op is
n tä</w>
emph asis</w>
all a##</w>
ajan kohta##</w>
OLA F</w>
va c
se ja</w>
inn o##</w>
hyödyn tää</w>
N ig
tra d##</w>
mon i
käytettä vissä</w>
ó n</w>
vi isi</w>
u jen</w>
puhemie he##</w>
nuor ten</w>
mietinnö ssä##</w>
is empi</w>
is el
alis t</w>
veto a##</w>
pys ä
lento yhtiö##</w>
hyvin vo
citiz en</w>
tw en##</w>
Brit ann
yksi k
su it##</w>
käy ttävä##</w>
itta ja##</w>
e mpaa</w>
voit ava</w>
tapa an</w>
ra tion##</w>
om e</w>
h ib
ero tta##</w>
co ast##</w>
vakuu tus##</w>
syrj ä##</w>
n ce##</w>
fin ance</w>
ek en</w>
def end##</w>
acc ident##</w>
Pre sti
tu n##</w>
te bor
mielenkiin to##</w>
ma us
koordino inti##</w>
Bos n
nuor i##</w>
ymmärr y##</w>
v en##</w>
n ö
m oun
käy d
jo in##</w>
Gö tebor
Dut ch</w>
vast uun</w>
olo gies</w>
maus aine##</w>
katso o</w>
equi p##</w>
ec u##</w>
d ä
T u
J a##</w>
seik ka</w>
kor jaa##</w>
er i
compla in##</w>
be ar##</w>
Ge org
Comm on</w>
yhteistyö hön</w>
vast ust##</w>
sa mo##</w>
ordin ary</w>
edellyt ykset</w>
c ho
mun ic
materi al</w>
ex ecu##</w>
edisty sas
b la
l a</w>
hen g
f al
ehdotu sten</w>
cen tr
ac ##</w>
I n##</w>
vapa us</w>
oike uksista</w>
as soci
Gre en##</w>
yhden muka##</w>
vaal ien</w>
toivo t##</w>
ratkais uja</w>
onn itte##</w>
kaup pa</w>
huu mausaine##</w>
ur a##</w>
suhte elli##</w>
vi ivä
ty n</w>
prof it##</w>
o ta
mill ään</w>
järjestel y
g one</w>
ferendu m</w>
dipl oma##</w>
argu ment##</w>
R o##</w>
y tymis##</w>
s esta</w>
ro oli##</w>
luj itta##</w>
i or</w>
d er
che m
tarkistu ksessa</w>
la bel##</w>
tois in##</w>
rau ta##</w>
produc tive</w>
p om
on ic</w>
väl ittä##</w>
voluntar y</w>
uu dis
proses siin</w>
ll isiä</w>
brea k##</w>
la in</w>
ih in##</w>
etu sija##</w>
ende av
suku pol
sig nal</w>
perf ect##</w>
S lova
toissija isuus##</w>
saman aika##</w>
ra d
onnettom uu
valvon ta</w>
u va</w>
tt om
tt aja##</w>
tekst in</w>
q ##</w>
muka inen</w>
Por t##</w>
C an##</w>
ryhmä t</w>
r in##</w>
ongel miin</w>
amb it##</w>
yl ittä##</w>
pakol a
ll i##</w>
Cub a</w>
us con
tr a</w>
t te##</w>
qual ified</w>
olosuh te
occ ur##</w>
fiel d##</w>
ed iste
b re
ad vis##</w>
Se cre
P a
Husse in</w>
ristiri ita##</w>
ll istä</w>
kysymyks estä</w>
edell een##</w>
de ad##</w>
amp le##</w>
alkuper äis##</w>
Ira q##</w>
D R</w>
Berl uscon
tunn ust
to on</w>
tapa us</w>
s ource##</w>
nä yttä##</w>
lis ten##</w>
käyd ään</w>
h ard##</w>
dik ta
da i##</w>
brie f</w>
abil ities</w>
y le##</w>
uskonn o##</w>
si t</w>
sa tama##</w>
de ep##</w>
aiheu ttama##</w>
viivä sty##</w>
oc ca
occa sion</w>
kehity kseen</w>
iet na
h ler</w>
V ietna
Secre t##</w>
F ra
m alli
sy dä
sop iva##</w>
lif e##</w>
ks istä</w>
fo re
con firm</w>
tu ksia</w>
en force##</w>
kel u##</w>
be g##</w>
vir ka
myö hä##</w>
ke ja</w>
elä k
ek en##</w>
La eken##</w>
vall itse##</w>
teho kas</w>
pii ri
kuole man##</w>
järjes tet##</w>
Ma ked
7 5</w>
työ markkina##</w>
lä n
järjestel miä</w>
experi ence##</w>
char ge##</w>
alu sta</w>
ur y</w>
pl ant##</w>
oh ja##</w>
mi ten##</w>
m id##</w>
kuukau si##</w>
writ ten</w>
w n##</w>
uud essaan</w>
prec ise</w>
ohjel massa</w>
no sta##</w>
ne essä</w>
gra du
alu etta</w>
Belar us</w>
B ur
van g
trag ic</w>
lausun non</w>
er s
9 3</w>
to p</w>
päiv i##</w>
in o##</w>
cent re</w>
tas o##</w>
re hell##</w>
per form##</w>
p k</w>
dis pos##</w>
arvo sta##</w>
te ja</w>
sosiaal inen</w>
separ ate</w>
p ed</w>
ac qu
u ksien</w>
kom mun
it uu
emb ar
condem n</w>
H ome</w>
En er
yl ittävä##</w>
tu ho##</w>
keskustel u
it al##</w>
il u</w>
ban k##</w>
Bulgar ia</w>
str ö
rajo it
mit kä</w>
ehd o##</w>
tä h
tel ##</w>
ph ase</w>
periaatte iden</w>
palau ttamis##</w>
inc enti
incenti v##</w>
a isi</w>
M c
ään es
säännö ksiä</w>
sugg est</w>
pan o</w>
keskustel uja</w>
jaks o##</w>
gla d</w>
fel t</w>
f our##</w>
elec tor##</w>
tarv itseva##</w>
s yr
presid ent
n ic</w>
mul tila
löy de##</w>
ttä nyt</w>
parlamenti lla</w>
o a</w>
le a
la tter</w>
järjestä yty##</w>
h ence</w>
e co##</w>
as ett
ann ossa</w>
aamu na</w>
so ta</w>
seura a</w>
s ista</w>
mone tar##</w>
loc ation</w>
lo w##</w>
lap si##</w>
jär ky
tekniik an</w>
re vis##</w>
puol ue##</w>
per he
nel jä##</w>
mu ist##</w>
he ar##</w>
G M##</w>
4 8</w>
u mb
tä hd
s av
kysym ysten</w>
koko on
ga in##</w>
funda mental##</w>
e i##</w>
ym ä##</w>
ulkom in
ulkomin ister
ka sta</w>
hank keen</w>
ed essä##</w>
amer ikkalais##</w>
t alais##</w>
suunnitel man</w>
r in</w>
pub lic##</w>
m us
jä tte
jo ki##</w>
an ia</w>
C or
tapahtu mat</w>
ra pid</w>
p re</w>
mod ern</w>
läh tö
väkiv allan</w>
vaati musten</w>
sisäl tyvä##</w>
os sa##</w>
ob tain##</w>
F e##</w>
saavu tettu</w>
pos t</w>
ot sa
kustann uksia</w>
inclu s##</w>
ans ka</w>
yhd isty##</w>
di g
pre fer##</w>
menettely jä</w>
bur den</w>
asetu s</w>
ark alu
arkalu on
all o##</w>
sov i##</w>
kin ä##</w>
determin e##</w>
Pro di</w>
tu kien</w>
nim issä</w>
me i
käy nti##</w>
kumppan i##</w>
is emp
alo ja</w>
I tä</w>
B as##</w>
vi iden</w>
v iv##</w>
s ala
pay ment</w>
kasv u</w>
im min</w>
ess ään</w>
tehtä viä</w>
tar ve</w>
os alta##</w>
threa ten##</w>
tekn olo
t os
perustel tu##</w>
p. m
na u
AK T</w>
visi o##</w>
valtio issa</w>
tärke im##</w>
syr jä
pol ##</w>
oso ite##</w>
isi in##</w>
ev e##</w>
tois ista##</w>
ti lo
pol ttoaine##</w>
man age</w>
inte gro
with draw##</w>
vapau teen</w>
va kauden</w>
lää ke##</w>
iz e</w>
S ad
tavo itetta</w>
p.m .</w>
maa han</w>
l ose</w>
halu si##</w>
den i##</w>
un e##</w>
tyy pp
proc eed</w>
j emme</w>
f il##</w>
s yö
s ou
le h
in sist</w>
e ar
co oper
br u##</w>
yksi puol##</w>
ves sel##</w>
mp a##</w>
käy tettävä</w>
gener ation</w>
fle et</w>
w arm##</w>
r ich</w>
keskuste lla##</w>
in ta</w>
cr u
Britann ia##</w>
ust i</w>
suo stu##</w>
päätö ksen##</w>
kap pal
im mista</w>
acc us##</w>
si e
rakente e##</w>
po ke</w>
o tti</w>
lis t##</w>
kansall ista</w>
h uo
valtio ita</w>
trans fer##</w>
t our##</w>
suure mpi</w>
sex ual</w>
safegu ard</w>
ri d</w>
loc k##</w>
koheesi o##</w>
hyväksy ttävä</w>
c in##</w>
c al</w>
Ir la##</w>
Ener gy</w>
vaka va</w>
su hd
muodo stu##</w>
fo ot</w>
fer ence##</w>
ati t</w>
yr ittää</w>
yks istä</w>
vil pit
vilpit töm##</w>
val o##</w>
electr ic##</w>
aw are##</w>
am ma
As semb##</w>
välis essä</w>
vaik u
univ ers
tr ies</w>
tod ista##</w>
tel i</w>
proses sissa</w>
mp ien</w>
min e</w>
je lla</w>
huole hdi##</w>
hall itusta</w>
avo id##</w>
r y
pos ing</w>
p y
mi d</w>
main itsi##</w>
l en</w>
anal yy
Liber al</w>
Inter net##</w>
määräraho jen</w>
mahdollisuu ksien</w>
kom men
f ru
et si##</w>
S ad##</w>
5 5</w>
vuo si
ro om</w>
polit ical##</w>
ohjel mia</w>
o od</w>
käsittel yyn</w>
t onn
Ukra ina##</w>
tar get</w>
ex p##</w>
Ind us##</w>
siir to##</w>
off ##</w>
kertom uksen</w>
ific ation##</w>
elä ä</w>
ediste tä##</w>
demokra atit</w>
Ukra ine</w>
ttav at</w>
toteu tettava</w>
tied on##</w>
sosiaal i
pill ar</w>
kri isin</w>
E K
te tä##</w>
mill oin</w>
ku va</w>
korke i##</w>
ko i##</w>
huoma a##</w>
b om
ad just##</w>
ol es
mon en
han ke</w>
au tta##</w>
Kore a</w>
va u
ttä mä##</w>
tribu te##</w>
torjun ta</w>
rau haa</w>
kie lle##</w>
heik o##</w>
f use##</w>
G ar
9 ##</w>
yhte ens
yhteens ov
tö miä</w>
pel kää##</w>
est i##</w>
coura ge</w>
ar mei
NG O##</w>
F ish##</w>
velvoll isuus</w>
sy y##</w>
spo ken</w>
sa d
jud g
il mi
gr ant</w>
D en##</w>
0 7</w>
un ion</w>
tavoitte ista</w>
käy tä##</w>
koko on##</w>
its est
hel mik
cour t</w>
co t##</w>
tö myy
osapuol et</w>
helmik uu##</w>
electr onic</w>
dec ad
cy c
c it##</w>
ati onal</w>
Kosov o</w>
sa man</w>
ro und##</w>
qu ar
pro hib
pal k
ku vi
kristi llis##</w>
is issä</w>
im peri
cou p
c ul##</w>
Lat in##</w>
3 8</w>
yhteis vastuu##</w>
tetu t</w>
tarkas tella##</w>
s ka##</w>
ongel man##</w>
fe ed</w>
expla in##</w>
bur g##</w>
voit u</w>
uu temme</w>
tu ettava</w>
ta k
ker ta</w>
ed ut</w>
dom est
vaike uksia</w>
si te
koulu tusta</w>
j än</w>
hien o##</w>
hankke iden</w>
ga in</w>
esity ksen</w>
crim e##</w>
contra dict##</w>
Austri a</w>
tila isuutta</w>
tasapain o</w>
tarpe et##</w>
talousarvi o</w>
suo jella</w>
sol ve</w>
nä hd##</w>
mie s##</w>
maan viljeli
la illa</w>
is ina</w>
hallin to</w>
demokra tia</w>
vasta inen</w>
tun to##</w>
sul ke##</w>
pää oma##</w>
kuu ssa</w>
hankke ita</w>
ch a
Kosov o##</w>
ol d##</w>
konferens sissa</w>
il t</w>
ed essä</w>
Mac ed
E m##</w>
yy destä</w>
uudistu ksen</w>
utu a</w>
tutkim us</w>
te iltä</w>
pl ann
plann ed</w>
appro ve</w>
anta i##</w>
ala isen</w>
E C
sisäl tö
paik an</w>
ehkäis y##</w>
con duct##</w>
aik om
uude lle</w>
uu t
tervey den</w>
terroris t##</w>
suff ici
p loy##</w>
naapu ri##</w>
käyttö ön##</w>
van oma##</w>
ul t##</w>
ta vanoma##</w>
kul ku##</w>
istunn on</w>
Barro s##</w>
w arn##</w>
pe t##</w>
no ise</w>
ks ellä</w>
he alth##</w>
hallinno i##</w>
defin e</w>
crit ic
b ilateral</w>
aver age</w>
aika an
0 5##</w>
s on##</w>
li a##</w>
hyväks y</w>
Sch eng
D u##</w>
B o
ta vasta</w>
siir ry##</w>
sen ten
näkö koh
medic ine##</w>
le arn</w>
la it
kes kinä##</w>
i al##</w>
vapa a</w>
liit on</w>
in e
vasta ista</w>
sa w</w>
op tim##</w>
istu s##</w>
essenti al##</w>
en ia##</w>
dru g</w>
destro y##</w>
ai o</w>
sil mä##</w>
san oma##</w>
ro ko
politiik kojen</w>
m itta##</w>
bo o
tul i</w>
toim een
teh tiin</w>
suo si##</w>
satis fied</w>
mo ott
domest ic</w>
con dition</w>
c at
taloudell isesti</w>
sa apu##</w>
ongel maan</w>
l an</w>
S to
9 1</w>
tulo sta</w>
ta kaa</w>
lait osten</w>
jo lla##</w>
i ent##</w>
heug en</w>
emm in</w>
doub le</w>
br u
b il##</w>
ylim äärä##</w>
sel ittä##</w>
ro ot##</w>
re in
pen d</w>
luon te
käynn issä</w>
ex tra##</w>
all o
H i
En g
tulo ksen##</w>
määrä tieto##</w>
hä tä##</w>
hallin ta##</w>
ab ##</w>
Maked onia##</w>
Ara f
ä l
z z
vasta us##</w>
re sum##</w>
luottamu s##</w>
h ouse</w>
viljelijö iden</w>
utu s##</w>
tack le</w>
rajo ja</w>
no sta
käsittel yä</w>
ks uaali##</w>
decis ive</w>
al ta
B el##</w>
rea m##</w>
prepar e</w>
mieh en</w>
ku mo
cla use</w>
b ia</w>
associ ate##</w>
asiakirj an</w>
vo itte</w>
pal ja
luo tta##</w>
ful fil##</w>
fron t</w>
f il
A sia</w>
won der</w>
uudis tamis##</w>
ta hd
lu n</w>
gra d##</w>
fi l</w>
aste itta##</w>
ab o##</w>
1 .
yks in</w>
vallo issa</w>
uh kaa</w>
ta so</w>
o v</w>
n tä##</w>
ll ä##</w>
ed iste##</w>
usko a##</w>
t teen</w>
suor itta##</w>
sijo itta##</w>
sel ke##</w>
rikoll isuuden</w>
kii re##</w>
conta ct</w>
Presid ent##</w>
Mar o
4 9</w>
3 2</w>
re li##</w>
ohjel masta</w>
kirjo it##</w>
j an##</w>
hop ##</w>
amma ti##</w>
allo cate##</w>
or i</w>
menettel yssä</w>
i que</w>
ö in</w>
vehic le##</w>
saavu ttama##</w>
Qu est
3 6</w>
vastaav an</w>
var ova##</w>
määrä yksiä</w>
el e##</w>
ann es
Parlia ment##</w>
ter r##</w>
se itse
piiri in</w>
konflik ti##</w>
j ö##</w>
c ard</w>
J ugosla
ud s##</w>
työntekijö itä</w>
oma sti</w>
mb uds##</w>
kalta ise##</w>
arv on</w>
al ha
O mbuds##</w>
vac cin##</w>
v i</w>
tapahtu mien</w>
ta ho
pr ing</w>
ow ner##</w>
main itsi</w>
kr itiik
tti vät</w>
trans lat##</w>
p ie
järjest yks
for mu
f ence</w>
compe tent</w>
arvi o##</w>
Lä n
valmistelu kunta</w>
val vo
vaal it</w>
tom ia</w>
stan t##</w>
puu tu##</w>
pe to
menest y##</w>
kan tojen</w>
deliv er##</w>
cep t##</w>
c ol
5 .</w>
tek sti</w>
sih te
pide ttävä##</w>
painop iste
ll isesta</w>
ko ke##</w>
jäsen enä</w>
esti mate##</w>
tu tu
sup pose##</w>
sm all##</w>
per mit##</w>
muo to##</w>
mor aali##</w>
main itsema##</w>
k enn
iti o##</w>
f os
coh erent</w>
8 9</w>
to tu
teoll isuu
Fis c##</w>
3 9</w>
ver ran</w>
tett ä</w>
ss ään</w>
pit o##</w>
nor mal</w>
muka isia</w>
kuulu va##</w>
kehitty ne##</w>
etu n</w>
argu ment</w>
Zimbab we</w>
täll öin</w>
taud in</w>
sy vä##</w>
se mm
sano ttu</w>
reite rate</w>
liik enn
ka pa
ful fil</w>
1 1.##</w>
tu le</w>
pro spect##</w>
on esi
ohjel maan</w>
kapa site
joust ava##</w>
in sist##</w>
huom ion</w>
chan ging</w>
Ind onesi
Götebor g##</w>
0 .##</w>
vi esti</w>
valtio ta</w>
trans fer</w>
tila isuuden</w>
ssa olo##</w>
sec u##</w>
pro secu##</w>
la ill
la h
ke t
investo inte
por ate</w>
ma ap
kohtu ull##</w>
jouk kojen</w>
er t</w>
af ter
tt u
reg is
parlia ment</w>
inno vaati
elim iä</w>
d ro
asian osa##</w>
H er##</w>
vaka a##</w>
tte le
tekn is##</w>
tapo ja</w>
ro ad##</w>
rau han
pris e</w>
ar rest</w>
al ista##</w>
after no
ab and
Zimbab we##</w>
3 .</w>
van ho
täyden tä##</w>
te ihin</w>
talou s</w>
par e##</w>
inst ituu
imp ia</w>
en han
elä is##</w>
An d
toimin nasta</w>
k kää##</w>
elä mään</w>
Bulgar ia##</w>
tru th</w>
tila is##</w>
rec ord</w>
mu n##</w>
che ck##</w>
acc ident</w>
Jugosla via##</w>
tt om##</w>
st at</w>
pr iv##</w>
määr ittä##</w>
mma ksi</w>
N ato##</w>
väl ttä##</w>
tervey ttä</w>
sisä markkina</w>
re hu##</w>
po t##</w>
obstac le##</w>
mat on</w>
kka u##</w>
jou ko
en ed</w>
Palac io</w>
teu ra
rin na
p ä##</w>
mill ion##</w>
miel i##</w>
i our</w>
Sta t##</w>
tra dition</w>
succ eed</w>
keino in</w>
cor porate</w>
vaik ut##</w>
toimenpite isiin</w>
puolu eiden</w>
p ath</w>
kokou kseen</w>
cooper ate</w>
N iel
Euro stat</w>
viik on</w>
tau ti##</w>
oso ittama##</w>
mi a##</w>
käy dy##</w>
käsitel tävä</w>
adap t##</w>
a an##</w>
u gu
ta p
re mind##</w>
o u</w>
nä ke
main ittu</w>
itsest ään</w>
huo ll
com pati
cho ose</w>
afterno on</w>
koulutu kseen</w>
kaks in
haaste e##</w>
g i
ehdo t</w>
2 1##</w>
run ning</w>
nim e##</w>
k kä</w>
coun ter</w>
CA P</w>
yll ä##</w>
ulkom a##</w>
tulo kseen</w>
tiedo ttamis##</w>
s in##</w>
ko ti##</w>
j ur
im iel##</w>
er imiel##</w>
Pak istan##</w>
B a
ugu ese</w>
po istamis##</w>
maail maa</w>
hyl ä##</w>
h im##</w>
eng age##</w>
compati ble</w>
blo od</w>
arkaluon te##</w>
Maa ilman</w>
z e
tro l</w>
palvel ut</w>
or ies</w>
la itte
af for
vu o##</w>
propor tion##</w>
pan i##</w>
oppos ite</w>
lu pa##</w>
kiito kset</w>
immä t</w>
deb a##</w>
cla im</w>
bi olog##</w>
F a
valtuus kunnan</w>
tuo te##</w>
ken e##</w>
ka usi</w>
disas ter##</w>
Pro di##</w>
te st</w>
ta koon</w>
struc tur
op etu
o sta##</w>
o g
materi al##</w>
m outh</w>
koh telu##</w>
hy lä
be hav
pyr kiv
om assa</w>
ll ut</w>
fu el##</w>
epä oikeudenmuka##</w>
ed un</w>
con tain</w>
F ree##</w>
tarkistu ksesta</w>
suun ta##</w>
s si##</w>
p ö
ne itä</w>
jäsenvalti o</w>
inten tion##</w>
ar ian##</w>
aj ate
vast av
ta ke
pl an
lisään tymis##</w>
ill ä##</w>
N a
tehtä vän</w>
se a##</w>
raha ston</w>
näkö kohdat</w>
impi ä</w>
el se##</w>
K al
1 5##</w>
päätöslausel ma</w>
pur ka##</w>
main ita##</w>
l ta##</w>
kä teen</w>
ede tä</w>
dist ort##</w>
cre dit</w>
aikaan saa##</w>
sche me</w>
pä te##</w>
ponn ist##</w>
oh ja
nyky aika##</w>
maks e##</w>
ilma ise##</w>
hur s
ehdotu ksista</w>
Pak istan</w>
Joh ann##</w>
D S</w>
väär in##</w>
te d##</w>
suos it
sel vi
mu ita##</w>
monop ol##</w>
korva a##</w>
inc ident##</w>
huoma tta##</w>
ase iden</w>
acti ve##</w>
Fis ch
välis iä</w>
vara uks
tu ssa</w>
järjestö t</w>
constitu te</w>
Al ban
: ta</w>
uudistu s</w>
periaatte et</w>
kumm a##</w>
con stant##</w>
behav iour</w>
C r
tää kseni</w>
tä mme</w>
ponnis telu##</w>
hark itse##</w>
Soci alist##</w>
D e</w>
A nn
äänest ystä</w>
ään ty##</w>
ystä väll##</w>
t onta</w>
seura am##</w>
mu t
minister in
el in</w>
e ma##</w>
ar ise</w>
ab use</w>
Y or
W omen</w>
Soci alist</w>
yhdenmuka istamis##</w>
utu va##</w>
ratkais eva</w>
off ice##</w>
la y##</w>
er ing</w>
demokraatt inen</w>
coun ter##</w>
B ri##</w>
As soci##</w>
tun te
om ista
kein o##</w>
eläk eläis##</w>
e jä</w>
da an</w>
conven tion##</w>
at i</w>
S M
Joh annes
y ttävä##</w>
uude staan</w>
tutu stu##</w>
tarjo ama##</w>
reg ular##</w>
er illis##</w>
Sad dam</w>
yr ittä
ut in##</w>
pun ish##</w>
opis kel
myönnett ävä</w>
jo lle</w>
el o
arvo a</w>
a sta##</w>
4 2</w>
vuosi kymmen##</w>
relig io##</w>
kah teen</w>
passeng er##</w>
bu ilt</w>
b io
b ia##</w>
S ha##</w>
3 4</w>
vä ä##</w>
vastav uo
tetu sti</w>
sh ad
se ka
re place##</w>
r ence</w>
perust uva</w>
kes ki
con vention</w>
y our##</w>
tol er##</w>
tois en##</w>
pi eni</w>
mietinnö stä##</w>
ki ist
innovaati o##</w>
inf rin
be come##</w>
al e##</w>
al alle</w>
tyh jä##</w>
structur ing</w>
määrä rahat</w>
komite a</w>
keskustelu issa</w>
k tio##</w>
du ti##</w>
Ex ternal</w>
vaikutu s
tu esta</w>
kulj ett
kon ser
is sa
enna kko##</w>
: ##</w>
ympärist ön
viranoma isen</w>
työs kenn
työskenn el##</w>
turvallis uudesta</w>
sur viv##</w>
suffici ent##</w>
raha sto##</w>
pu ite
perustusla ki</w>
muuto s</w>
ma tic</w>
liber al</w>
de z</w>
cra ft</w>
avo in</w>
arvio it
B ol
4 4</w>
tapahtu i</w>
st on
pyrkiv ä##</w>
o he
muuto sta</w>
lu kuun</w>
la ivasto##</w>
alo itte##</w>
Ir lan
Gen e##</w>
tarko itettu##</w>
perust u##</w>
ol a</w>
la isen</w>
alo ite##</w>
väh enne##</w>
sci ence</w>
T ai
4 6</w>
ymmärr ä</w>
vaikutu sten</w>
työ n##</w>
teki jä##</w>
sta tu
m ar##</w>
luo da##</w>
käsit tä##</w>
het ki</w>
Johannes burg##</w>
yrity s##</w>
viest i##</w>
val ita</w>
saan e##</w>
rajo ite##</w>
liitty vä</w>
la ck##</w>
kos sa</w>
juu ri##</w>
hä mmä
har m##</w>
for mal</w>
ex plic##</w>
eth nic</w>
com plic
Fra me
uot is##</w>
teoll isuus</w>
techn o##</w>
te ta</w>
tark istu##</w>
sovere ign##</w>
ott o##</w>
luo ta##</w>
kä dessä</w>
kyseen ala
kohta isesti</w>
iv uotis##</w>
is tettu##</w>
i j
att ra
as h
ar ab
Frame work</w>
se ven</w>
puhu ja##</w>
laad un</w>
huolest une##</w>
att ach##</w>
aff ir
Palestin ian##</w>
yhd ist
si ght</w>
seik koja</w>
m alle</w>
l is##</w>
l eng
ko t
hyvinvo inti##</w>
ex empt##</w>
dyna mic</w>
coun t##</w>
as en
Luxemb our
H er
Alg eria##</w>
v ance</w>
toteu tetta##</w>
scho ol##</w>
nu tta</w>
na a
minu te##</w>
me ja</w>
kuu le##</w>
ka ava##</w>
el v
alis mi##</w>
W est</w>
tuho a##</w>
succ eed##</w>
puutte ell##</w>
ota mme</w>
ati c##</w>
ass ess</w>
al koh
I V</w>
tuhan s##</w>
pal a##</w>
kyv yn</w>
kka ita</w>
kan a##</w>
imag ine</w>
car ry##</w>
ag g
ad vance</w>
D a
4 1</w>
tah toa</w>
sub mit</w>
repar ation</w>
quo ta##</w>
part ner</w>
main ittu##</w>
ma s
käytännö ll##</w>
käs it##</w>
figu re</w>
appro ach##</w>
työn tekijät</w>
stitu t##</w>
re turn##</w>
painopiste alue##</w>
p hen
o jen</w>
jää vä##</w>
for tun
asett ama##</w>
M ol
L am
thre s##</w>
tell ut</w>
pitä isi##</w>
na is##</w>
mattom ia</w>
hon our</w>
aja tusta</w>
abs ence</w>
yr itä##</w>
uu tensa</w>
regula te##</w>
paino st##</w>
o d
nuor iso##</w>
lääkke iden</w>
kehity ksestä</w>
deb t</w>
b i##</w>
arvos te##</w>
an tu##</w>
La my</w>
ver on
strö m</w>
signific ance</w>
järjestelmä stä</w>
hyväksy ttävä##</w>
väest ö##</w>
uu si
re st
poliitt isesta</w>
pii ri##</w>
muuto kset</w>
kuu ll
dicta tor##</w>
atal ous##</w>
W estern</w>
Bro k</w>
var aa</w>
tu on</w>
ttav issa</w>
oikeu ksiin</w>
isel itte##</w>
conv ict##</w>
cer e##</w>
avo in##</w>
väl ##</w>
u det</w>
sy itä</w>
spe ed##</w>
ordin ate##</w>
op t</w>
mä ä</w>
laun ch</w>
kuu kautta</w>
kal ta##</w>
T hurs
Luxembour g</w>
Luxemb ur
wea k##</w>
vastavuo ro##</w>
th en
qu ant##</w>
ll isty##</w>
kier ro
jo ku</w>
ha ki
c lu
c ell##</w>
valtuu det</w>
tut k
reg ular</w>
re mo
ohe lla</w>
kest ävä</w>
graph ic##</w>
fun ction</w>
ap e</w>
I N##</w>
ter al##</w>
luv un</w>
laus e
kysymyks en##</w>
kys el
ar ise##</w>
Sto ck##</w>
vir a##</w>
vaikutu ksista</w>
te ly</w>
llisyy ttä</w>
li ha##</w>
la y</w>
H O</w>
E Y</w>
vä istä##</w>
univers al</w>
tark kaa##</w>
sosiaali demokraatti##</w>
pit i</w>
p at
mo tion##</w>
kut su
ain eita</w>
vi ksi</w>
vasta ava</w>
uude lla</w>
uh re
tu et</w>
ta i
sou thern</w>
ottan ee##</w>
osa sto##</w>
ku stan
Thurs day</w>
T al
yhd ys
vuo deksi</w>
viranoma isille</w>
suff er</w>
poliitt iseen</w>
lainsäädä n##</w>
kar a##</w>
kah desta</w>
ja kau
is oi##</w>
Is o##</w>
Euroop alle</w>
1 ,
täytäntöön pano</w>
pyy nnön</w>
menettely jen</w>
ma h
ab ort##</w>
suo si
prec ede##</w>
muod oll##</w>
fortun ate</w>
asia kirja</w>
Y ugosla
E Y##</w>
Ara b</w>
vaikutu sta</w>
v er</w>
prog ress##</w>
poikke us##</w>
paho ittele##</w>
määri tellä</w>
jäl j
d t</w>
Gen eve##</w>
vastaan otta##</w>
vapa an</w>
päivä ä</w>
puh taa##</w>
jä nn
ie f</w>
ch ap##</w>
Ind ia</w>
In tia##</w>
roh ke
oikeu tettu##</w>
ha ke
f in</w>
: lle</w>
ttav ien</w>
sopim uksiin</w>
sc and
repar ation##</w>
nn ista</w>
jäl ke##</w>
ill ust##</w>
cor e</w>
c it</w>
arvo ja</w>
Maced onia</w>
M ic
1 7
ympäristö ön</w>
wa y##</w>
valmis te
ut ti##</w>
r ans
oikeu tetusti</w>
new s</w>
maa sta</w>
in ev
inev it##</w>
alti o##</w>
työn anta
su va
kustann usten</w>
excep tion</w>
etene mis##</w>
K a
x i
vaar assa</w>
turval lis##</w>
ol umb
o te##</w>
mieh istö##</w>
ki ih
is tama##</w>
fe a
alo itetta</w>
Nor th##</w>
puolue et##</w>
pre va
men nä</w>
kri isi##</w>
cor rupt##</w>
6 5</w>
z e</w>
u den</w>
ti vat</w>
tapa a##</w>
puol i</w>
n is##</w>
matt om##</w>
lis ten</w>
ki o##</w>
he del
diff er
C itiz
välin eiden</w>
vaik ka##</w>
pää ministeri##</w>
perio d##</w>
löy ty##</w>
dipl oma
c co</w>
qu e##</w>
previ ous##</w>
pa tent##</w>
ole ell##</w>
laad u##</w>
kustan n##</w>
huol ta</w>
e ksi
c ing</w>
Egy p
vaihtoeh toja</w>
symb ol##</w>
so taa</w>
r en
oikeudell isen</w>
is on</w>
in tä</w>
ehdotu ksen##</w>
b ra
F in##</w>
E ast##</w>
y t##</w>
r a</w>
pää sihte
myö tä
infrin ge##</w>
huu me##</w>
ey e</w>
et c</w>
en cies</w>
edustaj ia</w>
Tai w
M us##</w>
vaatimu s</w>
s ati##</w>
po sti##</w>
ole ma
kulj etta##</w>
harjo itta
distin ct##</w>
Sa har
Mo ro##</w>
6 .</w>
4 .</w>
tele visio##</w>
pala ta</w>
kiinti ö
jö itä</w>
jour nal##</w>
j ista</w>
g g##</w>
en vis
com pul
al i</w>
Com ##</w>
väär in
us tettu##</w>
uh rien</w>
tuom i##</w>
tor sta
ra a
ne llä</w>
m massa</w>
le ase</w>
laajen n##</w>
b ig##</w>
viera ilu##</w>
v ina</w>
pr iv
priv ile
Venä jä</w>
S ud
puheenvuo ro
p an</w>
omin ais##</w>
konferens si</w>
ase maan</w>
aik ais##</w>
Pu ola##</w>
v ul
tar jou
spee ch##</w>
resid ent##</w>
määri ä</w>
kalast uksen</w>
fea tur##</w>
ex tra</w>
compul so##</w>
4 3</w>
ve to</w>
va semm
tell usti</w>
käsitte ly</w>
ik assa</w>
f use</w>
analyy si##</w>
B ol##</w>
Amster dam##</w>
: tä</w>
ol i
köyh i##</w>
kyseen alais##</w>
kaupun g
is mi##</w>
as s##</w>
Kal in
Berluscon i</w>
ys i</w>
u mi##</w>
ol ate##</w>
neljä nne##</w>
dep th</w>
I G##</w>
Fa tu
suunn ittelu##</w>
rea m</w>
puol et</w>
propor tion</w>
mätö ntä</w>
fu el</w>
fi re</w>
a man
D P</w>
: sta</w>
talou teen</w>
s ki</w>
p hy
multila teral</w>
kal atalous##</w>
eth ical</w>
at lan
J ##</w>
Fatu zz
Ch air##</w>
Amster dam</w>
7 1</w>
ä nsä</w>
välis ten</w>
va kautta</w>
til ##</w>
ten d##</w>
si c##</w>
seura ava</w>
ple asu
kommen toi##</w>
complic ate##</w>
ce il##</w>
amp i##</w>
a ion</w>
0 ,
yleis hyödy##</w>
too l</w>
pyy nnö
puol ust
prof it</w>
mukau t##</w>
lähtö kohta##</w>
kiel i##</w>
hank ki##</w>
endor se##</w>
e ta</w>
b lock##</w>
T im##</w>
tu kia</w>
tta maan</w>
tri al</w>
talou tta</w>
suojel u</w>
reserva tion##</w>
ponnis telu
olo issa</w>
kuu ta</w>
järjest ö</w>
B la
suuntavi iva##</w>
raha sto
pleasu re</w>
muo to
itt o##</w>
fe w##</w>
de ep</w>
väl it##</w>
vetoom us##</w>
to isia##</w>
rannik ko##</w>
nu mber##</w>
mor al</w>
lev ittä##</w>
hä peä##</w>
hin g
edist ävä##</w>
ch ose##</w>
as kel
as hing
an d##</w>
Citiz en##</w>
tehtä vät</w>
politiik ka##</w>
loo d##</w>
kommun isti##</w>
kohd asta</w>
for ma
ansa itse##</w>
W ashing
Tamper e</w>
Bosn ia</w>
äär i##</w>
top ic##</w>
paik ka##</w>
läh te##</w>
la imin
korva us##</w>
is elta</w>
er y</w>
ati c</w>
S e##</w>
tul k
ttan ut</w>
tety n</w>
paino sta##</w>
paik kansa</w>
pa t##</w>
meno jen</w>
m ala##</w>
käyttä jä##</w>
ip u##</w>
ed er##</w>
an o##</w>
T our##</w>
L on
vaihtoeh to</w>
univ ers##</w>
ttä viä</w>
ti re##</w>
tekst iä</w>
pak ko</w>
no ti
n t</w>
lu vu
kuu si</w>
hund red##</w>
henkilö itä</w>
fam ili
er ään</w>
eh toja</w>
a ture</w>
M ad##</w>
5 1</w>
yhd iste##</w>
top ic</w>
oh a</w>
naa pur
muu alla</w>
monen välis##</w>
ke vää##</w>
D oha</w>
yks iselitte##</w>
yks en##</w>
välis et</w>
viest in</w>
sitoumu kse##</w>
quo te</w>
pääs see##</w>
Americ an##</w>
tt ö##</w>
säännö istä</w>
sa ttu##</w>
pro of</w>
muuto ksen</w>
ite ta##</w>
hol der##</w>
doll ari##</w>
C ze
val talais##</w>
tran sa
tion al##</w>
syy ttä
res ist##</w>
r uu
pro tocol</w>
p es
nö ll##</w>
luo tava</w>
la iset</w>
hait all##</w>
constitu te##</w>
Hi gh</w>
F ran
ään la##</w>
tehokkuu tta</w>
se ksuaali##</w>
sche d
sched ul##</w>
os assa</w>
n ett
määr ää
l er##</w>
koh tal
ki a##</w>
j uh
help po##</w>
fron t##</w>
er äänla##</w>
Euro pol##</w>
tt yä</w>
tavoitte isiin</w>
sa in##</w>
re ve
ra ted</w>
puol en</w>
pett y
pal o##</w>
p ic
lainsäädännö ssä</w>
is to</w>
enjo y</w>
