, 697737
. 505345
ja 341195
on 292935
n 283728
a 255482
että 161691
in 149781
an 114466
mme 107718
en 99808
t 95325
ä 93947
ta 87553
kin 75083
ei 66287
Euroopan 62601
-## 61151
ssa 59083
- 57715
@ 55276
@## 55269
a## 51760
tä## 51251
ni## 49929
tä 48702
ksi 47425
inen 47116
sta 47101
myös 46328
vat 46016
ista 45319
se 43684
ovat 41900
ole## 41327
sen 38360
iden 38226
än 37958
komission 37931
ole 37216
i 37021
arvoisa 36834
si## 36110
sti 36003
nyt 35902
lle 35842
i## 35099
ten 35040
jo## 32635
joka 31952
tämä 31665
llä 30883
puhemies 30182
et 30178
ille 29366
nä## 29116
jotka 28927
lla 28591
ssä 28512
istä 27984
minen 27865
e## 27782
stä 27199
siitä 27122
meidän 27004
jäsen 26877
ni 26871
maan 26650
en## 26487
ten## 26333
issa 25936
mut## 25913
parlamentin 25455
ko## 25206
nut 24923
taan 24574
e 24285
neet 24155
kui## 24084
jen 23756
tämän 23106
isen 23052
an## 22951
kuin 22945
ia 22531
va## 22407
tai 22231
koske## 22198
olisi 22181
sekä 22001
o## 21399
isesti 21270
unionin 20511
kun 20123
esti 20062
ihin 19990
) 19466
( 19379
u 19358
ita 19176
jos 19094
komissio 18918
ne 18755
&quot; 18685
? 18643
kaan 18283
kanssa 18267
lisä## 18205
sa## 18094
erityis## 17979
kuten 17973
: 17768
te@@ 17754
ta@@ 17533
voi 17249
isia 17125
hyvi## 17107
is@@ 17074
t## 16987
itä 16756
hyväksy## 16721
ska 16605
halu## 16540
tta 16484
a@@ 16395
voi## 16130
neuvoston 16041
jäsenvaltio## 16003
na 15952
u## 15803
e@@ 15653
o@@ 15457
k@@ 15369
emme 15223
tu@@ 15110
jonka 15110
ä## 15086
jo 15040
isten 15032
miseksi 14982
mielestä## 14921
illa 14874
vasta## 14816
la@@ 14782
eri## 14728
kaikki## 14602
isiin 14551
n## 14497
toimi## 14435
s## 14386
s 14372
sano## 14355
sillä 14294
vien 14162
oli 14145
een 14125
ihmis## 14043
o 13730
kaikki 13621
ka@@ 13616
y 13503
is## 13479
yhteis## 13458
ttava 13337
in## 13224
u@@ 12920
tätä 12896
i@@ 12873
vielä 12819
taa 12782
an@@ 12585
eivät 12535
isi 12477
tärkeä## 12472
voida## 12328
mitä 12325
nä 12243
ttäin 12219
y@@ 12166
mista 12086
koskeva## 12083
kään 11989
iset 11920
siihen 11818
val@@ 11746
haluaisi## 11745
ta## 11614
j@@ 11531
miseen 11449
al@@ 11403
on## 11343
olla 11252
toivo## 11185
ä@@ 11100
hyvä## 11091
it@@ 11059
joita 11037
suur## 10992
in@@ 10967
h@@ 10932
issä 10883
ku@@ 10882
hän## 10878
n@@ 10865
vuoksi 10749
ko 10746
me 10745
mään 10621
sella## 10596
EU:n 10579
työ## 10550
esi## 10542
hän 10508
ja## 10479
perus## 10439
saa## 10413
vi@@ 10413
mukaan 10335
iä 10264
y## 10258
nsa 10246
te## 10237
iin 10211
s@@ 10199
ina 10199
tään 10159
eurooppalais## 10109
parlamentti 10060
## 10025
todell## 10020
ko@@ 9964
tu## 9942
ttävä 9908
van 9907
/ 9874
essa 9868
t@@ 9837
vuoden 9825
via 9824
ikä 9819
vaan 9759
halua## 9687
S@@ 9461
v@@ 9438
ma## 9426
liitty## 9416
tähän 9389
nne 9383
kseen 9376
ti@@ 9327
selvä## 9323
ennen 9322
ettei 9316
l@@ 9308
yhteisön 9266
jäsenvaltioiden 9264
ne@@ 9249
va@@ 9248
kaik## 9247
ik@@ 9214
kansalais## 9202
paljon 9157
nyky## 9144
esta 9101
pää## 9075
joiden 9074
vaikka 9037
jota 9002
mistä 9001
ksen 8973
siksi 8947
sa 8943
to@@ 8914
use## 8914
malla 8869
mieltä 8861
et## 8856
uuden 8810
pitäisi 8759
essä 8737
ma@@ 8730
nämä 8721
huomioon 8668
ensimmä## 8643
en@@ 8639
lopu## 8634
ll@@ 8629
m@@ 8628
ollut 8618
puolesta 8612
misesta 8557
puhu## 8438
ki## 8390
r@@ 8367
ista## 8344
M@@ 8307
mahdollis## 8273
kansainvälis## 8238
ra@@ 8236
neuvosto 8187
ympäristö## 8183
politiikan 8175
p@@ 8165
vät 8165
:n 8068
im@@ 8015
tehdä 7978
jälkeen 7967
li@@ 7966
he 7942
K@@ 7905
Yhdys## 7905
emmän 7902
misen 7817
staan 7806
estä 7806
tälla## 7791
at 7773
isiä 7687
ka## 7679
minu## 7648
siinä 7635
moni## 7627
täysi## 7613
sa@@ 7613
ar@@ 7577
vuonna 7563
ttiin 7559
ki@@ 7546
mikä 7528
olle## 7518
maiden 7493
jä 7489
ty@@ 7421
kansallis## 7406
koko 7369
ke@@ 7360
ks@@ 7327
Eurooppa 7305
it## 7256
us## 7253
uksia 7219
pitää 7213
sitte## 7177
esimerki## 7145
illä 7136
maa 7109
sopimuksen 7100
si@@ 7099
jäsenet 7097
viime 7084
yleis## 7078
siis 7048
komissio## 7030
el@@ 6964
lta 6958
miten 6953
au@@ 6952
kaikke## 6951
asia 6937
itse 6922
toimia 6903
il@@ 6902
ha@@ 6888
talousarvio## 6869
eksi 6810
T@@ 6802
uutta 6706
B@@ 6694
eri 6688
yhteydessä 6685
juuri 6666
puheenjohtaja 6654
myönte## 6650
er@@ 6638
le@@ 6605
on@@ 6592
E@@ 6589
itse## 6582
saa 6572
kuulu## 6567
pää@@ 6560
osallistu## 6553
iseen 6549
kyse 6540
väli## 6526
meillä 6510
tetaan 6456
asiassa 6429
valiokunnan 6412
re@@ 6405
edelleen 6356
sta## 6325
matta 6317
os@@ 6307
us 6293
vä@@ 6257
ainoa## 6250
se@@ 6239
tava 6218
euro## 6153
st@@ 6117
toim@@ 6115
heidän 6102
uusi## 6093
pa@@ 6089
P@@ 6088
osoitta## 6077
to## 6077
tetään 6057
tärke## 6050
mmin 6015
un 6009
A@@ 5997
epä@@ 5977
tte 5952
si 5949
yksi 5949
valta## 5907
pan@@ 5896
sosiaali## 5873
ltä 5863
elle 5851
sisä## 5840
eseen 5837
tä@@ 5833
isin 5829
uksen 5826
alalla 5822
llinen 5811
mietinnön 5794
unioni 5765
esittelijä 5762
asioiden 5758
joilla 5741
av@@ 5731
aan 5729
aikana 5725
taloudellis## 5696
pa 5695
mis## 5669
tänään 5665
avulla 5656
etaan 5634
var@@ 5622
mien 5596
llisesti 5570
kau@@ 5544
C@@ 5528
ti 5523
ase@@ 5517
lu@@ 5512
kannalta 5504
es@@ 5494
muu@@ 5485
päätöslauselma## 5474
kä@@ 5461
mä## 5430
oltava 5429
mitä## 5416
tuleva## 5399
us@@ 5391
vä## 5369
kyse## 5355
ol@@ 5338
ön 5335
kysymys 5325
julkis## 5313
osalta 5291
jolla 5256
hyvä 5249
perusteell## 5241
om@@ 5237
iv@@ 5227
henkilö## 5213
to 5209
tarvi## 5200
oikeuksien 5192
mu@@ 5187
ke## 5187
ia## 5175
varmista## 5162
ksiin 5161
puheenjohtaja## 5127
prosentti## 5121
ti## 5107
va 5080
ukset 5063
joissa 5062
osa 5062
tieten## 5047
ehdot## 5044
; 5040
op@@ 5029
isesta 5029
asiasta 5023
mietinnössä 5013
m## 5010
unioni## 4999
puol@@ 4970
tehtävä 4963
ään 4949
oli## 4941
amme 4939
esittelijä## 4939
minun 4925
tettava 4923
pitkä## 4922
teitä 4919
teen 4919
kiittää 4918
tuke## 4911
tulee 4906
huoli## 4903
tärkeä 4895
as@@ 4893
tapauksessa 4869
jien 4864
kansalaisten 4836
van@@ 4822
uu@@ 4821
nkin 4819
meille 4800
työ@@ 4800
riittä## 4788
kka@@ 4787
2001 4777
toiminta## 4777
arvo## 4774
viä 4755
ku## 4748
ilman 4747
ksia 4723
saada 4721
hä@@ 4705
korosta## 4695
ella 4693
ilma@@ 4692
ottaa 4664
äänestä## 4661
saatta## 4640
kiel@@ 4636
liittyvä## 4635
ist@@ 4595
eli 4595
ien 4582
ö@@ 4566
vastuu## 4563
jäsen## 4562
nn@@ 4546
näitä 4535
H@@ 4535
ma 4532
kaksi 4532
todellis## 4518
kan@@ 4497
liia## 4496
vahvista## 4490
yhteistyö## 4486
oma## 4484
L@@ 4483
mietintö 4465
perusta## 4465
aikaan 4464
alan 4456
ilta 4456
ajan 4449
nsä 4448
parlamentissa 4447
mi## 4447
neuvosto## 4441
ettava 4434
tukea 4433
mukaisesti 4424
I@@ 4420
ty## 4406
1@@ 4403
tti 4401
po@@ 4400
asiaa 4398
miljoona## 4394
ky@@ 4393
utu@@ 4391
määrä## 4387
jä## 4383
isuutta 4381
imman 4380
ttava## 4379
kuinka 4370
tele## 4365
tettu 4364
et@@ 4358
viin 4343
ala@@ 4342
uh@@ 4330
N@@ 4321
kä 4318
käy## 4314
täällä 4313
rahoitus## 4308
tiedä## 4305
määrä@@ 4301
talous## 4295
k## 4294
johta## 4291
aja## 4289
tieto## 4284
V@@ 4269
hd@@ 4268
täy@@ 4265
pel@@ 4262
yhtä 4262
esittää 4253
un@@ 4247
R@@ 4244
per@@ 4236
osa## 4232
iksi 4224
tilanne 4215
kollegat 4213
vasta 4208
yhä 4207
toteutta## 4203
mi@@ 4203
5 4191
politiikkaa 4189
ehdotuksen 4183
oikeus## 4178
toinen 4177
maa## 4177
välttämät## 4175
turvallisuus## 4173
19## 4167
muiden 4166
hetkellä 4165
seura## 4157
katso## 4157
Yhdisty## 4154
sä 4153
artikla## 4152
isuu@@ 4147
kseni 4145
käyttää 4145
keske## 4143
sten 4140
kannat## 4130
ryhmän 4119
Arvoisa 4119
sel@@ 4116
demokratia## 4115
asianmukai## 4112
laajentumis## 4099
or@@ 4085
valitettava## 4077
de@@ 4075
ulko## 4073
2002 4073
jo@@ 4069
ro@@ 4063
pu@@ 4047
kset 4034
anne## 4027
it 4025
mu## 4015
mia 4015
parlamentti## 4013
saavutta## 4013
neen 4009
vaikutta## 3994
Euroopassa 3980
ttu 3976
enä## 3973
G@@ 3972
nä@@ 3961
tyytyvä## 3959
teille 3958
koskeva 3952
ava## 3951
ellä 3944
ase## 3938
isi## 3933
voida 3933
tta## 3928
tois## 3926
mm@@ 3917
tö@@ 3916
muutta## 3903
ri@@ 3897
ttä@@ 3889
re## 3884
aika## 3883
ina## 3883
yn 3881
olevan 3876
assa 3871
uus## 3870
mättä 3868
tapa@@ 3868
yhdessä 3864
men@@ 3849
direktiivin 3833
varten 3831
kunnan 3831
te 3825
isista 3821
enn@@ 3805
joutu## 3784
voisi## 3781
oi## 3781
id@@ 3777
vista 3768
vä 3767
ksemme 3766
käyttöön 3764
tettävä 3760
jä@@ 3754
käy@@ 3753
johta@@ 3749
nopea## 3747
sesti 3746
tavalla 3742
asian 3739
syy@@ 3724
jatka## 3721
su@@ 3721
itta## 3715
tettiin 3714
valmistelu## 3714
D@@ 3702
2003 3696
kerran 3691
isessa 3688
perustamis## 3682
kehitys## 3674
joista 3670
keskustelu 3669
otetaan 3669
ver@@ 3664
torju## 3662
turva## 3648
g@@ 3645
ttaa 3644
utu## 3635
selkeä## 3629
pien## 3603
monet 3601
josta 3601
tarkoituksen## 3598
den 3594
iseksi 3593
vuotta 3591
! 3589
maatalous## 3588
tus## 3586
ehdotus 3585
tie## 3583
oikeuksia 3574
ap@@ 3573
nimittä## 3570
J@@ 3562
joh## 3561
miel@@ 3560
no@@ 3554
saa@@ 3553
pi@@ 3553
puheenvuoro## 3548
imme 3544
aiheutta## 3540
F@@ 3538
sää@@ 3534
d@@ 3530
noudat## 3526
2@@ 3524
kuu@@ 3520
ann@@ 3506
pal@@ 3498
edisty## 3494
ensinnä## 3493
voitaisi## 3486
kunn@@ 3483
suo@@ 3482
yhteistyötä 3476
oikea## 3475
demokraatti## 3475
lä@@ 3470
tavoin 3467
ul@@ 3466
ki 3464
uks@@ 3460
inn@@ 3457
tetty 3444
tiin 3441
mahdollista 3437
kasvu## 3433
pidä## 3427
tta@@ 3427
varsi## 3425
har@@ 3424
isto## 3421
markkinoiden 3418
ker@@ 3417
asioita 3412
naisten 3411
uudelleen 3401
aj@@ 3398
he@@ 3394
me@@ 3394
kalastus## 3393
stään 3393
jälleen 3392
kann@@ 3385
mis@@ 3375
ttää 3373
miä 3372
unionissa 3371
Venäjä## 3360
uksista 3358
järjestelmän 3353
isessä 3347
istu## 3345
loppu## 3345
oikeus 3344
b@@ 3337
tunn@@ 3334
tila@@ 3332
misestä 3327
kehot## 3324
laati## 3322
san@@ 3318
Turk## 3318
ja@@ 3316
ed@@ 3314
valtojen 3313
istä## 3310
vara## 3306
Irak## 3290
ys 3289
hen@@ 3287
sillo## 3280
2 3271
tarkistus## 3264
tehokkaa## 3258
ha## 3254
tekemä## 3253
voisi 3248
maissa 3246
olemassa 3244
kö 3239
maailman 3237
alueen 3235
puheenjohtajavaltio 3232
tel@@ 3228
tt@@ 3224
ir@@ 3215
kehittämis## 3213
sija## 3197
ksi## 3197
merk@@ 3195
vuo@@ 3192
pyydä## 3186
mer@@ 3185
alla 3180
tun@@ 3176
na@@ 3166
kilpailu## 3166
miksi 3164
kka## 3161
tur@@ 3160
neiden 3155
tu 3154
isuus 3154
asti 3152
kirj@@ 3146
koh@@ 3143
toiseksi 3138
pysty## 3138
ongelmia 3134
työtä 3123
suojelu## 3121
tarvitse## 3119
suuri 3117
täytäntöönpano## 3117
ho@@ 3112
ri## 3108
aihe@@ 3101
ita## 3101
inä 3100
pelkä## 3100
toisin 3097
ris@@ 3095
määrä 3087
h## 3087
v## 3085
säännö@@ 3080
toimiin 3080
7 3080
taa## 3077
oleva## 3061
parha## 3060
masta 3059
oso@@ 3055
tom@@ 3045
ih@@ 3044
erilais## 3042
onnistu## 3037
sopimus 3036
syystä 3030
toja 3029
yli 3025
edistä## 3019
ukseen 3017
merkittävä## 3014
paik@@ 3005
esittä## 2998
1 2997
ttä 2996
ehdo@@ 2993
luo@@ 2990
mällä 2986
tävä## 2981
tava## 2980
tuu 2976
vähä## 2972
valtioiden 2972
meitä 2968
suunnitel@@ 2965
miin 2957
tulo@@ 2956
uskon 2954
vaati## 2949
ksi@@ 2939
yh@@ 2938
ve@@ 2934
kohd@@ 2933
ttävä## 2933
välinen 2930
sien 2929
huomiota 2929
ala## 2928
2000 2926
vastusta## 2925
ena 2917
ansio## 2913
suora## 2912
:@@ 2912
voim@@ 2906
EU 2901
mennessä 2895
ohjelman 2895
kannatta## 2894
sia 2890
kar@@ 2885
yritysten 2877
ksista 2876
par@@ 2875
tulevaisuudessa 2874
kohtaan 2868
tty 2866
ensisija## 2866
seuraava## 2863
entistä 2862
kokonais## 2862
pidä 2861
isuuden 2860
uksesta 2857
alueella 2854
pyrki## 2854
YK## 2853
tuo@@ 2850
kulttuuri## 2850
vir@@ 2847
alle 2833
luo## 2832
tul@@ 2830
A## 2827
uus 2824
O@@ 2821
muita 2820
missä 2819
sov@@ 2817
valiokunta 2813
estä## 2813
aikaa 2809
vaadi## 2807
tin 2806
parlamentille 2805
ö## 2789
ongelma 2786
uudesta 2786
joka## 2784
oike## 2774
nen 2772
ksen## 2770
jatkuva## 2770
ite## 2770
ryhty## 2768
puuttu## 2763
ehdotuksia 2761
W@@ 2756
arvo@@ 2755
alueiden 2754
� 2753
väh## 2752
joita## 2746
kanna@@ 2744
myös## 2743
kerto## 2741
ö 2739
ka 2738
riippumat## 2737
pyytä## 2734
voin 2732
otettava 2731
jäsenten 2729
ehdotusta 2726
mahdollisuus 2723
liittymis## 2722
han 2720
kestävä## 2717
Eurooppa## 2712
yhte@@ 2710
keskustelu## 2709
tar@@ 2709
kansan## 2708
ali## 2707
vastaa## 2705
viimeis## 2703
kokou@@ 2702
energia## 2701
ksesta 2700
kysy## 2699
kumppan@@ 2698
epä## 2698
yks@@ 2697
mietintöä 2696
yksityis## 2694
tasolla 2693
tasapaino## 2691
2004 2688
yksimiel## 2687
so@@ 2683
vakava## 2683
yl@@ 2681
toista## 2680
etu@@ 2677
soveltamis## 2675
tettu## 2674
tarkistuksia 2672
tarkoitta## 2670
syytä 2669
3 2669
tojen 2665
d## 2665
alue@@ 2662
lo@@ 2661
rajo@@ 2659
teidän 2658
päätty## 2656
.## 2655
massa 2652
maksa## 2651
uuteen 2650
ohjel@@ 2649
maks@@ 2643
EU## 2643
politiik@@ 2640
kiitä## 2639
mon@@ 2636
rik@@ 2636
kuningas## 2636
tien 2631
ilo## 2631
mat@@ 2631
hei## 2629
budjetti## 2628
tapahtu## 2626
lla## 2621
aalta 2621
näky@@ 2621
paremm## 2616
kauppa## 2614
lainsäädännön 2613
lyhy## 2613
vuoropuhelu## 2609
vaih@@ 2607
esityslista## 2604
varmasti 2604
valtio## 2602
muun 2597
tavoitteena 2597
r## 2593
erinoma## 2592
ittava 2590
uusi 2589
huomattava## 2589
llis@@ 2579
mie@@ 2574
ttu## 2571
pitä## 2564
olisi## 2562
keskustelun 2557
joihin 2557
ehdokasvaltio## 2555
jättä## 2555
oikeu@@ 2553
ehdotu@@ 2550
itu## 2549
vasta@@ 2549
sille 2544
täytyy 2544
pit@@ 2542
ust@@ 2541
tella 2533
tavoitte@@ 2533
politiikka 2532
jul@@ 2528
totea## 2528
ihmisoikeus## 2528
ter@@ 2526
itte 2523
asetta## 2517
mo@@ 2515
all@@ 2514
turvallisuuden 2511
aika 2510
onta 2506
suunn@@ 2504
alka## 2503
alo@@ 2502
hin@@ 2496
terrorismin 2493
halua 2491
ettu## 2490
tark@@ 2489
laaja## 2489
järjestelmä 2487
lähe## 2485
osin 2484
ehdotta## 2482
yrity@@ 2479
hu@@ 2475
sitoutu## 2474
muut 2472
ehkä 2469
poliitt@@ 2469
llisen 2467
tehnyt 2466
eh@@ 2463
ymmärtä## 2462
00 2456
Lissabon## 2456
kollego@@ 2454
ys@@ 2452
usko## 2451
oman 2449
8@@ 2448
talouden 2447
kysymyksiä 2445
ite@@ 2445
maan@@ 2443
sy@@ 2442
tti## 2441
ys## 2440
valvonta## 2440
vo@@ 2437
toiminnan 2435
edelly## 2434
uudistu@@ 2431
edistää 2430
tarjoa## 2429
da 2427
menetel@@ 2427
synty## 2425
salli## 2423
huomaut## 2419
kertom@@ 2419
käyttä## 2419
mä@@ 2418
stä## 2413
pyri## 2408
raho@@ 2406
Espanja## 2405
toimielinten 2405
lainsäädäntö## 2401
ään@@ 2401
tekn@@ 2401
jan 2398
sta@@ 2398
tie@@ 2397
keskustelua 2396
kautta 2395
lin@@ 2394
todeta 2394
vuosi## 2393
li 2391
4 2390
öntä 2387
tiedon@@ 2384
z@@ 2383
paikallis## 2383
minkä 2382
pyritä## 2381
hallituksen 2379
asiaan 2379
tule## 2379
asetu@@ 2379
mpi 2378
joten 2376
Israel## 2374
poista## 2371
toimet 2366
ut 2365
oh@@ 2365
paitsi 2362
kos## 2362
ken@@ 2357
ov@@ 2357
yksinkertai## 2356
ot@@ 2354
jäsenen 2353
toimien 2352
ou@@ 2350
kehityksen 2350
itta@@ 2346
kos@@ 2338
liikenne## 2332
ise@@ 2329
misessa 2328
tutkim@@ 2327
lopull## 2326
välisen 2323
lan@@ 2320
alueell## 2319
aktiiv## 2318
mpaa 2318
mietinnöstä 2316
pian 2316
yr@@ 2316
valtion 2315
ilu## 2314
sä@@ 2313
ää@@ 2311
lisää## 2308
kolmanne## 2308
luonno## 2307
hyöty## 2305
poliittinen 2304
hallitus 2304
hal@@ 2303
oikeuden 2298
olette 2297
vissa 2297
tia 2297
muka@@ 2296
tapahtu@@ 2293
jolloin 2292
tuen 2289
la## 2288
ratkaise## 2288
perustuslaki## 2288
suos@@ 2286
ett@@ 2285
vi## 2283
samoin 2281
varo@@ 2279
na## 2274
tarpe@@ 2272
U@@ 2270
käsiteltävä## 2269
ryhmäni 2267
kor@@ 2267
siir@@ 2266
ryhmä 2265
olenna## 2265
pe@@ 2261
minä 2260
pide## 2260
aloitta## 2257
etu## 2256
kohta 2250
puhe@@ 2249
asia@@ 2247
f@@ 2247
tarkoitus 2246
10 2243
jatko## 2243
teiden 2242
vahvist## 2237
vast@@ 2234
Ranska## 2227
kon@@ 2226
nee## 2226
kolme 2225
ryh@@ 2223
een## 2223
kuntien 2223
sto## 2222
suhte@@ 2222
ratkaisu## 2217
esity@@ 2215
liik@@ 2215
tasa 2213
muuta 2212
tois@@ 2209
uudessa 2207
varoja 2206
itte@@ 2206
neuvostossa 2206
ivat 2203
essa## 2203
telu## 2203
itus## 2200
tilannetta 2199
stu## 2199
inti## 2195
6 2194
konkreett## 2193
voimakkaa## 2187
suor@@ 2185
tutki## 2183
isenä 2181
kol@@ 2179
oma@@ 2176
se## 2176
direktiiv@@ 2173
kirja## 2171
vallan 2169
äänesti## 2169
5@@ 2165
yhtenäis## 2165
P## 2165
tietty## 2164
joh@@ 2162
taas 2160
hieman 2159
täytäntöön 2159
suhtaudu## 2159
istu@@ 2158
maat 2158
valiokunnassa 2154
lisää 2153
usea## 2151
vaiheessa 2148
tekee 2144
6@@ 2143
eet 2142
kä## 2137
minulla 2133
ksiä 2133
valvo## 2132
läh@@ 2130
mä 2127
llista 2127
kysymyksen 2126
suhtautu## 2126
nim@@ 2126
mur@@ 2125
sopimukseen 2124
elim@@ 2123
kaiken 2123
isyy@@ 2123
main@@ 2121
jota## 2117
kun@@ 2117
nimenoma## 2115
isena 2112
käsi## 2111
kolman## 2111
iltä 2109
ot 2105
ty 2104
löytä## 2100
tehdään 2095
jille 2094
etta 2091
ssa## 2086
välis@@ 2085
aloilla 2083
puolusta## 2082
pa## 2078
ulkopuole## 2078
toimintaa 2077
asia## 2076
laajentu## 2076
tilanteen 2075
pä 2074
ell## 2071
ksien 2071
utta## 2071
näkem@@ 2071
ud@@ 2068
til@@ 2068
alais## 2068
man@@ 2066
mua## 2061
teke@@ 2059
tehty 2055
ais## 2055
elin@@ 2054
aali## 2054
ero@@ 2052
käsitellä 2051
15 2051
laatu## 2047
asioista 2046
issa## 2046
väär@@ 2045
alta 2045
edusta## 2044
kehitystä 2044
ille## 2043
käsittele## 2041
poliittisen 2036
tarkistukset 2034
kompromissi## 2031
g## 2030
poliittista 2029
oikeutta 2027
varmistet## 2027
kul@@ 2027
ttä## 2024
avoime## 2024
takia 2023
sovelta## 2022
nnin 2022
muo@@ 2021
vastoin 2017
kahden 2016
ell@@ 2014
Italia## 2014
tutkimus## 2010
huomenna 2009
ville 2009
7@@ 2008
desta 2006
anta@@ 2004
heitä 2004
kyllä 2003
at## 2003
ut## 2002
elä@@ 2001
tapahtuu 1997
sopimusta 1996
ten@@ 1995
käytä@@ 1992
lainsäädäntöä 1991
usta 1990
sääntöjä 1988
illaan 1987
tarjo## 1987
esi@@ 1986
isestä 1986
ästi 1984
noin 1983
st## 1981
paino## 1980
kantaa 1979
edes 1977
ilmoitta## 1976
me## 1975
puu@@ 1975
määritel@@ 1975
tell@@ 1975
er## 1974
kunnioitta## 1973
odot## 1971
tuki## 1969
asiat 1969
yhte## 1968
muuta## 1967
vira@@ 1967
vero## 1963
käsitellä## 1962
ksissa 1960
ro## 1959
helpo## 1959
kutsu## 1959
muutama## 1957
edust@@ 1956
historia## 1956
klo 1955
palvelujen 1953
8 1951
maailmanlaaju## 1949
työllisyys## 1948
viranomaisten 1948
prosessin 1945
mole## 1944
varojen 1944
hi@@ 1942
ajien 1942
työntekijöiden 1941
vaikea## 1941
tun 1939
ittä## 1939
alueilla 1936
puoli## 1935
T 1935
syyskuu## 1933
puolueen 1932
tamaan 1932
kri@@ 1932
ettu 1931
totesi 1931
pyy@@ 1929
vaatimu@@ 1927
rauhan## 1927
ittu 1927
jää@@ 1926
aikaväli## 1925
asetuksen 1924
direktiivi## 1922
at@@ 1921
voima@@ 1921
markkina## 1919
yhden 1918
ain@@ 1917
itse@@ 1916
nne## 1915
ensi 1914
seuraavan## 1913
tomasti 1913
tuom@@ 1913
hyväksi 1913
kertaa 1913
mikä## 1912
parantamis## 1912
yyttä 1910
seen 1910
laista 1908
ossa 1906
tarkistuksen 1903
kehittä## 1903
elta 1902
liikenteen 1902
enemmistö## 1900
ittu## 1900
kysymystä 1898
aal@@ 1898
vistä 1895
taa@@ 1894
isille 1894
valmis@@ 1893
kojen 1893
aloitte@@ 1892
kuluttaja## 1888
sisälty## 1887
han@@ 1887
ystä 1885
uksiin 1885
mahdollisuuksia 1884
tuo## 1884
käytännössä 1883
yttä## 1882
usten 1881
aiemmin 1879
kieltä## 1878
sanoi 1875
yksittäis## 1873
palvelu## 1873
isemmin 1872
merkitsee 1871
presidentti 1866
kysymykseen 1866
mo## 1865
tietoja 1863
kansa## 1863
tehtä@@ 1862
kas@@ 1861
hankke@@ 1860
ttav@@ 1860
maan## 1859
sisällyttä## 1854
laad@@ 1853
muistutta## 1852
is 1850
kiinnittä## 1848
järjestel@@ 1848
kaa 1845
li## 1843
päätökseen 1842
isella 1842
talou@@ 1842
män 1842
iste## 1841
syrj@@ 1841
rapor@@ 1838
kel@@ 1837
isivat 1836
nnut 1835
her@@ 1835
tehnee## 1835
sopim@@ 1834
toimivalta## 1833
vuosina 1832
ise## 1829
meren 1829
väl@@ 1826
hallitusten 1825
ll## 1824
parann## 1824
sopimusten 1824
suuri## 1822
20## 1821
ent@@ 1819
järjestelmää 1818
Y@@ 1817
inno@@ 1816
tarpeen 1814
kaupan 1814
yhd@@ 1813
myöntä## 1811
kala## 1808
oikeudet 1806
sä## 1804
elle## 1804
siellä 1803
myy@@ 1803
tekst@@ 1803
mmat 1803
teho@@ 1803
vapaa## 1802
maailmassa 1800
tuomioistuimen 1800
20 1799
sti## 1797
heik@@ 1797
pyrkim@@ 1796
asioissa 1795
seuraa## 1793
50 1787
amis## 1787
tele@@ 1785
pä@@ 1785
arvio@@ 1785
am@@ 1782
äänestys 1780
peruste@@ 1780
kasva## 1780
olo@@ 1777
sop@@ 1775
meri## 1775
aatio## 1774
tietää 1774
muodosta## 1772
tieto@@ 1772
enä 1771
vän 1771
sor@@ 1771
ratkaisu 1770
turvallisuutta 1770
ettei## 1769
yö@@ 1768
onni## 1767
täyttä## 1767
asu@@ 1766
tuotteiden 1765
vaar@@ 1764
mp@@ 1764
kulu## 1760
voima## 1759
joulukuu## 1757
säily## 1757
hallinto## 1755
ainoa 1753
vero@@ 1752
ede## 1751
täydell## 1751
han## 1750
ittama## 1750
ill@@ 1747
keskustel@@ 1747
tämä## 1746
yhteisö## 1745
päästä 1744
aa 1743
eni 1743
da@@ 1742
las@@ 1742
kal@@ 1742
kah@@ 1741
yksiä 1740
viik@@ 1738
sääntöjen 1735
lähes 1733
3@@ 1731
olevien 1731
tuotte@@ 1731
30 1730
raja## 1730
tilanteessa 1727
direktiivi 1726
päätös 1725
tavoitteet 1724
merkittävä 1723
syistä 1723
tunut 1721
pysy## 1719
vähentä## 1717
todet## 1716
keh@@ 1715
otta## 1714
hallit@@ 1713
järjestä## 1713
vall@@ 1713
ar## 1713
toman 1708
naan 1708
itettava 1708
voit@@ 1708
palestiinalais## 1706
ur@@ 1705
pide@@ 1705
työstä 1704
kokouksessa 1703
eni## 1703
tty## 1703
tarkistu@@ 1701
halu@@ 1701
laito@@ 1700
saadaan 1700
uudet 1700
tut 1700
ity@@ 1700
nor@@ 1699
lap@@ 1699
Väli## 1698
rakenta## 1696
ly@@ 1695
tapa 1694
toimenpiteitä 1694
parantaa 1691
puolustus## 1691
keski## 1690
määrin 1689
kunnassa 1689
työn 1687
oikeudenmuka## 1686
emmin## 1685
ra## 1684
ensi## 1684
keskustele## 1682
set 1682
kohdalla 1681
jia 1680
tto## 1679
Saksa## 1679
vakuut## 1678
tulo## 1678
raken@@ 1678
neuvottelu## 1677
luettel@@ 1676
konflik@@ 1676
johdonmuka## 1674
kan 1673
tavoite 1672
tiu@@ 1672
toa 1671
pako## 1671
aiheutu## 1671
kohdan 1669
aluksi 1669
itu@@ 1669
seik@@ 1664
ävä## 1664
jäseniä 1664
kolme## 1663
asta 1663
kohti 1662
llis## 1661
llisia 1661
kesku@@ 1660
:ssa 1658
mielessä 1657
mattom@@ 1657
vallat 1657
keskustelussa 1656
aihe 1656
laittom## 1656
rikos## 1654
aikoo 1653
kulu@@ 1653
kanta## 1648
kauden 1647
poliittisten 1647
tilanteesta 1647
laatima## 1647
teli## 1646
ksessa 1646
menettelyn 1646
essaan 1646
näyttää 1645
jouk@@ 1645
tus 1644
isuudesta 1643
koja 1643
kes@@ 1642
keskus## 1641
vara@@ 1639
tanut 1639
myöhe## 1639
luoda 1639
toisen 1639
jatku## 1638
vel@@ 1638
kko## 1636
suu## 1634
vuoteen 1634
kärsi## 1633
koro@@ 1633
isuuteen 1633
sopi## 1633
ilmoit## 1632
tuksen 1632
päättää 1632
Nizza## 1630
maail@@ 1630
mieh@@ 1628
tarkast@@ 1628
ihmisiä 1627
00## 1626
tkin 1625
tuva## 1625
tek@@ 1624
toteu@@ 1623
pik## 1622
päivän 1620
maa@@ 1620
yy@@ 1619
odo@@ 1619
tiivi## 1618
ajatu@@ 1617
delle 1617
verk@@ 1616
mat 1615
ryhmien 1615
esittämä## 1615
pöytäkirja## 1615
io@@ 1612
sääntely## 1612
toiminta 1612
tietoa 1609
sto 1607
totta 1607
vo## 1606
mel@@ 1606
päivä## 1602
määr@@ 1601
elintarvike## 1599
yhteen 1599
alue## 1599
sano@@ 1598
puh@@ 1597
aio## 1596
itseva## 1596
isistä 1595
ito@@ 1595
mielestä 1594
vie@@ 1591
ssaan 1590
toteutu## 1589
otta@@ 1588
merkittäv## 1587
pääse## 1587
ini## 1585
mässä 1584
kymmenen 1584
tte@@ 1584
min@@ 1583
mall@@ 1583
je@@ 1582
vakaus## 1581
lähi## 1580
usko@@ 1580
hyödy@@ 1580
9 1578
eteenpäin 1578
tävä 1578
aja@@ 1578
eläinten 1577
Kansa## 1576
met@@ 1575
ittele## 1575
kse## 1575
kehy@@ 1575
korkea## 1573
maahanmuutto## 1572
itettu 1571
perustuva## 1571
000 1571
päätöksen 1571
oll@@ 1567
jäsentä 1566
ajan@@ 1565
ansa 1565
vasti 1564
ryhmä## 1563
ssakin 1563
jou@@ 1560
Kypro## 1560
O## 1559
kat@@ 1559
raha## 1559
ongelmat 1559
päätel@@ 1558
tosiasia## 1558
pidä@@ 1557
nou@@ 1555
yhteiskunnan 1555
kka 1554
Brysseli## 1554
pien@@ 1554
tavo@@ 1553
inti 1553
edelly@@ 1552
kokemu@@ 1551
mahdollisuuden 1550
mi 1549
tais@@ 1549
tullut 1549
stu@@ 1547
kom@@ 1546
teet 1544
vaarall## 1544
Irlannin 1543
huon@@ 1542
ras@@ 1542
uksessa 1541
ohjelma 1539
sit@@ 1539
0@@ 1537
kin@@ 1537
Lähi 1535
temme 1534
rajoitta## 1534
ili## 1534
luonno@@ 1532
kanssa## 1531
jotkut 1530
missä## 1530
muuttu## 1529
ette 1528
kalta@@ 1527
vuosi 1526
tunnusta## 1525
uutta## 1524
tekevä## 1524
tiiv@@ 1523
päin## 1523
teollisuuden 1523
kää@@ 1522
äärimmä## 1521
arvoisa## 1520
erä## 1520
näkö@@ 1520
oikeudellis## 1520
mästä 1519
toimi@@ 1519
perustus## 1519
vaikea 1517
auttaa 1516
osa@@ 1515
välistä 1515
alu@@ 1513
viranoma@@ 1513
terveys## 1512
iik@@ 1511
ava 1511
om## 1510
iselle 1510
eivät## 1509
rahoitta## 1509
vaikutuksia 1509
tavoitteita 1508
lento## 1507
vissä 1507
kas 1505
organis@@ 1504
sija@@ 1504
vahin@@ 1503
käsittelevä## 1501
onn@@ 1501
maita 1501
enne## 1500
ie@@ 1499
ati@@ 1499
kalast@@ 1499
tosi## 1498
25 1498
näkemykse## 1497
laillis## 1495
toiv@@ 1493
tyy@@ 1492
milla## 1490
kannan 1489
tila## 1489
ilme## 1488
tehtävä@@ 1488
kunta 1487
es## 1487
lain## 1486
tulisi 1486
mahdot## 1485
käsittely## 1484
muu## 1483
uksella 1483
päätöksiä 1483
sisältä## 1482
emme## 1482
myönnet## 1482
käsity@@ 1480
estää 1480
lisä@@ 1479
käy 1478
ita@@ 1477
piir@@ 1476
isty## 1476
unohta## 1476
neuvottelujen 1475
huole## 1475
aiko@@ 1475
Portugal## 1475
käynn@@ 1474
yksi@@ 1474
ette## 1474
mpi## 1473
välittöm## 1472
al## 1472
kauan 1471
tarpeell## 1470
Afganistan## 1469
yksityiskohta## 1468
päivänä 1467
poliittisia 1466
tuotta## 1465
käytön 1465
saatav## 1464
järkevä## 1463
myötä 1463
kanta 1463
ehdotuksesta 1462
saatava 1462
yritykset 1461
säännöt 1460
toimielime## 1460
mättö@@ 1459
tulla 1458
välin@@ 1458
é@@ 1458
näy@@ 1457
vapauden 1457
vastuu@@ 1456
laati@@ 1456
uo@@ 1455
isissa 1455
humanitaar## 1454
det 1453
kas## 1453
huomio## 1452
ilmi 1452
alis@@ 1452
sisäll@@ 1451
neita 1451
käytännön 1450
miljardi## 1449
mainita 1449
hyväksy@@ 1449
jaka## 1448
taistelu## 1448
harjo@@ 1448
tietojen 1448
kk## 1448
osan 1448
l 1447
koroste## 1447
entis## 1446
sana## 1444
mukana 1443
toista 1442
Kreika## 1442
eurooppalainen 1441
att@@ 1441
tiedätte 1440
lähti## 1440
ensin 1440
illa## 1440
aik@@ 1440
kki## 1440
kö@@ 1439
tuotan@@ 1438
köyh## 1438
ne## 1437
hallinnon 1437
teemme 1435
muuto@@ 1435
asema 1435
pidetään 1432
ehdotukset 1432
tt## 1432
ulottu@@ 1432
sul@@ 1430
tutkimuksen 1428
apua 1427
de 1427
lopetta## 1426
vil@@ 1425
kansalaisia 1425
epäonnistu## 1424
S 1424
epäile## 1423
ttaisiin 1423
sijo@@ 1423
ivät 1423
tavoitteiden 1423
ab@@ 1422
olisivat 1422
1999 1422
1. 1420
kriteer@@ 1420
ryhdy## 1419
huomau@@ 1418
käsittelyssä 1418
oleva 1416
yli## 1415
miselle 1415
tason 1414
verko@@ 1413
ide@@ 1411
est@@ 1410
taminen 1409
vakav## 1408
oma 1408
tarkastel@@ 1408
pari## 1408
markkino@@ 1407
ip@@ 1406
periaatte@@ 1406
hyl@@ 1406
Ruotsi## 1405
ana 1405
perä## 1405
ken## 1404
eltä 1404
meistä 1402
yhdistä## 1402
sama 1402
lainen 1401
es 1399
jää## 1398
johd@@ 1398
lisäänty## 1397
kollegani 1396
taso@@ 1396
dä 1396
pil@@ 1393
osten 1393
suunta@@ 1392
isa## 1392
laaje## 1391
ryhmä@@ 1391
ee 1391
paran## 1390
huono## 1388
sopimuksia 1388
esta## 1388
tekijö@@ 1387
tetty## 1387
puheenjohtajavaltio## 1387
maassa 1386
kokouksen 1384
emm@@ 1384
tilante@@ 1384
ho## 1383
ari## 1383
annettava 1382
Euro@@ 1382
sotilaallis## 1381
ali@@ 1381
edellis## 1380
äskettä## 1380
ai@@ 1379
laatima 1378
&apos; 1377
kehitty## 1376
telu 1376
tuho@@ 1376
periaatteen 1375
valmis 1373
maatalouden 1373
viranomaiset 1372
periaatetta 1372
yyden 1371
huom@@ 1370
tal@@ 1368
ittava## 1368
tunnus## 1368
tietysti 1365
ito## 1365
tapauksissa 1364
ak@@ 1363
sitoumu@@ 1362
uu## 1361
strategian 1361
destä 1360
siirty## 1360
vaatimuksia 1360
suoja## 1360
peri## 1359
markkinoilla 1359
Kiina## 1358
parempi 1357
hallitusten## 1357
itä## 1356
kysymyksiin 1356
ilmen@@ 1356
menettely@@ 1356
turvapaikka## 1356
keskustella 1355
keino@@ 1355
itus 1354
tää 1354
teollisuus## 1354
heti 1353
taloudellisen 1353
llaan 1351
toteuttamis## 1350
kilpailukyky## 1349
tavan 1349
vastaa 1349
kesäkuu## 1348
kunnioit## 1348
teke## 1347
järjestyksen 1346
valiokunta## 1345
mme## 1345
sopimuksessa 1344
enne 1344
vähemmistö## 1343
ettiin 1342
vaike## 1342
pääasia## 1341
atti## 1341
politiikkaan 1341
istun@@ 1340
järjestö@@ 1340
merkitystä 1340
eett@@ 1340
arviointi## 1339
yhteiskunta## 1337
yhteis@@ 1337
allekirjoi## 1337
ala 1336
all## 1336
ehdotuksessa 1334
pitä@@ 1334
varma 1333
vesi## 1332
un## 1331
joiden## 1331
ved@@ 1330
pois 1329
neuvottelut 1329
velvo@@ 1327
toukokuu## 1327
lleen 1326
vaa 1324
merkitys 1323
llisten 1323
tio## 1323
tau@@ 1322
torjunta## 1321
yhteisöjen 1321
sanottu## 1320
laadi## 1319
luku## 1319
tekniik@@ 1319
saman## 1319
verrat## 1318
järjestelmä@@ 1318
12 1316
ad@@ 1315
ttamis## 1315
poikke@@ 1314
ilta## 1312
todennäkö## 1312
essä## 1311
rautatie## 1308
yksen 1307
takaa## 1307
maailman## 1307
harjoitta## 1307
uksen## 1306
kien 1304
missa 1304
lain@@ 1303
pidettävä 1302
sosiaalisen 1302
riko@@ 1301
jatke## 1301
äänestys## 1301
den## 1300
käyttä@@ 1300
tarkoit@@ 1300
todeta## 1300
investo@@ 1300
kokous 1299
oiden 1299
pohjalta 1298
ydin@@ 1298
kuun@@ 1297
iva## 1296
ruo@@ 1296
korva@@ 1296
luon@@ 1295
tarkastele## 1295
tarkistus 1294
stö## 1294
henkilö@@ 1294
antama## 1294
Alanko## 1293
palaut## 1293
liitt@@ 1290
hoita## 1289
ssä## 1288
vaihe@@ 1288
alaa 1288
koko## 1286
olevia 1286
j## 1286
aa## 1286
rauhan 1286
voimassa 1286
ksia## 1285
rangaistu@@ 1285
hall@@ 1284
isimme 1283
laus@@ 1283
ratkaista 1282
poliisi## 1281
valtu@@ 1281
kaa## 1279
puolesta## 1279
sto@@ 1279
kohta@@ 1278
vapautta## 1277
ila@@ 1277
käynnistä## 1276
Sch@@ 1275
lliset 1275
rajat 1275
prosessi 1274
valtiot 1274
Mar@@ 1274
terrorismi## 1273
käyttö## 1273
tupa@@ 1273
tuotanto## 1273
kollega 1271
keen 1271
omi## 1271
viikolla 1270
äänest@@ 1270
ven@@ 1269
vuus 1269
puite## 1268
liikkuv## 1267
vielä## 1267
vastuu 1266
vapa@@ 1266
ratkaiseva## 1265
uksena 1265
tilanteeseen 1265
esit@@ 1264
päättävä## 1264
muutoksia 1263
hel@@ 1263
ri 1263
sopimus## 1262
saavu@@ 1261
suuntaan 1261
esitetty 1261
ani## 1260
esitetty## 1258
muuten 1257
teoll@@ 1257
FR 1257
osallistumis## 1257
ositta## 1257
yt 1257
aiheesta 1256
ton 1253
kärsi@@ 1252
yhtä## 1251
sovelleta## 1251
valtio 1251
asiakirjo@@ 1250
juu@@ 1250
di@@ 1248
ottama## 1248
yty@@ 1248
ist## 1248
koulu@@ 1247
västi 1247
lehd@@ 1246
maksu## 1246
sovellettav## 1246
tarvittava## 1245
ongelman 1244
hank@@ 1243
ata## 1242
uksissa 1241
muista## 1240
vaale@@ 1238
vaali## 1236
hyödyll## 1235
K## 1234
luku@@ 1233
toi## 1233
io## 1233
tuomio## 1232
alisti## 1231
päätöks@@ 1229
ssani 1229
iden## 1228
kysymykset 1228
kotimaa## 1227
pake@@ 1227
vapauttamis## 1225
mahdollisuutta 1225
tuki 1225
perhe## 1224
poliittiset 1224
itys## 1224
omia 1224
hallin@@ 1223
johto## 1223
ttaessa 1223
ny@@ 1221
seura@@ 1220
politiikassa 1220
lää@@ 1220
ttav## 1219
esitä## 1218
oike@@ 1218
yys 1218
paino@@ 1218
toivottava## 1217
ero## 1217
tut@@ 1217
palvel@@ 1217
maihin 1216
miesten 1216
tuloksia 1215
käyttöä 1214
minä## 1213
valvontaa 1213
selvittä## 1210
toma@@ 1209
loppuun 1209
kulttuu@@ 1209
tosi@@ 1209
jäl@@ 1208
kiinnostu## 1207
päästö@@ 1207
minkään## 1207
ykset 1206
askel 1206
he## 1206
pois## 1206
keskusteluun 1205
markkinoille 1205
teh@@ 1204
tarkoi## 1203
ymmärrä## 1200
vakuu@@ 1200
vaaran## 1199
etujen 1198
kansain## 1198
suuntaviivo@@ 1197
muistut## 1196
yhdentymis## 1196
totesi## 1196
melko 1195
ties 1194
mietintö## 1193
sähkö## 1193
B5 1193
toiseen 1192
ilmaista 1191
tuott@@ 1191
perus@@ 1191
iten 1190
sis@@ 1188
ile## 1188
mietintöön 1187
marraskuu## 1186
kil@@ 1186
jos## 1186
mahdollista## 1186
direktiiviä 1186
mukaista 1185
sodan 1185
ke 1184
sisäl@@ 1184
selvi## 1184
kier@@ 1184
vuosien 1183
kuva## 1183
avun 1183
olin 1182
laajenta## 1182
käytö@@ 1181
kesk@@ 1181
tammikuu## 1180
puitteissa 1180
kohdistu## 1180
merkille 1179
muodo@@ 1179
arvioi## 1178
mät## 1178
tah@@ 1178
kohte@@ 1177
tarkka@@ 1177
laisia 1176
ob@@ 1176
perustuslain 1176
ino@@ 1175
jaa 1175
koulutus## 1175
enty## 1174
ilma## 1172
eläim@@ 1171
joudu## 1170
tely## 1170
noudattamis## 1169
politiikasta 1168
kolmen 1168
assa## 1168
c@@ 1168
strateg## 1167
vaatimukset 1167
asemassa 1166
periaattee## 1165
tehd## 1165
järj@@ 1164
tasav@@ 1164
aikataulu## 1164
pol@@ 1164
ch@@ 1164
res@@ 1163
viitta@@ 1163
kiireellis## 1162
saavut## 1162
eile## 1161
lupa@@ 1160
rikko## 1159
käyttö 1158
WTO## 1158
ensa 1157
vai@@ 1157
luottamu@@ 1157
kuulemis## 1156
virallis## 1156
kke@@ 1155
esimerkki## 1155
taata 1155
ttaisi 1154
mietinnö@@ 1154
yö## 1154
tarvitse 1153
vuositta## 1153
ittelu## 1152
toden## 1152
yhtey@@ 1150
valti@@ 1150
jää 1149
eita 1149
syy 1148
yli@@ 1148
toteute## 1148
pääministeri 1148
lle## 1145
tulle## 1145
tieteell@@ 1145
valmi@@ 1145
empää 1145
mahdollisuudet 1144
avoim## 1144
oikeudell@@ 1143
toimista 1143
muihin 1142
menettelyä 1142
sisä@@ 1141
asemaa 1141
aika@@ 1140
2## 1139
vat## 1139
kki@@ 1137
asioihin 1137
tällaisen 1137
oikeus@@ 1137
mene## 1136
keskitty## 1136
z 1135
merkitykse## 1133
sisälly## 1132
yhteisö@@ 1131
siv@@ 1131
tilintarkastus## 1131
huippukokouksessa 1131
toimintaan 1131
tyvä## 1130
pro@@ 1130
esiinty## 1130
vakuutta## 1129
vaihtoehto## 1129
proses@@ 1129
riit## 1129
pp@@ 1128
hun 1127
keskity## 1127
matt@@ 1126
järjestelmien 1126
joissa## 1126
nykyisen 1124
luov@@ 1123
het@@ 1123
tettaisiin 1122
vapau@@ 1122
yllä@@ 1122
ans@@ 1122
ic@@ 1121
nope@@ 1121
kiitos 1120
tuo 1120
prosessia 1119
ituksia 1119
kasva@@ 1119
ava@@ 1118
sektor@@ 1118
inta## 1117
yd@@ 1117
vahv@@ 1117
er 1117
toiminn@@ 1117
neuvo@@ 1117
kuluttajien 1117
isyyttä 1116
ministeri 1116
jen## 1115
millä 1115
kehitys 1115
ot## 1114
vähimmäis## 1114
min 1113
jonkin 1113
monimuoto## 1113
tyssä 1112
mpa@@ 1112
yhteiskunnallis## 1112
as## 1110
kunnianhimo## 1110
lähestymistapa## 1107
sol@@ 1106
tiuk## 1106
pano@@ 1106
di## 1106
asiantunti@@ 1105
rakenne## 1105
jat 1105
keskeinen 1104
ku 1104
seudun 1104
ratka@@ 1103
vähentämis## 1103
vatko 1103
vammais## 1103
nnan 1102
keske@@ 1102
yvä## 1102
11. 1101
vaike@@ 1101
vie## 1100
ani 1099
päivä@@ 1099
käytäntö@@ 1099
otettu 1098
je## 1098
tämän## 1097
laaj## 1097
saatu 1097
tavat 1096
ettava## 1096
prosentin 1096
osapuolten 1096
kiv@@ 1095
valta 1095
yhteistyö 1095
maaliskuu## 1095
mät 1094
risti## 1094
ile@@ 1093
itsenä## 1093
oikeudellisten 1092
itte## 1092
kiinni## 1092
tull@@ 1092
alue 1091
käytävä## 1091
loukka@@ 1090
viera@@ 1090
ori## 1090
isilla 1090
sosi@@ 1088
terve## 1087
ysten 1087
1## 1086
tieteellis## 1086
maille 1086
Ro@@ 1086
lokakuu## 1085
l## 1084
enta## 1084
esittämää## 1083
tarkoita## 1083
ele@@ 1082
tis@@ 1081
etuja 1081
päätöksenteko## 1079
3## 1078
lausunto## 1077
osta 1076
kohdassa 1076
uudista## 1076
laaja 1075
tulos 1075
ottamaan 1075
Tanska## 1074
ut@@ 1074
itsi## 1074
ag@@ 1074
,@@ 1074
elämä@@ 1073
matkusta## 1072
aihetta 1072
C5 1072
tensa 1072
perusta 1070
usta## 1070
solidaaris## 1069
tulevaisuuden 1069
ama## 1069
pohti## 1068
Afrikan 1068
toimiv@@ 1067
järjestöjen 1067
resurs@@ 1067
dy@@ 1066
väkivalta## 1066
saira@@ 1066
kiinni 1066
kun## 1066
taloudellinen 1066
sur@@ 1065
suur@@ 1065
määri@@ 1065
uud@@ 1064
mil@@ 1064
perinte## 1064
arvos@@ 1063
13 1063
julka@@ 1062
sata@@ 1062
kea## 1061
ksella 1061
yleis@@ 1061
odottaa 1060
tusta 1060
tuoda 1058
viime## 1057
immat 1057
rakennerahasto## 1057
mielipite## 1057
isyys 1056
ksilla 1055
hol@@ 1055
lie@@ 1055
oikea 1053
kää 1052
ua 1051
huolenaihe## 1051
mainitse## 1051
kansan@@ 1051
korva## 1050
selv@@ 1050
liikku@@ 1049
luu@@ 1049
oppi## 1048
mman 1048
ään## 1047
siirtä## 1046
alta## 1046
maahan## 1046
varmuu@@ 1045
liberaali## 1045
lyh@@ 1044
työsken@@ 1044
liit@@ 1044
huoma@@ 1044
aid@@ 1044
pyyntö@@ 1042
käsitel@@ 1042
kää## 1042
ventä## 1042
tiedot 1041
standar@@ 1041
maista 1041
ratifioi## 1041
kysymyksistä 1041
tavoitteen 1040
viis@@ 1040
Belgia## 1040
stus## 1039
mat## 1039
tiedot## 1038
tehosta## 1038
viit@@ 1037
alueita 1037
vin## 1037
tarv@@ 1036
naiset 1036
laske## 1036
2005 1036
esimerkki 1035
isivät 1035
harki## 1034
ksille 1034
noja## 1034
saata## 1033
huolestu## 1033
sovittelu## 1033
alkuperä## 1033
asiakirj@@ 1032
kaupun@@ 1032
vuodesta 1032
tiet@@ 1031
02## 1031
alussa 1030
rajojen 1030
tämis## 1030
unionia 1029
mpia 1029
ing## 1028
paran@@ 1028
2006 1028
päätökset 1027
ike@@ 1027
kehitysyhteistyö## 1027
pane## 1026
rakenn@@ 1026
01## 1026
suhteessa 1025
asu## 1025
Ma@@ 1025
kuljetu@@ 1025
liikke@@ 1024
järjes@@ 1023
Palestiina## 1023
nu@@ 1022
ve## 1022
tarko@@ 1022
strategi@@ 1021
markkinat 1021
ohjelmaa 1021
järjestön 1021
kaup@@ 1021
tettava## 1021
itti## 1019
korkea 1019
telu@@ 1018
siin 1018
suhteen 1017
öljy## 1017
teta## 1016
tarkasti 1016
oper@@ 1016
kyken@@ 1015
yhtiö@@ 1014
tuista 1014
tys## 1014
kielteis## 1013
nneet 1013
turvallisuuteen 1013
kkaasti 1012
eräs 1010
tukema## 1010
isti 1009
yrityksiä 1008
joille 1008
enti@@ 1008
epäily## 1008
neuvotteluissa 1008
suuren 1007
velvollisuu@@ 1007
ymmär@@ 1007
tuomioistuin 1007
jat@@ 1007
lähe@@ 1007
ehdotukseen 1006
io 1006
ena## 1006
verta@@ 1005
tellen 1005
jär@@ 1004
palvelu@@ 1004
kansanterveyde## 1004
välineitä 1003
ihmis@@ 1002
johtuu 1001
rahoitusta 1001
pysty 1000
menettely 1000
tyydy@@ 1000
tausta## 1000
poikkeukse## 999
kus 999
periaate 999
kohtaa 998
pohjois## 998
tteko 997
siviili## 997
ämme 997
yhteen## 997
puutte@@ 997
Kan@@ 997
lausun@@ 997
teen## 996
päte@@ 996
ohjelmien 996
maini## 995
ment@@ 995
johdo## 995
valvonnan 995
ölj@@ 995
terro@@ 995
istu 994
oikeusvaltio## 994
yleensä 993
suojele## 993
valmista@@ 993
terroristi## 992
enemmistö 992
40 992
säädö@@ 992
toki 991
ge@@ 991
hdi## 990
kir@@ 990
lais## 989
kseksi 988
yhteisö 988
toihin 988
tettä## 987
ttäisiin 987
väline@@ 987
köyhyyden 987
ek@@ 986
pika## 985
vin@@ 985
eikö 985
nro 985
vapautta 984
ella## 984
huolehti## 982
19@@ 982
yst@@ 982
vähen@@ 982
aloitteen 981
istö## 981
S## 981
etelä## 981
käydä 980
empi## 980
lähtö## 980
ana## 980
hyvä@@ 979
jal@@ 979
tehty## 977
takaisin 977
taneet 976
rä@@ 976
kinta## 975
ili@@ 975
ulkopuol## 975
näh## 975
kilpail@@ 974
myönn@@ 974
idän 974
iko@@ 972
tehtävä## 972
sivu## 971
tarpee## 971
vuor@@ 970
0## 970
tyt 970
ehdoteta## 970
tö## 968
väestö@@ 968
uudelleen## 967
ju@@ 967
summ@@ 967
siirtymä## 967
olo## 966
raja 965
Pat@@ 965
luopu## 964
selkeä 964
nähdä## 964
kuole@@ 963
terve@@ 963
öi## 962
rahaa 961
aineiden 961
aseman 960
kiell@@ 960
väline 960
kansan 960
w@@ 959
voimaan 959
dessa 959
kulutta## 959
toimi 959
lop@@ 958
ydin## 958
kohtia 957
palveluja 957
alusten 957
havai## 956
eläke## 956
vaikutu@@ 956
Pohjois 955
edellyty@@ 955
istamis## 954
rin@@ 954
ammatti## 954
sijasta 954
uttava## 954
kovin 953
E## 953
r 952
impien 951
valiokunn@@ 950
vakau@@ 950
hyvän 950
teki 949
lou@@ 949
ksessä 948
viraston 948
Ber@@ 948
säilyttää 947
timme 947
PPE 946
tiedä 945
tarkista## 945
A 945
ajia 945
utta 945
peruste## 945
Kööpenhamina## 945
periaatteita 944
ministe@@ 944
määrää 944
miehet 943
koo@@ 943
and@@ 943
kunnio@@ 942
jälje## 942
tarkastella 942
ky## 941
yy## 941
ks## 940
läpi 940
korja## 940
enna@@ 939
koordinoi## 939
vaikuttava## 938
toimintasuunnitelma## 938
ajon@@ 938
kiitoll## 937
run@@ 936
rau@@ 936
yksinkerta@@ 936
oista 936
Kuuba## 936
kkaa## 935
sanoin 935
kiitoksia 935
odota## 934
sil@@ 934
heinäkuu## 934
saar@@ 934
tilaisuus 934
onnistunee## 934
esittä@@ 933
mmä@@ 933
lainsäädäntö 932
panna 932
kel## 932
julistu@@ 932
puolu@@ 931
kahta 931
edistämis## 931
markkinoita 930
kke## 930
syn@@ 930
llään 929
pysyvä## 929
vienti## 929
tuna 928
varma## 928
rikollis## 928
yrittä## 927
ymmärre@@ 927
varat 927
por@@ 927
toisessa 927
määrärahoja 927
antoi 926
isiksi 926
taakseen 926
g 926
energ@@ 926
kansalaisjärjestö## 926
ammat@@ 925
puhu@@ 925
d 924
aikoina 923
osuus 923
jon@@ 923
muutama 922
toimen@@ 922
byrokra@@ 922
väit## 922
menne## 922
synn@@ 922
el## 922
meidät 920
huippu## 920
tety@@ 920
tto@@ 920
julkilausuma## 919
lähettä## 919
erää## 919
turvallisuus 919
Barcelona## 919
koulutuksen 918
ustus## 918
vapaaehtois## 918
kampan@@ 918
yhdy## 917
lasten 916
ittamis## 916
luoma## 916
ev@@ 916
päättä## 916
tia## 916
ittävä## 916
painopiste## 915
riippuva## 914
pääsy## 914
infrastruktuuri## 914
iv## 914
etti 913
yhteen@@ 913
näkökulmasta 913
E 912
kim@@ 912
kustann@@ 912
noudattama## 911
viä## 911
tettävä## 911
deks@@ 911
lähestymis## 910
keinoja 910
ksestä 910
vuutta 910
hallitukset 910
istunto## 909
kustannukset 909
iti@@ 909
nähdä 908
pitävä## 908
lis@@ 908
ministeri## 908
aloit## 908
koke@@ 908
pano## 908
terroris@@ 908
kattava## 907
kauppaa 907
tunne## 906
ajat@@ 906
avoimuutta 906
uste## 906
edustaja 905
ongelmaa 905
yhteistyöstä 905
tuotteita 905
vaikutukset 905
ää## 905
edustajat 905
š@@ 905
tapahtuva## 904
järjestelmä## 904
tulokset 904
työskentele## 904
ikka 904
parlamentaaris## 904
kalais## 903
päivä 902
esitti 902
huippukokouksen 902
kohta## 901
anto 901
4@@ 901
silti 901
pohja## 901
poliittisesti 901
rauha## 901
tied@@ 900
yksil@@ 900
menestykse## 900
naisia 900
parlamen@@ 899
telleet 899
de## 899
alueelle 899
tervey@@ 899
paten@@ 899
virka## 898
ib@@ 898
kannusta## 898
äänestyksen 898
sivat 897
11 896
arvioinn@@ 896
jonkin## 896
kala@@ 896
pankin 895
strategia 895
tetu@@ 894
tellä 893
monta 893
herättä## 892
tunte## 892
mmeko 892
selvä 892
Ver@@ 892
pain@@ 891
haaste@@ 891
kehite## 891
kilpailun 891
Itä## 890
tti@@ 890
suhteita 889
mahdollisuu@@ 889
työ 889
tuleva@@ 889
tote@@ 888
henkilöstö## 887
viimeinen 887
perustelu## 886
le 886
ämis## 886
yksinoma## 885
tarvetta 885
rakentava## 885
käytöstä 885
väestön 885
paikkoja 884
yty## 884
tuh@@ 884
luonnon## 884
vuuden 884
neuvo## 883
pyyde## 883
intä## 883
osaa 882
pros@@ 882
päätösten 882
äske## 881
heikentä## 881
sota## 881
anto## 881
onnettom@@ 880
tiedotus## 879
äänestyksessä 879
Amerikan 879
sanottava 878
kiinno@@ 878
inhimillis## 878
toimielin## 878
menettä## 877
valtion## 877
ävä 877
kriitt## 877
vastaava## 876
nnissa 876
arvioida 876
sopimukset 876
ante@@ 875
yyteen 875
kur@@ 874
muista 874
omaa 873
kselle 873
säilyttämis## 873
Balkan## 873
kem@@ 873
huippu@@ 873
muutt@@ 873
kaudella 872
valmiit## 872
alueet 872
Etelä 872
ttavia 872
päästä## 872
anko 871
vihdo@@ 871
täm@@ 871
aloitteita 871
kone## 871
yys## 871
sääde@@ 870
hy@@ 870
velvoitte@@ 870
valko## 870
ehkäise## 870
nasta 870
kuljetus## 870
viestintä## 870
päätö@@ 870
kehitys@@ 870
k 869
fooru@@ 869
llisyyden 868
oon 868
järke@@ 868
ennalta 868
pe## 867
myöntämis## 867
katastrofi## 867
vihreä## 866
rikkom@@ 866
poliitik@@ 866
Romania## 866
luke## 865
etti## 865
ointi## 865
mekanis@@ 865
oikeuteen 865
tämänhetk## 864
mmälle 864
hinn@@ 864
idemme 864
tumis## 864
täsmäll## 863
Al@@ 863
sopimuksesta 863
ilais## 863
oikeusperusta## 863
ota## 863
kestä@@ 862
laajuis## 861
alaan 861
hiljatta## 861
monimutkais## 861
uudistus## 861
seuranta## 861
tekijä 861
ukselle 860
työttömyy@@ 860
lti 860
ongelma## 860
suunnitelma 860
kyseisen 859
elä## 859
eläkke@@ 859
kaasu## 859
tehokka## 858
menettely## 858
aatt@@ 858
rannik@@ 858
vahingo## 857
tehtävänä 857
ustava## 857
hyökkäy@@ 857
03## 856
korke@@ 856
noudatettava 856
kunta## 856
90 855
teh## 855
kerro## 855
isemm@@ 855
konferenssin 855
kerta## 855
usko 854
tee 853
menettel@@ 853
mahd## 853
komitean 853
tiedo@@ 852
kaiken## 852
tarjo@@ 852
toimenpiteet 852
perusoikeuskirja## 852
suhteiden 852
vapauksien 851
Turkki 851
sääntö@@ 851
työvoima## 851
päin 851
kr@@ 851
tule@@ 851
mille 851
kuluttua 851
Iran## 851
tetun 850
työstä## 850
pid@@ 850
6## 850
arvo 850
osoitus 850
kahden## 849
hallinnollis## 848
annettu 848
säännö## 848
elintarvikkeiden 848
vähintä## 847
tuomitse## 847
seuraavan 846
itti 846
väärin 846
pako@@ 846
etty 846
osoit## 845
tarkistuksista 845
isen## 845
ida## 845
euvosto## 845
kohdistuva## 845
stojen 845
neuvotteluja 844
lämpimä## 844
koihin 844
teillä 844
assosiaatio## 844
hallinno@@ 843
elämän 843
alueille 843
jälleen@@ 842
Euroopasta 842
teistä 841
isyyteen 841
haa@@ 841
isyyden 841
direktiivissä 840
tuotannon 840
selvity@@ 840
myön@@ 839
pyst@@ 839
riida## 839
suojel@@ 839
isku## 838
toteuttama## 838
inkin 838
paikalla 838
kirja 838
pakolais## 838
ET@@ 837
tiedotusväline## 837
todiste## 837
ha 837
isellä 836
turvaa## 836
eu@@ 835
isuus## 835
tasa## 834
tasavallan 833
vastaus 833
ongelmien 833
SE 833
ova## 833
pitämä## 832
hyödyn@@ 832
suosion## 832
itt@@ 831
hait@@ 831
tuomioistuim@@ 830
nosta 830
kuka 830
lisää@@ 830
ulkoma@@ 830
da## 830
aiempaa 830
varainhoito## 829
tarkasteltava 829
sala## 828
tasapuol## 828
tehtävää 828
tietävä## 827
mpää 827
mista## 827
ran@@ 827
minuu@@ 826
ive## 826
ong@@ 826
ajatus 826
käyttööno@@ 826
julk@@ 826
inte@@ 825
paras 825
tämänpäivä## 825
rooli 825
omaksu## 824
matkailu## 824
valtaa 824
työskentely## 824
hyväksytty 824
suhteet 824
rekister@@ 823
ehdottama## 823
ajo## 823
katta## 823
tarke## 823
sin 823
auto## 822
läsnä 822
teltiin 822
valmiste## 822
koulu## 822
kunno## 822
päätöstä 822
kansojen 822
yhtälä## 821
keskey## 820
täysistunnossa 820
muodossa 820
näkökohtia 820
reag@@ 819
hoid@@ 819
tin@@ 819
Kioto## 819
tö 818
raha 818
työjärjest@@ 817
yrityksille 817
rakennus## 817
D 817
pohd@@ 817
vaad@@ 817
täysimäärä## 817
päiv@@ 816
amp@@ 816
liika## 816
ratkaista## 816
osapuoli## 816
tena 815
tutkimusta 815
keino 815
attu 814
kuulla 814
alojen 814
sovel@@ 814
käsittelemä## 814
OM 814
terveyden@@ 814
aine@@ 814
man## 813
ottanut 813
huomio@@ 813
jaa## 813
ongelmista 812
dy## 812
olle 811
työhön 811
kohdista 810
yleissopimuksen 810
valtuus@@ 810
huolto## 810
liikente@@ 810
avaa## 809
pahoilla## 809
parhaa## 808
vastuuta 808
ollaan 808
ing 807
varsina## 807
realist## 807
miel## 806
torjunn@@ 806
60 806
Valko 806
vaati@@ 805
seikka## 805
valla@@ 805
rakentamis## 805
viljely## 804
tuollo## 804
osoituksia 804
alku## 803
kysymyksissä 802
yhty## 802
meno@@ 802
vaativa## 802
vahva## 802
luule## 801
lliseen 801
rahoituksen 801
isu## 801
puolella 801
onne## 800
evä## 800
rj@@ 800
virhe@@ 800
tuvat 800
toimin@@ 800
asianoma## 799
kaamme 798
riippu## 798
Gu@@ 798
villa 797
yhteispäätös## 797
huhti## 797
edustajien 796
hallituksi## 796
neljä 795
uva## 795
hou@@ 794
ikä## 794
vahv## 794
joukko## 794
urheilu## 794
luovutta## 793
koa 793
mielellä## 792
luv@@ 792
kolmas 792
eläin@@ 792
taka@@ 791
luok@@ 791
stön 791
edel@@ 791
mon## 790
komitea## 790
Ha@@ 790
väliaikais## 790
käyttämä## 789
järjestelmään 789
yksikö@@ 789
ratkaisua 789
tavar@@ 788
leik@@ 788
or## 787
istettu 787
kesk## 787
maata 786
yleisö## 786
artik@@ 786
innän 786
kollega## 785
ttama## 785
hti## 784
isla@@ 784
komissiossa 784
tukeva## 784
tekemistä 784
strategiaa 784
ag## 783
kiinn@@ 783
jäsenelle 783
joustav## 783
ehkä@@ 783
roh@@ 782
kkä## 782
ukse## 782
tömä@@ 782
tetyt 782
kuulu 782
kaupall## 782
konferens@@ 782
maahanmuu## 782
lähestymistapa 781
käytössä 781
määrän 781
kuukauden 780
Bar@@ 780
tiedon 780
C## 780
järjest@@ 779
vaikutus 779
ura@@ 779
sotilas## 779
kysymyksessä 778
tapaa 778
tarkoita 778
yksi## 777
ajattele## 777
misessä 777
7## 777
sosiaaliturva## 777
eläin## 777
Aasia## 777
Kes@@ 776
paikkojen 776
II 776
yhdenmukaista## 775
kestä## 775
perin@@ 775
merkkejä 775
14 775
anne 775
uudistuksia 775
vah@@ 775
80 774
ssamme 774
viljel@@ 774
oja 774
este## 774
ste 774
rohka@@ 773
kohde## 773
edustaja## 773
ajat 771
välttää 771
Strasbourg## 771
aloite 771
yhteenkuuluv## 771
demokraattisen 771
tiede## 770
toimitta## 770
viittaa## 770
suku## 770
ilmo@@ 770
ön## 769
etta## 769
ru@@ 769
heidät 769
namme 769
määrite## 769
valta@@ 769
toimenpiteiden 769
ajankohta## 768
alla## 768
seja 767
hyödyntää 767
inno## 767
hoito## 767
uun 766
käytettävissä 766
suure@@ 766
puhemiehe## 765
ujen 765
viisi 765
mietinnössä## 765
nuorten 765
isempi 765
Sol@@ 765
vetoa## 764
pala@@ 764
pysä@@ 764
moni@@ 764
lentoyhtiö## 764
tuon@@ 763
yksik@@ 762
empaa 762
käyttävä## 762
esitteli@@ 762
ittaja## 762
vih@@ 762
tapaan 761
näkö## 761
erotta## 761
voitava 761
vakuutus## 760
yri@@ 760
syrjä## 760
ee## 759
mielenkiinto## 759
koordinointi## 759
nuori## 758
uot@@ 758
ymmärry## 757
mielipi@@ 757
sio## 756
vastuun 756
ju## 756
katsoo 756
della 755
korjaa## 755
ystä@@ 755
seikka 755
kuu## 754
samo## 754
vastust## 754
edist@@ 754
yhteistyöhön 754
edellytykset 754
een@@ 754
tun## 753
edistysas@@ 753
heng@@ 752
ehdotusten 752
rakente@@ 752
F## 752
ott@@ 751
oikeuksista 751
vapaus 751
yhdenmuka## 750
vaalien 750
onnitte## 750
ratkaisuja 750
toivot## 750
kauppa 750
huumausaine## 750
suhteelli## 749
P 749
tyn 748
millään 748
järjestely@@ 748
sesta 747
ytymis## 747
men## 747
lujitta## 747
rooli## 747
I 746
tarkistuksessa 746
rauta## 745
toisin## 745
suku@@ 745
välittä## 744
prosessiin 744
llisiä 744
kulutt@@ 744
tehokkuu@@ 743
edustaj@@ 743
ihin## 743
etusija## 743
avar@@ 743
hil@@ 742
Su@@ 742
ide 742
sukupol@@ 742
98 742
samanaika## 741
toissijaisuus## 741
onnettomuu@@ 741
huol@@ 741
tekstin 740
valvonta 740
CO## 740
ttom@@ 740
toimenpite@@ 740
ttaja## 740
mukainen 740
hor@@ 740
ryhmät 739
ongelmiin 739
köyh@@ 739
ura## 739
eri@@ 738
ylittä## 738
pakola@@ 738
olosuhte@@ 737
vaka@@ 737
esittäm@@ 736
kysymyksestä 736
alkuperäis## 736
edelleen## 736
äis## 736
ristiriita## 736
llistä 736
tää@@ 736
tte## 736
uma## 736
tapaus 735
näyttä## 735
käydään 735
DE 735
tunnust@@ 735
aiheuttama## 734
lain 734
uskonno## 734
käsitte@@ 734
teko## 734
satama## 734
po## 733
huu@@ 733
viivästy## 733
kehitykseen 733
nouda@@ 733
malli@@ 732
gian 732
demokra@@ 732
sopiva## 731
pi## 731
sydä@@ 731
ksistä 731
sään@@ 730
tuksia 730
apu## 730
kelu## 729
täys@@ 729
euvo@@ 729
keja 728
virka@@ 728
myöhä## 728
talous@@ 728
dikta@@ 728
Laeken## 728
kuoleman## 727
vallitse## 727
järjestet## 727
tehokas 727
Po@@ 726
toon 726
työmarkkina## 726
alusta 725
järjestelmiä 725
ohja## 724
miten## 724
kuukausi## 724
ikka## 723
neessä 723
uudessaan 723
aluetta 723
ohjelmassa 723
nosta## 723
län@@ 723
van## 722
koon 722
18 722
ittä@@ 722
lausunnon 722
päivi## 721
arvosta## 720
taso## 720
pk 720
rehell## 720
vis@@ 720
á@@ 720
teja 719
nään 719
sosiaalinen 719
uksien 718
mielen@@ 717
tuho## 717
ilu 717
tett@@ 717
ylittävä## 717
mitkä 716
8## 716
rajoit@@ 716
ehdo## 716
palauttamis## 715
sen## 715
periaatteiden 715
aisi 715
yle## 715
täh@@ 715
do## 715
pom@@ 714
äänes@@ 714
jakso## 714
äänestyks@@ 714
rea@@ 714
säännöksiä 714
keskusteluja 714
tarvitseva## 713
tetta## 713
löyde## 713
president@@ 713
ttänyt 712
aamuna 712
so 712
parlamentilla 712
järjestäyty## 712
huolest@@ 712
annossa 712
järky@@ 711
seuraa 711
sista 711
lapsi## 711
sota 711
neljä## 710
puolue## 710
tekniikan 710
hava@@ 710
perhe@@ 710
muist## 710
ac@@ 709
kysymysten 709
tähd@@ 709
tas@@ 709
kokoon@@ 709
os 708
16 708
myönnett@@ 708
ymä## 707
kid@@ 707
hankkeen 707
kasta 707
edessä## 707
entä## 707
ulkominister@@ 707
amerikkalais## 707
joki## 706
jätte@@ 706
suunnitelman 706
ika## 706
aati@@ 705
asi@@ 705
gen## 705
tapahtumat 705
ossa## 704
sisältyvä## 704
vaatimusten 704
väkivallan 704
pohj@@ 703
12.## 703
kustannuksia 703
saavutettu 703
anska 703
otsa@@ 703
tra@@ 702
tarka@@ 702
yhdisty## 702
Tur@@ 702
menettelyjä 701
asetus 701
uja 700
vang@@ 700
sovi## 700
Prodi 700
tavall@@ 700
aloja 699
käynti## 699
tukien 699
nimissä 699
kumppani## 699
isemp@@ 699
Itä 699
valtio@@ 698
immin 698
fi@@ 698
essään 698
viiden 698
kasvu 698
sala@@ 697
tehtäviä 697
glob@@ 697
tarve 697
tan@@ 697
osalta## 697
lääkke@@ 697
tto 697
onnistu@@ 696
mukau@@ 696
teknolo@@ 696
sitou@@ 696
perusteltu## 696
aisi## 696
AKT 696
osoite## 695
syrjä@@ 695
isiin## 695
tärkeim## 695
valtioissa 695
m 695
T## 694
toisista## 694
am## 694
allo## 694
kymmen@@ 694
tilo@@ 694
ää 694
integro@@ 694
polttoaine## 694
vapauteen 693
vakauden 693
lääke## 693
halusi## 692
puitte@@ 692
tavoitetta 692
elinten 692
maahan 692
ongel@@ 691
tyypp@@ 691
jemme 691
leh@@ 690
rahoit@@ 690
syö@@ 690
anal@@ 689
ino## 689
yksipuol## 688
mpa## 688
käytettävä 688
suu@@ 688
Barro@@ 688
keskustella## 687
ste@@ 687
Britannia## 687
kahd@@ 687
kompromis@@ 687
suostu## 686
kyv@@ 686
inta 686
immista 686
kappal@@ 686
päätöksen## 686
avo@@ 686
kansallista 685
ansa@@ 685
luonn@@ 685
rakentee## 685
gu@@ 684
tos@@ 684
hyväksyttävä 684
suurempi 684
Irla## 684
valtioita 684
koheesio## 684
Bus@@ 683
muodostu## 683
tekijä@@ 683
suhd@@ 683
vakava 683
yrittää 682
ensä 682
gia## 682
avu@@ 682
yksistä 682
valo## 682
vilpittöm## 682
teli 681
hallitusta 681
vaiku@@ 681
prosessissa 681
mpien 681
huolehdi## 681
rin 681
välisessä 681
sty## 681
todista## 681
Internet## 680
edellyt@@ 680
mainitsi## 680
aste## 679
mahdollisuuksien 679
etsi## 679
määrärahojen 679
käsittelyyn 678
200@@ 678
len 678
70 678
ohjelmia 678
H 678
Ukraina## 677
sotila@@ 675
kertomuksen 675
edistetä## 675
demokraatit 675
elää 675
siirto## 675
tiedon## 674
ttavat 674
kuulu@@ 674
toteutettava 674
kriisin 674
huomaa## 673
korkei## 673
lento@@ 673
milloin 673
im## 673
kuva 673
koi## 673
tetä## 673
autta## 672
hanke 672
EK@@ 672
tellä## 672
hir@@ 671
jäsen@@ 671
rauhaa 671
iste@@ 671
heiko## 671
torjunta 671
vau@@ 671
ttämä## 671
kielle## 671
esti## 670
pelkää## 670
yhteensov@@ 670
arv@@ 670
tömiä 670
armei@@ 670
ilmi@@ 669
velvollisuus 669
syy## 669
käytä## 668
tavoitteista 668
as 668
raha@@ 668
kokoon## 668
helmikuu## 667
9@@ 667
tömyy@@ 667
osapuolet 667
saman 666
ind@@ 666
kuvi@@ 666
isissä 666
palk@@ 666
kristillis## 666
Latin## 666
ongelman## 665
tarkastella## 665
tetut 665
yhteisvastuu## 665
kerta 664
uutemme 664
edut 664
perust@@ 664
voitu 664
tuettava 664
jän 663
hankkeiden 663
koulutusta 663
hieno## 663
vaikeuksia 663
arvi@@ 663
saad@@ 663
esityksen 663
tarpeet## 662
nähd## 662
mies## 662
tilaisuutta 662
isina 662
suojella 662
hallinto 662
lailla 662
talousarvio 662
maanviljeli@@ 662
tasapaino 662
demokratia 662
tunto## 661
sulke## 661
hankkeita 661
pääoma## 661
kuussa 661
Kosovo## 661
vastainen 661
tet## 660
lik@@ 660
edessä 660
konferenssissa 660
antai## 659
alaisen 659
utua 659
uudistuksen 659
yydestä 659
tutkimus 659
isuudessa 659
ens@@ 659
yä 659
teiltä 659
ska## 659
os## 658
paikan 658
sisältö@@ 658
aikom@@ 658
ehkäisy## 658
uut@@ 657
käyttöön## 657
käsi@@ 657
allekirjo@@ 657
terveyden 657
uudelle 657
naapuri## 657
ym@@ 656
sie@@ 656
istunnon 656
tavanoma## 656
kulku## 656
hyödy## 656
py@@ 655
lainsäädäntö@@ 655
Maa@@ 655
hallinnoi## 655
ksellä 655
kap@@ 654
laaj@@ 654
hyväksy 654
tuot@@ 654
L 654
Scheng@@ 654
näkökoh@@ 653
keskinä## 653
tavasta 653
institution## 653
siirry## 653
tärke@@ 652
vapaa 652
Se@@ 652
turvapa@@ 652
liiton 652
aio 651
yyn 651
istus## 651
vastaista 651
koti@@ 650
mitta## 650
silmä## 650
sanoma## 650
politiikkojen 650
roko@@ 650
tehtiin 649
tuli 649
moott@@ 649
histor@@ 649
man 649
toimeen@@ 649
suosi## 649
saapu## 648
taloudellisesti 648
ongelmaan 648
vallo@@ 648
emmin 647
laitosten 647
takaa 647
tulosta 647
jolla## 647
ista@@ 646
ylimäärä## 646
katastro@@ 646
käynnissä 646
luonte@@ 646
selittä## 646
tuloksen## 645
hallinta## 645
yhtenä@@ 645
määrätieto## 645
hätä## 645
Makedonia## 645
työntekijö@@ 644
luottamus## 644
vastaus## 644
käsittelyä 643
rajoja 643
utus## 643
väh@@ 643
viljelijöiden 643
nosta@@ 643
ene## 642
asiakirjan 642
kumo@@ 642
sall@@ 642
miehen 642
valtuu@@ 642
luotta## 641
palja@@ 641
nti## 641
voitte 641
uudistamis## 640
lun 640
udu## 640
asteitta## 640
tahd@@ 640
äl@@ 639
taso 639
uhkaa 639
ediste## 639
ntä## 639
valloissa 639
llä## 639
yksin 639
Maro@@ 638
uskoa## 638
sijoitta## 638
kiire## 638
suoritta## 638
selke## 638
tteen 638
5## 638
rikollisuuden 638
kirjoit## 637
ohjelmasta 637
ammati## 637
menettelyssä 636
saavuttama## 635
strateg@@ 635
ill## 634
määräyksiä 634
vastaavan 634
tonn@@ 634
varova## 634
konflikti## 633
piiriin 633
jö## 633
seitse@@ 633
työntekijöitä 632
omasti 632
arvon 632
kaltaise## 632
alha@@ 632
taho@@ 631
ide## 631
kritiik@@ 631
mainitsi 631
tapahtumien 631
järjestyks@@ 630
ttivät 630
Do@@ 630
arvio## 630
laajen@@ 630
Län@@ 630
5. 629
tomia 629
puutu## 629
menesty## 629
valvo@@ 629
peto@@ 629
kantojen 629
vaalit 629
valmistelukunta 629
ntö 628
nel@@ 628
teksti 628
mit@@ 628
koke## 628
ian 628
jäsenenä 628
llisesta 628
pidettävä## 628
sen@@ 628
muoto## 627
mainitsema## 627
moraali## 627
itio## 627
enia## 627
teollisuu@@ 626
totu@@ 626
verran 625
mukaisia 625
etun 625
tettä 625
pito## 625
kuuluva## 625
kehittyne## 625
ssään 625
ranga@@ 625
tällöin 624
syvä## 624
ton@@ 624
liikenn@@ 624
sanottu 624
itettu## 624
taudin 624
Korea## 624
huomion 623
pu## 623
joustava## 623
Kar@@ 623
jan## 623
ohjelmaan 623
miljo@@ 623
tule 623
kapasite@@ 623
tlan@@ 623
lah@@ 622
ssaolo## 622
95 622
investointe@@ 622
viesti 622
valtiota 622
tilaisuuden 622
immä@@ 622
laill@@ 622
Göteborg## 621
tel## 621
maap@@ 621
kohtuull## 621
joukkojen 621
vi 621
elimiä 620
ttu@@ 620
ES 620
tämä@@ 620
asianosa## 620
la 619
teknis## 619
tapoja 619
alista## 619
ttele@@ 619
le## 619
vakaa## 619
rauhan@@ 619
teihin 618
vanho@@ 618
impia 618
täydentä## 618
instituu@@ 618
talous 618
pare## 618
viime@@ 618
tymis## 618
kkää## 617
vaik@@ 617
elämään 617
toiminnasta 617
työn@@ 616
Jugoslavia## 616
tama## 616
säh@@ 616
tilais## 616
p## 615
Nato## 615
mmaksi 615
määrittä## 615
täyden@@ 615
käsit@@ 615
kkau## 614
jouko@@ 614
maton 614
sisämarkkina 614
välttä## 614
rehu## 614
terveyttä 614
mieli## 613
rinna@@ 613
17 613
vastaan@@ 613
pä## 613
teura@@ 613
kia 612
dä## 612
keinoin 612
z## 612
kokoukseen 611
vaikut## 611
toimenpiteisiin 611
Per@@ 611
puolueiden 611
viikon 610
käsiteltävä 610
käydy## 610
aan## 610
osoittama## 610
tauti## 610
kasv@@ 610
3. 610
tap@@ 609
itsestään 609
mainittu 609
seur@@ 609
näke@@ 609
saav@@ 609
huoll@@ 609
Z@@ 609
ehdot 608
koulutukseen 608
haastee## 608
kaksin@@ 608
oles@@ 608
myö@@ 607
nime## 607
yllä## 606
ttom## 606
tapa## 606
koti## 606
kansa 606
tulokseen 606
kkä 606
erimiel## 606
mia## 606
4## 606
tiedottamis## 606
ulkoma## 606
du## 606
arkaluonte## 605
poistamis## 605
maailmaa 605
hylä## 605
Maailman 605
puheen@@ 604
poh@@ 604
palvelut 604
laitte@@ 604
vuo## 603
biolog## 603
lupa## 603
kiitokset 603
immät 603
annon 602
kene## 602
valtuuskunnan 602
kausi 602
tuote## 602
Prodi## 602
kohtelu## 601
sin## 601
opetu@@ 601
osta## 601
takoon 601
ou## 601
hylä@@ 601
omassa 600
kirjo@@ 600
llut 600
epäoikeudenmuka## 600
edun 600
Ar@@ 600
suunta## 599
kysymyks@@ 599
ssi## 599
pö@@ 599
ajate@@ 599
neitä 599
jäsenvaltio 599
tarkistuksesta 599
illä## 598
lisääntymis## 598
ymp@@ 598
take@@ 598
impiä 597
tehtävän 597
rahaston 597
näkökohdat 597
lta## 596
aikaansaa## 596
käteen 596
edetä 596
mainita## 596
empi 596
purka## 596
päätöslauselma 596
päte## 595
nykyaika## 595
ehdotuksista 595
makse## 595
ohja@@ 595
ponnist## 595
ilmaise## 595
koske@@ 595
aseiden 594
selvi@@ 594
suosit@@ 594
dyna@@ 594
muita## 594
huomatta## 594
väärin## 594
korvaa## 594
Fisch@@ 594
välisiä 593
järjestöt 593
tussa 593
:ta 593
varauks@@ 593
Tu@@ 593
periaatteet 592
uudistus 592
paho@@ 592
kumma## 592
harkitse## 591
ponnistelu## 591
tämme 591
tääkseni 591
äänestystä 590
ystäväll## 590
tonta 590
mut@@ 590
selke@@ 590
elin 590
seuraam## 590
ministerin@@ 590
äänty## 590
ema## 590
are## 590
04## 590
utuva## 589
demokraattinen 589
ratkaiseva 589
yhdenmukaistamis## 589
omista@@ 588
keino## 588
tunte@@ 588
ejä 588
daan 588
eläkeläis## 588
aine## 588
uudestaan 587
yttävä## 587
erillis## 587
tutustu## 587
tarjoama## 587
Saddam 587
yrittä@@ 586
arvoa 586
opiskel@@ 586
asta## 586
jolle 586
myönnettävä 586
af@@ 586
kuul@@ 585
ket@@ 585
sid@@ 585
kahteen 585
vuosikymmen## 585
seka@@ 583
keski@@ 583
perustuva 583
kiist@@ 582
pieni 582
mietinnöstä## 582
tode@@ 582
innovaatio## 582
toisen## 582
alalle 582
idä@@ 582
ber@@ 582
komitea 581
ktio## 581
keskusteluissa 581
määrärahat 581
tyhjä## 581
tuesta 580
ennakko## 580
:## 580
konser@@ 580
vaikutus@@ 580
kuljett@@ 580
muutos 579
ympäristön@@ 579
arvioit@@ 579
työskennel## 579
avoin 579
rahasto## 579
puite@@ 579
vaa## 579
viranomaisen 579
turvallisuudesta 579
perustuslaki 579
tapahtui 578
lukuun 578
aloitte## 578
Irlan@@ 578
pyrkivä## 578
muutosta 578
laivasto## 578
laisen 577
perustu## 577
tarkoitettu## 577
aloite## 577
käytettä@@ 576
vähenne## 576
hetki 575
tekijä## 575
luoda## 575
vaikutusten 575
käsittä## 575
ymmärrä 575
työn## 575
ei## 575
my## 575
Johannesburg## 575
yritys## 574
kossa 574
lo## 574
valita 574
tettä@@ 574
liittyvä 574
viesti## 574
saane## 574
hämmä@@ 574
rajoite## 574
tol@@ 574
juuri## 574
oppos@@ 574
istettu## 573
otto## 573
luota## 573
tarkistu## 573
kädessä 573
kyseenala@@ 573
teta 573
ivuotis## 573
teollisuus 573
C 573
kohtaisesti 573
mies 572
laadun 572
huolestune## 572
der 572
puhuja## 572
malle 571
do@@ 571
ston 571
hyvinvointi## 571
yhdist@@ 571
asen@@ 571
seikkoja 571
arab@@ 571
nutta 570
kot@@ 570
kaava## 570
suun@@ 570
kuule## 570
elv@@ 570
toteutetta## 570
alismi## 570
meja 570
otamme 569
radi@@ 569
tuhoa## 569
puutteell## 569
alkoh@@ 569
tuhans## 568
päätös## 568
kana## 568
kkaita 568
kyvyn 568
aiheu@@ 568
käytännöll## 567
tahtoa 567
mainittu## 567
käsit## 567
asettama## 566
jäävä## 566
ojen 566
työntekijät 566
ga@@ 566
painopistealue## 566
lainsäädännö@@ 565
mattomia 565
ore## 565
ati 565
pitäisi## 565
ajatusta 565
tellut 565
uutensa 564
antu## 564
painost## 564
yritä## 564
eva## 564
etty## 564
nuoriso## 564
kehityksestä 564
arvoste## 564
kohtu@@ 564
lääkkeiden 564
hyväksyttävä## 563
veron@@ 563
järjestelmästä 563
nais## 563
muutokset 562
kuull@@ 562
väestö## 562
piiri## 562
poliittisesta 562
uusi@@ 562
tuon 561
oikeuksiin 561
ttavissa 561
varaa 561
avoin## 561
Mon@@ 561
päätöslausel@@ 561
syitä 560
mää 560
udet 560
kuukautta 560
väl## 560
kalta## 560
joku 559
lia## 559
llisty## 559
br@@ 559
vastavuoro## 559
ivo@@ 559
haki@@ 559
kierro@@ 559
ero 558
tutk@@ 558
avoim@@ 558
valtuudet 558
itty@@ 558
ohella 558
kestävä 558
luvun 557
pala## 557
kysel@@ 557
pas@@ 557
kysymyksen## 557
lause@@ 557
vira## 556
tely 556
llisyyttä 556
vaikutuksista 556
liha## 556
EY 556
sosiaalidemokraatti## 555
tarkkaa## 555
pak@@ 555
piti 555
väistä## 555
läs@@ 555
ristiri@@ 555
kutsu@@ 555
aineita 555
uhre@@ 554
vastaava 554
uudella 554
viksi 554
tuet 554
tyh@@ 554
osasto## 554
ottanee## 554
viranomaisille 553
kara## 553
Iso## 553
isoi## 553
pääs@@ 553
jakau@@ 553
Euroopalle 553
kahdesta 553
lainsäädän## 553
yhdys@@ 553
poliittiseen 553
vuodeksi 553
pyynnön 552
mah@@ 552
täytäntöönpano 552
materi@@ 552
08 552
menettelyjen 552
Luxembur@@ 552
kehity@@ 552
suosi@@ 551
asiakirja 551
pap@@ 551
muodoll## 551
EY## 551
pahoittele## 550
poikkeus## 550
vaikutusta 550
ole@@ 550
määritellä 550
jälj@@ 550
Geneve## 550
gen 549
puhtaa## 549
vastaanotta## 549
sup@@ 549
vapaan 549
des@@ 549
päivää 549
jänn@@ 549
Intia## 549
arvois@@ 548
oikeutettu## 548
f## 548
hake@@ 548
:lle 548
rohke@@ 548
ttavien 547
sopimuksiin 547
nnista 547
vaihto@@ 547
jälke## 547
arvoja 547
17@@ 546
utti## 546
oikeutetusti 546
ympäristöön 546
itty## 546
altio## 546
maasta 546
valmiste@@ 546
tyy 545
kustannusten 545
suva@@ 545
etenemis## 545
työnanta@@ 545
istuva## 544
miehistö## 544
aloitetta 544
olog## 544
vaarassa 544
istama## 544
ote## 544
unoh@@ 544
kiih@@ 544
turvallis## 544
puolueet## 543
mus@@ 543
mennä 543
parlament@@ 543
1,@@ 543
kriisi## 543
Zimbabwe## 543
tivat 542
kio## 542
hedel@@ 542
uden 542
97 542
mattom## 542
puoli 542
tapaa## 542
yksiin 541
ona 541
vaikka## 541
minister@@ 541
välineiden 541
olosuh@@ 541
löyty## 541
diploma@@ 541
pääministeri## 541
huolta 540
oleell## 540
laadu## 540
ymmärr@@ 540
ton## 540
alti@@ 540
eksi@@ 540
kustann## 540
ehdotuksen## 539
vaihtoehtoja 539
intä 539
sotaa 539
oikeudellisen 539
myötä@@ 538
huume## 538
isi@@ 538
Th@@ 538
asiantun@@ 538
edustajia 538
pääsihte@@ 538
Li@@ 538
6. 537
kuljetta## 537
olema@@ 537
vaatimus 537
posti## 537
harjoitta@@ 537
televisio## 536
issa@@ 536
kki 536
jista 536
kiintiö@@ 536
4. 536
jöitä 536
alta@@ 536
palata 536
uhrien 535
torsta@@ 535
ustettu## 535
len@@ 535
tuomi## 535
Inter@@ 535
mmassa 535
nellä 535
väärin@@ 535
raa@@ 535
laajenn## 535
Venäjä 534
vierailu## 534
oikeud@@ 534
ominais## 533
konferenssi 533
asemaan 533
puheenvuoro@@ 533
aikais## 533
Puola## 533
ky 532
tarjou@@ 532
tod@@ 532
määriä 532
kalastuksen 532
Cor@@ 532
käsittely 531
96 531
kana 531
analyysi## 531
:tä 531
ikassa 531
tellusti 531
vasemm@@ 531
Bulgaria## 531
kaupung@@ 530
kyseenalais## 530
V 530
ismi## 530
monop@@ 530
köyhi## 530
ysi 529
Amsterdam## 529
neljänne## 529
mätöntä 528
puolet 528
suunnittelu## 528
:sta 528
kalatalous## 527
talouteen 527
Pakistan## 527
änsä 526
ampi## 526
seuraava 526
aion 526
vakautta 526
kommentoi## 526
välisten 526
väest@@ 526
eta 525
pyynnö@@ 525
mukaut## 525
hankki## 525
kieli## 525
Her@@ 525
0,@@ 525
lähtökohta## 525
puolust@@ 525
yleishyödy## 525
taloutta 524
ponnistelu@@ 524
oloissa 524
suojelu 524
tukia 524
järjestö 524
ttamaan 524
Sa@@ 524
kuuta 524
itto## 523
Bol@@ 523
muoto@@ 523
hallinn@@ 523
rahasto@@ 523
viest@@ 523
suuntaviiva## 523
ing@@ 523
välit## 522
häpeä## 522
levittä## 522
edistävä## 522
askel@@ 522
vetoomus## 522
K 522
toisia## 522
rannikko## 522
yhtiö## 521
ep@@ 521
kohdasta 521
kohdat 521
tehtävät 521
ansaitse## 521
politiikka## 521
kommunisti## 521
th@@ 521
son## 520
paikka## 520
lähte## 520
re 520
vin 520
todell@@ 520
korvaus## 520
21 520
iselta 520
ääri## 520
tetyn 519
painosta## 519
paikkansa 519
ttanut 519
tulk@@ 519
käyttäjä## 519
oli@@ 519
menojen 519
tekstiä 518
erään 518
ttäviä 518
luvu@@ 518
ehtoja 518
pakko 518
tarkastus## 518
vaihtoehto 518
henkilöitä 518
kuusi 518
yhdiste## 517
muualla 517
ge## 517
monenvälis## 517
kevää## 517
naapur@@ 517
päässee## 516
yksiselitte## 516
sitoumukse## 516
yksen## 516
laimin@@ 516
viestin 516
tor@@ 516
väliset 516
sattu## 515
säännöistä 515
kään## 515
dollari## 515
iteta## 515
ttö## 515
elo@@ 515
muutoksen 515
laiset 514
kra@@ 514
nöll## 514
syyttä@@ 514
luotava 514
ruu@@ 514
haitall## 514
hyö@@ 514
valtalais## 514
transa@@ 514
juh@@ 513
Europol## 513
nett@@ 513
helppo## 513
eräänla## 513
määrää@@ 513
rup@@ 513
seksuaali## 513
tehokkuutta 513
kohtal@@ 513
osassa 513
Gal@@ 513
palo## 512
ttyä 512
kolleg@@ 512
puolen 512
lainsäädännössä 512
petty@@ 512
tavoitteisiin 512
isto 512
sain## 512
feder@@ 511
Kre@@ 511
koko@@ 510
22 510
19 510
itor@@ 510
invest@@ 510
eiden 508
itsema## 508
id## 508
Y 508
rans@@ 507
käytännö@@ 507
Un@@ 507
isti## 506
muod@@ 506
sod@@ 506
Erik@@ 506
leg@@ 505
Az@@ 505
läp@@ 504
so## 504
kansala@@ 504
vaal@@ 504
EC@@ 504
sal@@ 503
Par@@ 502
pes@@ 502
aihe## 502
näkökul@@ 502
joust@@ 502
nis## 502
eg@@ 501
opp@@ 501
Ch@@ 501
elin## 500
ratifi@@ 500
net 499
umi## 498
dra@@ 498
keho@@ 498
100 497
olumb@@ 497
peä## 496
hyvin@@ 496
O 495
ttan@@ 495
menest@@ 494
ener@@ 494
maahanmuu@@ 494
ttö@@ 493
35 493
oa 493
ss@@ 493
tamis## 493
ol## 492
ue 492
bi@@ 492
í@@ 491
hyväks@@ 491
emp@@ 491
R## 491
ano## 491
turvallis@@ 491
vuoropuhel@@ 490
ali 490
ore@@ 490
julkilaus@@ 489
ian## 489
viljelijö@@ 488
isia## 487
kan## 487
kyky## 487
mik@@ 487
säily@@ 487
nau@@ 485
otti 485
kiito@@ 484
käsittel@@ 484
sani 484
Lan@@ 484
Af@@ 484
kuukau@@ 482
lisään@@ 482
yt## 482
x## 482
uude@@ 481
täs@@ 481
kanso@@ 481
mit## 481
ig@@ 480
ett## 480
Le@@ 480
kuun 479
go@@ 479
su## 479
Van 479
bru@@ 478
eng@@ 478
iso## 477
deksi 477
terveyd@@ 477
An@@ 476
budj@@ 476
du@@ 476
hyök@@ 475
Bur@@ 474
prior@@ 473
NL 472
täysi@@ 472
väll## 472
usla@@ 472
Car@@ 471
ity 471
mila@@ 470
loo@@ 470
tuomioistu@@ 470
24 469
tro@@ 469
ine 468
kansall@@ 467
ü@@ 466
og@@ 466
mätö@@ 465
pot## 465
komissi@@ 464
01 464
der## 464
kia## 464
kymmen## 463
yhdenmuka@@ 462
maailmanlaaj@@ 461
Euro 461
45 460
saan@@ 460
elintarv@@ 460
aie@@ 459
kerta@@ 459
OLA@@ 459
kre@@ 459
Tamper@@ 459
tapo@@ 457
tuke@@ 457
Mad@@ 457
itettava## 456
tr@@ 456
alainen 456
rauh@@ 456
mill@@ 455
ow@@ 455
suh@@ 454
laaju@@ 454
lim@@ 454
hi## 453
ler## 453
henkil@@ 452
23 452
27 452
ale## 451
bia## 451
ati## 450
yhden@@ 450
väkiv@@ 450
el 449
il## 449
kansa@@ 449
bio@@ 449
.000 449
La@@ 448
että## 447
saman@@ 447
Ca@@ 447
son 447
inf@@ 447
rikoll@@ 446
lau@@ 445
mieli@@ 445
92 445
liber@@ 445
kop@@ 444
ttämis## 443
ity## 443
ous 443
ellis## 443
co@@ 443
oikeuden@@ 443
kauppa@@ 443
nnön 440
qu@@ 440
lähest@@ 439
log@@ 439
matka@@ 439
velvoll@@ 439
atu 438
ij@@ 438
Ital@@ 437
Co@@ 436
neu@@ 435
Mc@@ 435
rien 435
suhta@@ 433
naapu@@ 433
jar@@ 433
14## 432
tehd@@ 432
issu@@ 431
x 431
500 431
hu## 431
tekijät 429
200 429
Bel@@ 427
osapuol@@ 427
Pa@@ 427
ess@@ 426
pöytä@@ 425
Poh@@ 425
Lu@@ 424
Algeria## 424
apu@@ 424
solida@@ 424
min## 423
94 423
yhti@@ 422
neuvottelu@@ 422
pon@@ 422
toiminta@@ 422
valmistelu@@ 422
impi@@ 421
kejä 421
ön@@ 421
pääst@@ 420
not 420
pet@@ 419
Espan@@ 418
I## 418
tri## 418
merkitse@@ 418
for@@ 418
ine## 417
del@@ 417
maatalou@@ 417
ba@@ 416
ympär@@ 416
pen@@ 416
käsittele@@ 415
kö## 415
sai@@ 414
ordin@@ 414
28 413
str@@ 413
ellä## 411
ck@@ 411
amb@@ 410
joll@@ 410
Egyp@@ 410
37 408
vapaa@@ 408
määräraho@@ 407
ktiiv@@ 407
tai@@ 406
är@@ 405
Presti@@ 405
tus@@ 404
Ser@@ 404
itur@@ 404
immä## 403
N 403
Ä@@ 403
teer@@ 403
sovell@@ 402
dell## 402
dell@@ 401
kin## 400
elintarvikke@@ 400
ittämis## 399
33 399
kys@@ 398
ug@@ 398
immäis## 395
roati@@ 395
D## 394
our@@ 393
kysym@@ 393
ehd@@ 392
aste@@ 392
rat@@ 392
Ka@@ 392
itsi 391
Husse@@ 391
valvon@@ 390
essa@@ 389
etene@@ 389
DR 388
Euroop@@ 388
Ruot@@ 387
sh@@ 387
ts 386
ea## 386
hark@@ 385
nop@@ 385
katso@@ 385
ike## 385
omaks@@ 385
h 384
dik@@ 384
do 384
ivä@@ 383
sad@@ 383
komite@@ 383
ge 383
75 381
15## 380
seud@@ 380
ang@@ 380
puhemie@@ 379
ida 379
Ang@@ 379
ei@@ 378
ykse## 378
02 378
uskonn@@ 378
Georg@@ 377
Lib@@ 377
yle@@ 376
ser@@ 375
ida@@ 374
ate@@ 373
29 373
jun@@ 373
Nig@@ 373
sin@@ 372
kumm@@ 372
tilin@@ 372
kulj@@ 372
sosiaal@@ 372
Atlan@@ 371
jäll@@ 371
ly## 370
suunnitelma## 370
Sahar@@ 370
Israel 370
gi@@ 367
26 366
Ru@@ 366
ituksi## 365
ment## 364
ola## 364
sti@@ 364
M 363
Na@@ 363
imperi@@ 363
puheenjohta@@ 363
ón 362
Slova@@ 361
93 360
esitte@@ 360
pann@@ 359
Or@@ 359
nuor@@ 358
Lam@@ 357
toi 357
koulutu@@ 356
Gar@@ 355
kär@@ 355
11.## 355
Vietna@@ 355
kaks@@ 354
48 353
ite 353
valio@@ 353
ire@@ 353
diste## 353
In@@ 353
varma@@ 352
lu## 351
prote@@ 351
55 351
tou@@ 351
ly 350
ksa## 350
itel@@ 349
mit 349
kkuu@@ 348
usk@@ 348
funda@@ 348
Galic@@ 348
istunnossa 347
puhel@@ 347
työs@@ 346
Bo@@ 346
Bu@@ 345
ria 344
mar@@ 344
ponn@@ 344
ler 344
ori 344
bio## 344
onnett@@ 343
ikkalais## 343
euro@@ 342
veto@@ 342
riippu@@ 342
pys@@ 342
Nor@@ 342
ipu## 341
llisyy@@ 341
New 341
toge@@ 340
rin## 339
neuvot@@ 339
kiinti@@ 339
R 338
kein@@ 338
kel 338
aman@@ 338
hasto## 337
uu 336
usi 336
gra@@ 336
eir@@ 336
valvonn@@ 335
Bro@@ 335
tuuri## 334
iel## 334
And@@ 333
koordino@@ 333
Ga@@ 333
stan@@ 332
alle@@ 332
kuule@@ 332
38 331
rahat 331
vetoom@@ 331
kokon@@ 330
Val@@ 330
05## 329
dessä 329
via## 329
neljä@@ 328
sit 327
Araf@@ 327
ra 326
veto 326
ú@@ 326
ter## 325
91 325
onia 325
eria## 325
kust@@ 324
ete@@ 323
32 323
liiken@@ 323
WTO 323
ino 322
ter 322
31 321
kiin@@ 321
ven## 320
anc@@ 320
lä## 319
yksity@@ 319
36 318
49 318
yhtä@@ 317
puolue@@ 317
herä@@ 316
pett@@ 316
aja 315
89 315
voi@@ 315
9## 315
jaks@@ 315
dig@@ 315
tur## 314
39 314
um## 314
parlamenti@@ 313
vastaav@@ 313
uudell@@ 313
kans@@ 313
para## 312
Indonesi@@ 312
sivi@@ 311
Niel@@ 311
Di@@ 311
esiin@@ 310
grad## 310
matku@@ 310
Bla@@ 310
lev@@ 308
idät 306
ulott@@ 305
ken 305
sih@@ 305
luotta@@ 305
mas@@ 304
Sw@@ 304
kulje@@ 303
ent## 302
sig@@ 302
di 302
fin 301
&#91; 301
&#93; 301
stel@@ 300
void@@ 300
ban@@ 300
lli## 299
ympäristö@@ 299
ul## 299
musten 299
anta## 299
pyr@@ 298
yritys@@ 298
ker## 298
mala## 298
Mar## 297
etel@@ 297
M## 296
42 296
kamp@@ 295
ympärist@@ 295
vina 295
kump@@ 295
toivo@@ 295
Yor@@ 294
sääd@@ 294
itusta 293
laa@@ 293
De 292
é 292
hien@@ 289
nyky@@ 289
palau@@ 289
46 289
viljeli@@ 288
ene@@ 288
44 288
Mol@@ 288
don## 286
ation 286
ussa 286
bud@@ 286
taud@@ 286
al 285
Sud@@ 285
c 284
lämp@@ 284
41 283
jur@@ 283
ele## 282
mer## 282
haa 282
allis## 281
21## 281
Ge@@ 281
ttoaine## 281
ust## 280
varmis@@ 280
omen 280
Med@@ 279
työttö@@ 279
34 279
Mic@@ 279
maahan@@ 279
ub@@ 278
sia## 277
lopp@@ 277
Ba@@ 277
be@@ 276
dez 276
ston@@ 276
ur## 276
ck 275
asian@@ 275
epäil@@ 275
ir## 275
ci@@ 274
43 273
Taiw@@ 273
ir 272
65 272
tuhan@@ 272
71 271
osall@@ 271
IN## 270
p 270
trag@@ 270
jö@@ 269
pii@@ 269
Fran@@ 269
ron 268
ede@@ 267
Go@@ 267
öl@@ 267
pos@@ 267
ato## 267
Kalin@@ 267
uro@@ 266
20@@ 265
c## 265
ch## 265
luj@@ 264
Ne@@ 262
51 262
yll@@ 262
NG@@ 262
emb@@ 262
Ann@@ 262
imen@@ 261
Fatuzz@@ 261
Rom@@ 261
merkity@@ 261
.@@ 260
av## 260
of 260
teis## 260
03 260
b## 260
Ira@@ 260
em## 259
imp@@ 259
kest@@ 259
istan 259
99 258
tella## 258
gen@@ 257
istö 257
oc@@ 257
kou@@ 256
yhteistyö@@ 256
ikan 256
one## 255
lann@@ 255
hom@@ 255
reä## 254
bar@@ 253
ik## 253
Washing@@ 253
Lon@@ 252
Mont## 252
tymä## 251
ven 250
bi## 248
B## 248
tion@@ 248
its@@ 247
od 247
b 247
jav@@ 247
tämän@@ 246
top@@ 246
che@@ 246
vat@@ 245
Es@@ 245
integra@@ 245
go## 245
asio@@ 244
pan## 243
mietintö@@ 243
säil@@ 243
Eng@@ 242
palj@@ 242
poli@@ 242
bel@@ 241
ier 241
ittäis## 241
ck## 240
il 240
V## 240
ntä 240
Lat@@ 240
just## 240
mb@@ 239
Afrik@@ 239
alli@@ 239
x@@ 239
ch 237
Br@@ 237
pani## 237
ola 237
nö@@ 237
ania 237
Age## 236
tiety@@ 236
yksin@@ 236
infrastruk@@ 235
end@@ 235
kut 235
ad## 234
Pu@@ 234
Mac@@ 234
sissa 233
koheesi@@ 233
anti@@ 232
kut@@ 232
ves@@ 232
ikke@@ 232
Tal@@ 232
fe@@ 231
ona## 231
kii@@ 231
dis@@ 230
v 229
fil@@ 229
vu@@ 229
Ri@@ 229
dit 229
marg@@ 229
ash@@ 228
kolle@@ 228
Gen@@ 228
markkin@@ 227
So@@ 226
our 226
ate## 226
amu@@ 226
got 226
tug@@ 226
gene@@ 226
Q@@ 225
ov 225
rak@@ 224
maatal@@ 224
ivasto## 223
Pe@@ 223
Bush 223
co 222
varain@@ 222
euro 222
En@@ 222
ere## 221
heugen 221
ette@@ 220
tiete@@ 220
Qu@@ 220
löy@@ 219
ull## 219
kaik@@ 219
den@@ 218
aikataul@@ 218
pur@@ 218
rann@@ 218
De@@ 218
nnö@@ 217
th 217
fin@@ 217
ania## 217
CA@@ 217
ratkais@@ 216
Ara@@ 216
ers 215
interven@@ 215
Palacio 215
ff@@ 215
bo@@ 215
fal@@ 214
omin@@ 214
yhteyd@@ 214
ssa@@ 213
tak@@ 213
iel@@ 213
ry 212
tuur@@ 211
mar## 211
yssel@@ 211
hist@@ 211
up@@ 211
Euro## 210
lähestymis@@ 209
Bosn@@ 209
ktor@@ 209
Lamy 209
Sta@@ 208
markkina 207
hav@@ 207
ry@@ 207
urhe@@ 207
jois## 206
ion@@ 206
mid## 206
ard## 205
jot@@ 205
ass@@ 205
ensi@@ 205
Berluscon@@ 205
time## 204
12@@ 204
tarkas@@ 204
symbol## 204
isel@@ 204
ström 203
alkuper@@ 203
Amer@@ 201
j 201
the 201
järjestö## 201
heug@@ 201
atal@@ 201
yssä 200
eko 200
sill@@ 200
ic## 200
istunn@@ 199
Da@@ 199
työllisyy@@ 199
kilpa@@ 199
imin@@ 199
dy 199
yste@@ 198
usten## 198
toimenpi@@ 198
perustel@@ 197
kommun@@ 197
uaali## 197
mma@@ 195
tor## 195
org@@ 195
enta@@ 194
ard 194
za## 193
hyvinvo@@ 193
è@@ 193
ktiiv## 193
talais## 192
pul@@ 192
sovelle@@ 192
istumis## 192
N## 192
legit@@ 192
ill 191
huolen@@ 191
pöy@@ 191
gan@@ 191
eva 190
ure## 190
inter@@ 190
symb@@ 190
J## 189
one 188
yhteenkuulu@@ 188
æ@@ 188
vuoro@@ 187
no## 187
Alban@@ 187
miljar@@ 187
solu@@ 187
Re@@ 186
ehkäis@@ 186
Ja## 184
Is@@ 184
oll## 184
itaar## 184
uc@@ 184
perusoikeus@@ 184
kehitty@@ 183
rah@@ 183
kilpailu@@ 183
opis@@ 182
hdo@@ 182
käyttö@@ 182
kansalais@@ 182
atte@@ 182
ver## 182
suuntavi@@ 181
IV 181
F 180
uni@@ 180
lähtö@@ 180
Hussein 180
prof@@ 180
tasa@@ 179
medi@@ 178
lly 178
teg@@ 178
De## 177
nnö## 177
ses@@ 177
ean 177
of@@ 177
L## 175
ylim@@ 174
der@@ 174
ed 174
ba## 173
ord@@ 173
f 173
saata@@ 172
gh@@ 172
ise 171
1.## 171
card 171
we@@ 170
the@@ 169
&@@ 169
Palac@@ 169
välia@@ 169
Gro@@ 169
dam## 169
Bosnia 168
entti 168
edisty@@ 168
arr@@ 167
painop@@ 167
hdoll@@ 167
monit@@ 167
lista## 167
ban## 167
kiire@@ 166
ian@@ 166
G## 165
ttuu@@ 165
torjun@@ 165
hon@@ 165
dipl@@ 164
elli## 164
ron@@ 164
ile 163
Ky@@ 163
are@@ 163
pol 163
aw@@ 163
haa## 162
pano 162
ry## 162
Berlusconi 162
huole@@ 161
im 161
arian## 161
äärä## 161
ota@@ 161
Mon## 160
fos@@ 160
rek@@ 160
ó@@ 160
laitt@@ 160
visio## 159
Fra@@ 159
OLAF 158
öö@@ 158
sm@@ 158
ish 157
itsen@@ 157
uva 157
ski 157
th## 156
no 156
He@@ 156
usti 155
tilann@@ 155
monen@@ 155
net## 155
tem## 155
orm@@ 155
W## 155
if@@ 154
att## 153
fran@@ 153
kie@@ 153
strö@@ 153
kommen@@ 153
HO 153
inten@@ 152
union@@ 152
B 152
AT@@ 152
opt 152
riv@@ 150
ert 150
ro 150
menn@@ 150
lob@@ 150
geo## 150
ò@@ 150
co## 149
Europe 149
analyy@@ 149
mor@@ 149
ive 149
kais## 148
öy@@ 148
presid@@ 146
visi@@ 146
asett@@ 146
ark@@ 145
anti 145
oun@@ 145
anska## 144
vähe@@ 144
tic@@ 144
ponnis@@ 143
05 143
Y## 143
per## 141
adop@@ 141
eläk@@ 140
ous## 140
vis## 140
teki@@ 139
koros@@ 139
hd## 138
land## 138
ree## 138
utin## 138
bus@@ 138
bro@@ 138
fa@@ 137
inhim@@ 137
Eurostat 137
keskustelu@@ 136
agg@@ 136
kristi@@ 136
w## 135
Bal@@ 135
und@@ 135
ar 135
abort## 135
mun@@ 134
ers## 133
tar## 133
promis## 133
Tra@@ 133
rou@@ 132
od@@ 132
end## 131
super## 131
Bulgaria 131
NAT@@ 130
+ 130
neg@@ 130
oin 130
äär@@ 130
ksuaali## 130
puol## 130
esitys@@ 129
Brok 129
prov@@ 129
Por@@ 129
rad@@ 129
ss## 128
lab@@ 128
ve 128
ion## 127
dist@@ 127
plan@@ 127
milit@@ 127
bour## 127
id 126
Kuu@@ 126
aamu@@ 126
Wh@@ 126
od## 126
onia## 126
ad 125
qui@@ 125
sist## 124
toden@@ 124
04 124
men 124
mää@@ 123
wa@@ 123
G 122
Korea 122
use 122
taul@@ 121
dt 121
peria@@ 121
pre@@ 121
spe@@ 120
for 119
sosiaali@@ 119
muistu@@ 119
Iran 119
essi@@ 119
fu@@ 119
tab@@ 118
ope## 118
plu@@ 118
# 118
käs@@ 118
ban 118
est## 117
ea@@ 117
tär@@ 117
tiedä@@ 117
gar@@ 117
be 117
hap@@ 117
perustusla@@ 117
istan## 117
lat## 116
väline## 116
ren@@ 116
Roman## 115
gro@@ 115
go 115
ran 115
sp@@ 115
bour@@ 115
rap@@ 114
Am@@ 114
tiedotus@@ 114
ave## 114
demokraatt@@ 114
une## 112
mot## 112
yksityis@@ 112
line## 112
ã@@ 111
himo## 111
acqu@@ 111
vaihtoeh@@ 110
or 109
national 109
ce@@ 109
ine@@ 108
moder@@ 108
bet@@ 108
06 108
hetke@@ 108
pri@@ 108
Å@@ 108
be## 107
assosi@@ 107
­ 107
rauta@@ 107
tre@@ 107
land 107
met 107
vuos@@ 106
mmen@@ 106
U 106
risti@@ 106
eria 106
päätös@@ 106
Sad@@ 106
à@@ 106
pop@@ 105
vapaaeh@@ 105
pat@@ 105
wit@@ 105
Mo@@ 104
07 104
täytäntö@@ 104
uudis@@ 104
arti@@ 104
enna## 104
amer@@ 104
by@@ 103
pun@@ 102
tes 102
rig@@ 102
ann## 102
ss 102
järjestä@@ 102
Min@@ 102
lähesty@@ 102
alku@@ 102
Ukra@@ 102
ga## 101
her## 101
tälla@@ 101
ê@@ 101
forma@@ 100
ituu@@ 100
maailman@@ 100
jel@@ 99
ment 99
apain@@ 99
X@@ 99
muka## 99
Fr@@ 99
AK@@ 99
päätöksen@@ 98
lause 98
reas@@ 98
viim@@ 97
ivast@@ 97
ap## 97
vähemm@@ 97
ME@@ 96
arkaluon@@ 96
eder@@ 96
w 95
piiri@@ 94
Hu@@ 94
dire@@ 94
vuosi@@ 93
Á@@ 93
Sep@@ 93
semm@@ 93
dr@@ 93
control## 93
organ@@ 92
aino@@ 92
ettel@@ 91
Pal@@ 91
ning 90
välttä@@ 90
op## 90
sihte@@ 90
ac## 90
ø@@ 90
alist## 89
ick## 89
pla@@ 89
field## 88
0.## 88
temp@@ 88
national## 88
euroopp@@ 88
out 88
allen@@ 88
yhteist@@ 87
hard 87
iet@@ 87
human@@ 87
ade@@ 87
Jo## 86
hur@@ 86
Ger@@ 86
As@@ 86
bel## 86
iz@@ 85
Ban@@ 85
ber 85
ric@@ 85
ach@@ 84
periaat@@ 84
Afgan@@ 84
ion 83
yhteiskunn@@ 83
ous@@ 83
nati@@ 82
AC## 82
nimen@@ 82
take## 82
stra@@ 82
ors 82
Maked@@ 82
und## 82
ž@@ 82
Pre@@ 81
pus@@ 81
itetta 81
just 81
am 80
car@@ 80
hä## 80
we## 80
tuoll@@ 80
inc@@ 79
tapah@@ 79
Irlann@@ 79
imä## 79
argument## 78
enna 78
tion## 78
gent## 78
jäs@@ 77
ï@@ 77
tri@@ 77
mann## 77
head## 77
mmik@@ 77
Britann@@ 76
set## 76
teu@@ 76
stat@@ 76
ary 76
huo@@ 76
ca@@ 76
itt## 75
konkre@@ 75
komis@@ 75
tilan@@ 75
World 74
ner## 74
mas 73
pl@@ 73
sosiaalitur@@ 73
par## 73
pr@@ 73
Demo@@ 73
lainsäädä@@ 73
plan## 73
influ@@ 73
Brit## 72
ily 72
sub@@ 72
ittee## 72
eik@@ 72
ç@@ 72
ff## 72
del 71
kno@@ 71
Her## 71
gas 71
cu@@ 71
javalti@@ 71
torj@@ 70
ehdokas@@ 70
wle@@ 70
Sto@@ 70
taloudell@@ 69
and## 69
som@@ 69
ensu## 69
all 69
help@@ 68
ed## 68
H## 68
ant## 68
kiit@@ 68
argu@@ 68
pe 68
à 68
ster@@ 68
ce## 68
sel## 68
keskuste@@ 66
äs 66
Fin@@ 66
ies 66
bia 66
vää## 66
Pakistan 66
burg## 66
Zimbabwe 66
the## 65
big 65
Pro@@ 64
syste@@ 64
EC 64
ign@@ 64
demo@@ 64
Liber@@ 64
rest 64
con@@ 63
umb@@ 63
ord## 63
pra@@ 63
termin@@ 63
ñ@@ 63
patent## 63
á 63
idea## 62
sav@@ 62
painopiste@@ 62
veh@@ 62
Alg@@ 62
sas@@ 62
put 62
ediste@@ 62
Ö@@ 62
neuvost@@ 62
meat 62
DS 61
lia@@ 61
pill@@ 61
ast## 60
Le## 60
bur@@ 60
Pro## 60
ick 60
esimer@@ 59
ou 59
itsest@@ 59
aikaan@@ 59
Palest@@ 59
Com## 59
dest@@ 59
over## 58
polit@@ 58
ó 58
hop@@ 58
mari## 58
jäsenvalti@@ 58
J 58
separ@@ 57
tama 57
inter## 56
fel@@ 56
ff 56
ic 56
mahdoll@@ 56
dou@@ 56
kyse@@ 56
lova@@ 56
put## 55
edell@@ 55
too 55
ant 55
Po## 55
ig## 55
Ag@@ 55
parlamenta@@ 54
X 54
Con@@ 54
ula@@ 54
ist 54
era@@ 53
Ro## 53
Ex@@ 53
naa@@ 53
Con## 53
valu## 53
Bar## 53
esten 53
ye@@ 53
Ju## 52
fi## 52
hope## 52
ex@@ 52
ey@@ 51
rid 51
ong## 51
Isla@@ 51
tain## 51
doll@@ 50
Dev@@ 50
ute## 50
ec@@ 50
fil## 50
ct 50
LA@@ 50
mate## 49
rist## 49
well 49
um 49
line 49
Women 49
harmon@@ 49
erin@@ 49
liberal## 49
ï 49
ord 48
com## 48
Hi@@ 48
olev@@ 48
main## 48
ue## 48
ence 48
lo 48
Lis@@ 48
ked@@ 48
EU@@ 48
Inter## 47
fur@@ 47
ase 47
for## 47
mid 47
kenn@@ 47
Char## 47
kinä## 47
Ven@@ 46
ner 46
ace 46
dele@@ 46
ent 46
Kal@@ 46
annes@@ 46
sis 46
PE 46
ally 45
amma@@ 45
Gö@@ 45
ymm@@ 45
House 45
iselitte## 45
ph@@ 45
sc@@ 45
wait## 45
ish## 44
big## 44
shi@@ 44
om 44
0 44
Ha## 44
hler 44
vamma@@ 43
hag@@ 43
The 43
bab@@ 43
diff@@ 42
majo@@ 42
uro 42
los## 42
ling 42
Unit## 42
soci@@ 42
ude 42
zz@@ 42
í 42
atlan@@ 42
cel@@ 41
France 41
mom@@ 41
toissija@@ 41
kunnian@@ 41
ò 41
ese 41
mal## 41
cal@@ 41
off## 41
tutu@@ 40
tulis@@ 40
sum## 40
reg@@ 40
fis@@ 40
site@@ 40
Kosovo 40
element## 40
and 40
head 40
ational 40
gh 40
univ@@ 40
kok@@ 40
ers@@ 40
vel## 39
we 39
mark@@ 39
energ## 39
valv@@ 39
mul@@ 39
ore 39
joulu@@ 39
Etel@@ 39
ce 39
Human 39
him@@ 39
st 38
def@@ 38
idea 38
ex## 38
Au@@ 38
cor@@ 38
gr@@ 38
hagen 38
innovaati@@ 38
ance 38
ich 38
human## 38
vol@@ 38
gan## 38
ren 37
mob@@ 37
mer 37
tetusti 37
blo@@ 37
cial 37
Bur## 37
risk## 37
ach 37
ess 36
by 36
ong 36
dro@@ 36
aid 36
US 36
Kos@@ 36
Joh@@ 36
age## 36
desi@@ 36
Tampere 36
NATO 35
hurs@@ 35
tor 35
atalous## 35
fo## 35
rit## 35
gn## 35
Fa@@ 35
meet 35
rel## 35
market## 34
hein@@ 34
her 34
hie@@ 34
cy@@ 34
reite@@ 34
ave 34
ose## 34
hdot## 34
tra## 34
töm## 34
over@@ 34
jour@@ 34
ft## 34
trans@@ 34
COM 33
siih@@ 33
star@@ 33
iina## 33
Energy 33
minu@@ 33
enti## 33
thy 33
bra@@ 33
up 33
Lä@@ 33
atten@@ 33
ß@@ 33
cy 32
vois@@ 32
dia## 32
aver@@ 32
arm## 32
Pa## 32
hi 32
my 32
cal 32
äs@@ 32
operation## 32
institu@@ 32
sensu@@ 32
gh## 31
port## 31
ique 31
La## 31
rat## 31
Union 31
aff@@ 31
Stra@@ 31
ost 30
1.@@ 30
nal 30
Ener@@ 30
Bud@@ 30
up## 30
välit@@ 30
mag@@ 30
eläis## 30
ld 30
yo@@ 30
ud 30
Fis@@ 30
inv@@ 29
mei@@ 29
Cr@@ 29
ation## 29
pat## 29
valu@@ 29
age 29
Yhd@@ 29
kolm@@ 29
tion 29
ice 29
mini## 29
sur## 29
cou@@ 29
hab@@ 29
mielenkiin@@ 28
ood 28
Niz@@ 28
Poli## 28
East 28
air## 28
Zim@@ 28
tw@@ 28
Tai@@ 28
pro## 28
spi@@ 28
lar@@ 28
ippu## 28
que 28
arante@@ 28
shor@@ 28
human 28
stitut## 28
Wor@@ 28
cat@@ 28
Re## 27
fun@@ 27
muni## 27
lan 27
poliit@@ 27
Trade 27
sus@@ 27
col@@ 27
parti@@ 27
No## 27
foor@@ 27
ail 27
ale 27
ende@@ 27
opt## 27
xemb@@ 26
militar## 26
In## 26
ivät## 26
W 26
control 26
ild## 26
ille@@ 26
ate 26
back 26
Se## 26
Bas## 26
pub@@ 26
wi@@ 25
can 25
pur## 25
Bos@@ 25
ulkom@@ 25
dä@@ 25
per 25
ntö@@ 25
ô@@ 25
Sha## 25
ket## 25
eye 25
con## 24
que## 24
mis 24
æ 24
out## 24
West 24
vastavuo@@ 24
law 24
Ver## 24
red## 24
air 24
art 24
side 24
eth@@ 23
ung## 23
div@@ 23
burg 23
ery 23
flik@@ 23
fin## 23
EC## 23
him 23
ice## 23
car## 23
ippu@@ 23
É@@ 23
Trans## 23
cra@@ 23
are 22
pol## 22
est 22
reser@@ 22
ction 22
bu@@ 22
ture 22
sche@@ 22
pyrkiv@@ 22
viv## 22
ium 22
käyd@@ 22
proble@@ 22
happ@@ 22
Co## 22
lausel@@ 22
ze@@ 22
ouse 22
ef## 22
ol 22
ical 22
Bel## 22
Reg@@ 21
ct## 21
clear 21
Gre@@ 21
mod## 21
bal@@ 21
Com@@ 21
bon 21
vari## 21
thou@@ 21
ince 21
rakennera@@ 21
hetk## 21
ope 21
Ó 21
will## 20
media 20
ister@@ 20
ath 20
til## 20
dam 20
call 20
ding 20
organ## 20
sho@@ 20
pend## 20
Α@@ 20
Ε@@ 20
govern## 19
jella 19
elime## 19
Strasbourg 19
ago 19
prin@@ 19
ohe@@ 19
ittee 19
maj@@ 19
will 19
Soc@@ 19
celona 19
val 19
sensus 19
Americ@@ 19
kuning@@ 19
ab## 18
yö 18
ess## 18
atetta 18
sion 18
post## 18
abil@@ 18
peri@@ 18
cr@@ 18
% 18
itys@@ 18
thu## 18
ft 18
Kio@@ 18
neuvottel@@ 18
Health 18
GM## 18
ld## 18
lif@@ 18
progress## 17
mmä## 17
eag@@ 17
ream## 17
Jugosla@@ 17
Group 17
DP 17
wn## 17
pos## 17
fra@@ 17
tal 17
mal 17
ityis## 17
pet## 17
ow## 17
ility 17
Communi## 17
Nov@@ 17
− 17
work 16
poli## 16
instrument## 16
list## 16
Ä 16
abs@@ 16
Jan## 16
struk@@ 16
cla@@ 16
eken 16
äkuu## 16
cho@@ 16
over 16
teri@@ 16
fil 16
nal## 16
Indus## 16
intell@@ 16
und 16
enter## 16
rela@@ 16
cour@@ 16
arm 16
liitty@@ 15
viivä@@ 15
trans## 15
marras@@ 15
uno@@ 15
ci## 15
ress## 15
vastav@@ 15
Just## 15
hön 15
fr## 15
uc## 15
Brit@@ 15
row 15
war 15
dom@@ 15
inalais## 15
Doha 15
q@@ 15
ref@@ 15
row## 15
bas## 15
lis## 15
opu## 14
kustan@@ 14
dom 14
gre@@ 14
tru## 14
Office 14
öno@@ 14
fer@@ 14
popula@@ 14
dec@@ 14
ze 14
samo@@ 14
tru@@ 14
top 14
gradu@@ 14
how 13
monetar## 13
bil## 13
ult## 13
gy@@ 13
ative 13
join@@ 13
dis## 13
kettä## 13
low 13
ration 13
lines 13
mine 13
mod@@ 13
try 13
bed 13
alter## 13
ping 13
br## 13
Hus@@ 13
Johannes@@ 13
then@@ 12
old 12
q 12
isation 12
Council 12
off 12
ë@@ 12
tent 12
ture## 12
business 12
Lissa@@ 12
Soci## 12
make## 12
harm## 12
gu## 12
hope 12
mun## 12
cha@@ 12
net@@ 12
ns 12
ind## 12
ach## 12
wn 12
ther 12
ici@@ 12
simp@@ 12
cies 12
Dire@@ 12
mark 12
multila@@ 12
mietin@@ 12
cho## 12
iev## 12
jois 12
· 11
Vi## 11
Organ## 11
get 11
pan 11
Tour## 11
fo@@ 11
Dan## 11
eder## 11
ory 11
vel 11
ader## 11
General 11
acc@@ 11
ust 11
Free## 11
meet## 11
Commission 11
instru@@ 11
öin 11
ried 11
side## 11
com@@ 11
repe@@ 11
clause 11
mor## 11
ú 11
täll@@ 11
ional 10
refle@@ 10
inst@@ 10
kuin@@ 10
gg## 10
field 10
Rus@@ 10
ver 10
fla@@ 10
abo## 10
adi## 10
nce 10
ear@@ 10
Götebor@@ 10
ble 10
bor@@ 10
Che@@ 10
non 10
spo@@ 10
cro@@ 10
ort## 10
Security 10
lack 10
pati@@ 10
North## 10
mber## 10
cracy 10
ow 10
č@@ 10
sou@@ 9
add@@ 9
State 9
fact## 9
CAP 9
port 9
mina## 9
Port## 9
eve## 9
hold 9
viran@@ 9
tim## 9
vic@@ 9
tra 9
wor@@ 9
arian 9
appe@@ 9
ure 9
US## 9
main 9
reli## 9
char@@ 9
share 9
gg@@ 9
reign 9
mekan@@ 9
säädä@@ 9
People 9
Í@@ 9
fri@@ 9
manu@@ 9
nel 9
motion## 9
cl@@ 9
Cub@@ 9
mong 9
ł@@ 9
ė@@ 9
ė 9
ference 8
Ü@@ 8
non## 8
way 8
duc@@ 8
ual 8
atit 8
ial 8
work## 8
å@@ 8
rs 8
pre## 8
get## 8
aga@@ 8
prosent@@ 8
paremm@@ 8
lad## 8
right 8
promis@@ 8
touko@@ 8
Ir@@ 8
gla@@ 8
ities 8
able 8
udit## 8
pres@@ 8
produ@@ 8
û@@ 8
Envir@@ 8
bre@@ 8
assu@@ 8
mark## 8
Kööpenha@@ 8
king 8
Fund 8
maalis@@ 8
rest## 8
demon@@ 8
South 8
sea## 8
global## 8
vice 8
mber 8
itiik@@ 8
ern 8
Ι@@ 8
ries 8
with 7
lea@@ 7
way## 7
material## 7
ever## 7
illis## 7
hap## 7
syys@@ 7
not## 7
aih@@ 7
tive 7
ß 7
ips 7
ket 7
table## 7
ottan@@ 7
part@@ 7
Spa## 7
fence 7
mb## 7
group 7
if 7
State## 7
fir@@ 7
No 7
Bank 7
dic@@ 7
red 7
Cour## 7
asis## 7
Africa 7
with## 7
our## 7
ensin@@ 7
house 7
ital 7
compromis## 7
ask## 7
form 7
see@@ 7
tain 7
UK 7
ance## 6
isl## 6
own 6
lait@@ 6
Q 6
under## 6
depend@@ 6
bla@@ 6
bac@@ 6
good 6
ism 6
regula@@ 6
Pat## 6
bar## 6
ever@@ 6
operation 6
North 6
President## 6
table 6
democrat## 6
fro@@ 6
link## 6
ates 6
sic## 6
Tran@@ 6
aikav@@ 6
public 6
play## 6
limit## 6
stand 6
person## 6
lanko## 6
end 6
sec@@ 6
day 6
WT@@ 6
system 6
eteen@@ 6
global 6
Fund## 6
ass## 6
ency 6
Tam@@ 6
far 6
terran@@ 6
mausaine## 6
court 6
ioistu@@ 6
ere 6
reform## 6
Berl@@ 6
cre@@ 6
pie@@ 6
agri## 6
seng@@ 6
Ι 6
Off@@ 6
Memb@@ 5
have 5
peace## 5
ute 5
employ## 5
practice 5
ferens@@ 5
tammik@@ 5
Africa## 5
ester@@ 5
fare 5
vention 5
ettely 5
trial 5
§ 5
regulation 5
market 5
ration## 5
Economic 5
dependent 5
join## 5
ward 5
täntö@@ 5
loka@@ 5
act## 5
futur## 5
represent## 5
â@@ 5
ted 5
qual## 5
ior 5
change 5
count## 5
tran@@ 5
start 5
hop## 5
fied 5
multi## 5
individ@@ 5
rule 5
labour 5
ship 5
pri## 5
onal 5
soci## 5
ace## 5
cust@@ 5
acy 5
peace 5
Ê@@ 5
fer 5
por## 5
gener@@ 5
ison 5
ild 5
stru@@ 5
trade 5
coll@@ 5
rence 5
beg@@ 5
ways 5
ology 5
sign## 5
run 5
Fish## 5
profit 5
ular 5
fight## 5
East## 5
logical 5
deg@@ 5
ep 5
ical## 5
Cha@@ 5
farm## 5
reas## 5
¤ 5
sid## 5
ious 5
entr## 5
hand## 5
Ν@@ 5
unti@@ 5
š 5
Š@@ 5
ict 4
rule## 4
cer@@ 4
stand## 4
let 4
prog@@ 4
fic 4
ugu@@ 4
ast 4
talk## 4
wait 4
pr## 4
è 4
cot## 4
Ind@@ 4
allo@@ 4
Ö 4
ground 4
Secur@@ 4
ordination 4
vent## 4
q## 4
reduc## 4
urge## 4
ght 4
Econom@@ 4
partner## 4
cap@@ 4
thir## 4
Convention 4
Coun@@ 4
sib@@ 4
low## 4
med@@ 4
act 4
bon## 4
= 4
build## 4
right## 4
mum 4
ever 4
p.@@ 4
ful 4
gue 4
ition 4
ose 4
fac@@ 4
power 4
cul@@ 4
tempo## 4
grat## 4
Home 4
vul@@ 4
Green## 4
fair 4
you 4
poin@@ 4
EUR 4
p.m@@ 4
ì@@ 4
ural 4
Parliament 4
Democrat## 4
ask 4
legal## 4
cen@@ 4
loc@@ 4
again## 4
ound 4
budget## 4
op 4
Agri## 4
culture 4
ists 4
ety 4
anim## 4
gal 4
St## 4
India 4
Public 4
″ 4
• 4
* 4
icial 3
regulation## 3
icul@@ 3
ecu## 3
vuon@@ 3
legal 3
reserva@@ 3
clu@@ 3
process## 3
action## 3
public## 3
four 3
chan@@ 3
under@@ 3
cru@@ 3
back## 3
ize 3
lock## 3
past 3
ions 3
them 3
under 3
ief 3
tho@@ 3
reat## 3
È@@ 3
econom@@ 3
art## 3
ugosla@@ 3
learn## 3
ple@@ 3
å 3
tent## 3
term 3
Minister## 3
tal## 3
ù 3
langu## 3
ree 3
prise 3
cand@@ 3
stitu@@ 3
maus@@ 3
fact 3
part## 3
Commission## 3
stro@@ 3
volun@@ 3
two 3
wh@@ 3
must 3
President 3
term## 3
join 3
spec## 3
ence## 3
equ@@ 3
Bryssel@@ 3
_ 3
enter 3
crat## 3
action 3
civil## 3
night 3
poll## 3
Afgh@@ 3
base 3
women 3
hell## 3
väliaik@@ 3
Portugal 3
uoto## 3
tries 3
old## 3
Cyprus 3
fort 3
sign 3
UN 3
Asia 3
agree## 3
ric 3
hib@@ 3
rich 3
opin## 3
form## 3
fight 3
sub## 3
ý 3
É 3
last## 3
productive 3
exc@@ 3
space 3
sett@@ 3
pay 3
High 3
ators 3
there 3
mate 3
¡ 3
onal## 3
overty 3
dur## 3
rein@@ 3
igh@@ 3
pid 3
½ 3
else## 3
infra@@ 3
source## 3
byro@@ 3
Oc@@ 3
led 3
else 3
make 3
trol 3
teg## 3
deep 3
mong## 3
dama@@ 3
ress 3
tral 3
° 3
ę@@ 3
Market 2
stock 2
which 2
sense 2
comm@@ 2
first 2
sight 2
report 2
less 2
enlarge## 2
approach 2
add 2
ual## 2
ism## 2
cep@@ 2
statement 2
Pak@@ 2
Amsterdam 2
stock## 2
cyc@@ 2
social 2
check## 2
ject 2
light 2
manufactur## 2
duct## 2
may 2
person 2
techn## 2
service 2
porate 2
large## 2
oper## 2
lig@@ 2
optim## 2
petition 2
hall 2
finan@@ 2
lack## 2
Z 2
source 2
sign@@ 2
xi@@ 2
tic 2
share## 2
compe@@ 2
deni## 2
initiative 2
drug 2
driv## 2
º@@ 2
Treat## 2
asis 2
procedure 2
natural## 2
Fatu@@ 2
fish 2
paper 2
time 2
conven@@ 2
ction## 2
union 2
endorse 2
consult## 2
jud@@ 2
aware## 2
ments 2
fair## 2
porteu@@ 2
major 2
requ@@ 2
rec@@ 2
negoti@@ 2
ulti@@ 2
essen@@ 2
new@@ 2
lum 2
oil 2
î@@ 2
ition## 2
rapid 2
least 2
Â@@ 2
ight 2
moral 2
potent## 2
ther## 2
hard## 2
eries 2
tour## 2
free 2
Bul@@ 2
travel 2
Middle 2
tex@@ 2
vance 2
Cope## 2
crit## 2
wel@@ 2
this 2
± 2
secur@@ 2
conv@@ 2
Green 2
Parliament## 2
aris## 2
people 2
cross 2
tebor@@ 2
together 2
good## 2
Secre@@ 2
location 2
centr@@ 2
ians 2
cent 2
app## 2
bodies 2
cell## 2
nego@@ 2
health 2
gy 2
clear## 2
Gener@@ 2
pac@@ 2
free## 2
there## 2
Cy@@ 2
dem@@ 2
after@@ 2
step 2
better 2
canc@@ 2
integr## 2
front## 2
aim 2
thu@@ 2
defence 2
Afghan## 2
Sol## 2
Ç@@ 2
õ@@ 2
prob## 2
sive 2
benefit 2
ail## 2
str## 2
Stat## 2
great 2
Russia 2
pay@@ 2
cent## 2
ised 2
Greece 2
gramme 2
kill## 2
again 2
saf@@ 2
ting 2
corporate 2
teral## 2
ù@@ 2
cur@@ 2
esimerk@@ 2
able## 2
Α 2
burea@@ 2
Citizen## 2
ă@@ 2
brea@@ 2
through 2
lay## 2
develop## 2
uch 2
ο@@ 2
Summ@@ 2
Kosov@@ 2
Presid@@ 2
adequ@@ 2
duct 2
vac@@ 2
wide 2
ś@@ 2
ń@@ 2
Ż@@ 2
mand## 2
member 1
cause 1
thin@@ 1
clar## 1
histo## 1
risk 1
rate 1
pt 1
light## 1
graph@@ 1
balance## 1
curr@@ 1
point## 1
left 1
produc@@ 1
natural 1
wer 1
zone 1
xim## 1
mind 1
traff@@ 1
À@@ 1
ously 1
active 1
contract## 1
talk 1
Minister 1
Ø@@ 1
come 1
front 1
competent 1
Govern## 1
bad 1
incor@@ 1
decision 1
short 1
crim@@ 1
koll@@ 1
road 1
fav@@ 1
loy## 1
major## 1
mind## 1
core 1
rier## 1
press## 1
did 1
May 1
Constitution## 1
call## 1
nt 1
aware 1
noti@@ 1
leader## 1
rise 1
deal## 1
seem## 1
return 1
iterranean 1
reform 1
lood## 1
invol@@ 1
wled@@ 1
content 1
Ñ@@ 1
Pub@@ 1
lic## 1
institution 1
medic@@ 1
fru@@ 1
ward## 1
ful@@ 1
ashing@@ 1
wish 1
Pr## 1
medium 1
Å 1
voisa 1
iddle 1
proc@@ 1
judicial 1
¸ 1
ption 1
ement 1
course 1
Mr## 1
room 1
favour 1
käytt@@ 1
perf@@ 1
meth@@ 1
America 1
data 1
balance 1
position 1
process 1
broad 1
respect 1
establish## 1
rati@@ 1
particular 1
capital 1
helmik@@ 1
foc@@ 1
ship## 1
accom@@ 1
exploit## 1
tter 1
summ## 1
wish## 1
cle@@ 1
alth 1
wr@@ 1
ë 1
system## 1
ough 1
regim@@ 1
ý@@ 1
Ý@@ 1
ð@@ 1
science 1
wrong 1
news 1
parlia@@ 1
ond 1
reve@@ 1
ated 1
post 1
paid 1
legisl## 1
mass 1
accoun@@ 1
moment 1
press 1
prise## 1
design## 1
see## 1
place 1
sex@@ 1
central 1
palesti@@ 1
think 1
holder## 1
threat 1
ution## 1
should 1
pay## 1
range 1
² 1
deb@@ 1
lose 1
youn@@ 1
gr## 1
acco 1
clos@@ 1
Yugosla@@ 1
Macedonia 1
conne@@ 1
Bulgar@@ 1
atory 1
class## 1
ital## 1
ized 1
won@@ 1
ght## 1
brief 1
conc@@ 1
had 1
sion## 1
mass## 1
guide## 1
kers 1
week 1
itle## 1
wee@@ 1
ü 1
pre 1
remo@@ 1
ordino@@ 1
sequ@@ 1
compatible 1
ified 1
commun@@ 1
ees 1
conta@@ 1
last 1
where 1
read 1
adver@@ 1
report## 1
bank## 1
weap@@ 1
scand@@ 1
just@@ 1
xt 1
esti@@ 1
ution 1
Iraq 1
propor@@ 1
ign## 1
reach 1
colleag@@ 1
gent 1
ream 1
blood 1
ì 1
domest@@ 1
kapa@@ 1
prohib@@ 1
week## 1
dela@@ 1
regular 1
present## 1
budget 1
resol@@ 1
weapon## 1
cco 1
life 1
build 1
statu@@ 1
world 1
drug## 1
fort## 1
gent@@ 1
southern 1
fire 1
ê 1
Brussels 1
try## 1
emb## 1
cent@@ 1
short## 1
pers@@ 1
ign 1
tribu@@ 1
Summit 1
turn## 1
particular## 1
sensitive 1
sea 1
business## 1
fish## 1
craft 1
less## 1
scho@@ 1
profit## 1
suggest## 1
face 1
seem 1
progress 1
present 1
sear@@ 1
ply 1
respect## 1
law## 1
arran@@ 1
distri@@ 1
partner 1
start## 1
establish 1
measu@@ 1
ular## 1
qu## 1
tic## 1
thre@@ 1
neigh@@ 1
double 1
stat 1
kansain@@ 1
pic@@ 1
regre@@ 1
ral 1
concer@@ 1
economic 1
quar@@ 1
struc@@ 1
nor 1
electronic 1
civil 1
vent 1
life## 1
propos## 1
quest 1
dom## 1
lv## 1
ί@@ 1
lot 1
Moro## 1
Ο@@ 1
Μ 1
tob@@ 1
wide## 1
ő@@ 1
ż@@ 1
four## 1
Č@@ 1
Citiz@@ 1
mp## 1
arise## 1
ome 1
nce## 1
Ž@@ 1
deal 1
Ρ@@ 1
ć@@ 1
col 1
wor## 1
Ś@@ 1
ľ@@ 1
ľ 1
Constitution 1
ļ@@ 1
place## 1
Τ@@ 1
Ο 1
cultural 1
impro@@ 1
endu@@ 1
Mr 1
