the 93245
s 72938
, 65853
. 48238
to 43658
of 42933
th## 40771
is 36304
and 34450
in 31839
at 26836
ing 26049
a 21909
ed 20591
ly 16505
we 14898
I 14091
for 13786
on 13262
it 12128
an 12038
a## 11881
re 11536
y 11512
be 11423
e 10242
d 10208
be## 9817
s## 9753
not 9395
as 9160
have 9017
which 8860
ion 8562
ation 8015
with 7997
al## 7706
ment 7639
-## 7236
@## 7228
@ 7228
by 6659
so 6614
Com## 6554
will 6332
Europe## 6168
re## 6143
has 5763
Mr 5710
mission 5149
es 5141
en 5042
er 4816
al 4808
m 4676
P## 4651
&apos; 4615
y## 4596
out 4582
ity 4440
all 4428
would 4335
but 4214
it## 4121
in## 3991
resident 3903
fro## 3838
should 3791
must 3764
able 3709
our 3698
- 3602
ou 3570
there 3511
or 3503
one 3500
Un## 3346
can 3159
the## 3143
Parliament 3087
more 3054
ments 2939
count## 2923
report 2899
wa## 2891
do 2852
these 2844
what 2833
e## 2797
Council 2770
d## 2747
other 2648
like 2636
Member 2627
un## 2609
if 2575
n 2552
ers 2538
ver## 2510
ary 2499
ate 2495
State## 2437
to## 2373
fore 2363
import## 2347
my 2346
on## 2331
their 2261
ab## 2247
us 2211
inter## 2184
ive 2165
ant 2143
ing## 2126
cause 2075
work 2070
ever 2043
20## 2037
ations 1968
part## 1950
time 1928
no 1927
now 1926
ma## 1926
Europe 1920
ible 1919
who 1904
up 1898
? 1898
people 1887
th 1884
policy 1823
ries 1802
need 1796
: 1795
take 1753
con## 1694
am 1694
there## 1690
ies 1679
mission## 1659
ry 1657
with## 1657
ions 1636
when 1621
make 1619
use 1610
com## 1608
t 1602
) 1596
national 1591
ative 1580
her 1572
( 1569
any 1568
ities 1555
such 1554
de 1551
&apos;## 1531
day 1524
men 1508
aid 1502
some 1499
new 1493
o 1478
how## 1477
st 1469
develop## 1459
way 1454
direct## 1445
do## 1444
agree## 1431
EU 1429
ance 1418
ish 1412
first 1404
man## 1399
co## 1399
ence 1396
dis## 1394
/ 1392
support 1391
politic## 1390
between 1369
t## 1368
de## 1363
those 1363
debate 1359
n## 1334
ally 1332
we## 1322
just 1322
c@@ 1310
public 1308
re@@ 1305
b@@ 1300
an## 1299
00 1298
issue 1296
pro## 1295
read## 1291
point 1290
poss## 1280
me 1265
situ## 1248
believ## 1242
proposal 1241
question 1236
concern## 1234
vot## 1229
respons## 1229
Committee 1224
ex## 1201
he 1196
most 1182
measure## 1179
fact 1174
Mr## 1171
ent 1161
ous 1160
say 1159
ency 1157
right## 1155
well 1151
d@@ 1150
come 1148
even 1147
them 1146
amend## 1137
over 1134
where 1127
im## 1122
how 1107
s@@ 1100
work## 1097
o## 1094
year 1093
l## 1080
f@@ 1078
right 1065
think 1061
&quot; 1059
er## 1048
inform## 1048
here 1047
isation 1046
again## 1033
two 1022
ha## 1008
ty 1003
economic 994
Commun## 993
part 992
future 991
view 986
taken 981
last 978
why 977
year## 976
social 975
course 973
same 966
order 965
clear 964
est## 964
go## 960
ated 959
us## 956
g@@ 954
includ## 947
est 945
much 942
bo## 938
want 934
less 934
can## 928
; 926
legisl## 921
ice 921
age 921
19## 921
hi## 920
could 920
end 920
long 910
solution 907
till 904
A@@ 903
ating 903
market 899
in@@ 895
case 892
know 890
ise 884
S@@ 880
see 878
increas## 876
operation 873
human 872
may 866
try 865
provid## 864
ment## 863
ia 863
01 854
place 852
give## 849
continu## 847
good 846
under 846
employ## 845
C@@ 844
common 842
ent## 841
half 836
govern## 836
hope 832
self 825
process 824
ibility 823
le 822
own 822
anim## 821
product## 821
area 819
action 812
mean## 812
improv## 811
some## 809
adopt## 808
initi## 806
matter 805
position 796
ic## 795
discuss## 794
consider## 790
la## 789
ful 787
problem## 771
number 769
ate## 768
ite 768
ample 767
issue## 766
thank 764
w@@ 764
set 760
en@@ 757
ed## 755
system 755
farm## 754
decision 750
e@@ 750
st## 749
problem 749
author## 748
regul## 745
put 743
your 742
ba## 742
citizen## 737
en## 736
p@@ 734
great 732
r@@ 730
di## 730
g## 729
ic 729
rat## 729
rapporteur 727
area## 726
ability 723
5 721
necess## 719
protect## 717
et 716
since 715
fish## 711
i## 710
state## 705
world 705
icular 704
ensure 703
dies 702
n@@ 702
king 700
dam 699
comp## 699
implement## 699
far 696
Ho## 695
br## 695
gentle## 691
ure 690
through 687
a@@ 683
h@@ 683
out## 677
give 672
r 670
S## 669
ative## 666
ised 664
level 663
regard 662
whet## 662
qu## 661
ive## 660
need## 659
way## 658
organ## 656
financial 651
key 651
i@@ 648
at## 647
act## 644
object## 644
require## 642
again 636
opportun## 635
soci## 634
tter 633
land 633
indus## 623
app## 621
health 618
consum## 618
icular## 616
hall 615
ion## 612
ness 611
call## 611
transport 611
simpl## 610
ch@@ 608
sector 607
fully 606
present 604
legal 604
agri## 604
after 603
mo## 603
Ma## 602
cultural 602
every## 601
nation 596
proposal## 594
negoti## 594
ified 594
T@@ 592
programme 591
different 591
subject 590
c## 588
M@@ 586
next 586
% 585
age## 584
though 583
great## 583
Tur## 583
under## 580
involve## 579
ward## 577
per## 576
o@@ 571
Group 571
u@@ 570
point## 570
con@@ 569
certain 569
further 567
Re## 563
wo## 563
l 560
term## 560
is## 559
frame## 558
nce 557
rule## 556
invest## 556
ism 555
high## 555
text 555
over## 553
Member## 552
r## 552
wish 551
ar@@ 551
environment## 551
represent## 550
strateg## 550
ask 549
few 545
regard## 545
opinion 545
trans## 544
go 543
fund## 543
Con## 541
contribut## 540
de@@ 539
safety 538
Sw## 538
rity 538
accept## 538
institut## 536
group 536
l@@ 534
prior## 533
side 533
qual## 533
selves 533
mill## 530
clear## 529
m@@ 527
commit## 527
forward 526
agree 523
budget 522
State 521
ial 520
close## 518
dom 517
communic## 515
D@@ 514
establish## 512
role 511
let 509
second 507
E@@ 505
line 501
east 499
respect 498
p## 498
ar## 497
propose## 496
k## 496
i 495
certain## 494
every 494
special## 490
fact## 489
whole 488
P@@ 488
ch 487
progress 487
or## 486
f## 486
follow## 485
base## 485
access 484
law 484
deal 480
final## 479
produc## 478
cre## 477
time## 475
vari## 473
report## 472
manage## 472
ration 471
ling 470
Trea## 467
resid## 466
ad@@ 465
um 465
current 464
specific 464
cent## 463
prepar## 463
ma@@ 463
principle 463
committee 461
ors 461
ship 461
cedure 460
pre## 460
culture 459
G@@ 458
free## 456
No 455
crisis 455
eries 454
ex@@ 454
form 454
help 454
accord## 452
word## 450
ra@@ 449
just## 449
together 448
econom## 448
ber 446
vention 446
approach 445
general 444
taking 444
our## 444
meet## 443
it@@ 443
get 443
F@@ 442
down 442
third 440
k 439
condition## 438
service## 435
rel## 435
t@@ 435
environment 435
ory 431
look 431
resourc## 430
ever## 429
find 429
ety 429
1 428
lies 428
dur## 428
other## 426
Affairs 426
research 426
present## 426
B@@ 425
ney 424
move## 424
N## 423
secu## 423
red 421
ference 421
ab@@ 421
result 420
L@@ 420
call 417
th@@ 416
high 415
ification 415
R 415
Pro## 414
al@@ 413
trade 413
receiv## 412
reason## 411
favour 411
ual## 410
question## 410
change 408
welcome 406
avail## 404
techn## 404
food 403
valu## 403
I@@ 403
hav## 400
Govern## 400
ology 400
energ## 399
end## 398
u## 398
st@@ 396
ought 395
ten 395
achieve 395
ting 394
an@@ 393
te 392
par## 392
while 391
difficult 391
decision## 391
support## 390
concern 390
real 390
account 390
ach 389
young 388
serious 387
Amend## 386
consider 385
ask## 385
Inter## 385
le## 384
extreme## 383
educ## 383
relation## 381
back 380
even## 380
off## 379
come## 378
A## 378
ising 377
peace 377
upon 377
state 376
second## 376
E## 376
reason 375
no## 375
grow## 374
ter 374
tic 374
b## 373
h## 373
m## 373
large 373
aware 373
L## 373
mig## 372
accept 372
form## 371
medi## 371
recogn## 371
deal## 370
small 370
real## 370
full 369
co@@ 369
z@@ 369
tle 369
er@@ 369
col## 368
hand 367
person## 367
vision 366
allow 365
step 365
force 364
free 364
long## 363
control 363
open 362
cent 362
spect## 362
hol## 361
su@@ 360
## 359
I## 359
prevent## 359
petition 358
activ## 358
major 357
matter## 357
EU## 357
demo## 357
ted 356
cost## 356
tent## 355
system## 355
ht 354
ear## 354
carri## 354
congratul## 354
positive 354
y@@ 353
act 353
isation## 353
express## 352
exist## 352
term 352
appropriate 351
migration 351
ring 350
car## 349
commend## 348
ur## 347
light 346
ist 346
speak## 345
sh@@ 345
market## 345
ta@@ 344
per@@ 343
lines 343
R@@ 343
2 342
reform 342
case## 341
cracy 341
result## 340
field 340
often 339
ac@@ 337
si@@ 336
Court 336
haps 335
power 335
either 335
them## 335
ro@@ 333
ease 333
conflict 332
member## 330
00## 330
h 329
month## 329
ify 329
cross 329
op@@ 327
region 327
exp## 326
fundamental 326
parliament## 325
rate 324
ri@@ 324
Stock## 324
late## 323
ur@@ 323
M## 323
any## 322
99 322
start 321
ably 321
creat## 321
say## 320
refer## 319
viol## 319
best 319
feel 318
pleas## 318
excel## 317
essential 316
practic## 316
ident## 316
sustain## 316
programme## 316
un@@ 315
ge 315
la@@ 314
achieve## 313
ir## 312
il## 312
effective 312
nda 311
join## 311
plan 311
risk 311
man 310
ual 310
pol## 310
current## 309
main 309
ious 309
assist## 308
particip## 308
talk## 308
round 308
O@@ 308
elect## 308
el## 308
applic## 308
p 307
Article 306
indic## 306
B## 306
understand 305
BSE 305
treat## 304
administr## 303
led 302
open## 302
le@@ 301
ator## 300
light## 299
table 299
commun## 299
document## 298
limit## 298
train## 298
liberal## 297
enough 296
ago 295
group## 294
lent 294
stance## 294
technical 294
bon 294
region## 293
spite 292
ct## 291
0## 291
lo@@ 291
op## 291
move 291
1## 290
ad## 290
life 290
arity 289
fortunate## 289
W@@ 289
reach## 288
affect## 287
oblig## 287
U## 287
until 286
civil 286
democratic 285
play## 284
ap## 284
ban 283
pr@@ 283
row 283
human## 283
show## 282
effort## 282
request 281
moment 281
H@@ 281
instru## 281
dis@@ 280
cy 280
cover## 279
ian 279
structure 279
partner## 279
test## 279
crime 278
connect## 277
ature 277
happen## 276
privat## 276
ense 275
F## 275
N@@ 275
qu@@ 274
w## 274
mean 274
ve 273
Right## 273
dialogue 273
answer 273
major## 272
observ## 270
raise## 270
as## 270
enlarge## 270
critic## 270
first## 269
table## 269
ce## 269
special 269
lit## 269
ern 268
ar 267
g 267
el@@ 267
internal 267
budget## 266
know## 265
urge## 264
4 264
off 264
Office 264
population 264
vision## 263
sub## 263
sign## 262
lead 261
allow## 261
play 261
mis## 260
x## 260
mini## 260
due 259
lack 259
na 259
prevent 259
UN 259
ol@@ 258
want## 258
ties 258
te@@ 257
milit## 257
port 257
ical 257
ply 256
w 256
ic@@ 256
motion 255
ensu## 254
complete## 253
past 253
effect 253
regional 253
presid## 252
road 252
arm## 251
active 251
fail## 251
individual 251
K 251
cruc## 250
serv## 250
solution## 250
share 249
sequenc## 248
relation 248
tomor## 248
oon 247
stance 247
charge 247
fami## 246
compet## 246
et## 246
name## 246
benefit 246
on@@ 246
ral 245
Part## 245
standard## 245
V@@ 244
fair 244
ch## 244
kind 244
7 244
pa@@ 244
me## 244
gal 243
logical 243
assess## 242
ure## 242
project## 242
integ## 242
tra@@ 242
C## 240
through## 240
speak 240
nuclear 239
or@@ 238
3 238
ap@@ 238
li@@ 238
short 238
impact 238
principle## 237
ir@@ 236
power## 236
ge## 235
stud## 235
6 235
P 235
tion 235
Mediterranean 235
final 234
make## 234
balance 234
pass## 234
10 233
seem## 233
border 233
pre@@ 233
terr## 232
illegal 232
strength## 232
addition 232
children 232
true 232
national## 232
proper## 232
gen## 232
cr@@ 231
coordi## 231
respect## 231
non 231
fi## 231
x 231
vi## 230
honour## 230
action## 229
him 229
monitor## 229
beg## 229
to@@ 229
draw 228
instead 227
ship## 227
contain## 227
K## 227
refuge## 227
Swede## 227
solid## 226
com@@ 226
thank## 226
quick## 226
old 226
infra## 226
live## 226
gu@@ 225
follow 225
ass@@ 225
mental 225
Portu## 225
ence## 224
address## 224
adopt 224
seen 224
facilit## 224
period 224
pay## 223
document 223
cor@@ 223
Mar## 223
v@@ 223
mind 222
decide## 222
clar## 222
mis@@ 222
as@@ 222
wor@@ 221
consult## 221
close 220
success## 220
ou@@ 220
talk 220
cost 219
net 219
restrict## 219
candid## 218
guarantee 218
tent 218
is@@ 218
ke 217
view## 217
take## 217
local 217
above 217
Minister 217
tr@@ 217
further## 216
pan## 216
doubt 216
look## 216
30 216
euro 216
oper## 216
port## 216
pursu## 215
idea 215
12 215
construct## 215
fe@@ 215
Regul## 215
aim 214
au@@ 214
ag@@ 214
asylum 214
declar## 213
2## 213
held 213
Chi## 213
ster## 213
emphasis## 213
previous 213
ian## 212
8 212
guarantee## 212
ation## 212
equal## 212
ine 212
item 211
J@@ 211
member 211
atory 211
uction 211
CO## 211
K@@ 211
rail 211
request## 210
nor 210
ig@@ 210
cedure## 210
job## 209
per 209
plied 209
vacci## 209
ev@@ 208
summ## 208
basic 208
water 208
body 207
French 207
fight 207
itarian 207
tion## 206
ncy 206
significant 206
promote 206
for@@ 205
care## 205
foot 205
nt 203
remain## 203
Summit 203
ck## 203
para## 203
los## 202
9 202
rest 202
effect## 202
demand## 202
Poli## 202
co 201
week 201
discuss 201
aim## 201
back## 201
business 201
D 201
20 200
grant## 200
min## 199
intend## 199
task 199
promise 198
detail## 198
Nation## 198
except## 198
reach 198
change## 198
demonstr## 198
challeng## 198
bo@@ 198
bio## 198
argu## 197
harmon## 197
success 197
No## 197
S 197
land## 196
who## 196
absolute## 196
access## 196
att@@ 196
subsidi## 196
tax 196
ec@@ 196
all## 196
15 195
express 195
draw## 195
force## 195
seek## 195
har@@ 195
pay 194
ho@@ 194
altern## 194
ition 194
tress 194
establish 194
compar## 194
b 194
hard 193
Bar## 192
inc@@ 192
iv@@ 192
develop 192
huge 192
not## 192
ast 192
control## 192
address 192
use## 192
method 192
mouth 192
ists 191
ne 191
effort 191
examin## 191
focus 191
appear## 190
se@@ 190
introd## 190
stand## 190
hear## 190
start## 190
mi@@ 190
expect## 190
vis## 189
found 189
ard## 189
rs 189
effective## 189
precise## 189
tu@@ 188
hold 188
specific## 188
knowledge 188
ul@@ 188
Ju## 187
du## 187
implement 187
il@@ 187
spec## 187
differ## 187
job 187
f 187
V## 187
ck 186
put## 186
remain 186
we@@ 186
level## 186
labour 186
criter## 186
ne@@ 186
rail## 186
fellow 185
ti@@ 185
organise## 185
ground 185
evalu## 185
took 185
analys## 185
id## 185
regime 185
league## 185
ol## 184
turn## 184
conclusion 184
reform## 184
keep 183
main## 183
France 183
consist## 183
dom## 182
day## 182
hope## 182
help## 182
se## 182
ce 182
sc@@ 181
head 181
equal 180
relevant 180
dependent 180
fair## 180
chang## 180
her## 179
ast## 179
tell 179
lier 179
live 179
network## 179
protect 179
solve 179
four 178
suggest## 178
short## 178
more## 178
difficult## 178
cope 178
tri@@ 177
approve## 177
ton 177
project 177
prim## 177
plac## 177
stock 177
vo 177
low 177
Decem## 176
itt## 176
vo@@ 176
wide## 176
expect 175
ise## 175
rule 175
external 175
im@@ 175
tax## 175
02 175
ambit## 175
af## 174
ot## 174
sufficient 174
pension## 174
draft 173
city 173
leav## 173
face 173
General 173
hold## 172
direct 172
di 172
away 172
istic 172
sup## 172
addition## 172
Just## 171
wide 171
sector## 171
left 171
circum## 171
os@@ 171
America## 171
strong 171
list 171
conclusion## 171
network 171
reject## 171
ants 171
WTO 171
demand 170
ural 170
meet 169
W## 169
son 169
wh@@ 169
staff 169
reg@@ 169
In## 169
str@@ 169
ant## 169
50 168
prison## 168
obvious## 168
lin@@ 168
guide## 168
build## 168
content 168
will## 168
ed@@ 167
debate## 167
tele## 167
deleg## 167
Le## 167
structure## 167
model 167
amount 167
note 166
convinc## 166
scientific 166
meat 166
mark 165
pressur## 165
service 165
duc## 165
ly## 165
operation## 165
benefit## 165
i.e. 164
turn 164
show 164
sec@@ 163
global 163
among 163
02## 163
! 163
te## 162
id@@ 161
intent## 161
vo## 161
weapon## 161
Brit## 161
origin## 161
target## 161
lead## 161
def## 161
price 161
01## 161
bel@@ 160
tor 160
wise 160
hind 160
risk## 160
border## 160
serious## 159
late 159
natural## 159
like## 159
understand## 159
ibilities 159
measure 159
proper 159
encourage 158
my## 158
id 158
reduce 158
flex## 158
es@@ 157
Janu## 157
ce@@ 157
pain 157
giv## 157
add## 157
La## 157
ginn## 156
contra## 156
war 156
noon 156
em## 156
sp@@ 156
M 156
fac## 156
Develop## 156
Che## 156
try## 155
spect 155
sett## 155
hand## 155
Ro## 155
lause 155
PVC 155
A 154
propose 154
experience 154
large## 154
mann## 154
om@@ 154
mechan## 154
lu@@ 154
criminal 154
air 153
Mon## 153
arily 153
hor@@ 153
ve@@ 153
tain 153
es## 153
EC 153
total 153
emerge## 153
3## 152
6@@ 152
urge 152
red## 152
penal## 152
fore## 151
dep@@ 151
add 151
liv## 151
rated 151
step## 151
competitive 151
posing 151
7@@ 151
Ir## 151
sugar 151
distribut## 150
ca@@ 150
speech 150
8@@ 150
ter## 150
der 150
account## 150
he@@ 150
press## 150
material 150
Fo## 150
supple## 150
suffer## 149
gra@@ 149
ternal 149
one## 149
purpose 149
ct 149
electr## 149
ibly 149
commercial 149
wish## 148
type 148
break 148
.## 148
search 148
balance## 148
extend## 148
capa## 148
practical 148
G## 148
sanction## 148
gen 148
et@@ 147
figur## 147
lot 147
depend## 147
Minister## 147
cred## 147
natural 146
think## 146
broad 146
strong## 146
prob## 146
pro@@ 146
efficiency 146
foreign 146
be@@ 146
danger## 146
entire 145
introduce## 145
efficient 145
&#91; 145
&#93; 145
Koso## 145
plan## 145
sensitiv## 144
process## 144
ry## 144
fr@@ 144
require 144
annual 144
price## 144
came 143
tor## 143
poor 143
Audit## 143
graph 143
Agri## 143
EP## 142
va@@ 142
if@@ 142
k@@ 142
refus## 142
get## 142
Fin## 142
status 142
happen 142
curr## 142
ism## 142
damag## 142
leader## 142
poverty 142
C 142
j@@ 141
ist## 141
potential 141
pl@@ 141
read 141
termin## 141
bu@@ 141
board 141
decide 141
uine 141
traffic## 141
able## 141
Brussels 140
home 140
scale 140
DE 140
mal## 140
low## 140
fraud 140
at@@ 139
link## 139
appoint## 139
prom## 139
hes## 139
structural 139
pension 139
eight 139
judici## 139
ri## 138
fo@@ 138
caus## 138
den## 138
chiev## 138
where## 138
Democrat## 138
Macedonia 138
victim## 137
arrange## 137
week## 137
whom 137
waste 137
word 137
method## 137
German## 137
institutional 137
am@@ 137
satis## 137
migrant## 137
Ukraine 137
complete 136
maintain## 136
plann## 136
total## 136
rug## 136
ill## 135
Bo## 135
reserv## 135
mobil## 135
mov## 135
exact## 134
ve## 134
fall## 134
vital 134
business## 134
spread 134
res@@ 134
kill## 133
multi## 133
remind 133
cap## 133
paid 133
six 133
pack## 133
é@@ 133
name 133
Environ## 133
Mor## 132
hear 132
writ## 132
ge@@ 132
side## 132
R## 132
operate 131
refer 131
mic 131
law## 131
li## 131
rate## 131
grat## 131
limit 131
O 131
discrimi## 131
legitim## 131
session 130
America 130
ad 130
thou## 130
el 130
oc## 130
us@@ 130
similar 130
uranium 130
ven@@ 130
welcome## 130
easi## 130
sort 130
Greece 130
last## 130
compensation 130
mod## 130
share## 129
mess## 129
head## 129
ish## 129
C5 129
care 129
stand 129
exist 129
EC## 129
han@@ 128
beyond 128
People 128
avoid 128
air## 128
interpret## 128
concept 128
fall 128
Programm## 128
ana 128
do@@ 127
plant## 127
tri## 127
design## 127
Human 127
South 127
bru## 126
league 126
competitive## 126
intend 126
bill## 126
combin## 126
pu@@ 126
abilities 126
Fund## 126
fish 126
sav## 125
ru@@ 125
press 125
rating 125
entire## 125
Co## 125
regulator## 125
hi@@ 125
global## 125
ancing 125
ie@@ 125
third## 125
H## 125
Hea## 125
u 124
ib@@ 124
expla## 124
crete 124
bodies 124
critical 124
98 124
else 124
Sol## 124
11 123
Agreement 123
ees 123
rn## 123
ture 123
prove## 123
Public 123
intens## 123
safe 123
ver@@ 123
sp## 123
Balkan## 123
capital 123
dy 122
doubt## 122
Russia 122
surpris## 122
attempt 122
cut 122
industrial 122
expert## 122
mark## 122
divers## 122
Secu## 122
gue## 122
product 122
Iraq 122
immun## 122
comprehensive 121
ov@@ 121
c 121
enorm## 121
for## 121
Paper 121
z## 120
night 120
riv## 120
reign 120
maintain 120
ster 120
chen## 120
Social 119
du@@ 119
submit## 119
aging 119
ha@@ 119
accident## 119
p.m## 118
substantial 118
correct 118
ill 118
exerc## 118
promise## 118
stop 118
mut## 118
none## 118
bear 118
influenc## 118
return 118
traffic 118
US 118
0@@ 117
person 117
told 117
mer@@ 117
thought 117
fine 117
Go## 117
rural 117
tic## 117
sur## 117
export## 117
advantage 117
poll## 116
NATO 116
what## 116
tant## 116
strict 116
rary 116
di@@ 116
il 116
transport## 116
Char## 116
Mexico 116
van 115
evidence 115
deplet## 115
Par@@ 115
learn## 115
cover 115
solved 115
impress## 115
stock## 115
good## 115
ping 115
que 115
ten## 115
crop## 114
mu@@ 114
repeat 114
fin## 114
acqu@@ 114
heritage 114
up## 114
combat 114
appear 114
range 114
ut## 114
draft## 113
North 113
par@@ 113
.@@ 113
worth 113
appreci## 113
acknowledg## 113
5@@ 113
announce## 113
Rule## 112
flo## 112
wrong 112
run 112
media 112
ran@@ 112
disc@@ 112
PE 112
ify## 112
sound 112
amber 112
cra@@ 112
sign 112
stra@@ 112
14 112
OLAF 112
reflect## 112
ust## 112
04 112
quota## 112
ption 111
month 111
Econo## 111
dr@@ 111
ground## 111
quant## 111
alle@@ 111
dec@@ 111
13 111
professional 111
Africa 111
respond 110
raise 110
confirm## 110
pan@@ 110
lv## 110
am## 110
min@@ 110
v## 110
Ag## 110
Bank 110
export 110
sion## 109
1@@ 109
seem 109
40 109
rapid 109
enter 109
ght## 109
fa@@ 109
Bel## 109
tive 109
spirit 108
new## 108
radio## 108
phas## 108
clim## 108
define## 108
enc## 108
cat## 108
answer## 108
advantage## 108
tin 108
feed## 108
H 108
whilst 107
inform 107
subject## 107
em@@ 107
ously 107
v 107
rea@@ 107
threat 107
forc## 107
ga## 107
concent## 107
data 107
rou@@ 107
abus## 107
beef 107
Net## 106
Social## 106
ite## 106
Trad## 106
trust 106
repeat## 106
ger 106
atic 106
class## 106
acy 106
World 106
relig## 106
profess## 106
introduce 106
lateral 106
Green 106
among## 105
ice## 105
Ex## 105
conclude## 105
element## 105
Lam## 105
detail 105
innov## 105
minor## 105
initial 105
condemn## 105
legal## 105
rapporteur## 104
ution 104
po@@ 104
ories 104
regret 104
apart 104
incentiv## 104
general## 104
z 104
elimin## 104
reduce## 104
keep## 104
It## 104
attitude 104
pra@@ 104
Y@@ 103
police 103
ical## 103
tter## 103
spend## 103
Bri## 103
copy## 103
cer@@ 103
seek 103
mar@@ 103
exclus## 103
ud@@ 103
ular 103
ey@@ 103
cep@@ 103
wel## 103
man@@ 103
grant 103
mandate 103
Th## 102
represent 102
conflict## 102
ide 102
happy 102
paper 102
Ch## 102
ose## 102
03 102
pi@@ 102
ft 102
ordin## 101
tries 101
position## 101
Den## 101
conciliation 101
sea 101
fu@@ 101
ra## 101
official 101
label## 101
easy 101
ia## 101
Colombia 101
Mac## 101
equate 100
Novem## 100
conclude 100
describ## 100
Christ## 100
sol@@ 100
cu@@ 100
wait 100
int@@ 100
equ@@ 100
definition 100
collect## 100
tempo## 100
the@@ 100
nation## 100
Budget## 100
7## 100
ob@@ 100
frontier 100
post 100
Assemb## 100
transfer## 100
ute 99
forget 99
pe@@ 99
ste@@ 99
impose## 99
obtain 99
toler## 99
favour## 99
Mark## 99
ous## 99
tackle 99
idea## 99
tru## 99
extend 99
E 99
May 99
cha## 99
gen@@ 99
laid 98
maxim## 98
Po## 98
ss@@ 98
big 98
exchange 98
find## 98
ev## 98
up@@ 98
pur## 98
ening 98
mod@@ 98
aries 98
transfer 98
friend## 98
source 98
18 97
pose 97
visit 97
met 97
assure 97
publish## 97
03## 97
speed 97
central 97
pose## 97
cause## 97
eg@@ 97
4## 97
so@@ 97
found## 97
statistic## 97
tradition## 97
fare 97
Serb## 97
sand## 96
16 96
90 96
vention## 96
Sta@@ 96
lic@@ 96
Indus## 96
official## 96
appar## 96
burden 96
obvious 96
Palestinian 96
office 96
invit## 96
travel 96
Pat## 96
road## 96
wit@@ 95
death 95
affect 95
Euro## 95
tan@@ 95
mum 95
burg 95
school## 95
oc@@ 95
oppose## 95
focus## 95
gre@@ 95
size## 95
hu@@ 95
occasion## 94
delay 94
feel## 94
tal## 94
plication## 94
ologies 94
mar## 94
story 94
gh## 94
combat## 94
25 94
choice 94
chance 94
water## 94
um## 93
bro@@ 93
Energ## 93
univers## 93
x@@ 93
character## 93
super## 93
ink## 93
front 93
Per## 93
bur@@ 92
Russia## 92
24 92
ness## 92
sion 92
lease 92
burea@@ 92
scheme 92
delay## 92
parent 92
attempt## 92
pat@@ 92
conf@@ 92
vice 92
ard 92
profit## 92
Gene## 92
fr## 92
ul## 91
ke## 91
correct## 91
respond## 91
uc## 91
complex 91
monitor 91
remark## 91
enter## 91
integrate## 91
standard 91
emphasis 91
ential## 91
exploit## 91
se 91
south## 91
cat@@ 90
so## 90
type## 90
barri## 90
modern 90
97 90
08 90
old## 90
stood 90
test 90
NGO## 90
wait## 89
imp## 89
strik## 89
after## 89
96 89
neg## 89
dimension 89
numer## 89
fund 89
forest## 89
av@@ 89
inspect## 89
stuff## 89
GMO## 89
Albania## 89
oil 88
bi@@ 88
renew## 88
conc@@ 88
confus## 88
ance## 88
degree 88
sub@@ 88
four## 88
22 88
den 88
ol 88
che@@ 88
mo@@ 88
AC## 88
material## 88
ign## 88
St## 88
ns 88
rage## 87
civil## 87
occup## 87
ust 87
sur@@ 87
bind## 87
Libe## 87
emp@@ 87
dispos## 87
commend 87
D## 87
gene## 87
excess## 87
finance## 87
un 87
vis 87
eng@@ 87
Directive 87
­ 87
preced## 86
brief## 86
Yugoslav## 86
ann@@ 86
heav## 86
transit## 86
ban## 86
23 86
iv## 86
charge## 86
Organ## 86
ound## 86
basic## 86
mil@@ 86
06 86
Kyoto 86
forth## 85
explain 85
chair## 85
dict## 85
gh@@ 85
join 85
divid## 85
element 85
col 85
chnya 85
formu@@ 84
Strasbourg 84
top 84
can@@ 84
less## 84
appeal 84
av## 84
suit## 84
sens## 84
ery 84
voluntar## 84
ample## 84
err@@ 84
des@@ 84
etc 84
ress## 84
O## 84
teen 84
Consumer 84
Fischler 84
Tampere 84
ph@@ 84
Sa## 84
resident## 83
conduct 83
ent@@ 83
wonder 83
grad## 83
ga@@ 83
advis## 83
prote@@ 83
line## 83
uc@@ 83
sa@@ 83
build 83
perfect## 83
vi@@ 83
U@@ 83
hard## 83
cess 83
check## 83
secure 83
corporate 83
campaign 83
prosecu## 83
Italian 83
Prime 83
onic 83
launder## 83
Am## 82
base 82
debt 82
function## 82
claim## 82
gue 82
exclud## 82
col@@ 82
N 82
ncies 82
imagin## 82
95 82
ll## 82
break## 82
nor@@ 82
fear 82
va 82
caution## 82
protein 82
As## 82
ute## 81
An@@ 81
uni@@ 81
Octo## 81
broad## 81
bla@@ 81
ied 81
fif## 81
tou@@ 81
gain 81
structuring 81
dai## 81
Sea 81
Mid## 81
post## 81
origin 81
ident 80
citizen 80
alloc## 80
equip## 80
categ## 80
ong 80
med## 80
ignor## 80
arise 80
volu@@ 80
cur@@ 80
pri@@ 80
bi## 80
drive## 80
Nor## 80
mass 80
Guinea 80
istan 80
conta@@ 79
arr@@ 79
over@@ 79
prove 79
proceed## 79
safeguard## 79
desire 79
associate## 79
health## 79
pet## 79
tress## 79
graph## 79
CAP 79
coun@@ 79
advoc## 79
Ber@@ 79
involve 79
pen@@ 79
tical 78
ine## 78
Cyprus 78
zone 78
ime## 78
perform## 78
feder@@ 78
endeav@@ 78
enterprise## 78
wr@@ 78
cap@@ 78
language 78
neighbour## 78
stay 78
ury 77
hy 77
Fish## 77
extra 77
ultimate## 77
ily 77
committee## 77
Belgian 77
judg@@ 77
ea## 77
firm## 77
adjust## 77
danger 77
5## 77
bour 77
optim## 77
dic@@ 77
Wh@@ 77
load## 77
consequent## 76
ac## 76
oun@@ 76
Bu@@ 76
comple@@ 76
contact 76
gener@@ 76
list## 76
au## 76
60 76
inadequa## 76
ease## 76
ost 76
court 76
mode## 76
plen## 76
reject 76
tical## 76
meal 76
Head## 76
Frame## 76
oboda 76
Free## 75
suppose## 75
heart## 75
pill## 75
dispu@@ 75
wa@@ 75
dynamic 75
active## 75
mit 75
encourage## 75
ile 75
cut## 75
incorpo## 75
destruct## 75
blo@@ 75
separate 75
poor## 75
ceed## 75
brief 75
enda 75
rati@@ 75
life## 75
Bangladesh 75
hom@@ 74
bear## 74
pass 74
contra@@ 74
insur## 74
pres@@ 74
ned 74
oll## 74
ot 74
arch## 74
perspective 74
mon@@ 74
70 74
car@@ 74
mine 74
High 74
The 74
tonne## 74
rous 73
assume 73
avoid## 73
custom## 73
enforce## 73
inv@@ 73
approval 73
nel 73
finance 73
ina 73
omen 73
lower 73
Mar@@ 73
manage 73
cau@@ 73
ear@@ 72
Car## 72
set## 72
April 72
anci## 72
bor@@ 72
determine## 72
proportion 72
visit## 72
saw 72
unit## 72
dign## 72
jour@@ 71
since## 71
pon@@ 71
torium 71
ow@@ 71
gor@@ 71
ture## 71
regulate## 71
contract## 71
sta@@ 71
tic@@ 71
reflect 71
experience## 71
endorse 71
coherent 71
average 71
opinion## 71
central## 71
entitle## 71
ight 71
strict## 71
affor@@ 71
lig## 71
worse 71
lic## 71
settle## 71
rev## 71
ess@@ 71
T 71
firm 71
tre@@ 71
threaten## 71
cy@@ 71
La@@ 71
topic## 70
deep## 70
comm@@ 70
normal 70
pus@@ 70
accom@@ 70
ging 70
ott@@ 70
compat## 70
bank## 70
compliance 70
For## 70
got 70
br@@ 70
tend## 70
loc@@ 70
deliber## 70
Sch@@ 70
bat## 70
fight## 70
feed 70
sho@@ 70
ak@@ 70
stitute 70
Man## 70
au 70
hy@@ 70
link 70
char@@ 70
cod 70
pace 70
rel@@ 69
mora## 69
tain## 69
tab## 69
German 69
tal 69
approve 69
ult## 69
ium 69
deliver## 69
tone 69
est@@ 69
store 69
lose 69
infl## 69
rese@@ 69
note## 69
Mont## 69
contradict## 69
ner 69
27 69
disaster 69
modal 69
dead## 68
top@@ 68
individual## 68
kept 68
arise## 68
text## 68
ur 68
else## 68
thorough 68
regret## 68
techno## 68
Her@@ 68
od@@ 68
rich 68
ado@@ 68
anti 68
precise 68
milk 68
19 68
elector## 68
felt 68
criminal## 68
rein@@ 68
io 68
nal## 68
warn## 68
trans 68
motion## 68
ital 68
place## 67
book## 67
sch@@ 67
poke 67
impose 67
ci## 67
noti@@ 67
ti## 67
defin@@ 67
ped 67
peace## 67
calcul## 67
6## 67
safeguard 67
transl## 67
regular## 67
gone 67
see## 67
confirm 67
In@@ 67
pla@@ 67
vehicle## 67
IC## 67
lag## 67
wood 67
Korea 67
passenger## 67
destroy## 66
celona 66
os 66
task## 66
contain 66
cul@@ 66
ach## 66
prosper## 66
UN## 66
frequ@@ 66
ator 66
discip@@ 66
Trans## 66
ici## 66
.5 66
ote 66
uine## 66
occasion 66
public## 66
waiv## 66
ose 65
parent## 65
post@@ 65
Rule 65
Chair## 65
Al@@ 65
fl@@ 65
tor@@ 65
assur@@ 65
amount## 65
no@@ 65
vis@@ 65
fine## 65
distinct## 65
attra@@ 65
familiar 65
spend 65
assist 65
Austr@@ 65
dra@@ 65
art## 65
react## 65
dic 65
inter@@ 65
tw@@ 64
explain## 64
Employ## 64
Fede## 64
ong## 64
ticle## 64
leng@@ 64
suspend## 64
quar@@ 64
surround## 64
By## 64
26 64
Costa 64
stru@@ 64
motiv## 64
17 64
F 64
B 64
Engl## 64
proceed 64
number## 64
modern## 64
CF## 64
vert## 64
liberal 64
Gra## 64
lease## 63
14## 63
28 63
sect## 63
.. 63
Region## 63
court## 63
ret## 63
remind## 63
formal 63
fulfil 63
igation 63
school 63
sha## 63
exempt## 63
lan@@ 63
SME## 63
target 63
embar@@ 63
latter 63
gro@@ 63
pr## 63
j## 63
frag@@ 63
purpose## 63
eco## 63
Green## 63
cl@@ 63
ue 62
attack 62
your## 62
fortunate 62
rug 62
rapid## 62
heart 62
choos## 62
fail 62
select## 62
coordinate## 62
room 62
attend## 62
obtain## 62
define 62
proportion## 62
bra@@ 62
encies 62
tine 62
sphere 62
incident## 62
and## 62
Secret## 62
vers## 62
premi@@ 62
91 62
ceil## 62
fer@@ 62
aband@@ 62
distort## 62
Iraq## 62
tragic 61
sym@@ 61
terror## 61
dist@@ 61
Citizen## 61
holder## 61
ole## 61
gg## 61
record 61
exp@@ 61
adapt 61
track 61
onal## 61
ition## 61
function 61
cies 61
vel## 61
mer 61
deserve## 61
depart## 61
counter## 61
estimate## 61
37 61
men@@ 61
Fund 61
rad@@ 61
mon 61
abol@@ 61
farm 61
satisfied 61
truth 61
absolute 61
mit## 61
po## 61
chem@@ 61
succeed 61
tension 61
infect## 61
laughter 61
cosmetic## 61
me@@ 60
accus## 60
listen## 60
Ar@@ 60
rupt## 60
atic## 60
prefer## 60
complicate## 60
tradition 60
sight 60
rop 60
prospect## 60
language## 60
Hel## 60
cal 60
motor## 60
reme 60
ically 60
execut## 60
ag## 60
nock 60
Report 60
4@@ 60
gr@@ 60
engage## 60
punish## 60
rator## 60
courage 60
Israel 60
science 60
ensive 60
monopol## 60
behaviour 60
gas 60
north## 60
constitution 60
condition 60
ethnic 60
regula@@ 60
AID## 60
Dan## 59
hour## 59
plain## 59
occur## 59
fast 59
different## 59
decad@@ 59
ker## 59
field## 59
check 59
cial## 59
suggest 59
big## 59
ast@@ 59
Def## 59
path 59
monetar## 59
elder## 59
ai@@ 59
cre@@ 59
Plan 59
suffer 59
stabil## 59
Cam@@ 59
fleet 59
plor## 59
club## 59
rne 59
80 58
ón 58
are 58
don## 58
ren@@ 58
ect 58
vit@@ 58
bit 58
orient## 58
compon@@ 58
replace## 58
Kar## 58
conserv## 58
historic 58
eu@@ 58
imin@@ 58
var@@ 58
pe## 58
extensive 58
Z@@ 58
claim 58
small## 58
drama## 58
Luxembourg 58
speech## 58
exchange## 58
Parliament## 58
genetic## 58
II 58
protocol 58
Joint 58
tell## 58
lob@@ 58
itle 58
mann 58
Pakistan 58
fire 57
size 57
attack## 57
conduct## 57
istic## 57
adapt## 57
attach## 57
weak## 57
footb@@ 57
collabor## 57
ap 57
owner## 57
statut## 57
sufficient## 57
bound 57
constitu## 57
genetic 57
cycle 57
insist## 57
os## 57
spoken 57
ox@@ 57
option 57
ification## 57
Mor@@ 57
Bush 57
FYROM 57
der## 56
credit 56
promote## 56
wind## 56
Dutch 56
stimul## 56
uls## 56
enjoy## 56
fra@@ 56
45 56
decisive 56
ature## 56
pati@@ 56
ensi@@ 56
runn## 56
0.## 56
ci@@ 56
slow 56
lack## 56
gain## 56
sole## 56
rea 56
eir@@ 56
Afghan## 56
pre 56
intellectual 56
Ver## 56
Bull## 56
extra## 55
cal@@ 55
aff@@ 55
Africa## 55
child 55
resist## 55
bank 55
wonder## 55
foo@@ 55
warm## 55
sw@@ 55
pil@@ 55
quote 55
San## 55
scrutin## 55
fulfil## 55
withdraw## 55
Director## 55
gender 55
IB 55
domin## 55
ther@@ 55
sem@@ 55
tar@@ 55
sup@@ 55
Cr@@ 55
Bur@@ 55
version 55
built 55
extre## 55
resume## 54
speed## 54
trans@@ 54
office## 54
í@@ 54
near 54
ick 54
EP 54
organise 54
approximate## 54
ni@@ 54
ift 54
approach## 54
ght 54
valid 54
opposite 54
aware## 54
Struct## 54
sh## 54
io## 54
reli## 54
location 54
reiterate 54
appropriation## 54
05 54
outh 54
sh 54
oul@@ 54
wn 54
defend 54
8## 54
train 54
HO 54
Ch@@ 54
Euro 54
94 54
Berlin 54
manufacture## 54
pat## 53
record## 53
glad 53
9@@ 53
mine## 53
deliver 53
qui## 53
ference## 53
ison 53
stitute## 53
tw## 53
assess 53
significance 53
nu@@ 53
ble 53
yer 53
cir@@ 53
quota 53
ris## 53
profit 53
rises 53
veterin## 53
ro## 53
obstacle## 53
inst@@ 53
Fatuzzo 53
insist 53
cle@@ 53
popula@@ 53
lawyer## 53
scient@@ 53
deficit 53
tro@@ 53
Cor@@ 53
Deprez 53
IS## 53
sil## 52
Cas## 52
may## 52
arrest## 52
recall 52
flood## 52
ben## 52
isol## 52
admit## 52
credit## 52
revers## 52
learn 52
stipul## 52
distingu@@ 52
retire## 52
scheme## 52
gras@@ 52
phy@@ 52
suc@@ 52
people## 52
ström 52
generation 52
olu@@ 52
od 52
ime 52
convict## 52
house 52
ali## 52
Jap@@ 52
continent 52
requ@@ 52
experi@@ 52
Septem## 52
our@@ 51
honour 51
habit## 51
Med## 51
ler 51
coherence 51
desirable 51
advance 51
strea@@ 51
determine 51
couple 51
coordin@@ 51
picture 51
sy@@ 51
launch 51
don 51
Sup## 51
ple@@ 51
tes 51
Control 51
scand@@ 51
he## 51
Mc@@ 51
pt 51
gap 51
lood 51
bomb## 51
surviv## 51
hab@@ 51
tant 51
productive 51
55 51
ratify 51
persecut## 51
diplom@@ 51
part@@ 51
condemn 51
lay 50
station## 50
hol@@ 50
Great 50
sovere@@ 50
ifies 50
shape 50
autom@@ 50
similar## 50
launch## 50
syn@@ 50
uit## 50
ide@@ 50
plant 50
pos@@ 50
signal 50
few## 50
plus 50
pec@@ 50
Pr@@ 50
wealth 50
illust## 50
piece 50
thor@@ 50
anti@@ 50
21 50
71 50
Greek 50
campaign## 50
ial## 50
mas@@ 50
Question 50
accident 50
admit 50
junct## 50
ethical 50
defend## 50
medicine## 50
ef@@ 50
ski 50
ode 50
Pa@@ 50
enti@@ 49
El 49
bus## 49
ba 49
sor@@ 49
ath## 49
ik@@ 49
hundred## 49
jud@@ 49
lau@@ 49
keen 49
hibit## 49
stag## 49
falussy 49
auto## 49
sel@@ 49
deser@@ 49
exemp@@ 49
explo@@ 49
row## 49
source## 49
35 49
cultiv## 49
gle 49
spr@@ 49
closure 49
Israel## 49
boo@@ 49
front## 49
vulner## 49
judge## 49
Har## 49
33 49
mm@@ 49
hal@@ 49
intervene 49
corpor@@ 49
U 49
sheep 49
ero@@ 49
definite## 49
dig@@ 49
trend 49
gently 49
moral 49
taking## 49
erc## 49
sia 49
fuel 49
ific 49
Author## 49
ma 49
constitution## 49
counterfe@@ 49
a.@@ 48
inclus## 48
soldi@@ 48
submit 48
ret 48
fin@@ 48
tect## 48
ograph@@ 48
Minu@@ 48
ens@@ 48
onal 48
sexual 48
ga 48
harm## 48
fi@@ 48
93 48
virtu## 48
mend 48
tra## 48
honest 48
cam@@ 48
merge## 48
veget## 48
haz@@ 48
la 48
pol@@ 48
ward 48
hine## 48
Kur@@ 48
elli 48
tru@@ 47
31 47
kin@@ 47
ase 47
oper@@ 47
wat@@ 47
im 47
ceiv## 47
prov@@ 47
pul@@ 47
vious## 47
ili## 47
Bosnia 47
Pen## 47
ke@@ 47
ief 47
ere 47
temp@@ 47
Yugosla@@ 47
West 47
af@@ 47
mur@@ 46
pi## 46
ill@@ 46
ole 46
amb@@ 46
usual 46
her@@ 46
loy## 46
der@@ 46
ei@@ 46
cept## 46
dee@@ 46
ELDR 46
G 46
vic 46
terror@@ 45
pap@@ 45
Is@@ 45
Georgia 45
let## 45
stu@@ 45
advan@@ 45
ister 45
mp@@ 45
fundamen@@ 45
ou## 45
def@@ 45
doub@@ 45
infr@@ 45
ale## 45
arm 45
Sa@@ 45
fle@@ 45
CNS 45
ka@@ 45
symb@@ 45
ya 45
Ba## 45
ash@@ 44
Alger@@ 44
radi@@ 44
jur@@ 44
cept 44
att## 44
lev@@ 44
Dem@@ 44
Ru@@ 44
29 44
compreh@@ 44
euro## 44
prom@@ 44
fri@@ 44
Bud@@ 44
isten 44
3@@ 44
DA 44
wel@@ 44
FA 44
ri 44
law@@ 44
tur@@ 43
ir 43
ban@@ 43
histor@@ 43
pit@@ 43
solv@@ 43
clu@@ 43
ter@@ 43
nit@@ 43
T## 43
hund@@ 43
ici@@ 43
ile## 43
bia 43
Macedon@@ 43
pur@@ 42
ie## 42
hau@@ 42
oo@@ 42
Gar@@ 42
42 42
imp@@ 42
epidem@@ 42
prog@@ 42
ossi@@ 42
coni 42
Mus@@ 42
san@@ 42
IV 42
yr@@ 42
ient## 42
5.## 41
hen@@ 41
akis 41
perf@@ 41
voc## 41
clas@@ 41
ber@@ 41
struct## 41
exc@@ 41
ff## 41
63 41
Con@@ 41
mul@@ 41
hon@@ 41
ssel## 41
pani## 41
parlia@@ 41
ll@@ 41
ind@@ 41
Korea## 41
ess## 41
nen 41
bia## 41
Behrendt 41
Mexic@@ 41
po 40
order## 40
p.@@ 40
Mo## 40
ten@@ 40
streng@@ 40
signific@@ 40
pp@@ 40
techn@@ 40
rest## 40
ta 40
ty@@ 40
neg@@ 40
92 40
cho@@ 40
count 40
erin## 40
cyc@@ 40
Posselt 40
Kor@@ 40
PSE 40
imm## 39
vil@@ 39
j 39
log## 39
sequent## 39
itive## 39
benef@@ 39
hou@@ 39
pt## 39
je@@ 39
V 39
dia## 39
ber## 39
saf@@ 39
da@@ 39
are## 39
emb## 39
Da## 39
ts 39
Ara@@ 39
men## 39
Katifor@@ 39
laugh@@ 39
ela 38
ress 38
sk@@ 38
vic@@ 38
om 38
pe 38
perio@@ 38
tt@@ 38
2@@ 38
uti@@ 38
oss 38
itor@@ 38
Ca@@ 38
ers## 38
hag@@ 38
ub@@ 38
ö@@ 38
zio 38
Salvad@@ 37
vast@@ 37
anz@@ 37
ell## 37
sequ@@ 37
initi@@ 37
ang@@ 37
Vitorino 37
Ha## 37
Dan@@ 37
ere## 37
pris@@ 37
Bla@@ 37
Su@@ 36
tz 36
crimin@@ 36
effici@@ 36
appe@@ 36
21## 36
ject 36
32 36
if## 36
ict 36
Si@@ 36
industri@@ 36
Quest@@ 36
iel## 36
noby@@ 36
ide## 36
vir@@ 36
New 35
log@@ 35
with@@ 35
pref@@ 35
vene## 35
fol@@ 35
assu@@ 35
desi@@ 35
43 35
cul## 35
38 35
Nor@@ 35
wea@@ 35
thir@@ 35
itive 35
prospec@@ 35
ep@@ 35
é 35
ree 35
olog## 34
sci@@ 34
margin@@ 34
om## 34
48 34
usu@@ 34
gar@@ 34
enjo@@ 34
Min@@ 34
spec@@ 34
Niel@@ 34
vil 34
Erik@@ 34
fin 34
tack@@ 34
GUE 34
ens## 34
Bö@@ 34
ao 34
Zimbab@@ 34
ele## 33
ton## 33
ore## 33
ess 33
princi@@ 33
9## 33
ist@@ 33
yer## 33
integra@@ 33
57 33
ü@@ 33
Dec@@ 33
stitu@@ 33
56 33
mind## 33
pli@@ 33
disast@@ 33
á@@ 33
lif@@ 33
econ@@ 33
ile@@ 33
Ang@@ 33
reat## 33
Tra@@ 33
bet@@ 33
NGL 33
Mongol@@ 33
Kal@@ 33
hell## 32
va## 32
hil@@ 32
hen## 32
Car@@ 32
Fl@@ 32
fac@@ 32
oh@@ 32
ail 32
Palestin@@ 32
Som@@ 32
sul@@ 32
ale 32
39 32
endor@@ 32
parti@@ 32
passeng@@ 32
Jarzem@@ 32
Woga@@ 32
Nev@@ 32
ain@@ 31
sen@@ 31
sit@@ 31
ound 31
del@@ 31
acc@@ 31
65 31
ect## 31
ati@@ 31
iel@@ 31
az@@ 31
kil@@ 31
neu@@ 31
lect 31
reme## 31
compens@@ 31
van@@ 31
51 31
deter@@ 31
pet@@ 31
sign@@ 31
è@@ 31
ha 31
inno@@ 31
ind## 31
het@@ 31
pic@@ 31
hu## 31
aman@@ 31
ALE 31
Or@@ 31
ue## 31
Colom@@ 31
jo@@ 30
mas 30
io@@ 30
ticle 30
crib## 30
ena 30
ben@@ 30
met@@ 30
subsid@@ 30
mon## 30
Balk@@ 30
substanti@@ 30
dest@@ 30
eri@@ 30
ough 30
ext@@ 30
ew## 30
cip@@ 30
kilo## 30
labor## 30
pot@@ 30
ira## 30
11.## 30
democra@@ 30
ple## 30
ek@@ 30
ino 30
SA## 30
Blair 30
Cab@@ 30
Turk@@ 30
85 29
75 29
Pro@@ 29
ig## 29
cou@@ 29
ee 29
à 29
49 29
separ@@ 29
Na@@ 29
itar@@ 29
ck@@ 29
prac@@ 29
Nic@@ 29
psy@@ 29
lap@@ 29
democ@@ 29
amm## 29
Atlan@@ 29
KFOR 29
bod@@ 29
asi@@ 29
zu 29
appropri@@ 28
zen 28
Tsiakour@@ 28
mor@@ 28
fir@@ 28
tar 28
lou@@ 28
contr@@ 28
mom@@ 28
inci@@ 28
ick## 28
Bös@@ 28
exper@@ 28
stit@@ 28
fam@@ 28
mat@@ 28
esit## 28
ti 28
announ@@ 28
ot@@ 28
stain## 28
pers@@ 28
pop@@ 28
cop@@ 28
Indonesi@@ 28
ese 28
gu## 28
ire## 28
satis@@ 28
alu@@ 28
Tal@@ 28
ordi## 28
Sep@@ 28
pä@@ 28
46 28
medic@@ 28
date 28
Niger@@ 28
Dell 27
lead@@ 27
um@@ 27
hin@@ 27
ther## 27
36 27
89 27
Schreyer 27
Fran@@ 27
of@@ 27
emer@@ 27
obstac@@ 27
09## 27
Direc@@ 27
Coton@@ 27
Ir@@ 27
Dupuis 27
68 27
Naï@@ 27
amin## 27
ov## 27
Sjösted@@ 26
Wur@@ 26
Mal@@ 26
cour@@ 26
loo@@ 26
Peij@@ 26
pa## 26
inn@@ 26
SLIM 26
iik@@ 26
Rom@@ 26
ip@@ 26
ister## 26
hel@@ 26
met## 26
tran@@ 26
ero 26
Ser@@ 26
spo@@ 26
arn## 26
region@@ 26
rant## 26
oub@@ 26
ier@@ 26
bom@@ 26
progra@@ 26
,@@ 26
lin 26
leg@@ 26
Mü@@ 26
Lan@@ 26
Gasòli@@ 26
defic@@ 26
bon## 25
charac@@ 25
plic@@ 25
15## 25
05## 25
round## 25
destro@@ 25
occ@@ 25
wi@@ 25
suff@@ 25
Sac@@ 25
44 25
62 25
Ma@@ 25
Palac@@ 25
34 25
plu@@ 25
mi## 25
79 25
cess## 25
chan@@ 25
Fra@@ 25
pel@@ 24
diff@@ 24
professi@@ 24
ner## 24
tal@@ 24
ceed 24
gh 24
ug@@ 24
imperi@@ 24
ks@@ 24
84 24
und@@ 24
Ind@@ 24
threat@@ 24
Sierra 24
eh@@ 24
nes## 24
lus@@ 24
ign 23
bru@@ 23
tt## 23
doc@@ 23
ys## 23
ape 23
ho## 23
Pe@@ 23
sum## 23
ju@@ 23
summ@@ 23
ced@@ 23
ima@@ 23
mpl## 23
ok 23
ew 23
ase## 23
tensi@@ 23
Am@@ 23
ino@@ 23
ele@@ 22
Algeria## 22
pot## 22
pas@@ 22
por@@ 22
erg## 22
vehic@@ 22
Kau@@ 22
cla@@ 22
ras@@ 22
tive## 22
tim## 22
bar@@ 22
oma## 22
Br@@ 22
ell@@ 22
resu@@ 22
ire 22
cord 22
shor@@ 22
Gal@@ 22
ka 22
iev## 22
Coun@@ 22
ell 22
AT@@ 22
na@@ 22
kas 22
ra 22
aw@@ 21
ET@@ 21
ana## 21
prior@@ 21
cont@@ 21
cust@@ 21
ala@@ 21
lie@@ 21
Le@@ 21
ih@@ 21
ali@@ 21
Maa@@ 21
ef 21
consul@@ 21
ential 21
ong@@ 21
cri@@ 21
rah@@ 21
vol@@ 21
ame## 21
rib@@ 21
dimen@@ 21
GM@@ 21
yh## 21
iman@@ 21
coura@@ 20
ser@@ 20
Bush## 20
arti@@ 20
ther 20
ace 20
ita 20
mec@@ 20
sett@@ 20
cris@@ 20
opp@@ 20
fronti@@ 20
lect## 20
da 20
youn@@ 20
reas## 20
L 20
ut 20
lud## 20
sist 20
xim## 20
ack 20
lo## 20
ate@@ 20
kid@@ 20
gan@@ 20
cosme@@ 20
iste## 19
An## 19
Qu@@ 19
IT 19
su## 19
otti 19
outh## 19
alogue 19
ao## 19
ea 19
weal@@ 19
Alban@@ 19
ivo@@ 19
sex@@ 19
ich@@ 19
ural## 19
etta 19
He@@ 19
tell@@ 19
Cypr@@ 18
sm@@ 18
ood## 18
ste 18
Re@@ 18
bac@@ 18
tin## 18
art 18
amp@@ 18
Wor@@ 18
refu@@ 18
manufac@@ 18
interpre@@ 18
issa@@ 18
ote## 18
idence 18
reiter@@ 18
contin@@ 18
ultima@@ 18
mem@@ 18
anc@@ 18
Ko@@ 18
ler## 18
ction 18
ava 18
sy 17
compli@@ 17
dy## 17
my@@ 17
udit## 17
administ@@ 17
prop@@ 17
ict## 17
ella## 17
scr@@ 17
upu@@ 17
Ri@@ 17
ff@@ 17
off@@ 17
ah@@ 17
olum@@ 17
cel@@ 17
Val@@ 17
liber@@ 17
sen 17
ij@@ 17
Ukra@@ 17
eder@@ 17
ld 17
enn@@ 16
curr@@ 16
ly@@ 16
Pap@@ 16
Reg@@ 16
mal 16
cil 16
deb@@ 16
Sec@@ 16
oth 16
brea@@ 16
ove 16
wer## 16
iti@@ 16
tun@@ 16
ep 16
olog@@ 16
ken 16
ograp@@ 16
alta 16
val@@ 16
van## 16
asia 16
Un@@ 16
ipul## 16
ieb@@ 16
FO@@ 16
arran@@ 15
ern## 15
pain@@ 15
ann## 15
concer@@ 15
son## 15
stem 15
SM@@ 15
Eur@@ 15
gla@@ 15
terr@@ 15
tral 15
qua## 15
clos@@ 15
ham@@ 15
vel 15
pp## 15
Li@@ 15
tin@@ 15
jun@@ 15
scientif@@ 15
omin## 15
dem@@ 15
Ge@@ 15
So@@ 15
bio@@ 15
add@@ 15
ufac@@ 14
ip## 14
hap@@ 14
repe@@ 14
ata## 14
peri@@ 14
icul@@ 14
tral## 14
8.## 14
Å@@ 14
lo 14
dam## 14
perspec@@ 14
than@@ 14
Indonesia## 14
ession 14
dipl@@ 14
tom## 14
ath 14
val 14
ost@@ 14
anno@@ 14
neigh@@ 14
estab@@ 14
pit## 14
dy@@ 14
oe@@ 14
Stra@@ 14
han 14
ction## 14
and@@ 13
Á@@ 13
depend@@ 13
igh 13
aj@@ 13
fur@@ 13
enterpr@@ 13
ili@@ 13
na## 13
ft## 13
rap@@ 13
associ@@ 13
sat@@ 13
ista 13
ific@@ 13
ES 13
vene 13
weap@@ 13
eni## 13
Kosov@@ 13
stem## 13
ru## 13
ta## 13
ivers## 13
pie@@ 13
Fr@@ 13
hd@@ 13
yll@@ 13
Vä@@ 13
polic@@ 12
ustri@@ 12
tau@@ 12
ne## 12
adv@@ 12
Nat@@ 12
decis@@ 12
attitud@@ 12
ede## 12
tire## 12
ki## 12
finan@@ 12
teen## 12
gn## 12
missi@@ 12
NL 12
proto@@ 12
oto## 12
ssi## 12
ean 12
12.## 12
lood## 12
ecu## 12
sio## 12
oso@@ 12
æ@@ 12
pun@@ 12
Pakistan## 12
oi 12
tto@@ 12
later@@ 11
ida@@ 11
ain## 11
atal@@ 11
itage 11
anta@@ 11
ion@@ 11
rau@@ 11
En@@ 11
ood 11
erent 11
wil@@ 11
illu@@ 11
ener@@ 11
jo 11
publis@@ 11
ko@@ 11
ilit## 11
kno@@ 11
alo@@ 11
all@@ 11
nn@@ 11
comp@@ 11
stan@@ 11
migra@@ 11
eet 11
EL@@ 11
To@@ 11
nal 11
olo@@ 11
ß@@ 11
ko 10
Ô@@ 10
ja@@ 10
ê@@ 10
Hu@@ 10
nti 10
emm@@ 10
las@@ 10
NG@@ 10
De@@ 10
wee@@ 10
Off@@ 10
Ital@@ 10
Sto@@ 10
int 10
ki@@ 10
len@@ 10
ree## 10
sse@@ 10
tia 10
jan 10
Agree@@ 10
ail## 10
ack## 10
mel@@ 10
plic## 10
una 10
kop@@ 10
bud@@ 10
yl@@ 9
ious## 9
imit## 9
lu## 9
ula@@ 9
ple 9
famili@@ 9
commer@@ 9
prof@@ 9
air@@ 9
ani 9
lic 9
els 9
ort## 9
oli 9
bus@@ 9
orm## 9
illa 9
frau@@ 9
doll@@ 9
inti@@ 9
issi@@ 9
ç@@ 9
sin@@ 9
Zim@@ 9
era@@ 9
Afgh@@ 9
Q@@ 9
org@@ 9
Y 9
isia 8
Í@@ 8
Ï 8
rat@@ 8
lum 8
ould 8
zz@@ 8
ince## 8
crit@@ 8
enter@@ 8
ut@@ 8
DR 8
volun@@ 8
viv## 8
ni## 8
cord## 8
ä@@ 8
tol@@ 8
jar@@ 8
Ki@@ 8
gin## 8
vac@@ 8
behav@@ 8
Georgia## 8
ene## 8
yst@@ 8
X@@ 8
sop@@ 8
bour## 8
Por@@ 8
pa 8
ord@@ 8
ñ@@ 8
mun@@ 8
nut 8
tie 8
chil@@ 8
Guinea## 8
ratif@@ 8
inen 8
uh@@ 8
Ni@@ 8
esta 8
spir@@ 7
kar@@ 7
has## 7
isl## 7
ts@@ 7
pu## 7
ust@@ 7
ro 7
EI@@ 7
ette 7
lamen@@ 7
ua 7
lab@@ 7
lar@@ 7
&amp; 7
simil@@ 7
eth@@ 7
ker@@ 7
lop@@ 7
kul@@ 7
itle## 7
hib@@ 7
arn 7
ari## 7
kel@@ 7
ille 7
kia 7
inf@@ 7
by@@ 7
bour@@ 7
trag@@ 6
ett## 6
ina## 6
asu@@ 6
appre@@ 6
q## 6
X 6
yle## 6
ki 6
atu@@ 6
ella 6
ty## 6
itt@@ 6
roup## 6
lim@@ 6
0 6
meas@@ 6
hen 6
peri## 6
ala 6
Summ@@ 6
ò 6
lia 6
shi@@ 6
Gen@@ 6
alan 6
hi 6
ja 6
ref@@ 6
ing@@ 6
Georg@@ 6
Lu@@ 5
tta 5
itte@@ 5
cate@@ 5
£ 5
use@@ 5
cip## 5
eff@@ 5
veh@@ 5
mus 5
sse## 5
igh@@ 5
LI@@ 5
J 5
scienti@@ 5
duce## 5
ó@@ 5
Bangladesh## 5
fel@@ 5
tual 5
Se@@ 5
conclu@@ 5
Ky@@ 5
Gö@@ 5
lue## 5
mpa@@ 5
OM 5
ite@@ 5
Ass@@ 5
ali 5
ster@@ 5
ket@@ 5
ero## 5
ject## 5
lik@@ 5
ino## 5
duce 5
ger@@ 5
ï@@ 5
à@@ 5
tr## 5
lar## 5
circu@@ 5
Comm@@ 5
ittee## 5
hav@@ 5
SE 5
Au@@ 5
vet@@ 5
kor@@ 5
sia## 5
ó 5
í 5
CA@@ 5
ola## 5
ole@@ 5
ura## 4
yd@@ 4
arante@@ 4
ation@@ 4
ef## 4
· 4
ö 4
Ö@@ 4
structur@@ 4
vin@@ 4
arch 4
tunn@@ 4
ita## 4
ira@@ 4
ã@@ 4
stor@@ 4
tu## 4
osa 4
Ban@@ 4
net## 4
tta## 4
tta@@ 4
Bosn@@ 4
star@@ 4
fun@@ 4
sar@@ 4
Ag@@ 4
crimi## 4
Lat@@ 4
mit@@ 4
tele@@ 4
stro@@ 4
yon@@ 4
dor@@ 4
ich 4
tto 4
isi 4
hake## 4
lis@@ 4
commun@@ 4
ema## 4
stat@@ 4
nti## 4
illa## 4
burg## 4
yn## 4
â 4
ô@@ 4
Ì@@ 4
Citiz@@ 4
Int@@ 4
Po@@ 4
approx@@ 4
ian@@ 4
run@@ 4
Suom@@ 4
nn## 4
ek 4
Z 4
loc## 4
Med@@ 4
ett@@ 4
LA@@ 4
AL@@ 4
eri 4
nat@@ 4
tas@@ 3
del 3
Q 3
tom@@ 3
coh@@ 3
Belg@@ 3
ette## 3
ace## 3
aa@@ 3
ris@@ 3
gent@@ 3
Es@@ 3
via 3
ire@@ 3
ys 3
prec@@ 3
Tran@@ 3
ordin@@ 3
tuon@@ 3
q 3
grap@@ 3
pal@@ 3
essi@@ 3
Jan@@ 3
Kre@@ 3
oma 3
ß 3
pub@@ 3
inte@@ 3
ach@@ 3
W 3
instituti@@ 3
É@@ 3
wer 3
enne 3
oles@@ 3
sid@@ 3
Sw@@ 3
tech@@ 3
ama 3
ivo## 3
lla 3
aga@@ 3
complic@@ 3
did## 3
han## 3
Jo@@ 3
vinc## 3
PVC## 3
Mem@@ 3
ista## 3
aid@@ 3
tern## 2
Per@@ 2
erent## 2
tar## 2
elec@@ 2
aste 2
+ 2
ini## 2
ena## 2
solu@@ 2
oll@@ 2
elm@@ 2
ike## 2
Mon@@ 2
osta 2
sa 2
cen@@ 2
äl@@ 2
ä 2
apua 2
usi 2
pala@@ 2
deta@@ 2
tie## 2
stru## 2
Lä@@ 2
aver@@ 2
Wo@@ 2
heik@@ 2
produc@@ 2
Gener@@ 2
Oc@@ 2
knowled@@ 2
ë@@ 2
intellec@@ 2
een 2
demo@@ 2
risti@@ 2
nt@@ 2
venti@@ 2
ita@@ 2
kin## 2
ky 2
nee## 2
oti## 2
Emp@@ 2
je## 2
pom@@ 2
jo## 2
ular## 2
isen## 2
jö@@ 2
kan 2
pros@@ 2
Pal@@ 2
ken## 2
Ven@@ 2
mi 2
tu 2
ok## 2
= 2
$ 2
tus## 2
eng## 2
ken@@ 2
olen 2
istan## 2
mia 2
etti 2
â@@ 2
tit 2
cogn## 2
Luxembour@@ 2
Gre@@ 2
esi@@ 2
å 2
NS 2
reser@@ 2
som@@ 2
ni 2
Contr@@ 2
she@@ 2
porte@@ 2
elin 2
destru@@ 2
itu## 1
Tsi@@ 1
ito## 1
20@@ 1
Cy@@ 1
Cour@@ 1
lopp@@ 1
alk@@ 1
oli## 1
lain@@ 1
ety## 1
Ü@@ 1
Consu@@ 1
conv@@ 1
ei 1
ohj@@ 1
conne@@ 1
prob@@ 1
tod@@ 1
ú@@ 1
iterran@@ 1
iter@@ 1
tiet@@ 1
Mediterran@@ 1
Pos@@ 1
ei## 1
ans@@ 1
á 1
usko 1
elle 1
mole## 1
Ï@@ 1
kes@@ 1
ots@@ 1
vul@@ 1
Fren@@ 1
osa@@ 1
lai@@ 1
under@@ 1
kr@@ 1
til@@ 1
isto 1
tote@@ 1
kra@@ 1
toma@@ 1
å@@ 1
op 1
Ý@@ 1
É 1
pes@@ 1
lus## 1
hist@@ 1
amer@@ 1
koh@@ 1
ista@@ 1
eten@@ 1
Gas@@ 1
pid@@ 1
ase@@ 1
ko## 1
vien@@ 1
itta@@ 1
iva## 1
ye@@ 1
alle 1
ien 1
À@@ 1
hun 1
overty 1
aa 1
Göte@@ 1
maj@@ 1
stead 1
amm@@ 1
lle## 1
Pub@@ 1
mme 1
viel@@ 1
ais## 1
etti## 1
desira@@ 1
eva 1
him@@ 1
luke## 1
ata 1
kin 1
kö@@ 1
eur@@ 1
NAT@@ 1
æ 1
ethn@@ 1
Y## 1
kka 1
demon@@ 1
Ø@@ 1
atuzz@@ 1
Kan@@ 1
tyn 1
med@@ 1
º 1
anta## 1
osa## 1
amo## 1
mie@@ 1
enne## 1
een@@ 1
rä@@ 1
kun@@ 1
sti## 1
ign@@ 1
ask@@ 1
ø@@ 1
Af@@ 1
pos## 1
ople## 1
ille## 1
väl@@ 1
kom@@ 1
asy@@ 1
mme## 1
itur@@ 1
anska 1
rea## 1
Dut@@ 1
ati## 1
gree@@ 1
imul## 1
unti@@ 1
isin 1
kan@@ 1
sta 1
ala## 1
spit@@ 1
elin@@ 1
jan## 1
Kos@@ 1
terfe@@ 1
Col@@ 1
ous@@ 1
py@@ 1
