, 712481
. 500263
ja 339558
on 292398
a 261175
n 255464
että 166063
in 142452
ä 106922
an 105362
mme 104536
en 103478
t 90387
ta 85634
kin 80511
ei 68943
ssa 65789
-## 61732
Euroopan 60159
@ 55949
@## 55942
- 53979
tä## 53030
ni## 52040
inen 49849
a## 49478
ten 48880
iden 47899
myös 47803
sta 47720
ksi 47426
se 46868
ista 45432
vat 42236
ovat 41788
sti 39597
sen 39193
arvoisa 37914
ole 37767
komission 37056
jo## 36371
i 34456
nä## 34376
i## 34365
ssä 34263
lle 34044
nyt 33867
än 33250
joka 32987
tämä 32073
puhemies 30623
tä 30412
ille 30409
jotka 30207
llä 29012
e## 28600
stä 28388
siitä 28332
istä 28241
meidän 27099
isesti 27038
ten## 27013
jäsen 26677
mut## 26578
an## 26410
sitä 26351
neet 26213
lla 25978
jen 25575
ole## 25454
maan 25449
e 25427
taa 25307
ni 25142
minen 25028
parlamentin 24752
kui## 24681
jäsenvaltio## 24635
nut 24523
isen 24520
en## 24055
taan 23996
et 23855
tämän 23723
ku## 23221
kuin 23145
issa 23130
koske## 23041
tai 22774
) 21843
olisi 21839
( 21742
sekä 20914
va## 20900
itä 20834
kun 20551
isia 20469
te@@ 20343
unionin 20257
u 19844
is@@ 19757
ne 19753
o## 19539
ia 19446
: 19309
komissio 19294
jos 19277
? 19152
esti 18513
&quot; 18455
erityis## 18434
ihin 18429
lisä## 18414
sa## 18031
kanssa 17853
na 17825
voi 17805
o@@ 17786
voi## 17719
t## 17576
ta@@ 17534
olen 17216
kaan 17168
kosk## 17160
sano## 16817
a@@ 16690
isten 16555
hyväksy## 16518
tta 16515
tu@@ 16110
k@@ 16091
la@@ 16082
vien 16012
neuvoston 15981
in## 15974
u## 15901
jo 15828
hyvin 15334
ä## 15239
ta## 15118
mielestä## 15117
halu## 15089
jonka 15020
emme 14918
todell## 14877
e@@ 14662
s 14630
er## 14615
iset 14552
illa 14552
ttava 14460
ita 14378
sillä 14334
isiin 14277
o 14246
ka@@ 14182
een 14139
oli 13882
miseksi 13839
n## 13798
s## 13758
kaikki 13677
yhteis## 13505
tätä 13453
haluaisi## 13291
vielä 13280
eivät 12956
tään 12906
tärkeä## 12873
nä 12799
is## 12747
mitä 12726
muka## 12697
i@@ 12572
isi 12563
ittäin 12338
siihen 12337
kään 12287
y@@ 12286
me 12193
koskeva## 12187
olla 12156
u@@ 12054
on## 11959
sella## 11947
ja## 11930
toimi## 11656
ko 11653
ku@@ 11604
voidaan 11513
y 11350
perus## 11322
suur## 11290
hyvä## 11286
joita 11254
ihmis## 11224
et## 11177
mista 11148
ä@@ 11100
/ 11089
it@@ 11068
issä 10936
toivo## 10924
an@@ 10912
mään 10853
essa 10827
hän## 10788
hän 10732
in@@ 10718
vuoksi 10708
työ## 10614
saa## 10567
val@@ 10424
miseen 10395
al@@ 10336
h@@ 10235
kansalais## 10233
vaan 10194
ksen 10185
via 10176
van 10152
s@@ 10141
p@@ 10129
j@@ 10093
n@@ 10026
parlamentti 9962
ikä 9911
S@@ 9829
sa 9788
si## 9786
vi@@ 9773
ina 9773
ma## 9726
y## 9682
halua## 9680
ko@@ 9675
v@@ 9674
vuoden 9638
va@@ 9619
siksi 9607
yhteisön 9576
tähän 9512
ne@@ 9506
ty@@ 9477
mieltä 9461
esta 9457
ennen 9451
kaik## 9334
m@@ 9328
joiden 9320
jota 9292
liitty## 9249
ympäristö## 9223
nyky## 9220
nsa 9199
EU:n 9176
ko## 9176
pää## 9175
paljon 9163
vät 9139
pitäisi 9121
kseen 9073
sa@@ 9066
ll@@ 9022
mahdoll## 9011
it## 8973
nämä 8911
iä 8824
huomioon 8802
vaikka 8797
ehdot## 8778
ke@@ 8747
ensimmä## 8727
iin 8727
puhu## 8704
t@@ 8681
essä 8648
si@@ 8617
ma@@ 8564
ti@@ 8558
ttävä 8548
ollut 8546
ista## 8514
tu## 8477
lta 8431
staan 8368
puolesta 8351
malla 8350
:n 8283
politiikan 8272
tehdä 8227
pitää 8222
uuden 8217
M@@ 8185
eurooppalais## 8156
lopu## 8156
ettei 8109
vasta## 8102
misen 8094
siinä 8076
neuvosto 8075
l@@ 8067
at 7987
T@@ 7973
jälkeen 7939
en@@ 7939
siis 7926
to@@ 7920
el@@ 7911
kansallis## 7906
esittä## 7887
ki@@ 7881
he 7878
kansainvälis## 7851
esi## 7840
ttiin 7836
komissio## 7816
mistä 7815
nne 7760
täysi## 7741
kaikki## 7726
ka## 7723
ar@@ 7712
sta## 7662
tälla## 7612
misesta 7604
re@@ 7590
mikä 7586
r@@ 7553
pa@@ 7530
sitte## 7510
te## 7487
pää@@ 7477
elle 7452
asia 7449
on@@ 7420
ia## 7397
us## 7381
## 7371
koko 7359
esimerki## 7302
isiä 7282
yleis## 7281
se@@ 7262
il@@ 7250
eksi 7242
vuonna 7184
E@@ 7173
itse 7171
lu@@ 7136
iseen 7129
K@@ 7104
maiden 7102
kaikke## 7085
us 7076
matta 7065
kyse 7064
juuri 7033
maa 7033
illä 7028
yhteydessä 7026
miten 7023
jä 7020
väli## 7018
B@@ 6965
ti 6939
eri 6931
kuulu## 6930
estä 6928
vastaan 6915
itse## 6907
uksia 6880
ha@@ 6874
to## 6871
jäsenet 6848
viime 6831
sopimuksen 6822
ks@@ 6818
meillä 6816
Eurooppa 6814
tetään 6798
etaan 6796
ti## 6772
saa 6722
ki## 6718
ukset 6707
sosiaali## 6700
valiokunnan 6684
toimia 6617
im@@ 6611
li@@ 6598
un 6592
asiassa 6573
ik@@ 6555
to 6547
myönte## 6536
ainoa## 6505
os@@ 6503
euro## 6494
talousarvio## 6471
P@@ 6466
si 6448
ty## 6407
er@@ 6399
mu@@ 6317
teen 6268
osalta 6254
le@@ 6244
uutta 6237
tetaan 6225
emmän 6217
puheenjohtaja 6191
ra@@ 6173
osallistu## 6150
uu@@ 6120
puol@@ 6117
mi## 6114
tärkei## 6076
heidän 6065
A@@ 6063
isin 6061
yksi 6011
vä## 6010
ella 6000
tä@@ 6000
mmin 5997
mis## 5992
moni## 5990
amme 5987
esittelijä 5966
isesta 5962
pa 5944
asioiden 5908
mietinnön 5888
uusi## 5863
eseen 5855
sisä## 5839
jä## 5831
päätöslauselma## 5798
epä@@ 5770
edelleen 5751
au@@ 5748
; 5746
kysymys 5730
mien 5730
avulla 5719
tte 5675
muu@@ 5675
alalla 5670
joilla 5634
kannalta 5632
mä## 5621
viä 5594
ien 5590
mitä## 5572
osoit## 5564
aikana 5563
käy## 5543
C@@ 5542
ol@@ 5542
tänään 5535
ksia 5531
jien 5517
edistä## 5516
isi## 5510
selvä## 5506
valta## 5497
ään 5497
hä@@ 5488
unioni 5472
uksen 5453
aan 5443
per@@ 5437
yhteistyö## 5433
kuu@@ 5432
minun 5417
ase@@ 5403
llinen 5367
hyvä 5360
julkis## 5348
var@@ 5324
pan@@ 5287
as@@ 5281
oltava 5264
ön 5248
osa 5244
joissa 5242
tulee 5239
asiasta 5197
jolla 5189
st@@ 5185
tarvi## 5183
av@@ 5170
ksiin 5161
tuleva## 5158
tapauksessa 5156
työ@@ 5149
olle## 5146
tieten## 5131
perusteell## 5126
kiittä## 5111
tettu 5104
toteutta## 5104
d@@ 5102
prosentti## 5064
kau@@ 5063
op@@ 5060
vä@@ 5058
kan@@ 5050
tettava 5029
mietinnössä 5024
kyse## 5006
vastuu## 4993
om@@ 4988
oikeuksien 4986
tärkeä 4984
ottaa 4983
meille 4978
esittelijä## 4966
saada 4949
ot@@ 4942
1@@ 4942
tava 4925
nn@@ 4909
su@@ 4875
parlament## 4865
ttä@@ 4862
k## 4843
ri## 4837
mietintö 4834
tuke## 4831
2001 4823
teitä 4814
pyri## 4804
ala@@ 4795
eli 4792
ilman 4785
ilma@@ 4781
huoli## 4768
tehtävä 4762
oma## 4742
L@@ 4740
välttä## 4732
liittyvä## 4726
I@@ 4723
varmista## 4712
korosta## 4700
sten 4695
va 4687
iv@@ 4685
aikaan 4684
de@@ 4684
isuutta 4672
jo@@ 4665
puheenjohtaja## 4648
ssa## 4648
täällä 4642
Yhdys## 4639
kaikkia 4627
kansalaisten 4624
ellä 4622
te 4608
katso## 4594
us@@ 4578
johta## 4575
ryhmän 4564
alan 4529
ma 4524
kaksi 4508
ava## 4504
asiaa 4504
isuu@@ 4495
äänestä## 4486
tukea 4479
miljoona## 4473
artikla## 4454
pu@@ 4443
sä 4438
saatta## 4434
ja@@ 4420
toim@@ 4408
toiminta## 4405
no@@ 4379
yhä 4374
5 4372
lii## 4370
viin 4361
:@@ 4358
kannat## 4355
kerra## 4354
g@@ 4345
van@@ 4344
kset 4340
hetkellä 4339
or@@ 4338
ky@@ 4329
kuinka 4325
mukaisesti 4324
tiedä## 4324
talous## 4320
maa## 4313
! 4312
kka@@ 4308
ilta 4301
N@@ 4296
ke## 4295
turvallisuus## 4294
onnistu## 4293
kä 4285
2000 4279
tieto## 4279
teille 4263
ina## 4250
yhtä 4233
kollegat 4218
toinen 4217
direktiivin 4212
käyttää 4211
ttää 4205
kiel@@ 4194
H@@ 4190
oikeus## 4189
tunn@@ 4184
muiden 4182
parlamentissa 4179
vasta 4177
henkilö## 4175
varma## 4173
tilanne 4170
politiikkaa 4164
määrä## 4160
isista 4157
mia 4149
ri@@ 4141
koskeva 4136
ehdotuksen 4132
aika## 4126
ulko## 4124
mi@@ 4117
nkin 4111
neuvosto## 4102
nopea## 4088
enä## 4079
arvo## 4066
V@@ 4057
vahvista## 4036
it 4032
enn@@ 4030
taa## 4022
varten 4018
F@@ 4015
valitettava## 4009
voida 4001
Euroopassa 3982
isimman 3979
parlamentti## 3974
mis@@ 3973
ajan 3957
sija## 3955
iseksi 3953
laajentumis## 3952
un@@ 3951
em@@ 3946
R@@ 3938
ttu 3936
asian 3936
men@@ 3936
perustamis## 3934
joutu## 3928
kseni 3927
ro@@ 3926
täytyy 3925
varsi## 3924
iksi 3922
D@@ 3919
nsä 3907
ettava 3906
rahoitus## 3906
vaikutta## 3902
saavutta## 3890
Yhdis## 3887
m## 3885
utu@@ 3884
pitkä## 3881
tavalla 3879
käyttöön 3875
stään 3866
seura## 3851
2002 3850
tel@@ 3846
nimittä## 3845
tarvitse## 3845
noudat## 3841
vista 3820
ki 3819
et@@ 3811
voitaisi## 3806
ö@@ 3806
olemassa 3805
yhdessä 3802
kehitys## 3802
ris@@ 3801
isessa 3798
tapa@@ 3795
vä 3789
asianmuka## 3779
kä@@ 3773
joista 3763
puheenvuoro## 3762
G@@ 3760
olevan 3760
ksemme 3751
otetaan 3746
toja 3739
ut## 3738
imme 3733
ver@@ 3710
aiheutta## 3708
tele## 3703
demokraatti## 3702
pel@@ 3693
oikea## 3691
po@@ 3690
miel@@ 3686
pien## 3682
pidä## 3672
keskustelu 3671
tava## 3661
paik@@ 3652
joh## 3646
ttava## 3644
ka 3642
valmistelu## 3626
pi@@ 3618
es@@ 3617
jatka## 3613
tävä## 3612
säännö@@ 3608
ehdotus 3596
maatalous## 3590
me@@ 3587
ll## 3586
kunnan 3583
tyytyvä## 3583
har@@ 3582
asioita 3577
na## 3574
tie## 3571
sää@@ 3568
uus## 3565
markkinoiden 3565
uks@@ 3563
määrä@@ 3559
saa@@ 3555
miksi 3555
selkeä## 3544
jul@@ 3543
mahdollista 3543
tettävä 3541
vuotta 3539
2 3538
ltä 3533
demokratia## 3533
tti 3530
vi## 3520
tettiin 3517
ss@@ 3517
ksi## 3512
ut 3512
suo@@ 3512
ase## 3510
monet 3506
jä@@ 3504
tehokkaa## 3502
b@@ 3501
san@@ 3500
erila## 3496
arvo@@ 3492
voisi 3489
uudelleen 3483
ha## 3482
kka## 3476
uksista 3471
use## 3466
h## 3466
muutta## 3463
selvästi 3460
ker@@ 3456
ö## 3455
tarkoituksen## 3452
J@@ 3444
tu 3438
kilpailu## 3433
mättä 3429
jäsen## 3428
tta## 3428
järjestelmän 3420
silloin 3417
oikeuksia 3416
2@@ 3407
vir@@ 3406
tarkist## 3406
torju## 3405
pe@@ 3394
alle 3391
ensinnä## 3385
misestä 3379
minusta 3370
1 3369
ttu## 3365
tar@@ 3363
isuuden 3359
unionissa 3357
tus## 3347
otta## 3346
tettu## 3344
tanut 3341
usein 3340
tom@@ 3340
isessä 3337
yn 3337
ul@@ 3330
oikeus 3328
loppu## 3324
tavoi## 3315
ala## 3311
miä 3310
johta@@ 3298
kehittämis## 3289
alueen 3286
mer@@ 3278
naisten 3273
samo## 3272
epä## 3269
kirj@@ 3259
A## 3259
toiseksi 3255
laati## 3254
yks@@ 3248
masta 3245
sel@@ 3244
oi## 3244
kehot## 3241
so@@ 3238
tun@@ 3229
paran## 3223
ann@@ 3220
yhteistyötä 3220
temme 3219
käy@@ 3209
Arvoisa 3201
osa## 3200
ukseen 3199
ap@@ 3198
jälleen 3196
alueella 3194
tila@@ 3193
nen 3192
uh@@ 3189
työtä 3188
missä 3180
ongelmia 3179
muistut## 3178
tty 3178
istu## 3176
kauppa## 3174
toimiin 3173
re## 3173
ryhty## 3168
alue@@ 3168
isuus 3167
suuri 3161
tur@@ 3159
teiden 3157
tö@@ 3154
edelly## 3153
alla 3149
pyydä## 3145
viime## 3139
määrä 3137
puheenjohtajavaltio 3137
mat 3133
O@@ 3132
kö 3129
maailman 3119
uskon 3118
utu## 3115
aihe@@ 3107
aj@@ 3103
taminen 3095
id@@ 3095
ulkopuol## 3094
jan 3092
merk@@ 3091
edisty## 3091
ite@@ 3088
llisesti 3083
tasolla 3073
2003 3073
tuu 3067
turva## 3059
pysty## 3058
kunn@@ 3057
oleva## 3055
ell@@ 3054
avoim## 3052
kalastus## 3049
vähä## 3048
den 3043
kautta 3040
itta## 3038
ih@@ 3033
tta@@ 3028
vaati## 3024
00 3023
tavoitteen## 3019
d## 3019
oman 3016
v## 3015
valtioiden 3012
ys 3008
hd@@ 3007
ää@@ 3003
massa 3002
toisin 3001
pelkä## 2999
yli 2997
oikeu@@ 2995
yritysten 2991
istu@@ 2990
täytäntöönpano## 2987
puuttu## 2983
syystä 2979
uksesta 2978
3 2975
tulo@@ 2973
ena 2972
maissa 2969
teet 2969
esiin 2966
asti 2963
ongelma 2961
tapahtu## 2958
kannatta## 2956
huomiota 2955
ksi@@ 2955
voima## 2955
meitä 2947
toisaa## 2946
he@@ 2945
syy@@ 2941
han 2939
hen@@ 2938
miin 2938
joka## 2936
alu@@ 2936
min@@ 2929
luo## 2926
hu@@ 2922
suora## 2922
esittämä## 2919
ve@@ 2918
alueiden 2913
kohd@@ 2911
valiokunta 2911
vastusta## 2907
politiik@@ 2896
kohtaan 2893
ir@@ 2891
llaan 2885
suunnitel@@ 2884
Irak## 2883
säily## 2880
välinen 2880
valtojen 2874
siir@@ 2872
maksa## 2872
vaadi## 2863
ksesta 2860
W@@ 2857
energia## 2855
ttä 2854
pal@@ 2851
tarkistuksia 2851
oike## 2844
ittava 2843
aikaa 2838
tulevaisuudessa 2832
merkittävä## 2832
ksista 2828
pidä 2828
muita 2824
voin 2821
seuraava## 2820
tojen 2813
riittävä## 2811
jatkuva## 2808
myös## 2805
4 2804
esityslista## 2797
ehdotuksia 2797
sto## 2795
mo@@ 2795
inä 2793
mon@@ 2793
riippumat## 2785
mennessä 2784
ihmisten 2781
tule## 2774
ksen## 2772
kon@@ 2768
ehkä 2767
ansio## 2765
yksityis## 2763
6 2762
mietintöä 2761
tasapaino## 2759
yksimiel## 2758
tois@@ 2758
mie@@ 2755
otettava 2754
� 2753
ehdotusta 2751
kysy## 2750
ho@@ 2747
uus 2742
joita## 2740
istä## 2739
kunnioit## 2730
pitä## 2726
yhte@@ 2723
tt@@ 2722
vastaa## 2719
ehdokasvaltio## 2715
entistä 2715
raha## 2715
pyrki## 2714
tamaan 2714
estä## 2710
toimielim## 2709
uudesta 2702
ensisija## 2701
ali## 2697
ohjelman 2696
19## 2690
rik@@ 2689
toista## 2687
lisää## 2686
soveltamis## 2685
salli## 2681
parhai## 2681
6@@ 2677
sta@@ 2676
vasta@@ 2676
kulttuuri## 2672
ati@@ 2668
joihin 2665
Venäjä## 2661
kulu## 2657
vara## 2656
alo@@ 2654
kar@@ 2653
lo@@ 2653
tarkoitta## 2652
8@@ 2651
mahdollisuus 2650
keskustelun 2647
jot## 2646
paremm## 2644
hei## 2639
syytä 2635
rajo@@ 2634
ill@@ 2634
raken@@ 2633
keskustelu## 2627
vakava## 2625
par@@ 2624
ilo## 2621
lan@@ 2620
vaih@@ 2619
lyhye## 2619
kestävä## 2616
nä@@ 2615
tomasti 2608
Yhdysvall## 2604
kes@@ 2603
aali## 2603
mätöntä 2600
teidän 2599
kas@@ 2595
voim@@ 2594
all@@ 2593
budjetti## 2592
yrity@@ 2588
ilu## 2583
Ranska## 2583
ehdo@@ 2578
huomattava## 2577
synty## 2574
politiikka 2574
uksen## 2572
asetta## 2567
oso@@ 2565
olisi## 2564
tul@@ 2564
f@@ 2562
EU 2559
muun 2556
.## 2554
alka## 2551
itta@@ 2549
ou@@ 2546
paitsi 2546
lainsäädännön 2545
asetu@@ 2545
U@@ 2544
neen 2543
kiitä## 2542
ita## 2541
konkreett## 2540
toiminnan 2538
valtio## 2536
sille 2535
erinoma## 2532
7 2528
vuoropuhelu## 2528
sopimus 2525
mällä 2524
jäsenten 2522
unioni## 2521
YK## 2521
paikallis## 2520
osin 2514
järjestelmä 2513
la## 2509
päättä## 2508
eet 2506
tetty 2505
ehdotu@@ 2505
asiaan 2504
muut 2502
lainsäädäntö## 2502
onta 2501
aika 2501
ed@@ 2500
assa 2500
minä 2497
liikenne## 2497
at@@ 2495
ymmärtä## 2495
aio## 2490
valvonta## 2489
ö 2489
yksinkerta## 2485
yy@@ 2480
ihmisoikeus## 2480
käyttä## 2476
käytännö## 2474
laaja## 2472
lähe## 2466
menetel@@ 2464
päätty## 2462
Eurooppa## 2460
isto## 2453
tehnyt 2452
sia 2452
jille 2449
alueell## 2448
ttävä## 2446
tö## 2445
minkä 2442
uusi 2442
tais@@ 2439
eri## 2438
toimielinten 2435
halua 2430
valmis@@ 2424
kysymyksiä 2422
kolmanne## 2422
jia 2419
tavoitte@@ 2418
kehityksen 2414
isem@@ 2413
li 2412
oikeuden 2412
hyöty## 2412
välisen 2410
maan@@ 2406
mä@@ 2405
sov@@ 2403
täy@@ 2402
vuosi## 2400
kerto## 2398
kumppan@@ 2398
vara@@ 2397
kasvu## 2397
yh@@ 2394
kann@@ 2391
vapaa## 2389
uuteen 2386
tarjoa## 2386
laad@@ 2386
suos@@ 2385
poista## 2384
keskustelua 2378
kokou@@ 2378
ter@@ 2377
Turk## 2377
teh## 2376
kirja## 2374
ryhmä 2372
poliitt@@ 2372
me## 2371
näkö@@ 2370
toimien 2370
kollego@@ 2368
vissa 2366
jolloin 2363
käytä@@ 2358
olenna## 2355
lä@@ 2353
kohta 2349
tämä## 2349
hin@@ 2345
vuo@@ 2342
taas 2341
utta## 2341
tekn@@ 2339
10 2336
talouden 2335
Espanja## 2335
isenä 2333
tiin 2333
lla## 2331
stu## 2331
käsi## 2329
muuto@@ 2327
7@@ 2324
tutkim@@ 2321
kokonais## 2319
jättä## 2318
liik@@ 2317
ittu## 2312
hallituksen 2308
een## 2302
mu## 2301
mietinnöstä 2300
tarpe@@ 2300
isena 2299
usta 2297
itus## 2295
hieman 2294
lin@@ 2293
luonnoll## 2290
voima@@ 2288
tuen 2288
itte 2286
turvallisuuden 2285
olivat 2283
kaa 2282
luo@@ 2276
ust@@ 2273
tietty## 2270
EU## 2270
tia 2269
sivat 2269
yl@@ 2269
hal@@ 2268
käsiteltävä## 2265
ohjel@@ 2263
uudistu@@ 2263
tie@@ 2263
1999 2263
valvo## 2263
voimakkaa## 2263
esity@@ 2259
kos## 2256
inti## 2255
etu## 2255
tutki## 2254
mmän 2253
sitoutu## 2252
ttaa 2249
toimet 2247
huomaut## 2245
usea## 2244
itse@@ 2244
valiokunnassa 2243
muuta 2242
pian 2237
neuvostossa 2237
takia 2236
llis@@ 2235
ivat 2234
suunn@@ 2234
poliittinen 2232
jota## 2230
ratkaise## 2230
jatko## 2225
kysymyksen 2224
telu## 2224
inn@@ 2223
P## 2222
pyy@@ 2221
tuki## 2220
hallitus 2217
tele@@ 2213
ollee## 2212
aal@@ 2209
tte@@ 2208
15 2201
varoja 2200
valtion 2199
aloitta## 2198
kaiken 2197
eh@@ 2197
useita 2195
ryhmäni 2194
ään@@ 2193
klo 2193
ty 2190
joten 2189
destä 2188
liittymis## 2186
ys## 2185
han@@ 2185
ain@@ 2183
da 2179
vast@@ 2178
ra## 2177
ittele## 2175
nee## 2175
nimenoma## 2174
at## 2171
r## 2170
vaiheessa 2167
na@@ 2166
ryh@@ 2165
maks@@ 2165
näkem@@ 2165
kolme 2158
tietä## 2154
mä 2154
z@@ 2150
aa## 2148
ot 2142
isella 2140
minulla 2137
ite## 2137
tarkistusta 2134
hyväksi 2134
tut 2134
usko## 2130
todeta 2129
tti## 2127
sy@@ 2127
ttaisiin 2126
otta@@ 2125
koh@@ 2125
pä 2122
sopimukseen 2122
löytä## 2120
tarkoitus 2118
käsittele## 2116
missa 2115
sanoi 2112
voit@@ 2110
tutkimus## 2110
toimintaa 2109
vastoin 2108
T 2105
kuntien 2104
sop@@ 2102
asia@@ 2097
käsitellä 2095
ajatu@@ 2094
oli## 2093
tin 2093
tilanteen 2091
olette 2089
taa@@ 2086
tilannetta 2084
kun@@ 2083
tehdään 2082
naan 2080
suhtaudu## 2080
iste## 2080
lisää 2078
tapahtuu 2076
alueilla 2074
iltä 2074
tun 2071
kyllä 2070
tehty 2066
tapahtu@@ 2066
ju@@ 2066
ensi## 2063
ten@@ 2061
suojelu## 2060
hi@@ 2059
0@@ 2059
isestä 2058
tasa 2056
suhtautu## 2054
Israel## 2054
nim@@ 2050
alta 2046
muo@@ 2045
kuningas## 2044
asioista 2040
tek@@ 2039
oikeutta 2039
vallan 2038
merkitsee 2038
kol@@ 2034
siellä 2032
tekee 2032
elä@@ 2031
tekemää## 2030
koja 2027
yhte## 2027
kanna@@ 2026
asetuksen 2025
vero## 2025
kaikkia## 2025
määritel@@ 2025
täytäntöön 2024
poliittisen 2024
misessa 2024
000 2023
yhtenäis## 2022
kä## 2019
liikenteen 2017
edes 2015
alais## 2014
direktiivi## 2013
aikaväli## 2013
aktiiv## 2013
han## 2012
ssä## 2010
tekemä## 2010
sisäl@@ 2010
lou@@ 2009
käsitellä## 2008
oh@@ 2008
yt 2007
minulle 2006
tell@@ 2006
kertom@@ 2006
mua## 2003
tarkistuksen 2001
ettu## 2001
työllisyys## 2000
ar## 2000
huomenna 1997
muuta## 1994
neiden 1993
kri@@ 1992
varojen 1988
noin 1986
mp@@ 1985
elta 1985
ken@@ 1985
jäsenen 1985
yksiä 1983
vat## 1982
kehitystä 1982
teita 1982
kantaa 1980
keh@@ 1980
vaikea## 1979
tämis## 1977
aloitte@@ 1976
heitä 1975
main@@ 1975
sisällyttä## 1973
muutama## 1970
Lissabon## 1968
kahden 1966
suhte@@ 1961
tyy@@ 1960
se## 1959
väl@@ 1959
laatu## 1958
ssaan 1958
man@@ 1957
seuraavan## 1956
esi@@ 1956
sopimusten 1955
vähen@@ 1955
asiat 1954
järjestel@@ 1954
maailmanlaaju## 1954
ville 1953
paino## 1949
kohdalla 1948
ittu 1947
viime@@ 1947
tuot@@ 1947
etu@@ 1945
vai 1941
korva@@ 1939
kompromissi## 1937
mielessä 1936
parantamis## 1934
palvelujen 1934
isille 1932
kesku@@ 1932
vistä 1931
edusta## 1931
sääntöjä 1931
ab@@ 1931
mur@@ 1931
kysymystä 1930
oma@@ 1924
mikä## 1923
ksien 1920
elin@@ 1920
asu@@ 1917
maat 1917
perus@@ 1916
viranomaisten 1916
pa## 1915
mattom@@ 1907
arvio@@ 1907
asta 1906
poliittista 1906
kertaa 1905
kah@@ 1904
uksiin 1903
tarpeen 1902
ov@@ 1902
tavat 1901
itu## 1901
yksi@@ 1901
ettu 1899
meren 1898
terrorismin 1898
ille## 1895
seen 1894
inno@@ 1893
direktiivi 1892
kansan## 1892
sopim@@ 1891
O## 1891
mpi 1889
yhden 1888
kansa## 1887
käyttä@@ 1885
prosessin 1884
Italia## 1882
hallinto## 1882
aloilla 1881
jat 1881
vaar@@ 1879
aihe 1879
tarjo## 1879
enemmistö## 1878
til@@ 1877
kaupan 1876
lainsäädäntöä 1875
mahdollisuuksia 1875
anne## 1872
isivat 1871
itte@@ 1871
kolmans## 1871
hallit@@ 1870
vähe## 1869
ensi 1868
kaa## 1867
g## 1865
työntekijöiden 1865
kysymykseen 1864
50 1864
tuom@@ 1863
syyskuu## 1862
äänesti## 1862
äänestys## 1862
20 1861
isemmin 1861
desta 1861
tuotteiden 1860
kiinnittä## 1859
yö@@ 1858
yhteisö## 1856
30 1856
taloudellis## 1855
kuluttaja## 1855
kutsu## 1854
sovel## 1853
det 1846
lap@@ 1846
8 1845
nu@@ 1841
myöntä## 1841
Väli## 1836
yksittäis## 1836
talou@@ 1835
ent@@ 1834
anta@@ 1834
tehtä@@ 1831
direktiiv@@ 1830
joh@@ 1830
kehittä## 1830
tietoja 1829
da@@ 1827
vero@@ 1826
johdonmuka## 1826
al## 1824
mättö@@ 1822
pyrkim@@ 1815
nor@@ 1813
mo## 1813
isuuteen 1810
palvelu## 1808
asioissa 1807
järjestelmää 1804
siltä 1803
unioniin 1802
ur@@ 1801
sitoumu@@ 1801
puolustus## 1801
äänestys 1798
Y@@ 1798
presidentti 1798
essa## 1796
oikeudet 1793
elle## 1792
hankke@@ 1790
isyy@@ 1790
mieh@@ 1790
ys@@ 1789
kasva## 1789
is 1788
nnin 1787
Afrika## 1787
nne## 1781
enä 1780
toimivalta## 1779
tama## 1777
stä## 1777
ras@@ 1776
vel@@ 1775
aiemmin 1774
toa 1771
jää@@ 1771
2004 1771
päästä 1770
puolusta## 1769
lähes 1768
sti## 1767
isuudesta 1766
vo@@ 1765
vaike@@ 1764
aa 1761
mm@@ 1761
yhd@@ 1761
näky@@ 1760
historia## 1760
5@@ 1759
ilmoitta## 1759
sto@@ 1758
ani 1756
määrin 1753
lis@@ 1753
täydell## 1753
llisen 1752
vaatimu@@ 1751
tieto@@ 1750
puhe@@ 1750
pien@@ 1750
järjestä## 1749
määr@@ 1749
kul@@ 1746
iselle 1743
arvoisa## 1743
työn 1743
ttamis## 1742
laito@@ 1741
tty## 1739
li## 1739
ito@@ 1738
markkina## 1738
läh@@ 1737
alis@@ 1733
hallitusten 1732
Saksa## 1731
syistä 1731
puh@@ 1729
00## 1725
kohdan 1724
isissa 1723
vaarall## 1722
neuvottelu## 1721
rikos## 1721
sopimusta 1721
tan@@ 1721
tömästi 1718
ratkaisu 1717
ie@@ 1715
kor@@ 1714
keskus## 1712
varmiste## 1712
tymis## 1711
eni 1710
ttav@@ 1707
lle## 1707
keski## 1706
kos@@ 1706
tävä 1705
myötä 1704
raho@@ 1703
issa## 1702
llista 1702
sovelle## 1700
menettelyn 1698
rau@@ 1697
vuosina 1697
lähi## 1696
tut@@ 1696
kokouksessa 1695
myönn@@ 1694
ainoa 1694
ava 1691
hall@@ 1691
maailmassa 1691
kut 1690
tilanteessa 1690
9 1690
allekirjoit## 1687
män 1686
yhteen 1686
suuri## 1682
maan## 1682
netaan 1682
ittama## 1681
aiheutu## 1678
päätökseen 1677
luettel@@ 1677
kärsi## 1677
usten 1676
päin## 1675
tietoa 1674
laista 1673
sääntöjen 1673
totea## 1673
puoli## 1672
kunnassa 1672
menettely@@ 1671
luoda 1671
meri## 1670
keskustele## 1668
teli## 1668
vira@@ 1668
vall@@ 1666
näyttää 1666
vahvis## 1665
heik@@ 1665
vasti 1663
aikoo 1662
työstä 1662
raja## 1661
pysy## 1661
ksissa 1660
oll@@ 1659
am@@ 1658
teollisuuden 1657
oikeudenmuka## 1655
tuomioistuimen 1655
turvallisuutta 1653
kolme## 1653
ihmisiä 1652
kan 1651
kolleg@@ 1650
emmin## 1650
mat@@ 1648
toiv@@ 1648
seuraa## 1646
ip@@ 1646
välit## 1646
päätös 1645
tilanteesta 1645
hallitusten## 1645
uudet 1644
toiminta 1643
att@@ 1643
väär@@ 1643
tietysti 1643
tavoite 1641
Nizza## 1641
tapa 1640
aja## 1639
joulukuu## 1638
tah@@ 1637
ettiin 1637
korkea## 1636
myy@@ 1636
vapa@@ 1635
keskustelussa 1635
kohti 1634
yli## 1634
ilmoit## 1633
pit@@ 1633
kehy@@ 1633
merkittävä 1632
viik@@ 1632
eteenpäin 1632
otta 1631
aluksi 1630
virall## 1630
kauden 1628
myöhe## 1628
laajen## 1628
piir@@ 1626
onn@@ 1625
molem## 1623
delle 1621
onnitella 1620
huon@@ 1619
voisimme 1618
ks## 1617
missä## 1616
las@@ 1614
nou@@ 1611
vuoteen 1608
elintarvike## 1608
pöytäkirja## 1607
kk@@ 1607
tuva## 1607
sit@@ 1606
mmä@@ 1605
saadaan 1605
yhteis@@ 1605
sano@@ 1605
ittä## 1604
poliittisten 1602
tau@@ 1602
den## 1601
ryhmä@@ 1601
ryhmien 1601
täyttä## 1600
io@@ 1600
tulo## 1598
toimenpiteitä 1598
sääntely## 1597
käsittelevä## 1597
jouk@@ 1597
välis@@ 1596
mielestä 1596
jatku## 1596
st## 1595
laatima## 1594
sisältä## 1593
kollega 1592
uksessa 1591
maa@@ 1591
ryhdy## 1589
ru@@ 1589
toisen 1588
yhteiskunnan 1588
om## 1588
muodosta## 1587
kää## 1587
odotta## 1586
taneet 1586
ot## 1586
etta 1584
puu@@ 1583
minua 1581
välttämät## 1581
yritykset 1580
tosi## 1580
seik@@ 1579
sisäll@@ 1576
pano@@ 1576
maahanmuut## 1575
tosiasia## 1572
ohjelma 1571
inti 1569
FR 1566
sto 1565
varo@@ 1564
Brysseli## 1563
,@@ 1563
oikeudell@@ 1562
tulisi 1561
ilme## 1561
ksessa 1560
min 1560
ettei## 1559
perä## 1558
:ssa 1558
tus 1558
päivä## 1556
odo@@ 1556
kulu@@ 1556
tuo## 1554
Kreika## 1554
rapor@@ 1553
tuo@@ 1553
itettu 1552
poikke@@ 1550
pik## 1550
tavoitteet 1550
ttä## 1548
välin@@ 1548
3@@ 1548
välistä 1548
päätöksen 1547
laaj## 1547
tekevä## 1546
kauan 1546
toteutu## 1545
rahoitta## 1545
käy 1544
vaikea 1544
tää 1543
vesi## 1542
ystä 1542
tto## 1542
alta## 1539
asia## 1537
vakuuttu## 1537
ssani 1536
lähti## 1535
20## 1534
sien 1533
rahoit@@ 1533
pääse## 1532
llis## 1532
päätel@@ 1532
tullut 1530
toteu@@ 1530
mukaista 1529
ongelmat 1529
vaa 1528
kojen 1525
vaikutu@@ 1524
kalta@@ 1523
suor@@ 1522
rauhan## 1522
est@@ 1521
totesi 1520
jäseniä 1519
käsity@@ 1518
men## 1517
roh@@ 1517
ori## 1514
maahanmuutto## 1513
kin@@ 1512
Ruotsi## 1512
rajoitta## 1512
kanta 1510
riko@@ 1510
kat@@ 1509
verko@@ 1508
tensa 1507
essaan 1506
eivät## 1506
elämä@@ 1506
tö 1505
näy@@ 1505
1## 1504
järkevä## 1504
tehtävä@@ 1504
ett@@ 1504
vuosi 1504
käytön 1503
mahdollisuuden 1502
palestiinalais## 1502
vu@@ 1500
pyytää 1498
saatav## 1497
tuotta## 1496
muuttu## 1496
markkino@@ 1496
päätöksiä 1495
vielä## 1495
viranoma@@ 1495
ulottu@@ 1494
milla## 1492
illa## 1492
päivän 1491
ehdotuksesta 1490
ilmi 1490
dessa 1490
tunnusta## 1487
merkittä## 1486
johtu## 1485
auttaa 1485
pien 1484
kollegani 1482
mahdot## 1481
oleva 1481
vaikutuksia 1481
muuten 1480
lleen 1480
paino@@ 1480
isuudessa 1480
laatima 1479
aiko@@ 1479
osan 1479
teemme 1478
seura@@ 1478
isistä 1478
tilante@@ 1475
kiireell## 1475
kunta 1474
sotilaallis## 1474
tark@@ 1473
yttä## 1473
tuotan@@ 1472
vissä 1471
järjest@@ 1470
lainen 1469
pako@@ 1469
keske## 1469
aika@@ 1469
muodo@@ 1469
säännöt 1468
osten 1468
odot## 1468
kieltä## 1468
oma 1467
emme## 1466
kokouksen 1465
muu## 1465
jaka## 1465
vapauden 1465
set 1465
lain## 1464
tiedonan@@ 1464
puitteissa 1464
maita 1463
ste@@ 1463
Kansa## 1463
keskustel@@ 1462
tapauksissa 1462
ven@@ 1460
periaatteen 1459
ehdotukset 1458
nau@@ 1458
unohta## 1457
olisivat 1456
entis## 1456
ari## 1456
saatava 1455
eni## 1454
myönnet## 1454
kannan 1453
jou@@ 1452
omi## 1451
tulla 1451
ksiä 1450
nnut 1450
pari## 1449
iden## 1449
neita 1448
mi 1448
rautatie## 1448
erä## 1448
ensin 1448
sijo@@ 1448
velvo@@ 1447
tien 1447
lento## 1447
toimin@@ 1446
tekst@@ 1446
her@@ 1446
B5 1445
kas## 1444
meistä 1443
lait## 1442
sään@@ 1442
estää 1442
terveys## 1439
uksella 1439
edellis## 1439
maatalouden 1439
kanssa## 1439
miljardi## 1439
peruste## 1438
harjoitta## 1438
kokemu@@ 1438
toista 1437
huono## 1436
perustuva## 1436
ud@@ 1435
valit## 1435
im## 1435
pide@@ 1435
luonno@@ 1434
miesten 1434
eurooppalainen 1431
pidä@@ 1430
toteuttamis## 1430
paa 1430
rangaistu@@ 1429
sähkö## 1429
huom@@ 1429
harjo@@ 1426
teho@@ 1426
j## 1426
stö## 1426
hoita## 1425
vahvis@@ 1424
tode## 1423
itä## 1422
lopetta## 1422
laillis## 1422
yksityiskohta## 1421
liit@@ 1421
oppi## 1417
tavan 1417
apua 1416
oike@@ 1415
tila## 1414
eläinten 1414
pohjalta 1413
toma@@ 1412
telu 1410
tietojen 1409
rakenn@@ 1409
l 1406
pidetään 1406
teollisuus## 1406
parempi 1405
ani## 1405
tavoitteita 1405
kse## 1405
isim@@ 1404
tutkimuksen 1404
käytännön 1403
ike@@ 1403
helpot## 1403
tiedätte 1402
mpaa 1402
jää## 1400
ivät 1400
tervey@@ 1400
12 1400
kansan@@ 1399
ri 1396
markkinoilla 1396
nosta## 1396
tavo@@ 1396
esta## 1396
amp@@ 1394
es 1393
lopullis## 1392
puolueen 1392
äskettä## 1390
tio## 1390
energ@@ 1390
pake@@ 1390
rannik@@ 1389
sopimuksia 1389
edusta@@ 1389
sama 1389
mainita 1388
mihin 1388
riittä## 1387
hyödy@@ 1387
tal@@ 1387
Lähi 1387
hallinnon 1386
ette 1385
tett@@ 1385
aik@@ 1385
ohj@@ 1384
huomau@@ 1384
mahdollista## 1384
eltä 1383
yyden 1383
heti 1382
palaut## 1381
199@@ 1379
käsittelyssä 1378
poliittisia 1378
tuotta@@ 1378
verk@@ 1377
epäile## 1377
vakavi## 1377
merkitys 1374
tarpeellis## 1374
hallin@@ 1374
Kiina## 1374
periaatetta 1373
yhteiskunta## 1373
ansa 1372
ala 1372
kysymyksiin 1371
lää@@ 1370
huomio## 1369
parann## 1369
vapautta## 1369
man 1368
am## 1368
jäsentä 1365
tarkistus 1365
äärimmäis## 1364
avun 1364
taloudellisen 1364
arvos@@ 1364
koke@@ 1364
tarkastel@@ 1362
luottamu@@ 1359
kuljetu@@ 1359
työn@@ 1359
asema 1359
kulttuu@@ 1359
Portugali## 1358
sul@@ 1357
de 1356
kymmenen 1356
kohta@@ 1353
vastaa 1353
hyl@@ 1351
pois 1351
tekijö@@ 1351
as## 1349
ha 1349
arviointi## 1349
merkitystä 1348
ic@@ 1346
käyttöä 1345
llisten 1345
Irlannin 1345
maassa 1345
tarkastele## 1344
joiden## 1344
viranomaiset 1344
päivänä 1343
sopimuksessa 1343
keskustella 1342
Euro@@ 1342
kestä## 1340
valmis 1340
sosiaalisen 1340
neuvottelujen 1338
vapauttamis## 1336
kien 1334
pol@@ 1334
köyhi## 1333
annettava 1333
kkä## 1333
un## 1333
tavoitteiden 1332
ili## 1332
epäonnistu## 1330
pääasia## 1330
rajat 1330
vastuu@@ 1329
kala## 1329
sanottu## 1328
della 1328
man## 1328
ittava## 1327
lop@@ 1326
ongelman 1324
olevia 1324
selvittä## 1324
väest@@ 1323
ilta## 1323
yhteen@@ 1322
ais## 1322
itys## 1321
nassa 1320
humanitaaris## 1320
kki## 1319
sor@@ 1318
järjestyksen 1317
ro## 1316
isilla 1316
suojele## 1315
Itä## 1314
ita@@ 1314
isimme 1313
nope@@ 1313
tason 1313
huol@@ 1311
turvapaikka## 1310
Sch@@ 1309
pil@@ 1309
vaatimuksia 1308
25 1308
lain@@ 1307
tull@@ 1306
osallistumis## 1306
ess@@ 1306
suuntaan 1305
taso@@ 1305
poliisi## 1305
usta@@ 1304
ministeri## 1303
io## 1302
ettava## 1302
Mar@@ 1302
empi## 1302
matt@@ 1301
01## 1301
kriteer@@ 1301
kkaa## 1301
puut@@ 1300
viitta@@ 1300
yhteen## 1300
takaa## 1298
ali@@ 1298
C5 1297
palvel@@ 1297
tusta 1297
jäl@@ 1297
toman 1296
puheenjohtajavaltio## 1296
ak@@ 1295
valtu@@ 1294
laadi## 1294
rooli## 1294
ehdotuksessa 1292
kom@@ 1292
pide## 1292
kielte## 1292
henkilö@@ 1289
kysymykset 1288
laaj@@ 1288
puolesta## 1286
alue## 1285
asiakirjo@@ 1285
kuluttajien 1285
etty 1284
eita 1283
johto## 1283
tuho@@ 1283
kuun@@ 1282
hyödyll## 1282
é@@ 1282
ratkaista 1282
avo@@ 1281
alaa 1280
politiikkaan 1278
torjunta## 1278
ttu@@ 1277
periaatte@@ 1276
teoll@@ 1276
tote@@ 1276
viikolla 1275
vaihe@@ 1275
todennäkö## 1274
maailman## 1274
ryhmä## 1272
mel@@ 1272
yyttä 1272
luku@@ 1271
kel@@ 1271
koro@@ 1270
itettava 1270
hyödy## 1269
ämme 1269
direktiiviä 1269
luku## 1268
sol@@ 1268
halu@@ 1267
koko## 1267
markkinoille 1267
ne## 1266
mät 1266
hark@@ 1265
ydin@@ 1265
vähemmistö## 1265
Afganistan## 1265
ing## 1264
kää@@ 1264
vastuu 1264
melko 1261
jouko@@ 1260
vuus 1260
&apos; 1260
ag@@ 1259
elim@@ 1259
uutta## 1258
paran@@ 1256
ken## 1256
tilanteeseen 1255
suunta@@ 1255
taloudellista 1255
päästö@@ 1255
jatke## 1254
menettelyä 1254
lopulta 1254
tekniik@@ 1253
yhdis@@ 1253
enne 1252
osa@@ 1251
ositta## 1250
ny@@ 1249
po## 1247
tarka@@ 1246
mietintö## 1246
tuotanto## 1246
kiinnostu## 1246
aiheesta 1245
mall@@ 1245
esitetty 1244
päättävä## 1243
minkään## 1243
rakennerahasto## 1242
kas 1242
pohd@@ 1242
sesti 1242
mme## 1241
kesäkuu## 1240
toiseen 1240
jaa 1239
valtiot 1239
miselle 1239
liikkuv## 1239
tehokkuu@@ 1237
yleis@@ 1236
yhtä## 1235
vie@@ 1234
järjestö@@ 1234
pro@@ 1233
kärsi@@ 1233
onnettom@@ 1232
mahdollisuutta 1232
Tanska## 1232
el## 1231
tuo 1231
oikeudellis## 1231
etujen 1230
rauhan 1230
muista## 1228
kehitty## 1228
tarko@@ 1228
toivottava## 1226
teistä 1226
toimi@@ 1225
vuositta## 1224
tarpee## 1224
de## 1224
varma 1222
1. 1222
iva## 1222
pä@@ 1222
kala@@ 1222
tia## 1220
WTO## 1220
politiikassa 1219
valvontaa 1219
ve## 1219
matkailu## 1218
meno@@ 1218
usko@@ 1218
yty## 1217
ymmärrä## 1217
l## 1217
prosessi 1216
mukau@@ 1216
loppuun 1216
yhteisö@@ 1215
perustuslaki## 1215
ksia## 1213
mietinnö@@ 1212
ittelu## 1211
ilmaista 1211
tiivii## 1211
koulu@@ 1210
muka@@ 1210
tunnus## 1210
02## 1209
askel 1209
ero@@ 1209
yhteiskunnallis## 1209
päätöks@@ 1208
tyvä## 1208
tehd## 1207
ana## 1207
muutoksia 1206
sopi## 1206
tiedo@@ 1205
tehty## 1204
maihin 1204
sana## 1203
ini## 1203
kier@@ 1202
asiantunti@@ 1200
isi@@ 1200
saavu@@ 1199
tetta## 1199
esit@@ 1198
tuki 1198
tarvittava## 1196
ratkaiseva## 1196
yhteisöjen 1196
mahdollisuudet 1195
ian 1195
tyneiden 1194
käyttö## 1194
huolehti## 1193
pidettävä 1193
ttaessa 1192
nuor## 1192
teke## 1191
tety@@ 1191
arvioi## 1191
kehitysyhteistyö## 1190
tarvitse 1189
kuva## 1189
kilpail@@ 1188
suoja## 1188
kehit@@ 1187
järke@@ 1187
tuista 1187
mietintöön 1186
raha@@ 1186
käynnistä## 1185
yä 1184
ihmis@@ 1183
terve@@ 1182
vai@@ 1180
ukse## 1180
lisäänty## 1179
kke@@ 1179
dy@@ 1179
tuloksia 1178
kalast@@ 1178
aja@@ 1177
alueita 1177
vaaran## 1177
kohdistu## 1177
koulutus## 1176
tieteell@@ 1176
pur@@ 1176
keskusteluun 1175
laisia 1175
huu@@ 1175
tys## 1175
sisältyy 1174
käyttö 1174
seudun 1174
vaihtoehto## 1174
kulutta@@ 1174
ee## 1173
vil@@ 1172
ohjelmien 1172
tyneen 1172
toukokuu## 1171
ero## 1170
valtio 1170
tuomio## 1169
oissa 1168
sata@@ 1167
yli@@ 1166
luon@@ 1166
minä## 1166
joissa## 1165
pitä@@ 1164
juu@@ 1164
puolue## 1164
vahin@@ 1163
ttua 1162
olosuh@@ 1162
jää 1162
ruo@@ 1161
kolmen 1160
konflik@@ 1160
nro 1159
valtio@@ 1159
jonkin 1158
asioihin 1156
järjestelmien 1155
inta## 1154
sovell@@ 1154
jen## 1154
esitä## 1153
ino@@ 1153
luu@@ 1153
alkuperä## 1151
tuksen 1150
olin 1150
lais## 1150
ajate@@ 1149
lliset 1148
politiikasta 1147
tekem## 1146
syy 1146
kansain## 1145
toteute## 1145
tällaisen 1144
kilpailukyky## 1143
keskitty## 1143
yhdy## 1143
vaatimukset 1142
suur@@ 1142
eilen 1142
maksu## 1141
maksu@@ 1140
neuvottelut 1140
sisälly## 1139
S 1139
kö@@ 1139
ili@@ 1139
kanta## 1138
poliittiset 1138
kiitos 1137
kohdassa 1137
muihin 1137
korkea 1136
katta## 1134
löy@@ 1134
alue 1132
2## 1132
uudistamis## 1131
kaup@@ 1131
sodan 1131
aihetta 1129
pois## 1128
kesk@@ 1128
vähentämis## 1126
toimintaan 1124
nykyisen 1124
ties 1124
perust@@ 1122
ana 1121
oikeudellisten 1121
merkille 1120
ava@@ 1118
kehitys 1117
hava@@ 1116
monimuoto## 1116
Amerika## 1116
vuosien 1114
otettu 1113
huippukokouksessa 1113
tieteellis## 1113
käytävä## 1112
mpää 1112
asiakirj@@ 1111
sisä@@ 1111
ään## 1111
enne## 1111
tammikuu## 1110
vakuutta## 1109
kohtaa 1109
eräs 1108
luok@@ 1108
strategian 1107
merkitykse## 1107
rakenta## 1107
isyyttä 1107
tely## 1106
joudu## 1106
edust@@ 1106
kunnianhimo## 1106
valta 1106
ansa@@ 1105
ikka## 1105
ksella 1104
päätö@@ 1103
toimista 1103
ymmärre@@ 1103
sovittelu## 1102
ikä@@ 1102
tasav@@ 1102
risti## 1102
laske## 1101
dy## 1101
eurooppalaiset 1101
13 1101
aineiden 1100
ell## 1099
tarkistu@@ 1099
etuja 1099
perhe@@ 1099
asu## 1098
kiinni## 1097
virka@@ 1097
näkemykse## 1096
tarkka@@ 1095
naiset 1095
laajentuminen 1095
kirjo@@ 1094
joskus 1094
pohti## 1093
liikke@@ 1093
esimerkki## 1093
valmista@@ 1092
ministeri 1092
järjeste## 1092
r 1091
kuukausi## 1091
tarkast@@ 1091
vakaus## 1091
leh@@ 1090
strateg## 1090
saar@@ 1090
väit## 1088
Belgia## 1086
rikko## 1086
hol@@ 1086
ran@@ 1086
yrityksiä 1086
kää 1085
hyväksy@@ 1084
paho@@ 1084
kk## 1084
perinte## 1084
perustus## 1083
mene## 1082
todeta## 1082
päivä@@ 1081
ad@@ 1081
taistelu## 1081
ity@@ 1079
40 1079
kuulemis## 1079
puhu@@ 1079
lie@@ 1079
taloudellinen 1078
helpo## 1078
koordinoi## 1078
määrää 1077
yhteistyö 1077
id## 1077
millä 1076
pako## 1075
ly@@ 1075
tiedot## 1075
ottamaan 1075
päätökset 1073
kiinni 1073
päätöksenteko## 1073
aloitteen 1073
tämän## 1072
osta 1072
nnan 1072
tettä@@ 1071
luov@@ 1071
vuodesta 1071
kansalaisjärjestö## 1071
mil@@ 1070
resur@@ 1070
keskeinen 1070
allis## 1070
lehd@@ 1069
ensa 1069
ydin## 1069
erää## 1068
vähimmäis## 1068
tavoitteen 1068
ilma## 1067
isyys 1067
er 1067
siirty## 1067
ika## 1067
kohte@@ 1066
essä## 1066
väl## 1066
monimutka## 1065
kotimaa## 1065
ksilla 1065
vatko 1064
autta## 1064
asemaa 1064
hy@@ 1063
isti## 1062
PPE 1062
lisä@@ 1062
vakau@@ 1062
akaan 1061
maini## 1061
palvelu@@ 1061
ksille 1061
eläke## 1060
isa## 1059
rakenne## 1059
yleensä 1059
ito## 1058
sanottava 1058
perusoikeuskirja## 1058
teen## 1057
tömyy@@ 1057
järjestöjen 1057
taloudellisia 1057
prosentin 1057
pääministeri 1057
ac@@ 1056
ölj@@ 1056
osapuolten 1056
eikö 1055
het@@ 1055
vähi## 1054
rakentamis## 1054
llisia 1054
maista 1054
periaate 1053
oon 1053
maaliskuu## 1053
väkivalta## 1052
tyh@@ 1052
lähestymis## 1052
0## 1051
standar@@ 1050
mahdollisuu@@ 1050
tarkoita## 1049
käytö@@ 1049
prosessia 1049
lähestymistapa## 1049
keen 1048
tulevaisuuden 1048
usta## 1048
tiedot 1048
vammais## 1048
pika## 1046
kysymyksistä 1046
een@@ 1046
mielipite## 1045
evä## 1044
perusta 1044
maille 1044
periaatte## 1043
yhdistä## 1043
väline 1043
laaju## 1043
sijaitse## 1043
di## 1043
varmuu@@ 1042
joille 1042
ratkais@@ 1042
lausunto## 1041
noudattamis## 1041
tarv@@ 1041
lasten 1041
Ma@@ 1040
menettely 1040
tunut 1039
kinta## 1039
ksessä 1039
all## 1039
kansanterveyd## 1039
saatu 1038
kaupun@@ 1038
kunta## 1038
kkaasti 1037
väline@@ 1037
tomia 1036
tue## 1036
palk@@ 1036
lähe@@ 1035
tulos 1035
liberaali## 1035
itseva## 1035
urheilu## 1035
suuren 1035
yhdentymis## 1035
solidaar## 1035
Ber@@ 1034
uksissa 1034
työsken@@ 1034
tilintarkastus## 1034
yty@@ 1034
nes## 1033
stus## 1033
ituksia 1032
ama## 1032
konflikti## 1032
tuoda 1031
kaise## 1031
ventä## 1031
rin@@ 1031
pp@@ 1031
marraskuu## 1030
henkilöiden 1030
jäsen@@ 1029
hyväksymis## 1029
omaa 1028
pitkällä 1028
välineitä 1028
isen## 1027
siirtä## 1026
jät@@ 1026
vuuden 1025
kyken@@ 1025
laaja 1024
jal@@ 1024
noja## 1024
S## 1022
por@@ 1022
valmi@@ 1022
Kypro## 1022
ratka@@ 1021
syrjä@@ 1020
käydä 1020
omasta 1018
yys 1018
korva## 1018
laati@@ 1018
mainitse## 1018
tiu@@ 1017
äänestyks@@ 1017
iste@@ 1016
neuvotteluissa 1016
huolenaihe## 1016
seuranta## 1016
tarkasti 1015
mästä 1015
siviili## 1015
läpi 1014
yhdenmuka## 1014
yllä@@ 1014
mille 1013
ulkoma@@ 1013
stu@@ 1013
g 1013
hylä## 1013
Kosovo## 1013
tausta## 1012
syn@@ 1012
vaali## 1011
olo@@ 1011
11 1011
osaa 1011
dä 1010
di@@ 1010
matkusta## 1010
kseksi 1009
ym@@ 1009
tarkastella 1009
istunto## 1007
uudessa 1007
laittom## 1007
käytäntö@@ 1006
kulutta## 1006
tiedä 1005
määri@@ 1005
pohjois## 1004
toki 1004
otto## 1004
kustann@@ 1003
teke@@ 1003
lähen@@ 1003
näkökulmasta 1003
etty## 1003
komitea## 1003
alussa 1002
isivät 1001
osoittava## 1000
oikea 1000
yhteisö 1000
w@@ 1000
tiedotus## 1000
mpi## 999
tetty## 999
esimerkki 999
suhteessa 999
ust## 999
eläkke@@ 999
raja 999
ku 998
tehtävä## 997
tamisesta 997
selvi@@ 996
tteko 995
huippukokouksen 995
ongelmaa 995
mit@@ 995
synn@@ 994
kko## 993
O 993
siirtymä## 993
järjestön 993
nossa 992
valvonnan 992
03## 992
järjes@@ 991
sä@@ 991
liikku@@ 991
alla## 991
itsenäis## 991
mets@@ 991
huoma@@ 990
toden## 990
selv@@ 990
takaisin 990
vaati@@ 990
iik@@ 990
ttäisiin 989
SE 989
keskity## 989
tiet@@ 987
asemassa 987
kohtia 986
rahoitusta 986
velvollisuu@@ 986
kun## 984
vaihtoeh@@ 984
kirja 984
konferenssin 984
edustaja 984
misto## 984
oista 983
ut@@ 983
viita@@ 982
tiiv@@ 982
mmat 982
kra@@ 982
osuus 981
rajojen 980
he## 979
ehdotukseen 979
ella## 978
attu 977
selvi## 976
suosion## 975
tasa## 975
puolu@@ 975
tapa## 975
tilaisuus 975
valko## 975
11. 975
toisessa 974
sil@@ 973
Kan@@ 972
vois@@ 971
öi## 971
koo@@ 971
valiokunn@@ 970
myöntämis## 970
kovin 970
alusten 969
sovel@@ 969
ennalta 969
pysty 968
hun 968
2006 968
tra@@ 968
teknis## 967
olog@@ 967
nähdä 967
ide@@ 966
työttömyy@@ 966
öljy## 966
14 966
kustannukset 966
aseman 965
utta 965
toihin 965
4@@ 965
aid@@ 965
terrorismi## 965
Etelä 964
run@@ 963
ema## 963
pakolais## 963
hank@@ 962
aatio## 962
lähtö## 961
luke## 961
kiinno@@ 961
katastrofi## 960
hyvän 960
saira@@ 960
mässä 960
tena 960
rä@@ 959
voimaan 959
hallinno@@ 959
ek@@ 959
kansan 959
1998 958
ratkaisun 958
ilmo@@ 957
antama## 957
oto## 957
kohta## 957
lausun@@ 957
kea## 957
julistu@@ 957
tukema## 957
Su@@ 956
vuor@@ 956
henkilöstö## 956
tapahtuva## 955
huippu## 955
turvallisuuteen 955
julkilausuma## 955
meidät 954
etta## 954
jaa## 954
toimenpi@@ 952
tarkista## 951
toimi 951
ante@@ 951
toimen@@ 951
osoituksia 950
markkinat 950
yyn 950
Barcelona## 950
viera@@ 949
etelä## 949
infrastruktuuri## 949
alueelle 949
jälj## 949
köyhyyden 948
llä## 948
tehosta## 947
äske## 946
vuutta 946
talais## 945
ttaisi 945
pankin 945
vaale@@ 945
lupa@@ 944
muutama 944
parhaa## 944
tuotteita 944
ykset 943
ment@@ 943
työ 942
90 942
tupa@@ 942
rasis@@ 942
koulutuksen 941
le 941
es## 940
kilpailun 939
luopu## 939
tettava## 939
vän 938
Alankoma## 938
muissa 938
pyyde## 938
lokakuu## 938
ivi## 938
apu## 938
mmälle 938
elämän 938
Palestiina## 938
päiv@@ 937
teisiin 937
innan 937
ksestä 937
asi@@ 936
pysyvä## 936
E## 936
ratifioi## 936
kiitoksia 935
sopimukset 935
keinoja 935
keskeyt## 935
rav@@ 935
aikoina 934
perustelu## 934
viestintä## 934
määrärahoja 934
selkeä 934
ammat@@ 934
keske@@ 933
lähettä## 932
päte@@ 932
väestön 932
c@@ 932
ob@@ 931
empi 931
ser@@ 930
lainsäädännö@@ 930
taakseen 930
io 929
periaatteita 929
kuolem@@ 927
pidety## 927
vapaaehtois## 927
nti## 927
tämät## 926
amu@@ 926
työskentele## 926
koulu## 926
tyt 926
tumis## 926
res@@ 925
saavute## 925
alueet 923
sivu## 923
tamalla 923
läsnä 922
Pohjois 922
ib@@ 922
aikataulu## 922
llisyyden 921
heikentä## 921
deks@@ 921
vastaava## 920
ise## 920
miehet 920
kehitys@@ 920
johdo## 919
iv## 919
z 918
liikente@@ 918
suuntaviivo@@ 918
verrattu## 918
teh@@ 918
tuomioistuin 918
yhtiö@@ 918
teki 917
arvioinn@@ 917
kaltais## 916
ratkaisu## 916
kelu## 916
lainsäädäntö 916
monta 915
palveluja 915
itt@@ 914
ore@@ 914
emmin 914
itus 914
kur@@ 914
viest@@ 913
luoma## 913
panna 913
pääsy## 913
edell@@ 912
ile## 912
alli## 912
ajan@@ 911
heinäkuu## 911
turvallisuus 911
ho## 911
byrokra@@ 911
yksil@@ 911
enemmistö 910
mekanis@@ 910
edellä 910
opetu@@ 909
suhteen 909
järjestelmä## 909
mielellä## 908
kuljetus## 908
yksi## 908
neuvo@@ 907
selvä 907
ammatti## 907
selvity@@ 907
vapautta 907
jälleen@@ 907
avar@@ 906
yrittä## 906
immat 906
pain@@ 905
stojen 905
yttävä## 905
tamiseen 905
teillä 904
päätösten 904
vaikuttava## 904
kaamme 904
määrän 904
kal@@ 904
ila@@ 904
naapu@@ 904
säädö@@ 903
raha 903
Balkan## 903
kahta 902
yksen 902
tettävä## 901
esitti 901
KOM 901
este## 901
yy## 901
kaiken## 900
käynn@@ 900
tunte## 899
korke@@ 899
keskeisi## 899
empia 899
istö## 899
vähentää 899
yleissopimuksen 899
vih@@ 899
muodossa 898
kunno## 898
ajat@@ 898
herättä## 898
kahden## 898
poliittisesti 898
ohjelmaa 897
avoimuutta 897
uud@@ 897
hallitukset 897
teja 897
antoi 896
ong@@ 896
innän 896
tunne## 896
vahingo@@ 896
toimitta## 896
hallinnollis## 895
direktiivissä 895
epäil@@ 895
syrj@@ 895
luule## 894
käytöstä 894
markkinoita 894
idän 894
paikkoja 893
gen## 893
rauta## 892
elin## 892
avu@@ 892
riippuva## 892
totesi## 892
ossa 891
ans@@ 891
äänestyksen 890
valmiita 889
rooli 889
haa@@ 889
ttö@@ 888
puheen@@ 888
tarkistuksista 887
isiksi 887
odota## 886
tarjo@@ 886
pitävä## 885
D 884
onnittele## 884
yrityksille 884
ved@@ 884
äni 884
viraston 884
edustajat 884
tulokset 883
päästä## 882
oikeuden## 882
mat## 882
maail@@ 882
sota## 882
kampan@@ 882
aloitteita 881
unionia 881
perhe## 881
kiell@@ 880
teltiin 880
päin 880
säilyttämis## 880
kerta## 880
uk@@ 880
ongelma## 880
omia 879
kuull@@ 879
tin@@ 879
toimintasuunnitelma## 878
kiitoll## 878
toimielin## 878
Ro@@ 878
arvioida 877
pyst@@ 877
yjä 876
politiikkojen 876
ongelmien 876
uun 876
luonnon## 876
ai@@ 875
kokous 875
inte@@ 874
kannusta## 874
än## 874
oikeutetu## 873
kii@@ 873
eett@@ 873
käsittely## 872
je## 872
Euroop@@ 872
velvoitte@@ 871
tehokka## 870
olle 870
hyö@@ 870
idemme 869
vastaus 869
uste## 869
tiede## 868
alojen 868
päivä 868
liika## 867
jonkin## 867
pohja## 867
nähdä## 866
pano## 866
tee 866
käsittelemä## 865
ika@@ 865
kattava## 864
lause@@ 864
hyviä 864
jan## 864
taloudellisten 864
3## 864
yhtey@@ 864
Britannia## 863
tekijä 863
uhre@@ 863
kansojen 863
Strasbourg## 862
ajattele## 862
tiuk## 861
menettely## 861
mpiä 860
Al@@ 860
rikkom@@ 859
nnissa 859
kselle 859
tuotte@@ 859
tarvetta 858
vähintä## 858
vaikutukset 858
parlamentaaris## 858
torjun@@ 858
hait@@ 857
mmeko 857
silti 857
menee 857
oikeusperusta## 857
muista 857
vatiiv@@ 856
sio## 856
paikalla 856
terroristi## 855
isellä 854
syy## 854
tasavallan 854
etti## 854
yys## 854
seuraavan 853
tiuk@@ 853
lujit## 853
oikeusvaltio## 852
valmiste## 850
vihdo@@ 849
varat 849
menne## 849
neljä@@ 849
kerro## 849
äänest@@ 848
etsi## 848
taso## 848
tarkoit@@ 847
isempi 847
tynyt 846
ukselle 846
kuka 846
täydentä## 845
tamista 845
riida## 845
järjestelmä@@ 845
demokra@@ 845
pyyntö@@ 844
menettä## 844
rj@@ 844
perustaa 844
etene@@ 844
ksistä 844
Ver@@ 844
mättömiä 843
vihreä## 843
nimissä 843
ehdottama## 842
väärin 842
tämänhetk## 842
käytössä 842
yhtälä## 842
atio## 842
sala## 842
nneet 842
nyky@@ 841
isuus## 841
pakola@@ 841
suhteell## 839
tehtävänä 839
suosit## 839
80 838
kesken 838
valtion## 838
mik@@ 838
uudelleen## 837
aloite 837
koihin 837
arvo 837
str@@ 837
tt## 837
työjärjest@@ 836
välittä## 836
edellyty@@ 836
ottanut 836
käyttööno@@ 836
annettu 835
ajatus 835
suhteiden 835
noudattama## 835
ön## 835
ollaan 834
net 834
valtuus@@ 834
met@@ 834
varsina## 833
ymmär@@ 832
ikka 832
naisia 832
huomio@@ 831
tietävä## 831
ET@@ 831
pyytä## 830
vakuu@@ 830
vie## 829
kohdista 829
ova## 829
H 829
E 829
komitean 828
tärke## 827
myön@@ 827
mene@@ 827
usko 827
tulle## 827
Kööpenhamina## 827
ajankohta## 826
min## 826
sai@@ 826
fooru@@ 826
östä 826
tuleva@@ 826
k 825
kunnio@@ 825
tuomioistuim@@ 825
vapauksien 825
atti## 825
neuvotteluja 825
sopimuksesta 825
reag@@ 824
hyvä@@ 824
alueille 823
llisiä 823
päätöstä 823
elintarvikkeiden 823
uut@@ 822
tekstin 822
Internet## 822
tuotannon 822
Gal@@ 822
isissä 822
kaupall## 822
aine@@ 821
jö@@ 821
käytettävissä 820
ponn@@ 820
ist@@ 820
suull## 819
työskentely## 819
sopiva## 819
amerikkalais## 819
Bar@@ 818
samanla## 818
d 818
työstä## 817
hyväksytty 817
anno@@ 817
viljely## 817
tiedon 817
kohdistuva## 817
suhteita 817
paras 816
aloite## 816
18 816
uudistus## 816
toi## 816
mät## 816
ju## 815
rakentava## 815
vaikutus 815
todiste## 815
toimenpiteet 815
isyyden 815
tarkistuksessa 815
tte## 814
asianoma## 814
avaa## 813
alaan 813
teknolog@@ 813
kaudella 812
vaad@@ 812
ede## 812
kuulu 812
nasta 812
dä## 812
tarkistusten 811
yhdenmukaista## 810
ikä## 810
kuukauden 809
järjestelmään 809
ongelmista 809
eläim@@ 809
allo## 809
C## 808
pitämä## 807
sijoitta## 807
stava## 807
taloudelliset 807
itti 807
I 807
terroris@@ 807
täysistunnossa 806
eta 806
uksien 806
tulk@@ 806
työhön 806
timme 806
ola## 806
viis@@ 805
tosi@@ 805
su## 805
lo## 805
stön 805
tämänpäivä## 804
pahoilla## 804
edelleen## 804
ilu 804
oikeuteen 804
ryhmät 803
toon 803
mietinnössä## 803
yksinoma## 803
työvoima## 803
ttavat 803
lti 803
viittaa## 803
näkökohtia 803
60 802
kalais## 802
pe## 802
varainhoito## 802
realist## 801
sen## 801
keino 801
ist## 801
keino@@ 801
poliitik@@ 801
strategia 801
tuon@@ 801
kolmas 800
suunta## 800
joki## 800
og@@ 800
äis## 800
virhe@@ 800
vastuuta 799
tti@@ 799
lämpimä## 799
kysymyksessä 799
m 798
kim@@ 798
isyyteen 798
kuulla 798
amis## 798
edel@@ 797
kohtelu## 797
miel## 797
tis@@ 796
edustajien 796
strategi@@ 795
tähd@@ 795
paikkojen 795
moni@@ 795
itu@@ 795
täs@@ 795
kulku## 794
julk@@ 794
hel@@ 794
askel@@ 794
yleisö## 794
telleet 793
hou@@ 793
rakennus## 793
ol## 793
tutkimusta 793
viljel@@ 793
esittä@@ 792
neljä 792
kompromis@@ 792
yhteispäätös## 792
tää@@ 792
turvaa## 791
issä## 791
kysymyksissä 791
yksikö@@ 790
ali 790
toimiv@@ 790
seikka## 789
joustav## 789
edis@@ 789
satama## 789
inno## 788
pid@@ 788
noudatettava 788
luovutta## 788
sosialisti## 787
äänestyksessä 787
korja## 787
sosiaaliturva## 787
kesken## 787
piiri## 787
ristiriita## 787
yri@@ 787
hor@@ 786
kysymyksestä 786
pala@@ 786
vetoa## 786
käyttämä## 785
ch@@ 785
ointi## 785
yr@@ 785
eläin@@ 785
kkaita 784
osoitus 784
auto## 784
järjestäyty## 784
ton 784
omaksu## 784
hyödyn@@ 784
luonn@@ 783
huolellis## 783
aiheuttama## 783
tun## 783
mitkä 783
huhtikuu## 783
inta 782
väärin## 782
kyseisen 782
työn## 782
tella 781
villa 781
käyttävä## 781
ratkaisua 781
A 781
näyttä## 780
neuvo## 780
valvonta 780
ssi## 780
pelkää## 780
hallituksi## 780
haaste## 779
ehdotusten 779
Kes@@ 779
ylittä## 779
kieltäyty## 778
yhtenä@@ 778
käsit@@ 778
vaativa## 778
erotta## 778
mielipi@@ 776
as 776
suure@@ 776
ste 776
perusta## 776
rahoituksen 775
riippu## 775
pk 775
eurooppalaisia 774
tehtävää 774
rikollis## 774
16 773
sanoma## 773
valiokun@@ 773
samanaika## 772
korjaa## 772
myöhä## 772
ida## 772
F## 772
onnettomuu@@ 771
vahva## 771
peri## 771
täyden@@ 770
taisi 770
sulke## 770
vastuun 770
osapuoli## 770
kio## 770
ssamme 769
puolella 769
his@@ 769
Sol@@ 769
lääke## 769
assosiaatio## 769
väestö## 768
ehkäise## 768
mpia 768
turvallis## 767
tellä 767
mukainen 767
täys@@ 767
or## 767
ihin## 766
yhden@@ 766
Amsterdam## 766
aluetta 766
telu@@ 766
kestä@@ 766
ev@@ 765
AKT 765
ystä@@ 763
ide 763
köyh@@ 762
kehitykseen 762
puolue@@ 762
antai## 761
vääris@@ 761
merkkejä 761
ttänyt 761
Ha@@ 761
aikais## 760
lapsi## 760
lähestymistapa 760
esitetty## 760
isina 759
inkin 759
nnyt 759
ratkaisuja 759
enempää 759
yle## 758
tamiseksi 758
terro@@ 758
alku## 757
tuomitse## 757
toimenpiteiden 757
7## 757
käsittelyn 756
toissijaisuus## 756
hyödyntää 756
oles@@ 756
kuule## 755
tarkka## 755
seikka 755
terve## 755
kot@@ 755
hyökkäy@@ 755
ongelmiin 754
edustaja## 754
tarkasteltava 753
ill## 752
tiedotusväline## 752
L 752
tuon 752
ohjelmia 751
sotilas## 751
DE 751
käydään 751
tukeva## 751
puitte@@ 751
itti## 751
län@@ 751
tetyt 750
tarkoita 750
tekniikan 750
tor@@ 750
koordinointi## 750
voitava 749
täh@@ 749
mor@@ 749
hiljatta## 749
istunnon 748
esitteli@@ 748
prosessiin 748
inhimillis## 748
suori## 748
EK@@ 748
polttoaine## 748
puhemiehe## 747
kiinn@@ 747
yhteenkuuluv## 747
tarve 747
tyydy@@ 746
heidät 746
kysymysten 746
kauppa 745
herä@@ 744
kustannuksia 744
edistämis## 744
suhteet 744
meja 744
tapaus 743
maata 743
vallitse## 742
määräyksiä 742
saataisi## 742
syvä## 742
kauppaa 742
viisi 741
käsitte@@ 741
valtaa 741
sitou@@ 741
Euroopasta 740
tivat 740
kuva 740
ke 740
sh@@ 740
pysä@@ 739
että@@ 739
joukko## 739
investo@@ 738
käsittelyyn 738
ehkäis@@ 738
perustuslain 738
valo## 737
etti 737
ttaja## 737
lain 736
ilmi@@ 736
vähen## 735
oikeuksista 735
verta@@ 735
tarke## 735
vaiku@@ 734
kap@@ 734
miten## 733
vahing@@ 733
halusi## 733
mielenkiinto## 733
tuvat 733
taho@@ 733
huolehdi## 732
olo## 731
vaal@@ 731
sty## 730
deksi 730
tas@@ 730
koon 730
jäsenelle 730
In@@ 730
lausunnon 730
anne 729
Mon@@ 729
piiriin 729
peruste@@ 728
etusija## 727
organis@@ 727
välisessä 727
Itä 726
toimis@@ 726
os## 725
painopiste## 725
korke## 725
into## 725
tuollo## 725
aamuna 725
säännöll## 724
työmarkkina## 724
vapaus 724
huolto## 724
viivästy## 723
varova## 723
kriisi## 723
kais@@ 723
järjestelmiä 723
lentoyhtiö## 723
kumma## 722
terveyden@@ 722
yhteistyöhön 722
T## 721
teis## 721
tiedon## 720
määrärahojen 720
periaatteiden 719
12.## 719
ylimäärä## 719
millään 719
verra## 719
aloit## 719
yrittää 719
menestykse## 718
myö@@ 718
Inter@@ 718
enti@@ 718
löyde## 717
Prodi 717
siin 717
integro@@ 716
sie@@ 716
gu@@ 716
eläin## 716
asetus 715
Kioto## 715
Laeken## 715
tomien 714
suunnitel## 714
rekister@@ 714
onne## 714
harjoitta@@ 714
Makedonia## 714
lainsäädännö## 713
edessä## 713
itettävä 713
rikollisuuden 713
70 713
rauhanoma## 712
avoim@@ 712
menettelyjä 712
Maa@@ 712
hyv## 711
strateg@@ 711
konferenssissa 711
pääs@@ 711
enia## 711
näh## 710
tap@@ 710
oleell## 710
essään 710
tonn@@ 710
toisista## 709
vakava 709
van## 709
esti## 709
sovi## 708
valla@@ 708
neljä## 708
yvä## 708
tehokas 708
vahv@@ 708
rajoit@@ 708
ittamis## 707
ympä@@ 707
suku@@ 707
muille 706
jau@@ 706
jan@@ 706
rehell## 706
llään 706
kaasu## 706
milloin 705
järj@@ 705
toisin## 705
II 705
hil@@ 704
tehd@@ 704
kil@@ 704
huomaa## 704
ber@@ 704
ettaisiin 704
ejä 704
tahd@@ 704
der 704
sota 704
demokraattisen 704
tyypp@@ 703
sanottu 703
kasva@@ 703
misessä 702
hyvinvo@@ 702
kysymyks@@ 702
8## 702
rat@@ 702
tois## 701
tarkoitu@@ 701
malli@@ 701
hoito## 701
jemme 701
korosteta## 701
kir@@ 701
perin@@ 701
tarkoite## 701
vaikeuksia 700
jö## 700
suhd@@ 700
leik@@ 700
käyttöön## 700
Jugoslavia## 700
budj@@ 700
mahdollisuuksien 699
toimiva## 699
haki@@ 699
ponnistelu## 698
Iso## 698
lisääntymis## 698
esiinty## 697
osalta## 697
itsi## 697
kokoon@@ 697
edistysas@@ 697
osu@@ 696
sisältyvä## 696
alusta 696
rahaston 696
oinn@@ 696
täminen 696
todista## 696
mman 695
eri@@ 695
ous## 695
tekijä@@ 695
Iran## 695
tääkseni 694
tukien 694
edellytykset 694
silmä## 694
tuh@@ 694
osoitta@@ 694
sin 694
eläkeläis## 694
laatimis## 693
uudistuksia 693
elintarv@@ 693
kriisin 693
kappal@@ 693
syö@@ 693
keja 692
Se@@ 692
kertomuksen 692
perusteltu## 692
tto 692
kyv@@ 691
ongel@@ 691
kalasta@@ 691
prosessissa 690
huolest@@ 690
oikeus@@ 689
use@@ 688
tussa 688
uusi@@ 688
hankkeiden 688
käynti## 688
säännöksiä 688
ylittävä## 688
teta 687
tehtäviä 687
37 687
vastust## 687
poh@@ 686
päätöksen## 686
toimeen@@ 686
sala@@ 686
P 686
suku## 686
tarpeet## 685
rakenteell## 685
tavoitetta 685
elä## 685
mainitsi## 685
määrite## 685
rin 685
hyväksy 685
järky@@ 685
maap@@ 685
suostu## 685
ykseen 684
nellä 684
suojelun 684
ymmärry## 683
edessä 683
akka 683
kohtien 683
korost## 683
kel## 683
suojella 683
dessä 682
viä## 682
tto@@ 682
saapu## 682
vahv## 682
vakuutus## 682
pi## 682
ura@@ 682
Po@@ 681
sall@@ 681
Li@@ 681
hätä## 681
jakso## 680
ssään 680
menettelyssä 680
strategiaa 680
yhty## 680
keskusteluja 680
seuraa 680
valtioissa 680
muodostu## 679
tapaan 679
sukupol@@ 679
ies 678
katastro@@ 678
udu## 678
tuksia 678
turvapa@@ 678
arvosta## 677
väliaikais## 677
täysimäärä## 677
hankkeita 677
järjestely## 677
Aasia## 677
lah@@ 677
mieli## 676
jän 676
tajien 676
edut 676
puite@@ 676
uden 675
yö## 675
terveyden 675
ehkäisy## 674
vaatimusten 674
heiko## 674
muiste## 674
tavasta 674
lyk@@ 673
näky## 673
suun@@ 673
nähd## 673
kerta 673
5## 673
paikan 673
institution## 673
kielle## 673
ing@@ 673
uut## 672
teiltä 672
aihe## 672
maanviljeli@@ 672
hankkeen 672
käytettävä 672
sisälty## 672
yllä## 672
mpa## 671
voitu 671
valtioita 671
Per@@ 671
ranga@@ 671
17 670
valti@@ 670
glob@@ 669
saman 669
velvollisuus 669
aikom@@ 669
dikta@@ 669
tutkimus 668
ile@@ 668
parem@@ 668
suurempi 668
palauttamis## 668
asiakirjan 667
valiokunta## 667
aloja 667
kiis@@ 667
void@@ 667
ulkominister@@ 667
elää 666
vastainen 666
ei@@ 666
täsmällis## 666
ing 665
taso 665
näh@@ 665
uudistuksen 665
kehittyne## 664
valvon@@ 664
je@@ 664
ongelmaan 664
uskoa## 663
itsestään 663
isempaa 663
seitse@@ 663
valta@@ 663
öntä 663
maahan 663
laitte@@ 663
lähte## 662
6## 662
ssaolo## 662
kav@@ 662
mpa@@ 662
uudista## 662
äl@@ 662
tömä@@ 662
takaa 661
oja 661
päätöslauselma 661
euvosto## 661
ilais## 661
kapasite@@ 660
kokonaisuudessa## 660
ettu@@ 660
vanh@@ 660
väkivallan 660
kuuluva## 659
ura## 659
mietinnöstä## 658
rinna@@ 658
ältä 658
nnö@@ 658
vastaista 658
selittä## 657
helmikuu## 657
teksti 657
sopimus## 657
isoi## 657
uudestaan 657
du## 657
Latin## 657
luottamus## 656
ian## 656
tuloksen## 656
vilpit## 655
ole@@ 655
koulutusta 655
tarkistuksesta 655
pan## 655
del@@ 655
taloudellisesti 655
mukaisia 655
pito## 655
sse@@ 655
iti@@ 655
CO## 654
tapahtumat 654
jolla## 654
py@@ 654
keskustella## 654
jat@@ 654
ija## 654
Zimbabwe## 654
säädet## 653
siirry## 653
tel## 653
tasapaino 653
suoritta## 653
ag## 653
vakauden 652
pane@@ 652
asteitta## 652
viljelijöiden 652
laitosten 652
ity## 652
puhemie@@ 652
ittävä 651
issa@@ 651
sääntö@@ 651
saavutettu 651
eksi@@ 651
selke## 651
säh@@ 651
toimenpiteisiin 651
alkuperäis## 650
kuvi@@ 650
tilaisuuden 650
vapaa 650
mitta## 650
liitt@@ 650
toiminnasta 649
yrittä@@ 649
menesty## 649
tapaa 649
asen@@ 649
br@@ 649
ntö 649
do## 648
yksinkerta@@ 648
lupa## 648
oita 648
tilais## 648
suu## 648
aine## 648
ohjelma## 647
erillis## 647
vaik@@ 647
mielen@@ 647
vastaavan 646
pare## 646
rahasto@@ 646
tuli 646
kke## 645
tode@@ 645
istu 645
hallitusta 645
enimmäis## 645
kasvun 644
tetun 643
kasvu 643
ES 642
luomis## 642
antu## 642
pidettävä## 642
Maailman 642
llistä 641
ttö## 641
lik@@ 641
taudin 641
rikoll@@ 640
tol@@ 640
koke## 640
epäily## 640
p## 640
esityksen 639
eli## 639
Car@@ 639
pela@@ 639
arme@@ 639
tasapuolis## 638
puutu## 638
teki@@ 638
puol## 637
tuho## 637
isu## 637
käsittelyä 637
valmistele## 637
nais## 637
jista 637
rauha## 637
tavoitteista 636
tarkastella## 636
vina 636
llisyy@@ 636
käynnissä 636
poikkeus## 635
tuhoa## 635
tavanoma## 635
ttavia 635
rehu## 635
hyväksyttävä 635
ori 634
ttavien 634
käteen 634
suu@@ 634
vapau@@ 634
alaisen 633
vienti## 633
tule 633
ysten 633
moott@@ 633
viit@@ 633
tunto## 633
uhkaa 633
sotila@@ 633
otamme 632
työntekijö@@ 632
ohja## 632
ilmaise## 632
lailla 632
mainitsi 632
tyy 632
joustava## 632
hinn@@ 632
käv@@ 631
z## 631
muoto@@ 631
seuraukset 631
reak@@ 631
väh@@ 631
EC@@ 631
monen@@ 631
á@@ 630
poistamis## 630
osasto## 630
työntekijöitä 630
matku@@ 630
puite## 630
käsittä## 630
opiskel@@ 630
C 629
aiheu@@ 629
vis@@ 629
Bus@@ 629
saav@@ 629
nel@@ 628
kiv@@ 628
kaava## 628
oiden 628
lyhy@@ 627
Kar@@ 627
kkaa 627
fi@@ 627
kantojen 627
kuljetta## 626
saane## 626
näkö## 626
ponnistelu@@ 626
liha## 626
saastu@@ 626
Kuuba## 626
04## 626
osapuolet 625
uskonno## 625
ind@@ 624
tilaisuutta 624
lyh@@ 624
tied@@ 624
elinten 624
mainitsema## 624
arv@@ 624
isla@@ 624
gi## 624
ene@@ 624
ania## 624
tyneessä 624
liiton 623
illä## 622
mmistä 622
kriitt## 622
maailma## 622
tua 622
liittyvä 622
tilo@@ 621
hir@@ 621
pyytä@@ 621
totu@@ 621
priorite@@ 621
valtuuskunnan 621
Tur@@ 621
yh## 620
kristi@@ 620
köyh## 620
pite## 619
peä## 619
muilla 619
kans@@ 619
ammati## 618
eiden 618
Irla## 618
johdan@@ 618
palja@@ 618
eli@@ 617
tällöin 617
määrittä## 617
ojen 617
hallinto 617
pu## 617
otsakke## 617
sur@@ 616
neitä 616
aikaansaa## 616
viranomaisen 616
keskinä## 616
istamis## 615
huomion 615
kohtuull## 615
teollisuus 615
Göteborg## 615
aiempaa 615
ky## 614
hieno## 614
vaikut## 614
maton 614
mb@@ 613
joku 613
tehtiin 613
käsi@@ 613
sydä@@ 613
kommun@@ 613
ssopim@@ 613
paten@@ 613
17@@ 612
kkä 612
toiminn@@ 612
sito## 612
rajoja 612
itsema## 612
suosi## 611
euvo@@ 611
pieni 611
ssi@@ 611
mainita## 611
ediste## 611
vin 611
miehen 611
histor@@ 611
utus## 611
pano 610
minister@@ 610
laadun 610
tapoja 610
alkoh@@ 610
kysymyksen## 609
lun 609
h 609
edistetä## 609
menest@@ 609
GM@@ 609
tutustu## 608
len@@ 608
kohtiin 608
ohjelmassa 608
president@@ 607
asianosa## 607
aio 607
töä 607
prosess@@ 607
ida 607
sisämarkkina 607
ministerin@@ 607
merkin@@ 607
tulokseen 607
kr@@ 606
aineita 606
yhdenmukaistamis## 606
ksell## 606
tiedottamis## 606
huolestune## 606
näkökohdat 606
laisen 606
kustannusten 606
oikeutettu## 606
väkiv@@ 606
päätöslausel@@ 605
4## 605
toivot## 605
uskottav## 605
teollisuu@@ 605
alha## 605
uudelle 604
pane## 604
mah@@ 604
toteutettava 604
teko## 604
seur@@ 604
puolueiden 604
peto@@ 603
3. 603
investointe@@ 603
arvon 603
prosent## 603
elämään 603
kannust@@ 603
monop@@ 603
tuettava 603
kritiik@@ 603
teihin 603
pohj@@ 602
valvo@@ 602
puutteell## 602
turvallisuudesta 602
gen 602
osana 602
biolog## 602
veden 602
kokoukseen 602
sopimuksiin 601
piti 601
ongelmana 601
V 601
ismi## 601
periaatteet 601
vaalien 601
Län@@ 601
voitte 600
talous@@ 600
rauhaa 600
teli 600
valmistelukunta 600
luotta## 599
suunnittelu## 599
pyrkivä## 599
välisiä 599
kautu## 599
muita## 599
ehdot 599
miljo@@ 599
neuvot@@ 599
terveyttä 598
milla 598
pä## 598
erään 598
ston 598
tapahtui 598
ktiiv@@ 598
komitea 597
viiden 597
ytymis## 597
llisyyttä 597
edisty@@ 597
ska## 597
and@@ 596
hämmä@@ 596
johd@@ 596
mennä 596
kysel@@ 596
ohjelmaan 596
kansa 596
lääkke@@ 596
ista@@ 595
yritä## 595
itettu## 595
hanke 595
vapauteen 595
siirto## 595
usk@@ 595
tetyn 594
kuukautta 594
pyynnön 594
yllä 594
edun 594
sektor@@ 594
sesta 594
kasv@@ 594
vuod## 594
ehdotuksista 594
edetä 593
imman 593
yhteisvastuu## 593
käsiteltävä 592
em## 592
son## 592
af@@ 592
käsitel@@ 591
yksiin 591
sovitta## 591
ennakko## 591
mainittu 591
ima## 591
tulosta 590
oli@@ 590
laivasto## 590
tauti## 590
luonte## 589
ikke## 589
harkitse## 589
staja## 589
kalatal@@ 589
itio## 589
myr@@ 588
5. 588
oloissa 588
pap@@ 588
huomatta## 588
Val@@ 588
viikon 587
välisten 587
mia## 587
Korea## 587
mus## 587
koti## 587
arvoja 587
kahteen 586
ona 586
tehtävän 586
ansa## 586
ket@@ 586
dyna@@ 586
kid@@ 586
organisaatio## 586
mattomia 585
alalle 585
osoittama## 585
Rom@@ 585
ou## 585
elo@@ 585
torjunta 585
Do@@ 585
ennako@@ 584
tellen 584
etun 584
uudistus 584
ge## 584
perustu## 584
sin## 583
luv@@ 583
mainittu## 583
tön 582
Erik@@ 582
syitä 582
tapahtumien 582
ittä@@ 582
Saddam 582
sup@@ 581
valtuu@@ 581
suunnitelman 581
arvoa 581
urg## 581
vaikutusta 581
ulkoma## 581
koulutukseen 581
toi@@ 581
syyttä@@ 580
keskit@@ 580
instituu@@ 580
istun@@ 579
analyysi## 579
palvelut 579
omista@@ 579
keinoin 579
järjestelmästä 579
asial@@ 579
lääkkeiden 579
maatt## 578
hetki 578
puhuja## 578
takan@@ 578
Euro 578
kausi 577
jon@@ 577
ohjelmasta 577
mit## 577
hallinnoi## 577
yd@@ 577
määrärahat 577
eva## 576
,5 576
selvästi## 576
talous 576
käytettä@@ 576
tarkoitettu## 576
huumausaine## 576
bi@@ 576
tymä## 575
ankar@@ 575
ttivät 575
aloitetta 575
levittä## 575
kiä 574
talousarvio 574
puiteohjelma## 574
tuote## 574
heng@@ 573
yritys## 573
th@@ 573
kehityksestä 573
luvun 573
istunto 573
jäsenenä 573
aloitte## 573
monik@@ 573
jäsenvaltio 573
svalta## 573
vetoomus## 573
lukuun 572
vuosikymmen## 572
Pu@@ 572
varoit## 572
määritellä 572
erim@@ 572
vaikei## 572
kumppani## 571
asiakirja 571
kertomus 571
muutos 571
laajenn## 571
raa@@ 571
ajoneuvo## 571
järjestöt 571
sid@@ 571
televisio## 570
Prodi## 570
haastee## 570
veron@@ 570
EY## 570
päte## 570
ymmärrä 570
varaa 569
huoll@@ 569
kahdesta 569
keskusteluissa 569
Turkki 569
uhrien 568
viesti 568
ajien 568
nutta 568
tarkis@@ 568
kki 568
kia 568
joukkojen 568
sihte@@ 568
patentti## 568
päivittä## 567
help@@ 567
direktiiviin 567
Ar@@ 567
kutsu@@ 567
kohtu@@ 567
sattu## 566
vastaava 566
1997 566
suuntaviiva## 566
kuul@@ 566
tuet 566
entä## 566
puhe## 566
Geneve## 566
nan 566
toteutetta## 566
välineiden 565
kiitokset 565
ominais## 565
dollari## 565
puhtaa## 565
rajoite## 565
lähtökohta## 565
re 564
varau@@ 564
oda## 564
kuoleman@@ 564
änsä 563
utuva## 563
kiih@@ 563
ep@@ 563
määrää@@ 563
sivuut## 563
hyväksyttävä## 563
oikeudellisen 563
kaksin@@ 563
kiintiö@@ 562
í@@ 562
muodoll## 562
tarkistus## 562
hoide@@ 562
jäävä## 562
hau@@ 562
yksikk@@ 562
ministeri@@ 562
muun@@ 562
pakko 561
kyvyn 561
olema@@ 561
ratkaiseva 561
tettä 561
pakotta## 561
hakemu@@ 561
ivuotis## 560
:ta 560
tuhan@@ 560
hedel@@ 560
pitäisi## 560
kyseenala@@ 560
juuri## 560
tänne 559
yksipuolis## 559
etut 559
ky 559
ksellä 559
eng@@ 559
demokratia 559
viisu@@ 559
Johannesburg## 559
politiikka## 558
yksiselitte## 558
jolle 558
vy## 558
suh@@ 558
huolestu## 558
lähd@@ 558
21 558
huolta 558
konferenssi 558
todistu@@ 558
tarjoama## 558
:tä 557
toisen## 557
kaupunki## 557
luoda## 557
istuntos@@ 557
etnis## 557
tekstiä 556
koheesio## 556
ene## 556
ni@@ 556
suojelu 556
od@@ 556
ristiri@@ 556
suunnitelma 556
kan## 556
seksuaali## 556
kohdasta 555
pääoma## 555
avoin 555
luonte@@ 555
tely 555
teissa 555
llu@@ 555
lainsäädäntö@@ 555
läs@@ 555
työskenn## 555
ketta 554
Kre@@ 554
vakaa## 554
saavuttama## 554
Lan@@ 553
pom@@ 553
vastaan@@ 553
maasta 553
yt## 553
ympäristöön 553
väli@@ 553
syrjintä## 553
Ch@@ 553
koti@@ 552
dra@@ 552
hallinta## 552
oikeuksiin 552
kunnioittamis## 552
ustettu## 551
tukia 551
otte## 551
voida## 551
käynnis@@ 551
tuhans## 550
luettu## 550
ttämä## 550
menettelyjen 550
dell@@ 550
esiintyy 550
maailmaa 550
torsta@@ 549
22 549
anee## 549
ttakoon 549
aan## 549
haluaisi 549
valtuudet 549
hake## 549
utua 549
idä@@ 549
innovaatio## 549
Maroko## 549
tiedonannon 548
iselta 548
vaatimus 548
nti 548
hoidon 548
K## 548
qu@@ 548
valtiota 548
vastausta 548
tahtoa 548
vaihto@@ 548
kone## 547
9@@ 547
väliset 547
ajatusta 547
ohella 547
itusta 547
eettisesti 547
melu## 547
selity@@ 546
keino## 546
käsitel## 546
painost## 546
ero 546
käsittely 545
rans@@ 545
jiin 545
jyr@@ 545
toimivalla## 545
ystävä## 545
4. 545
teura@@ 545
35 544
jänn@@ 544
kyseenalais## 544
korja@@ 544
kump@@ 544
kohde## 544
kohtaisesti 543
tuesta 543
eja 543
opera@@ 543
roko@@ 543
eräänla## 542
aseiden 542
tämme 542
lentokone## 542
oppos@@ 542
kannasta 541
lia## 541
poliittisesta 541
vaikutusten 541
kädessä 540
käs@@ 540
vaikka## 540
konferenssi## 540
haitall## 540
korot## 540
materi@@ 539
syrjä## 539
saman@@ 539
vierailu## 539
mon## 539
ääri## 539
puoli 539
saad@@ 539
palata 538
assa## 538
inais## 538
taloutta 538
hi## 538
yksin 538
otti 538
posti## 538
sija@@ 538
lliseen 537
EY 537
vyyttä 537
ehtoja 537
muualla 537
elu 537
jälj@@ 537
myönnettävä 537
Z@@ 537
liitte## 536
taen 536
viksi 536
markkin@@ 536
kustann## 535
arvois@@ 535
ton@@ 535
eroja 535
asiantun@@ 535
hankki## 535
mää 535
täys## 535
luota## 534
ehdo## 534
stama## 534
tr@@ 534
AT@@ 534
kokoon## 533
seikkoja 533
muutokset 533
yksistä 533
pala## 533
viranomaisille 533
ituksen 533
ivo@@ 533
laimin@@ 532
laajentamis## 532
matonta 532
ysi 532
myötä@@ 532
Ranska 532
viedä 532
kierro@@ 532
diplomaatti## 532
ehdotuksen## 531
talouteen 531
arvioit@@ 531
arkaluon@@ 531
ystäväll## 531
vang@@ 531
kalastuksen 531
kieli## 531
painopistealue## 531
kelpo@@ 530
sovellettava 530
monista 530
elo## 530
arvio## 529
tuomi## 529
vaikutuksista 529
työntekijät 529
tosiaan## 528
ale## 528
jät 528
tapahd@@ 528
osapuol@@ 528
nime## 528
Cor@@ 528
oro## 528
liitto@@ 528
havait## 527
vaalit 527
ajo## 527
korvaa## 527
ttäviä 527
artikla 527
syyllisty## 527
Europol## 527
vastavu@@ 527
pöy@@ 527
viesti## 527
loo@@ 526
palo## 526
kene## 526
jälke## 526
sektorin 526
altio## 526
take@@ 526
välisestä 526
kauka## 526
Nato## 526
bio@@ 526
päätös## 526
pitkä@@ 525
2005 525
vauhd@@ 525
apu 525
edustajia 525
200@@ 525
maailmanlaajuistu## 525
käytetty 525
poikkeuksell## 525
alenta## 525
uhka## 525
ruu@@ 525
vuodeksi 525
kohdat 524
analys@@ 524
da## 524
immista 524
jär@@ 524
määritellä## 524
sotaa 524
iel@@ 524
proses@@ 523
täyden 523
ympäristönsuojelu## 523
tehtävät 522
väis@@ 522
pitki## 522
osoittau## 522
23 522
isilta 522
tune@@ 522
alen@@ 522
Schengen## 522
vastaanotta## 522
verkkojen 522
eg@@ 521
08 521
mpä@@ 521
nuoriso## 521
asemaan 521
edull## 521
iel## 521
kymmen## 521
avustus## 521
taanko 521
kokous## 521
henkilöitä 520
tavara## 520
ttom## 520
gen@@ 520
vakuut## 520
lähesty## 520
liikennettä 520
19 520
pyynnö@@ 519
toisia## 519
puolet 519
huolestuttava## 519
koske 519
Hel@@ 519
eriko@@ 519
investointi## 519
syrji## 519
yhdisty## 519
kohtal@@ 518
varoista 518
selke@@ 518
Le@@ 518
tarkistuksissa 518
Ir@@ 518
ga@@ 518
äänty## 517
järjestelmät 517
koko@@ 517
asettama## 517
määrää## 517
ton## 517
päivää 517
huippukokous 517
olimme 516
lyö## 516
Luxemb@@ 516
menettel@@ 516
naa@@ 516
toive## 515
le## 515
ittämis## 515
päässe## 515
perustuva 515
seuraava 515
OLA@@ 515
järjestö 515
poliittiseen 515
NL 515
kuljett@@ 514
määräysten 514
painot## 514
tunte@@ 514
arvi@@ 514
24 514
yhteyttä 514
Patten 514
vaarassa 514
gan@@ 514
määrätieto## 513
keinot 513
edellytys 513
käytä## 513
sosiaalidemokraatti## 512
paikkansa 512
imp@@ 512
kommentoi## 512
rohke@@ 512
rad@@ 512
I## 512
vankil@@ 512
ü@@ 512
istuva## 511
Tam@@ 511
tro@@ 511
etta@@ 510
do@@ 509
tuke@@ 509
suojel@@ 509
ensä 509
täm@@ 508
Par@@ 508
vo## 507
92 507
for@@ 507
tuomioistu@@ 506
ine 506
lento@@ 506
ysval@@ 506
itte## 504
toisi@@ 504
ore## 501
vuoropuh@@ 501
R## 500
invest@@ 500
suuntavi@@ 499
näke@@ 499
ena## 498
ymmärr@@ 498
yleissopim@@ 497
olu@@ 497
tarkastus## 496
yhtiö## 496
iss@@ 496
lausu@@ 496
ue 496
kään## 495
läp@@ 494
tapo@@ 493
vin## 492
inf@@ 492
ott@@ 488
el 488
du@@ 487
kehity@@ 487
ts@@ 487
kymmen@@ 486
eil@@ 484
hyv@@ 484
velvoll@@ 484
istan## 482
lau@@ 481
täytäntöön@@ 479
säil@@ 479
01 478
Gu@@ 478
rö@@ 478
27 477
yttämis## 477
Y 477
pet@@ 477
son 475
iso## 474
lisään@@ 474
jun@@ 473
koske@@ 473
f## 473
ör@@ 472
huippu@@ 472
kanso@@ 471
hyväks@@ 470
unoh@@ 470
ettävä 470
K 469
intä## 468
ttama## 468
il## 467
vaa## 466
mma@@ 465
Bol@@ 465
Van 465
sin@@ 464
not 464
ity 464
mak@@ 464
tlan@@ 464
vuoro## 463
edu@@ 462
ler## 462
An@@ 462
kejä 461
vittä## 460
ba@@ 459
maahanmuu@@ 459
ima@@ 458
45 458
os 457
alle@@ 457
19@@ 456
Az@@ 456
kuning@@ 456
käsittel@@ 454
näkökul@@ 453
Pat@@ 453
Her@@ 453
yn@@ 452
kiito@@ 452
käsittele@@ 451
kein@@ 451
aste## 451
periaat@@ 451
voi@@ 451
pen@@ 450
alti@@ 449
iko@@ 449
vak@@ 449
der## 449
Ang@@ 449
identi@@ 449
pöytä@@ 448
its@@ 447
kyky## 447
tus@@ 447
oin 446
Lib@@ 446
suhta@@ 444
ei## 444
kop@@ 443
28 442
toiminta@@ 441
inter@@ 440
kuulu@@ 440
hu## 440
ent## 439
nnön 439
fi 438
Sa@@ 438
ban@@ 438
tyne## 437
apu@@ 437
vah@@ 437
DR 437
ustus## 437
tekijät 436
x## 436
NS 435
tiedon@@ 435
mill@@ 434
hen## 434
La@@ 434
gra@@ 434
neu@@ 433
Du@@ 433
uttava## 433
500 433
ik## 433
alisti## 432
neuvost@@ 432
vää@@ 432
perustusla@@ 432
tie 431
ett## 431
komissi@@ 429
x@@ 429
tri## 429
ordin@@ 429
lopul@@ 427
Ka@@ 427
saan@@ 427
merkit@@ 426
N 426
Mc@@ 426
ympäris@@ 426
ksu## 426
š@@ 426
sal@@ 424
Pak@@ 424
rat## 423
neuvottelu@@ 423
atu 423
tran@@ 423
Lam@@ 423
että## 422
kansa@@ 422
tämä@@ 421
yksityis@@ 421
yksin@@ 420
ien## 420
täysi@@ 420
viljelijö@@ 419
radi@@ 419
kin## 418
sti@@ 418
yhti@@ 417
Egyp@@ 417
Co@@ 416
al 416
lim@@ 416
29 416
D## 415
do 413
ens@@ 412
oa 412
Ital@@ 412
Algeria## 412
kulj@@ 411
hasto## 411
co@@ 411
Ruot@@ 411
ump@@ 410
Ä@@ 410
henkil@@ 410
kia## 410
suoj@@ 408
33 408
sia## 408
Serb@@ 408
Geor@@ 408
200 407
summa## 407
Venä@@ 407
olog## 406
liber@@ 406
di 406
tetä## 406
11.## 406
mar@@ 406
Atlan@@ 405
sum@@ 404
aisi## 404
75 404
itettava## 404
maatalou@@ 403
14## 402
x 402
kys@@ 402
ous 401
v 401
amb@@ 401
Espan@@ 400
ida@@ 400
ow@@ 400
ede@@ 398
Presti@@ 398
den@@ 397
9## 397
aie@@ 395
Nor@@ 394
26 394
Bur@@ 394
ajon@@ 393
15## 393
vapaa@@ 393
fe@@ 392
pon@@ 392
Bu@@ 392
esitte@@ 391
hyvin@@ 391
kuun 391
tamis## 390
ette## 390
mieli@@ 390
ivä@@ 389
ellä## 389
kerta@@ 389
oikeuden@@ 388
ts 388
mit 387
aste@@ 387
uudell@@ 387
kko 387
48 386
teer@@ 386
bru@@ 385
pääst@@ 385
pää 385
summ@@ 385
Ki@@ 384
Husse@@ 384
tak@@ 383
ig@@ 382
ge@@ 382
ine## 381
M## 381
ra 381
02 380
Ca@@ 380
etel@@ 380
bio## 380
tell## 380
varmis@@ 379
05## 379
ksu@@ 379
kaks@@ 378
Niel@@ 378
kiinti@@ 378
erä@@ 377
Med@@ 377
Pa@@ 377
itur@@ 376
ttav## 375
rup@@ 375
dig@@ 375
New 374
ang@@ 373
lu## 372
rah@@ 372
rahat 372
jur@@ 371
kum@@ 371
DA 371
vuoro@@ 370
puheenjohta@@ 370
vaka@@ 368
log@@ 368
55 367
viljeli@@ 367
muod@@ 367
ate@@ 367
38 367
Un@@ 367
av## 366
kokona@@ 363
koulutu@@ 363
määräraho@@ 362
demo@@ 362
joust@@ 361
ituksi## 359
veto@@ 359
our@@ 358
ria 358
Bulgar@@ 358
Sahar@@ 358
kahd@@ 357
esiin@@ 356
era@@ 356
ratifi@@ 356
WT@@ 356
ón 355
ven## 355
nouda@@ 355
ly 354
32 353
Ru@@ 353
prote@@ 353
hdo@@ 352
itsi 352
sis@@ 351
pys@@ 351
riippu@@ 351
Lu@@ 350
ter## 349
kysym@@ 349
la 349
Mad@@ 349
sääd@@ 348
vit@@ 348
seud@@ 348
91 347
And@@ 347
Or@@ 347
tilin@@ 346
ittävä## 345
36 345
Bro@@ 345
c 344
oper@@ 343
R 343
ide## 343
enna@@ 342
yst@@ 342
istunnossa 342
89 341
dis## 341
Indonesi@@ 340
kre@@ 340
uskonn@@ 340
The@@ 339
jar@@ 339
omen 338
organ@@ 338
95 337
kuu## 337
solida@@ 337
hoid@@ 337
sosiaal@@ 336
turvallis@@ 335
pyr@@ 335
anc@@ 335
Niger@@ 335
ch## 334
oll## 334
42 334
ron 334
laaju@@ 334
.@@ 334
innon 333
kiin@@ 333
toi 333
31 333
M 333
vastaav@@ 332
ehkä@@ 332
49 332
itel@@ 331
vetoom@@ 329
stel@@ 329
ime## 329
Yor@@ 329
bel@@ 328
öl@@ 328
mukais@@ 327
Man@@ 327
Fischler 327
tule@@ 326
haaste@@ 326
komite@@ 326
kö## 325
Vietna@@ 325
too 324
funda@@ 324
ck@@ 323
symb@@ 323
UE 323
Araf@@ 323
matka@@ 323
imperi@@ 323
ikan## 322
Berluscon@@ 322
toivo@@ 320
täyty## 320
veto 320
tog@@ 320
ehd@@ 319
Na@@ 319
44 318
sig@@ 317
rak@@ 317
usi 317
fin 316
tou@@ 315
uu## 314
nop@@ 314
kel 314
Tun@@ 314
omis## 313
keho@@ 313
pos@@ 313
ú@@ 313
kirjoit## 312
anta## 312
lann@@ 312
21## 311
ttämis## 311
41 311
grad## 311
takais@@ 310
tämän@@ 310
Bla@@ 310
ratkaisu@@ 309
sosi@@ 309
ehti## 309
aktiiv@@ 309
39 309
tur## 309
yhtä@@ 307
300 307
elu## 307
anska 307
jäll@@ 307
sen@@ 307
Eng@@ 306
Har@@ 306
todis@@ 305
tuuri## 305
Guine@@ 305
Portug@@ 304
urhe@@ 304
Is@@ 304
ksa## 303
34 302
mot## 302
kamp@@ 302
valmistelu@@ 302
NG@@ 301
laa@@ 301
06## 301
Afrik@@ 301
taan@@ 301
kär@@ 300
ral@@ 300
ken 300
kkuu@@ 299
20@@ 299
ci@@ 299
mih@@ 298
99 298
ly## 298
rke@@ 298
Slova@@ 298
Israel 298
asian@@ 297
usla@@ 297
audi@@ 297
julkilausu@@ 296
43 296
valio@@ 295
span@@ 295
euro@@ 295
kou@@ 294
Fisch@@ 294
é 293
dan 293
sse## 293
sih@@ 293
mala## 291
46 291
inhim@@ 291
uro@@ 290
tamme 290
Di@@ 290
tre@@ 289
välia@@ 289
yle@@ 288
Taiw@@ 288
are@@ 288
anti@@ 288
lä## 287
Ech@@ 287
b 286
Kal@@ 286
taud@@ 285
rauhan@@ 285
Byr@@ 285
yritys@@ 284
kie@@ 284
Mol@@ 284
stan@@ 283
&@@ 283
yhteiskunn@@ 282
tion@@ 282
ub@@ 282
pros@@ 281
top@@ 281
Sta@@ 280
dessa## 280
Wa@@ 280
&#91; 280
&#93; 280
ete@@ 279
Bö@@ 279
65 279
sivi@@ 278
jaks@@ 277
Go@@ 277
ellis## 276
ul## 276
epide@@ 276
ec@@ 275
lämp@@ 274
Br@@ 274
dy 274
ttoaine## 274
sek@@ 273
aikataul@@ 273
ite 273
ir 273
Mar## 272
don## 272
CA@@ 272
ssa@@ 271
one## 271
nnö## 271
Jarzemb@@ 271
tyvä 270
our 270
yssel@@ 269
Swob@@ 269
ark@@ 269
51 269
Mic@@ 268
palau@@ 267
03 267
maahan@@ 267
radio## 267
ug@@ 267
ker## 266
Ga@@ 266
reä## 266
kolman@@ 266
dez 266
rek@@ 265
58 264
infrastruk@@ 264
tiety@@ 264
elintarvikke@@ 263
yll@@ 263
euro 259
tyne@@ 259
legiti@@ 259
poli@@ 258
fil@@ 258
hom@@ 257
od 257
arti@@ 256
mol@@ 256
Fra@@ 256
p 256
ull## 255
che@@ 255
via## 255
Possel@@ 255
b## 255
isuudessa## 254
IN## 254
Fatuzz@@ 254
ter 253
Lon@@ 253
merkity@@ 253
koheesi@@ 252
mietintö@@ 252
ck 251
ona## 251
integra@@ 251
kaik@@ 249
Ira@@ 249
järjestö## 248
tos@@ 247
asio@@ 247
Palacio 246
ad## 246
att## 246
ck## 245
perusoikeus@@ 244
57 243
Ne@@ 243
tari@@ 243
teell## 242
è@@ 242
ation 242
Bel@@ 242
immä@@ 242
j 241
onnan 241
der@@ 241
Belg@@ 241
Hu@@ 241
rien 240
feder@@ 240
alli@@ 240
ge 239
of 239
é## 237
varain@@ 237
palj@@ 237
ensi@@ 237
hav@@ 236
marg@@ 235
So@@ 235
bo@@ 235
johdon@@ 233
dit 232
haa 232
Gen@@ 232
anal@@ 231
il 231
nier 230
# 230
end@@ 229
koordino@@ 228
stann@@ 228
æ@@ 228
we@@ 228
ikkalais## 227
just## 226
ff@@ 226
bi## 225
idät 225
atal@@ 224
B## 224
bar@@ 224
tuur@@ 223
up@@ 223
Poh@@ 223
jav@@ 223
N## 222
uc@@ 222
ven 222
ivasto## 222
alkuper@@ 222
De## 220
gene@@ 220
toimintasuunnitel@@ 219
Fi@@ 219
enta@@ 218
mme@@ 218
osallistu@@ 218
tug@@ 217
12@@ 217
ittäis## 217
estä@@ 216
Alban@@ 216
Ri@@ 215
Vitorino 215
ila## 215
L## 215
go@@ 215
mid## 215
maatal@@ 214
ikke@@ 214
ir## 214
ers 214
Vitorin@@ 213
ry 213
U## 212
id 211
lez 210
tekemä@@ 210
tiete@@ 210
ur## 210
oc@@ 209
eu@@ 209
perustel@@ 208
Q@@ 208
leg@@ 208
ard## 207
pul@@ 206
anut 206
ment## 206
Bush 206
nimen@@ 205
Qu@@ 205
töön 204
be@@ 204
stat## 204
työllisyy@@ 203
c## 203
time## 203
Ja## 203
jois## 203
Lamy 203
the 202
sä## 202
väll## 202
ola 201
net## 200
kolle@@ 200
ato## 199
co 198
ponnis@@ 198
dt 198
Europe 198
Palac@@ 197
liiken@@ 197
konferens@@ 197
ene 197
fin@@ 197
und@@ 197
öm 196
ME@@ 196
96 195
Pe@@ 195
keskustelu@@ 195
Euro## 195
istan 195
medi@@ 195
lly 194
fed@@ 194
V## 193
98 193
ard 193
markkina 192
kuol@@ 192
julki@@ 192
get## 192
Amer@@ 192
fran@@ 191
human## 191
co## 190
dipl@@ 190
f 189
äärä## 189
rann@@ 188
otsa@@ 188
Re@@ 188
ill 188
lähtö@@ 187
kut@@ 187
sääde@@ 187
miljar@@ 187
ord@@ 187
osall@@ 186
En@@ 186
Lat@@ 186
pol 185
F 185
ön@@ 184
Hussein 184
no## 183
opis@@ 183
heugen 183
Gro@@ 181
solu@@ 181
kiire@@ 180
rin## 180
lannin 180
saata@@ 180
legit@@ 179
ban 179
une## 179
ile 179
ike## 179
huolen@@ 178
HO 178
hdoll@@ 178
orm@@ 178
93 177
gh@@ 177
laajen@@ 176
no 176
ó@@ 176
dam## 176
uni@@ 176
käyttö@@ 176
toimiel@@ 175
yste@@ 175
ääri@@ 175
yhteenkuulu@@ 174
B 174
IV 174
heug@@ 173
ban## 173
anska## 172
aisi 172
super## 172
ion@@ 172
lli## 171
97 171
ba## 171
ere## 171
fos@@ 170
hä## 170
ov## 169
ver## 168
men 168
ylim@@ 168
kansalais@@ 168
nuor@@ 168
Ara@@ 168
ive## 167
ate## 167
94 166
1.## 166
syd@@ 165
kats@@ 165
liikenn@@ 165
mmä## 165
ad 164
um## 164
muistu@@ 163
end## 163
th## 163
esitys@@ 163
pii@@ 162
kym@@ 162
uoto## 162
eir@@ 161
go## 161
ry## 161
+ 161
05 160
visio## 160
plan@@ 160
ski 160
tit@@ 160
itar@@ 159
sc@@ 158
ò@@ 158
anne@@ 157
ga## 157
Ky@@ 157
tellä## 156
ttömyy@@ 156
tka 156
visi@@ 155
ive 155
monimut@@ 154
anti 154
gin## 154
ian@@ 154
tekni@@ 154
forma@@ 153
ass@@ 153
erg@@ 152
parlament@@ 152
tilann@@ 152
ed 152
and 152
card 152
one 151
öö@@ 151
neg@@ 151
inten@@ 151
tärke@@ 150
Si@@ 150
kausi## 149
amma@@ 149
lob@@ 149
sken@@ 149
ret## 149
tic@@ 149
OLAF 148
land## 148
ren@@ 148
milit@@ 148
väline## 148
artik@@ 147
ro 147
­ 147
aw@@ 147
rist## 146
temp@@ 146
Fr@@ 146
ette@@ 145
Y## 145
ituu@@ 145
työh@@ 144
w## 144
Maro@@ 144
union@@ 143
07 141
entti 141
kilpailu@@ 140
tri@@ 140
tar## 140
ning 140
painop@@ 139
ry@@ 139
uude@@ 139
sp@@ 139
kommen@@ 139
sh## 139
field## 139
fa@@ 138
öy@@ 138
opin@@ 137
äär@@ 137
qui@@ 137
spe@@ 137
ric@@ 137
presid@@ 136
G## 136
per## 136
manda@@ 136
post@@ 136
ttuu@@ 135
rap@@ 134
if@@ 134
bro@@ 134
04 133
rou@@ 133
ner## 133
Scheng@@ 133
yhdenmukais@@ 133
the@@ 133
vilp@@ 132
analyy@@ 132
alku@@ 132
parlamen@@ 131
oun@@ 131
Tra@@ 131
Por@@ 130
ve 130
sia@@ 130
pre@@ 130
bour## 130
Wh@@ 130
koma## 129
06 129
uudis@@ 129
or 129
ca 128
aikaan@@ 128
be## 128
ch 128
asso@@ 128
tor## 128
oda 127
peria@@ 127
sm@@ 127
tiedä@@ 126
ania 126
lab@@ 126
ous@@ 126
versi@@ 126
bus@@ 126
viestin@@ 126
tab@@ 125
iver@@ 125
ere@@ 124
ean 124
ksuaali## 124
eira 123
teu@@ 123
Brok 123
H## 123
kansala@@ 122
valv@@ 122
AK@@ 122
prov@@ 122
wa@@ 122
be 122
X@@ 121
konferenss@@ 121
ce@@ 121
utin## 121
hap@@ 121
eva 120
ave## 120
we 120
aamu@@ 120
maailman@@ 119
hake@@ 119
est## 118
geo## 118
hur@@ 118
ic## 118
za## 117
fi## 116
ittee## 116
Korea 116
Roman## 115
olev@@ 115
annon 115
ehdokas@@ 115
gar@@ 115
mod@@ 113
pop@@ 113
st 113
sym@@ 113
acqu@@ 112
G 112
Am@@ 112
adop@@ 112
Mont## 111
met 111
wit@@ 111
for 111
ron@@ 111
itsen@@ 111
hyök@@ 110
perusta@@ 110
ar 109
ii## 109
od## 109
bet@@ 109
gro@@ 109
ern## 108
mun@@ 108
tuoll@@ 108
plu@@ 108
rea@@ 108
emmistö 107
put## 107
go 107
vapaaeh@@ 107
pri@@ 107
ê@@ 106
apain@@ 106
iz@@ 106
mär@@ 106
järjestä@@ 106
ff## 106
U 105
by@@ 105
saine## 105
ert 104
th 104
ear@@ 104
Min@@ 104
land 104
amer@@ 104
vau@@ 103
hetke@@ 103
täytäntö@@ 103
Britann@@ 103
Å@@ 103
lat## 102
Kuu@@ 102
ivast@@ 102
konkre@@ 101
jel@@ 101
valla 101
uu 101
ine@@ 101
bour@@ 100
selvä@@ 100
nation@@ 100
W## 100
vis## 99
ish 99
eik@@ 99
Ö@@ 99
enna## 99
national 99
we## 99
Sad@@ 99
argument## 98
päätöksen@@ 98
Á@@ 98
bo## 98
over## 97
iet@@ 97
kill## 97
Ban@@ 96
sens@@ 96
ary 96
vuos@@ 95
tälla@@ 95
opp@@ 95
Makedon@@ 95
AC## 95
ion## 94
lause 94
usten## 94
are## 94
pun@@ 94
ick## 94
ilos@@ 94
her## 94
tion## 93
ener@@ 93
Iran 93
tifi@@ 92
hard 92
lista## 92
ment 92
enna 92
isteri@@ 91
ami## 91
control## 91
ster## 90
He@@ 90
himo## 90
stat@@ 90
Pro@@ 90
reas## 90
au 89
poikkeuks@@ 89
out 89
urg 89
ici## 89
mas 89
pla@@ 89
ympäristön@@ 88
Lu## 88
Brit## 88
seuraav@@ 88
à@@ 88
vat@@ 88
nia 88
imin@@ 88
usel@@ 88
ityis@@ 87
sla@@ 86
human@@ 86
ø@@ 86
rauta@@ 86
ors 86
pr@@ 86
w 86
inc@@ 86
ade@@ 85
itetta 85
taloudell@@ 85
set## 85
Com@@ 84
ber 84
real@@ 84
joulu@@ 83
itor@@ 83
aino@@ 83
ance 83
rac## 83
op## 82
head## 82
sh 82
take## 81
just 81
ç@@ 81
mmik@@ 81
X 81
Sw@@ 81
Zimbab@@ 81
ehdi## 80
jäs@@ 80
am 80
ach@@ 80
car@@ 79
risti@@ 79
Pal@@ 78
imä## 78
mer## 78
ib## 78
deter@@ 78
sosiaalitur@@ 77
pill@@ 77
valu## 77
ion 77
hti@@ 76
euroopp@@ 76
ã@@ 76
tuomio@@ 75
ce 75
him@@ 75
parlamenta@@ 75
ise 74
ick 74
Ge@@ 74
ler 73
uno@@ 73
pe 72
con## 72
sav@@ 72
EC 71
World 71
mann## 71
Bal@@ 71
emp@@ 71
cu@@ 70
erin@@ 70
mukaista## 70
hes## 70
syste@@ 70
dis@@ 70
Demo@@ 70
ap## 69
som@@ 69
energ## 69
J 69
lia@@ 69
gas 69
ant## 69
mari## 69
Dev@@ 68
hope## 68
im 68
burg## 67
sub@@ 67
um 67
ily 67
veh@@ 67
PE 67
lo 66
nään 66
idea## 66
big 66
eläk@@ 66
mana 65
ic 65
Bar## 65
national## 65
Kosovo 65
à 65
con@@ 65
ster 65
avi## 65
Pre@@ 64
konf@@ 64
ence 64
viivä@@ 64
ettel@@ 63
ue## 63
realis@@ 63
bud@@ 63
painopiste@@ 63
wait## 63
Sto@@ 63
ert## 63
lainsäädän@@ 63
Afgan@@ 63
use 62
ph@@ 62
Ass@@ 62
los## 62
all 62
patent## 62
meat 62
Hi@@ 61
pra@@ 61
doll@@ 61
enem@@ 61
pol## 61
enter@@ 61
puun 60
dään 60
diploma@@ 60
argu@@ 60
ign@@ 60
hie@@ 59
ist 58
Mor## 58
minu@@ 58
ner 58
stitu@@ 58
pl@@ 58
tär@@ 58
fel@@ 58
Pro## 57
ast## 57
plan## 57
enss@@ 57
stor@@ 57
ñ@@ 56
dell## 56
bu@@ 56
imb@@ 56
ff 56
bur@@ 56
innä## 56
ation## 56
llisty## 55
tama 55
ss## 55
ant 55
ster@@ 55
hetk## 54
ou 54
dit## 54
0 54
ó 54
DS 54
sensu@@ 54
ern 53
over@@ 53
tion 53
Sha## 53
tetu## 53
ope## 53
inter## 53
the## 53
LA@@ 52
laajentu@@ 52
kedon@@ 52
desi@@ 52
esimer@@ 51
toissija@@ 51
element## 51
separ@@ 51
EU@@ 51
diff@@ 51
toden@@ 51
The 51
kiit@@ 51
ce## 50
par## 50
ase 50
mul@@ 50
fur@@ 50
Gö@@ 50
kunnian@@ 49
Alger@@ 49
iselitte## 48
parha@@ 48
tasa@@ 48
Au@@ 48
opim@@ 48
polit@@ 48
mob@@ 48
Ag@@ 48
mid 48
ca@@ 48
reite@@ 48
majo@@ 48
Ger@@ 48
ï@@ 48
itsest@@ 47
verra@@ 47
reg@@ 47
komis@@ 47
ally 47
Bur## 47
Con## 47
OM 47
head 47
ac## 46
Ju## 46
port## 46
stra@@ 46
ig## 46
for## 46
tra## 45
ling 45
ex## 45
art 45
my## 45
vamma@@ 45
absol@@ 45
House 45
liberal## 44
put 44
hag@@ 44
riv@@ 44
ave 44
cel@@ 44
vol@@ 44
rid 44
í 43
fis@@ 43
tulis@@ 43
off## 43
est 42
dro@@ 42
kyse@@ 42
Le## 42
lova@@ 42
ey@@ 42
ex@@ 41
thy 41
status 41
inv@@ 41
æ 41
Ser@@ 41
div@@ 41
Etel@@ 41
well 41
vaatio## 40
Ven@@ 40
Con@@ 40
uro 40
mal## 40
shi@@ 40
enti## 40
US 40
Palesti@@ 40
zz@@ 40
cial 40
hagen 40
cal@@ 40
ish## 40
ò 40
unila@@ 40
cor@@ 39
ren 39
def@@ 39
line 39
uot@@ 39
Energ@@ 39
kilpa@@ 38
ft## 38
siih@@ 38
aid 38
käsittely@@ 38
ude 38
onia 38
cr@@ 38
market## 38
dou@@ 38
á 38
om 37
ct 37
ettom@@ 37
ykse## 37
ong 37
onnite@@ 37
vun 37
kok@@ 37
Isla@@ 37
Bas## 37
ed## 36
poliit@@ 36
atten@@ 36
hein@@ 36
pro## 36
ong## 36
idea 36
aver@@ 36
up 35
.. 35
Lä@@ 35
Jo## 35
fu@@ 35
by 35
fre@@ 35
ippu## 35
COM 35
mot@@ 35
ique 34
enc@@ 34
bel 34
kuule@@ 34
ood 34
fla@@ 34
jour@@ 34
Energy 34
ent 34
Jan@@ 34
operation## 33
ger 33
aff@@ 33
prof@@ 33
foor@@ 33
ail 33
anteen 33
jit## 33
gh 33
site@@ 33
ß@@ 33
prior@@ 33
arm## 33
Kos@@ 32
Ä 32
kuts@@ 32
In## 32
que 32
indu## 32
ivät## 32
let 32
La## 32
my 32
mielenkiin@@ 31
com@@ 31
com## 31
strea@@ 31
peri@@ 31
EC## 31
ice 31
uclear 31
instr@@ 31
univer@@ 31
ek 31
PP## 31
fun@@ 30
pur## 30
spi@@ 30
pub@@ 30
demokraatt@@ 30
Gre@@ 30
ate 30
kinä## 30
ulkom@@ 30
cal 30
yo@@ 30
ottu@@ 30
standard## 30
kolm@@ 30
Brit@@ 30
out## 30
institu@@ 30
Fis@@ 30
hdot## 29
ming 29
organ## 29
siv@@ 29
cy 29
nal 29
risk## 29
top 29
Johanne## 29
taul@@ 29
star@@ 29
back 29
Inter## 29
trans@@ 29
meet 28
pos## 28
xemb@@ 28
ost 28
Re## 28
poli## 28
col@@ 28
burg 28
control 28
proble@@ 28
Trade 28
ô@@ 28
ex 27
oci## 27
tal 27
vel## 27
ier 27
Trans## 27
und## 27
tw@@ 27
Feder## 27
sche@@ 27
Stra@@ 27
maj@@ 27
Unit## 27
law 26
don@@ 26
Co## 26
vuosi@@ 26
menne@@ 26
progress## 26
ld 26
É@@ 26
rupt## 26
rakennera@@ 26
main## 26
estin@@ 26
ef## 26
orpo## 26
sas@@ 26
Niz@@ 26
arante@@ 26
Bud@@ 25
Fin## 25
Ha## 25
NA## 25
vic@@ 25
ale 25
W 25
Human 25
kapa@@ 25
% 25
ery 25
East 25
Poli## 25
ime 25
cat@@ 25
blo@@ 25
ger@@ 25
erro@@ 25
hab@@ 25
int## 24
ison 24
mark## 24
Jugosla@@ 24
side 24
mis 24
Union 24
happ@@ 24
human 24
shor@@ 24
neuvottel@@ 24
lar@@ 24
age 24
ction 23
not## 23
mom@@ 23
opu## 23
pyrkiv@@ 23
ponent## 23
are 23
car## 23
post## 23
can 23
emb@@ 23
tegor## 23
Pa## 23
dam 23
wi@@ 23
air 23
lig@@ 23
parti@@ 23
Ver## 23
age## 23
eye 23
Reg@@ 22
Fa@@ 22
her 22
reser@@ 22
him 22
1.@@ 22
itt## 22
ister@@ 22
und 22
per 22
abs@@ 22
up## 22
inform## 22
Wor@@ 22
vene 22
inst@@ 22
ild## 22
harmon## 21
fo## 21
ec## 21
work 21
eurooppala@@ 21
rele@@ 21
sosia@@ 21
ung## 21
sur## 21
trans## 20
Strasbour@@ 20
able 20
ice## 20
illis## 20
ich 20
ol 20
tiedotta@@ 20
sion 20
äs@@ 20
Tai@@ 20
val 20
has## 20
int 20
opt## 20
stan 19
will 19
tor 19
hon@@ 19
ft 19
celona 19
see 19
bal@@ 19
struk@@ 19
ess 19
vari## 19
red## 19
Fe## 19
rich 19
valu@@ 19
ult## 19
koroste@@ 18
mone@@ 18
ver 18
ajoneu@@ 18
vice## 18
hi 18
Group 18
air## 18
ati## 18
öno@@ 18
bon 18
nnon 18
ding 18
piiri@@ 18
tal## 18
Yhd@@ 18
will## 18
Cent@@ 18
car 18
media 18
ittee 18
lif@@ 18
Cour@@ 18
ityis## 17
ss 17
ium 17
ohe@@ 17
cla@@ 17
over 17
gu## 17
slausel@@ 17
gh## 17
Lissa@@ 17
nal## 17
cho@@ 17
torj@@ 17
fer@@ 17
No## 17
bor@@ 17
ical 17
eth@@ 17
Li## 17
monit@@ 17
dec@@ 17
tutu@@ 17
mod## 17
phas## 17
stab@@ 17
mini## 17
ach 17
ud 17
Ö 16
fac@@ 16
ref@@ 16
itys@@ 16
intell@@ 16
our## 16
business 16
atetta 16
dom@@ 16
ute 16
ute## 16
ath 16
ettama## 16
tain## 16
ippu@@ 16
eken 16
fil 16
Americ@@ 16
Ó 16
influ@@ 16
ple@@ 15
ional 15
row 15
then@@ 15
depend## 15
war 15
teri@@ 15
thou@@ 15
Af@@ 15
Development 15
aga@@ 15
sion@@ 15
Sec@@ 15
Health 15
tru@@ 15
arm 15
shad@@ 15
ž@@ 15
säädä@@ 14
lloin 14
mietin@@ 14
ader## 14
ow 14
ever@@ 14
marras@@ 14
deleg@@ 14
reli## 14
lar 14
Commission 14
side## 14
· 14
kettä## 14
ind## 14
eteen@@ 14
cies 14
ward 14
ld## 14
ope 14
kustan@@ 14
Ind@@ 14
enter## 14
stella 13
viim@@ 13
Dan## 13
ow## 13
wn 13
Free## 13
ose## 13
ë@@ 13
mun## 13
q@@ 13
gre@@ 13
hope 13
q 13
hap## 13
pan 13
emmis@@ 13
ting 13
oikeud@@ 13
low 13
gan## 13
dom 13
ace 13
mal 13
ende@@ 13
Johannes@@ 13
end 12
fer 12
ations 12
day 12
make## 12
ities 12
ted 12
ress## 12
uc## 12
off 12
ail## 12
rates 12
pati@@ 12
field 12
repe@@ 12
ces@@ 12
lack 12
eag@@ 12
mark 12
Office 12
ns 12
fra@@ 12
ze 12
estiinalais## 12
war@@ 11
aris## 11
Council 11
ci## 11
ital 11
ct## 11
Char## 11
char@@ 11
sib@@ 11
ual 11
appe@@ 11
ative 11
refle@@ 11
nel 11
see## 11
å@@ 11
Dem@@ 11
deg@@ 11
port 11
ility 11
cro@@ 11
US## 11
pot## 11
wn## 11
cra@@ 11
ú 11
court## 11
Just## 10
right## 10
qual## 10
force 10
right 10
fro@@ 10
with 10
fer## 10
art## 10
tra 10
produ@@ 10
pul## 10
list## 10
act 10
ssel@@ 10
aih@@ 10
duc@@ 10
Pat## 10
pend## 10
Port## 10
nis## 10
stella## 10
Spa## 10
Om@@ 10
abo## 10
Götebor@@ 10
sho@@ 10
ried 10
clause 10
cho## 10
iev## 10
Fund 9
limit## 9
ask## 9
ature 9
spo@@ 9
individ@@ 9
person## 9
û@@ 9
rein@@ 9
ond 9
rektiiv@@ 9
pie@@ 9
kuin@@ 9
ight 9
pre## 9
viran@@ 9
Kööpenhamin@@ 9
ration 9
mber## 9
tiedotus@@ 9
line## 9
fo@@ 9
lait@@ 9
vention 9
cl@@ 9
sou@@ 9
Tour## 9
IG@@ 9
ach## 9
mine 9
share 9
reign 9
Α@@ 9
cha@@ 8
Ü@@ 8
fir@@ 8
far 8
terran@@ 8
ping 8
new 8
ther 8
Q 8
year 8
jois 8
President## 8
ever## 8
tasapain@@ 8
inal 8
ab## 8
soci## 8
hold 8
ght## 8
acc@@ 8
join 8
mekan@@ 8
old 8
pres@@ 8
gla@@ 8
fri@@ 8
table## 8
nom@@ 8
ial 8
elec@@ 8
vel 8
demo## 8
ket 8
ence## 8
State 8
CAP 8
ess## 8
ips 8
ture 8
optim## 8
promis@@ 8
touko@@ 8
äkuu## 8
meet## 8
Indus## 8
maalis@@ 8
rela@@ 8
South 8
People 8
sea## 8
GM## 8
ep 8
itiik@@ 8
gy@@ 8
aikav@@ 7
Emp@@ 7
ask 7
Liberal 7
jos@@ 7
play## 7
hell## 7
year## 7
Vitor@@ 7
less 7
hop## 7
global## 7
UK 7
coll@@ 7
econom@@ 7
ses 7
tammik@@ 7
syys@@ 7
peace 7
q## 7
ß 7
ere 7
road 7
ency 7
vice 7
p.@@ 7
mau@@ 7
wor@@ 7
net@@ 7
Gene## 7
ory 7
way 7
group 7
State## 7
dic@@ 7
red 7
with## 7
rest## 7
demon@@ 7
compromis## 7
form 7
mber 7
tällö@@ 7
Cub@@ 7
adv@@ 7
Ε@@ 7
popul## 6
ef 6
Cha@@ 6
Rus@@ 6
ule## 6
trib@@ 6
add@@ 6
fare 6
ial## 6
mor## 6
ward## 6
have 6
under## 6
cur@@ 6
sub## 6
Fish## 6
time 6
link## 6
tim## 6
ful 6
part@@ 6
Fund## 6
main 6
practice 6
dik@@ 6
pet## 6
partner## 6
cot## 6
mobil## 6
search 6
fic## 6
low## 6
Bank 6
allo@@ 6
vuon@@ 6
hard## 6
St## 6
No 6
fic 6
ree## 6
gg@@ 6
bla@@ 6
dem@@ 6
work## 6
regula@@ 6
pac@@ 6
show 6
operation 6
North 6
ates 6
sic## 6
public 6
terr## 6
acquis 6
Sol## 6
system 6
Í@@ 6
global 6
cre@@ 6
abl## 6
ator 6
agri## 6
º@@ 5
annes@@ 5
if 5
koll@@ 5
mental 5
cap@@ 5
Treat## 5
high 5
legal## 5
rec@@ 5
Che@@ 5
ree 5
voluntar@@ 5
ists 5
this 5
ition 5
³ 5
ever 5
data 5
bac@@ 5
ugu@@ 5
proto## 5
ntö@@ 5
peace## 5
cur## 5
mausaine## 5
byro@@ 5
sosiaali@@ 5
rule## 5
embry@@ 5
uol## 5
ordination 5
cer@@ 5
ance## 5
isl## 5
of## 5
own 5
assosia@@ 5
employ## 5
tive 5
regulation 5
market 5
täntö@@ 5
pid 5
futur## 5
represent## 5
lis## 5
tic 5
table 5
exec@@ 5
fied 5
multi## 5
rule 5
spec@@ 5
cin## 5
non 5
ability 5
cust@@ 5
Ê@@ 5
multila@@ 5
marke@@ 5
sugg@@ 5
trade 5
beg@@ 5
ways 5
earl## 5
profit 5
fight## 5
East## 5
kus 5
logical 5
secu@@ 5
ouse 5
farm## 5
¤ 5
− 5
hand## 5
wer 4
board 4
integr## 4
nor 4
mission 4
evit## 4
build## 4
osla@@ 4
pay## 4
you 4
counter 4
base 4
rant 4
act## 4
ivity 4
ght 4
lock## 4
ì@@ 4
public## 4
prin@@ 4
four 4
lum 4
corpor@@ 4
was 4
night 4
fle@@ 4
menette@@ 4
budget## 4
Amsterdam 4
ast 4
off@@ 4
vul@@ 4
again## 4
ism 4
High 4
lähest@@ 4
pho@@ 4
legal 4
ù 4
op 4
rect 4
Commission## 4
ikais## 4
America 4
Z 4
tempo## 4
Parliament 4
how 4
ict 4
ference 4
tent 4
good 4
back## 4
rs 4
viv## 4
wait 4
è 4
ese 4
loka@@ 4
â@@ 4
General 4
ground 4
change 4
count## 4
reduc## 4
thir## 4
med@@ 4
ace## 4
law@@ 4
Afgh@@ 4
Joh@@ 4
ose 4
ology 4
power 4
Home 4
divers## 4
fair 4
poin@@ 4
Yhdysval@@ 4
eco## 4
court 4
ral 4
mätön@@ 4
reform## 4
tain 4
sid## 4
″ 4
wer## 3
where 3
even 3
² 3
sist## 3
dela@@ 3
ied 3
cau@@ 3
Employ## 3
outh 3
til 3
sive 3
cle@@ 3
ised 3
ject 3
loc@@ 3
Green## 3
aim 3
driv## 3
him## 3
µ@@ 3
cul@@ 3
get 3
sup## 3
led@@ 3
ethnic 3
asis 3
two 3
Environment 3
fair## 3
pli@@ 3
commer@@ 3
scope 3
tex@@ 3
position 3
propor@@ 3
stro@@ 3
ep## 3
pursu## 3
crime 3
free 3
fort## 3
tech@@ 3
Portugal 3
lack## 3
esti@@ 3
Green 3
Cy@@ 3
short 3
sea 3
better 3
oil 3
sum## 3
clu@@ 3
face 3
Cope## 3
regulation## 3
quit## 3
action## 3
ions 3
Aud@@ 3
prog@@ 3
ester@@ 3
now 3
under 3
tho@@ 3
talk## 3
reat## 3
È@@ 3
abol@@ 3
å 3
term 3
Minister## 3
simi@@ 3
Po## 3
cand@@ 3
wel@@ 3
yc@@ 3
wh@@ 3
assu@@ 3
ifi## 3
President 3
term## 3
Convention 3
ship 3
Coun@@ 3
try 3
_ 3
= 3
substan@@ 3
action 3
civ@@ 3
gener@@ 3
access 3
dle 3
ession@@ 3
ild 3
women 3
self 3
country 3
Environ@@ 3
lea@@ 3
fort 3
siaan## 3
agree## 3
hib@@ 3
poll@@ 3
ordino@@ 3
exist## 3
É 3
gener## 3
last## 3
productive 3
space 3
racy 3
ators 3
there 3
ye@@ 3
overty 3
else## 3
infra@@ 3
else 3
make 3
ety 3
dama@@ 3
Public 3
tural 3
ress 2
benefit 2
pris@@ 2
helmik@@ 2
fav@@ 2
º 2
there## 2
order## 2
countries 2
press## 2
ement 2
gal 2
stock## 2
cess 2
won@@ 2
world 2
risk 2
later 2
attac@@ 2
charge 2
road## 2
competent 2
voisa 2
direct 2
ated 2
täll@@ 2
gr## 2
part 2
qu## 2
À@@ 2
inal## 2
erent## 2
olve## 2
Stat## 2
heesi@@ 2
lar## 2
order 2
present 2
Central 2
Jar@@ 2
short## 2
regre@@ 2
asis## 2
small 2
stock 2
which 2
sense 2
comm@@ 2
enlarge## 2
process## 2
approach 2
add 2
understand## 2
statement 2
cyc@@ 2
social 2
check## 2
oura@@ 2
light 2
manufac@@ 2
§ 2
ation@@ 2
trol 2
may 2
person 2
his 2
large## 2
petition 2
immäis## 2
hall 2
finan@@ 2
source 2
sign@@ 2
learn## 2
share## 2
compe@@ 2
tent## 2
initi@@ 2
drug 2
prise 2
procedure 2
natural## 2
Fatu@@ 2
fish 2
paper 2
union 2
endorse 2
tional 2
Tran@@ 2
PT 2
porteu@@ 2
major 2
negoti@@ 2
equ@@ 2
sink## 2
ure 2
ulti@@ 2
enter 2
lic## 2
house 2
new@@ 2
Pr## 2
î@@ 2
rapid 2
Â@@ 2
jud@@ 2
ï 2
cip## 2
ther## 2
sear@@ 2
gue 2
eries 2
tour## 2
Bul@@ 2
travel 2
crit## 2
± 2
Asia 2
Parliament## 2
people 2
cross 2
reserv## 2
fight 2
good## 2
ians 2
bodies 2
nego@@ 2
deal@@ 2
health 2
exc@@ 2
run 2
Gener@@ 2
ble 2
relat## 2
pay 2
volu@@ 2
deb@@ 2
after@@ 2
step 2
enc## 2
¡ 2
front## 2
thu@@ 2
dur## 2
igh@@ 2
Agri## 2
culture 2
prob## 2
Cr## 2
source## 2
even## 2
Oc@@ 2
led 2
great 2
Russia 2
eder## 2
gramme 2
again 2
try## 2
cent@@ 2
ù@@ 2
able## 2
Citiz@@ 2
ă@@ 2
separat## 2
brea@@ 2
through 2
lay## 2
ether 2
uch 2
itor## 1
lease 1
deliv@@ 1
four## 1
refu@@ 1
scienti@@ 1
other 1
prehen@@ 1
Frame## 1
embar@@ 1
lent 1
regard 1
Direct## 1
recog@@ 1
scale 1
dependent 1
ness 1
Thur@@ 1
high## 1
standard 1
prac@@ 1
special 1
either 1
sanction## 1
learn 1
know 1
know## 1
any 1
huhti@@ 1
force## 1
orig@@ 1
mp## 1
ape 1
ving 1
mean 1
tual 1
erent 1
prosecu@@ 1
scheme 1
cil 1
divide## 1
ference## 1
Develop@@ 1
istic 1
power## 1
eng## 1
mic 1
sina## 1
accor@@ 1
mouth 1
flex@@ 1
ibility 1
Ì@@ 1
Ï@@ 1
fiel@@ 1
Consumer 1
¼ 1
debt 1
duc## 1
trust 1
tine 1
extre@@ 1
show## 1
mov@@ 1
plant## 1
member 1
thin@@ 1
sight 1
report 1
tant## 1
got 1
histo## 1
kept 1
cep@@ 1
light## 1
graph@@ 1
chan@@ 1
balance## 1
lor## 1
curr@@ 1
point## 1
left 1
produc@@ 1
ember 1
natural 1
zone 1
xim## 1
ration## 1
mind 1
traffick## 1
ously 1
rate@@ 1
talk 1
Minister 1
Ø@@ 1
syr@@ 1
front 1
accu@@ 1
bad 1
decision 1
crime## 1
major## 1
difficult 1
mind## 1
eno## 1
mpl## 1
rier## 1
ction## 1
did 1
election 1
May 1
nt 1
judge## 1
aware 1
aware## 1
noti@@ 1
leader## 1
rise 1
ments 1
usu@@ 1
seem## 1
return 1
terranean 1
understand 1
reform 1
acy 1
Ñ@@ 1
Pub@@ 1
sec@@ 1
institution 1
fru@@ 1
ful@@ 1
wish 1
elop@@ 1
mum 1
medium 1
Å 1
dru@@ 1
¸ 1
ffec@@ 1
sustain## 1
cess@@ 1
course 1
dem## 1
room 1
maailmanlaaju@@ 1
favour 1
compro@@ 1
engage## 1
perf@@ 1
meth@@ 1
cial## 1
balance 1
process 1
respect 1
Cyprus 1
establish## 1
fy 1
prose@@ 1
particular 1
significant 1
capital 1
foc@@ 1
ship## 1
emer@@ 1
ement## 1
ffic@@ 1
compan@@ 1
exploit## 1
UN 1
tter 1
alth 1
form## 1
oral 1
militar## 1
wr@@ 1
death 1
ffici@@ 1
tebor@@ 1
together 1
ë 1
ough 1
ý 1
ý@@ 1
Ý@@ 1
ð@@ 1
entral## 1
wrong 1
ural 1
parlia@@ 1
post 1
cou@@ 1
lad## 1
paid 1
election## 1
mass 1
accoun@@ 1
moment 1
press 1
prise## 1
entr@@ 1
design## 1
place 1
central 1
estiin@@ 1
free## 1
think 1
lot 1
threat 1
solid## 1
should 1
cour@@ 1
range 1
youn@@ 1
mate 1
non## 1
Minis@@ 1
clos@@ 1
Yugosla@@ 1
atory 1
class## 1
ital## 1
ized 1
after 1
brief 1
conc@@ 1
eiv## 1
ism## 1
had 1
sion## 1
mass## 1
event 1
guide## 1
kers 1
part## 1
week 1
itle## 1
wee@@ 1
ü 1
pre 1
compatible 1
½ 1
ified 1
vention## 1
Ç@@ 1
firm## 1
commun@@ 1
ees 1
õ@@ 1
conta@@ 1
direct## 1
last 1
adver@@ 1
report## 1
bank## 1
vess@@ 1
iger@@ 1
weap@@ 1
just@@ 1
xt 1
Iraq 1
ign## 1
reach 1
special## 1
itory 1
blood 1
ì 1
domest@@ 1
prohib@@ 1
tru## 1
Control 1
week## 1
regular 1
present## 1
budget 1
scri@@ 1
weapon## 1
ece 1
cco 1
chance 1
build 1
statu@@ 1
drug## 1
gent@@ 1
southern 1
Vice 1
fire 1
ê 1
emb## 1
cent 1
cent## 1
ious 1
Stras@@ 1
pers@@ 1
ign 1
pay@@ 1
Summit 1
turn## 1
particular## 1
descri@@ 1
esimerk@@ 1
business## 1
Consum@@ 1
can## 1
fish## 1
craft 1
event## 1
less## 1
Α 1
scho@@ 1
see@@ 1
profit## 1
flo@@ 1
sign 1
seem 1
progress 1
charac@@ 1
ply 1
respect## 1
law## 1
partner 1
establish 1
measu@@ 1
ular## 1
canc@@ 1
ivid@@ 1
ual## 1
ease 1
tic## 1
thre@@ 1
neigh@@ 1
double 1
plant 1
kansainväl@@ 1
tant 1
pic@@ 1
bon## 1
Ι@@ 1
Ν@@ 1
Ι 1
economic 1
quar@@ 1
struc@@ 1
