#version: 0.2
i s
t h
i t
i n
e n</w>
a n
e n
s t
th e</w>
i n</w>
o n</w>
a l
t e
t a
t i
r e
a n</w>
o n
e r
s i
a r
e l
o l
o u
t t
o r
a t</w>
t o</w>
o m
o f</w>
t u
i l
r o
t ä
j a</w>
i s</w>
an d</w>
i k
s e
m a
is t
o s
e m
l a
in g</w>
r a
u u
i m
e s
e s</w>
v a
s a</w>
k a
j o
t o
e st
i c
i d
k s
o p
ä n</w>
l e</w>
e tt
k u
e r</w>
s u
m en
v o
h a
e d</w>
m e</w>
th at</w>
k e
ti on</w>
w h
l e
v ä
v e</w>
e t
al l
v i
m u
o r</w>
ett ä</w>
s a
m is
a l</w>
e c
n o
p u
p ro
a t
j ä
u ro
l i
n i
w e</w>
s e</w>
n e
f or</w>
a s</w>
@ -
@- @</w>
i t</w>
p a
y h
ä ä
E uro
y ö
r i
c on
l is
l y</w>
th is</w>
a c
k o
e d
p or
l u
e t</w>
m i
k a</w>
o t
ist a</w>
p e
en t</w>
t s</w>
p ar
it ä</w>
v at</w>
v al
l a</w>
k ä
h d
u st
id en</w>
ar e</w>
k i
b e</w>
s t</w>
a p
s sa</w>
s ä</w>
ks i</w>
it i
q u
l d</w>
is i
m e
d e
on s</w>
in en</w>
i h
si on</w>
ic h</w>
ou ld</w>
wh ich</w>
k an
c om
ta a</w>
k in</w>
l ä</w>
ou n
t y
no t</w>
e en</w>
u l
ha ve</w>
th e
re s
al u
p er
p ol
u n
a st
u r
men t</w>
v er
k si
u s
c e</w>
d i
a m
a ti
k se
ta r
tt a</w>
a tion</w>
a b
h u
a d
w it
u t</w>
wit h</w>
te r
m ä
t a</w>
C om
c i
l o
a g
h o
f or
er e</w>
it tä
s y
m yö
te d</w>
k y
it y</w>
a is
n ä
a an</w>
jä s
a si
yh te
s o</w>
is sa</w>
il l</w>
n n
por t</w>
it te
v u
k om
e x
si d
va st
s h
a u
it y
b y</w>
t ö
h e
ist ä</w>
m me</w>
e i</w>
it a</w>
t ä</w>
s el
al l</w>
g h
p o
s o
k os
Euro op
to im
Euro pe
Europe an</w>
g i
tä m
ap os
& apos
f f
h y
tu r
it u
kom is
e v
ou r</w>
Com mis
est i</w>
p ää
vo is
m in
a s
M r</w>
i r
w ill</w>
is tu
il le</w>
in n
er s</w>
kä y
i es</w>
ta v
ha s</w>
uu d
st a</w>
tt ä
t en</w>
t r
n y
st ä</w>
ta an</w>
i a</w>
ks en</w>
Euroop an</w>
p it
ik e
th er</w>
w or
myö s</w>
a a</w>
vä t</w>
re sid
c h
est a</w>
ka ik
ist en</w>
p ä
v ar
an n
o d
j en</w>
at e</w>
ö n</w>
0 0
t e</w>
en t
r j
b er</w>
p os
ol e</w>
l lä</w>
k es
w ould</w>
u c
m an</w>
h alu
ar vois
o vat</w>
ä än</w>
ou t</w>
&apos ;</w>
m an
is i</w>
re c
Commis sion</w>
ma an</w>
a r</w>
i v
ou r
is en</w>
c oun
P resid
s an
b ut</w>
jäs en
a j
v el
o ike
s en</w>
s sä</w>
all y</w>
k e</w>
val ti
u ni
em me</w>
g o
a se
al so</w>
u d
la men
i o
arvois a</w>
par lamen
ksi a</w>
h em
k uu
m or
a ssa</w>
sh ould</w>
p ec
id än</w>
t an
re port</w>
ny t</w>
on e</w>
te r</w>
b e
te s</w>
is esti</w>
kos ke
tä y
mi el
t ta
ol lis
s uu
f ro
fro m</w>
c h</w>
mi et
all a</w>
m er
Presid ent</w>
ä n
jo t
p al
ä ä</w>
mu st</w>
d el
s it
uni on
tav a</w>
j el
a y</w>
u s</w>
vä l
a ik
th ere</w>
y y
a in
qu ot
il la</w>
o u</w>
p r
mor e</w>
l ik
pu ol
p l
jo ka</w>
t yö
jä rj
P ar
järj est
jot ka</w>
n a
m on
quot ;</w>
pu hem
d is
c an</w>
& quot;</w>
g e</w>
y ou</w>
d s</w>
on n
2 00
täm ä</w>
st r
en kin</w>
es sa</w>
b een</w>
s i</w>
ku st
es e</w>
em ber</w>
puhem ies</w>
l ä
es s</w>
isi a</w>
komis sion</w>
c o
jo h
U ni
Uni on</w>
si itä</w>
m uu
ver y</w>
k ing</w>
b le</w>
k ä</w>
ab le</w>
ti ve</w>
p res
a v
valti o
the y</w>
yhte is
th ese</w>
d o</w>
t ri
S ta
r ke
t al
ka an</w>
v ä</w>
alu e
con c
ti ons</w>
es sä</w>
e hd
h i
en n
jäs en</w>
m o
k er
p an
i r</w>
s itä</w>
on al</w>
isi in</w>
li a
iti ik
f in
or d
ih in</w>
it s</w>
em ent</w>
e ksi</w>
te l
an s
w as</w>
k ol
ti l
no w</w>
u vo
tä rke
tur e</w>
le g
st i</w>
r ou
m y
g u
en c
un d
lik e</w>
o c
k o</w>
o ther</w>
men ts</w>
mu tta</w>
me idän</w>
u ra
on g
it ta
ää r
wh at</w>
g h</w>
is h</w>
in c
a re
r an
n u
k i</w>
m il
p re
g ra
ol la</w>
el la</w>
a m</w>
b ec
parlamen t
el l
ti c
y r
v es</w>
the ir</w>
pol ic
v e
k al
ne uvo
lia ment</w>
i f</w>
f i
u tu
gh t</w>
ati ons</w>
ky sy
pol itiik
os sa</w>
komis si
d e</w>
it t
en ce</w>
im por
f ac
Par liament</w>
y m
s om
i d</w>
ic al</w>
hu om
h än</w>
impor tan
ehd o
mer k
in g
M ember</w>
a tt
ta i</w>
su p
ma hd
m it
kse t</w>
se d</w>
m y</w>
s in</w>
in t
m äär
ou s</w>
e i
kes kust
te en</w>
m än</w>
ku n</w>
t ra
m ar
va ik
o re
ku it
im me</w>
Sta tes</w>
ke h
e si
ta pa
re s</w>
ku in</w>
f u
to is
ko h
for e</w>
kan s
per ust
il lä</w>
ä l
s ää
op le</w>
u n</w>
is su
kysy my
it ty
o h
1 9
keskust el
au se</w>
ac c
er ity
miet inn
ast a</w>
m p
j a
kse en</w>
E U</w>
re d</w>
is h
w el
uud en</w>
it se
os e</w>
jäsen valtio
all is
pu he
j ec
al o
r on
pää tö
täm än</w>
s is
d em
i en</w>
k or
ci al</w>
polic y</w>
u p</w>
ka u
t taa</w>
i on</w>
t ing</w>
r yh
h all
wh o</w>
tri es</w>
su r
b et
san o
d ing</w>
y e
coun tries</w>
ti in</w>
s er
pe ople</w>
j u
t h</w>
k il
ne ed</w>
hy vä
a al
k en
f ir
o d</w>
l em
g re
ff ic
mu n
iti es</w>
s op
h an
union in</w>
j ä</w>
tu n
ih mis
C oun
ti me</w>
im u
tä ä</w>
puhe en
d o
tä än</w>
la tion</w>
ku n
: n</w>
neuvo st
ci l</w>
pro b
se kä</w>
ks en
k em
an a</w>
el lä</w>
p e</w>
bec ause</w>
Coun cil</w>
o st
mahd ollis
ku nn
hy v
vu o
pro v
c r
ittä in</w>
ar y</w>
ar m
h e</w>
k ou
in ter
ust a</w>
ong el
p la
wor k</w>
m inen</w>
w n</w>
ra l</w>
is sä</w>
el lis
t or
ka is
o b
ta ke</w>
ma t
importan t</w>
v il
l le</w>
ol en</w>
n ati
joh ta
ty y</w>
ti e
m in</w>
kuit enkin</w>
ab out</w>
te h
st e
po in
200 0</w>
m ista</w>
ik ä</w>
y ttä
n e</w>
m a</w>
li ik
h en
tu le
r ist
p en
ni in</w>
ast i</w>
su b
op u
e tu
tr ans
parlament in</w>
k on
ää n
vi en</w>
ku l
ittä ä</w>
d ec
y s</w>
p i
jo s</w>
a su
E U
j at
an t</w>
j ö
i ma
tal ou
on ly</w>
in v
sa a
a d</w>
ti a</w>
pec i
ol isi</w>
ol e
the re
ti ed
st a
järjest el
vo i</w>
k ka
in o
ar d</w>
ag re
p on
li itty
conc er
y d
u se
komissi o</w>
h el
d uc
mis en</w>
j on
pro c
n te
de vel
gh ts</w>
en er
w i
tar v
p ri
ne et</w>
k ö
ma ke</w>
kan ssa</w>
wh en</w>
in te
yh d
n o</w>
ev er</w>
e et</w>
de b
va a</w>
re gi
em p
a il
19 9
se c
es s
sup port</w>
os t</w>
in a</w>
th ose</w>
men d
o v
el le</w>
vi el
iti on</w>
it e
ol u
ol emme</w>
ma in
j o</w>
si on
re g
halu ais
an ce</w>
w ay</w>
there fore</w>
pit ä
te u
il ity</w>
e p
a ih
Euro pe</w>
wi th
pol it
enc y</w>
su ch</w>
som e</w>
ik si</w>
tä ssä</w>
t y</w>
va an</w>
u a</w>
man y</w>
jä l
is te
di rec
k ti
j ou
in to</w>
hyv in</w>
e w</w>
st en</w>
kos ka</w>
f arm
an ta
pol i
si ble</w>
se ura
kal ast
ff ec
s in
om en</w>
ku ten</w>
con t
s itu
qu est
ho w
el i
m ä</w>
jo tta</w>
en ts</w>
en ti
ym pä
viel ä</w>
tr y</w>
ot ta
is e</w>
i an</w>
u e</w>
kaik ki</w>
er ittäin</w>
T ur
uu s</w>
to del
res pon
mietinn ö
miel est
tu ral</w>
lis ä
an g
w een</w>
v an</w>
bet ween</w>
am me</w>
tt ö
jon ka</w>
in d
par tic
it a
devel op
toim i
&apos ;
w ere</w>
vi a</w>
kan n
haluais in</w>
f ish
va in</w>
tar k
ta l</w>
com m
op er
p id
k s</w>
ympä rist
vast i</w>
si llä</w>
puheen johta
mä än</w>
ehdo tu
c le
i c</w>
d ay</w>
com p
pro pos
nati onal</w>
ke a</w>
y ks
ta vo
c our
an s</w>
vil jel
ar ly</w>
y l
uu tta</w>
re m
ka a</w>
h ar
v en
on g</w>
hyvä ks
an y</w>
tä tä</w>
issu e</w>
d es
s ä
el y</w>
an te
än i</w>
vi ron
ol i</w>
m s</w>
ma a</w>
ko hd
&apos; s</w>
va pa
th an</w>
p le</w>
e h
si ih
al le</w>
ver n
o k
is ta
ho w</w>
st an
siih en</w>
le en</w>
vo id
tt i</w>
situ ation</w>
lä h
g n
en si
al ta</w>
la aj
ei vät</w>
com e</w>
est ä</w>
a se</w>
pal j
ot a</w>
ni iden</w>
ma de</w>
ju st</w>
itte e</w>
how ever</w>
ma ssa</w>
en ta
ag e</w>
ti et
t om
sion er</w>
m itä</w>
deb ate</w>
te tt
per i
e ve</w>
c es</w>
täy tyy</w>
th ing</w>
par t</w>
ord er</w>
i ä</w>
halu an</w>
wel l</w>
ti la
coun try</w>
ot taa</w>
im e</w>
u se</w>
kaik ki
fir st</w>
ra p
ev en</w>
ne w</w>
suu r
polit ical</w>
pit ää</w>
al is
l ar
b u
a ted</w>
Commis sioner</w>
wh ere</w>
te hd
e f
c an
al s</w>
y ä</w>
val io
str uc
oike u
el ä
R u
poli itt
poin t</w>
in ä</w>
be ing</w>
p a</w>
m ost</w>
k en</w>
en viron
concer n
w a
v ing</w>
si l
s en
ra ti
w omen</w>
jo ita</w>
t tava</w>
su h
st ra
oh jel
kans al
e uro
c re
pu hu
p yy
ap pro
se s
mis eksi</w>
it taa</w>
t te
sur e</w>
p uu
ou gh</w>
k k
hu ol
f ra
tar ko
sel la
palj on</w>
mun ity</w>
kä s
d en</w>
al ity</w>
ri ghts</w>
r y</w>
me asu
fac t</w>
d ra
ra c
ke en</w>
is et</w>
g e
es t</w>
at ta
l in
hu man</w>
cour se</w>
ympärist ö
en em
ou s
ol o
et y</w>
te ly</w>
su l
r s</w>
n ä</w>
lu t</w>
es itte
ar s</w>
vu od
tä stä</w>
m ber</w>
j ossa</w>
I n
y oun
t en
käy ttä
kuu lu
ic e</w>
i vat</w>
e pä
t w
mu ka
erity isesti</w>
ar vi
viljel i
te taan</w>
mis een</w>
sa y</w>
h än
youn g</w>
tar ka
os o
keh ity
ka s
uu r
tur v
ol l
er ta
tä llä</w>
it e</w>
dis c
asi o
si ksi</w>
ex am
ä mme</w>
ny ky
kse ssa</w>
in no
fu ture</w>
a isten</w>
v is
th in
on om
m istä</w>
M rs</w>
measu res</w>
e ffec
s peci
ra ho
men tal</w>
m mä
kou lu
f er
EU :n</w>
y ing</w>
ett ä
at al
the m</w>
re ad
n tö
mielest äni</w>
g an
ing s</w>
h ere</w>
yhte ist
sää d
rou p</w>
re qu
leg is
la in
aih e
em b
ed ust
ac h</w>
Com m
quest ion</w>
ind ust
d ed</w>
vuo ksi</w>
t ly</w>
sop imu
disc us
A l
se en</w>
s pe
ye ar</w>
y le
vi ä</w>
tark istu
st s</w>
si is</w>
it et
i p
esitte li
are as</w>
su o
tu t
sis äl
re kti
ol lo
dec isi
yr ity
tt om
se s</w>
u m</w>
tä l
ov er</w>
b eli
pa ik
h op
tärke ää</w>
to o</w>
th an
f ul
ec onom
turv allis
trans port</w>
la r</w>
in tö
in for
se e</w>
os all
nu or
im pl
with in</w>
st ill</w>
pitä isi</w>
o wn</w>
it o
h al
ff er
farm ers</w>
ett a</w>
y ksi
ul la</w>
tarka st
develop ment</w>
c erta
kä än</w>
kä sit
d u
ään est
va ati
teh tä
sa me</w>
jo ta</w>
Com munity</w>
yhteist yö
vä ä</w>
r ik
pu b
pro s
mi en</w>
la st</w>
con sid
tw o</w>
th rou
re la
re as
ra t
r ic
osall istu
mi a</w>
lisä ksi</w>
huom io
ha p
a f
x t</w>
tä hän</w>
tapa h
so si
ent ly</w>
di rekti
te k
si a</w>
pos sible</w>
tu l
th en</w>
sy ste
r is
in e
S w
Comm ittee</w>
pro duc
nu mber</w>
m od
ksi en</w>
in iti
R e
pro gra
m at</w>
f ic
di es</w>
ac tion</w>
yhteis ön</w>
vast uu
to iv
ot h</w>
or gan
ma ail
ks ista</w>
kol leg
fish er
ais et</w>
v en</w>
tt u
neuvost on</w>
mu ch</w>
m m
lain sääd
l lis
it el
wh y</w>
v a</w>
sa f
op e
et te
do es</w>
beli eve</w>
u h
talou del
res s</w>
ha d</w>
h et
go vern
esi merk
e ikä</w>
vuod en</w>
vast a
u tta
sy y
so cial</w>
s ol
s c
jec t</w>
it or
ensi mmä
vu or
v än</w>
thin k</w>
read y</w>
ain st</w>
Sw ed
void aan</w>
va is
va h
suu nn
prob lem
problem s</w>
inte re
inc lu
ex c
cont in
comm on</w>
b oth</w>
toim in
tavo itte
o sta</w>
ist y
i in</w>
to r</w>
mu kaan</w>
at ing</w>
ag ainst</w>
tt ä</w>
te ho
n im
h er
fin an
c ould</w>
s la
re e</w>
liik en
can not</w>
tehd ä</w>
is ed</w>
f ore
et tel
ed uc
puol esta</w>
jäl keen</w>
cle ar</w>
al ready</w>
a mend
w ant</w>
vo im
ma atal
it se</w>
g et</w>
ye ars</w>
viljeli jö
ti es</w>
ma y</w>
käs itte
jäsenvaltio iden</w>
jo iden</w>
Ru ot
w e
res olu
prob le
om io
n ec
miel tä</w>
i ous</w>
i g
ann e</w>
a vat</w>
y our</w>
vi ew</w>
va ih
ul tural</w>
rap por
määr ä
ast aan</w>
täl la
pri or
pr om
p yr
kse sta</w>
ker tom
il l
con d
c ur
a va
ust en</w>
sosi aal
prov id
n ope
myö nte
kunn an</w>
hyväks y
ve l</w>
syste m</w>
stra te
m ikä</w>
g y</w>
ad op
ta ken</w>
nn ö
k now</w>
h is</w>
gre at</w>
euro op
di ffer
vä lis
vaik ka</w>
ti ves</w>
por ts</w>
mis esta</w>
ko ko</w>
it er
is in</w>
sel f</w>
l op
ksi in</w>
ase d</w>
w s</w>
v an
ur e</w>
tu lo
tapah tu
re pres
pro te
omio istu
j uur
isi ä</w>
is een</w>
h yö
yhte yd
us el
ta s
n ou
li c</w>
käy ttö
it ed</w>
inv ol
euroop pal
b ility</w>
are a</w>
a in</w>
vi ime</w>
miet intö
ki rj
go od</w>
f e
enn en</w>
en d</w>
arvi o
y n</w>
som e
proble m</w>
kalast us
var o
v ed</w>
u ksia</w>
sla usel
päätö slausel
parlamen tti</w>
ni itä</w>
ma an
enem män</w>
emp lo
ar ds</w>
an taa</w>
uu s
tie to
pec t</w>
oun d</w>
legis lation</w>
el leen</w>
asi a</w>
a id</w>
y s
it aan</w>
is sa
hop e</w>
gi ven</w>
0 0</w>
und er</w>
tule vais
ter s</w>
kan sa
hal f</w>
u lar</w>
than k</w>
p el
nä in</w>
l ong</w>
j ul
i um</w>
hall itu
en d
at te
an ut</w>
B r
vo ima
und er
ti on
ri ght</w>
pub lic</w>
nä iden</w>
econom ic</w>
pr in
la an</w>
initi ati
f ollo
ain o
y ty
to teu
te kem
r u
politiik an</w>
partic ular</w>
p le
mar ke
käy tä
juur i</w>
ti en</w>
prin ci
oper ation</w>
cur r
b o
K ore
tut k
teu r</w>
rappor teur</w>
el in
ar vo
tar pe
ro ad</w>
pa in
er i</w>
yhteyd essä</w>
täy sin</w>
si inä</w>
peri a
na isten</w>
mä r
mar kk
in ti
hän en</w>
ffic i
ad d
exam ple</w>
th or
es ittä
at a</w>
ym mär
y ment</w>
wor ld</w>
val v
vaik utu
to day</w>
ta mme</w>
st o
organ is
ma tion</w>
iv an</w>
in st
huomio on</w>
en a</w>
educ ation</w>
d a
te ollis
re sul
rat kais
propos al</w>
ol le
nä mä</w>
la des
inv est
for m</w>
est ab
ang lades
sit ten</w>
onn a</w>
iti ons</w>
ip pu
im in
i vä
fisher ies</w>
ac hi
vu onna</w>
qu ality</w>
mit en</w>
me ans</w>
ky se</w>
dem ok
c ar
vo imme</w>
vast a</w>
ra ken
pros ent
le vel</w>
estab lis
toim ia</w>
t i</w>
prote c
m alla</w>
B anglades
throu gh</w>
sa id</w>
sa ad
oike ud
ma ks
k ke
indust ry</w>
hen kil
en g
emb ers</w>
B al
w ing</w>
th ough</w>
ta n</w>
st ään</w>
pr is
ol lut</w>
l opu
f ur
vä sti</w>
tu nn
ou ra
ne ed
mietinnö ssä</w>
l ed</w>
k in
fu l</w>
con f
wh e
suo jel
se t</w>
proc ess</w>
om a
ma king</w>
m et
infor mation</w>
agre ement</w>
a i
va ka
so ci
reg ard</w>
mat ter</w>
koulu tu
g ener
e seen</w>
asi assa</w>
a ivan</w>
v all
ul arly</w>
sin ce</w>
sec tor</w>
pla ce</w>
is m</w>
int ö</w>
gi ve</w>
c k</w>
asi an
a tu
a st</w>
M ed
th er
sano a</w>
resolu tion</w>
puheenjohta ja
m ed
jo issa</w>
go ing</w>
b asi
saf ety</w>
o f
mietinn ön</w>
environ mental</w>
decisi on</w>
t tiin</w>
ol ev
nte ki
me illä</w>
k ers</w>
ais en</w>
uud essa</w>
ta sa
re gu
por tun
kul j
g ent
fi c</w>
f av
esimerk iksi</w>
acc ep
om e</w>
lem en</w>
impl em
v ic
tiet enkin</w>
min un</w>
lo o
in e</w>
i vo
henkil ö
gent lemen</w>
be fore</w>
af ter</w>
til ante
ra u
op portun
ma iden</w>
kansa in
k ed</w>
h ä
ter r
st ar
sh all</w>
sel ves</w>
pos ition</w>
partic ularly</w>
our ces</w>
lu onn
la dies</w>
ksi ä</w>
comp et
C on
oike us
lopu ksi</w>
gre a
sub ject</w>
kysymy s</w>
kor ost
e very</w>
d one</w>
al alla</w>
ag ain</w>
C h
200 1</w>
täy tä
täytä ntö
ma sta</w>
he idän</w>
finan cial</w>
ex t
en s</w>
c ase</w>
y st
so tila
s s</w>
s s
ol le</w>
nä kö
nec ess
issu es</w>
vo te</w>
str u
so vel
po h
o t</w>
järjest ö
j an</w>
h ol
f und
c ed</w>
b r
an i</w>
P ro
C our
00 0</w>
tapa u
regi ons</w>
re ports</w>
po sed</w>
la kin</w>
f ar</w>
direc tive</w>
co operation</w>
alo itte
Cour t</w>
union i</w>
spe a
qu ite</w>
l ess</w>
ko kou
ke y</w>
it ett
isi vat</w>
in fra
il ma
het k
en sure</w>
d y
ch ar
tu ot
sopimu ksen</w>
miet intö</w>
m en</w>
kul tt
i re
hy vät</w>
hi gh
g er
f t</w>
en tion</w>
ed is
aik ana</w>
u p
ter ms</w>
su or
respon si
res ources</w>
progra mme</w>
ob jec
dem oc
w ish</w>
va ike
u sed</w>
toim inn
suu n
saa vu
op in
liiken ne
koske e</w>
jäsen et</w>
es ity
en ä</w>
ag ric
Tur k
0 3
ta in</w>
pu t</w>
proc ed
l and</w>
ksen i</w>
enc es</w>
te ttava</w>
r an</w>
pi en
p s</w>
ki el
ki a</w>
in de
Bal kan
A r
taloudel lis
si en</w>
perust e
ou se</w>
o od</w>
n al</w>
k no
k l
k enn
e an</w>
a ir
Y hd
th ir
ter ve
os a
nn ön</w>
koske van</w>
ki r
iti z
iti ve</w>
c all
b ac
te ille</w>
per s
l an
differ ent</w>
com mit
c a
be half</w>
Swed ish</w>
ä llä</w>
yttä ä</w>
yh ä</w>
y ksi</w>
wh ole</w>
wel come</w>
tri bu
to a</w>
suunn itel
re at
pa a</w>
omioistu im
marke t</w>
lar g
ffic ul
f ew</w>
di fficul
Med iter
ö n
vi ran
suh te
sa an</w>
pa rem
mu kais
man ag
kes ke
kaikki en</w>
jo illa</w>
is esta</w>
emplo yment</w>
direkti iv
asi asta</w>
aik aan</w>
Mediter ran
äl im
wa ys</w>
vast aan</w>
tar y</w>
p rac
la ati
kansal ais
inc re
amend ments</w>
all o
V älim
w er</w>
u ksen</w>
tarko itu
si ons</w>
puol u
o tu
j olla</w>
hy vä</w>
est ä
ap p
Mediterran ean</w>
y et</w>
wor king</w>
uu n</w>
tu kea</w>
to jen</w>
te ch
si mp
sa a</w>
pu r
neuvost o</w>
l im
käy tö
ku in
kuin ka</w>
ki ittää</w>
ki inn
inter mod
f ron
el i</w>
concern ed</w>
M ar
Al ger
yks in
whe ther</w>
väl illä</w>
uud esta</w>
ta in
s olu
o a</w>
mä n
lo in</w>
la te</w>
l ic
kust ann
itse e</w>
f am
ex pres
consid er
conc lu
con tribu
S u
M ad
ra jo
pro g
pe ac
opin ion</w>
o m</w>
necess ary</w>
mu od
j än</w>
g roup</w>
em s</w>
av ulla</w>
as k</w>
r en
os a</w>
kulj etu
kes k
ker ta
il e</w>
enta tion</w>
c itiz
Mad am</w>
In ter
si ir
prosent tia</w>
princi ple</w>
ord in
muu ta
itet ta
il y</w>
grea ter</w>
en ted</w>
em ents</w>
e ver
H ouse</w>
199 9</w>
vo ivat</w>
ur an
u ja</w>
tärke ä</w>
pä ivä
nou d
min is
men ettel
koske vat</w>
k ko
is eksi</w>
hetk ellä</w>
d en
an eet</w>
al th</w>
aino astaan</w>
U n
vi in</w>
val u
vaati mu
toiv on</w>
s ist
peci ally</w>
p resid
nteki jö
j at</w>
importan ce</w>
h in
f un
es pecially</w>
bet ter</w>
au thor
ul ture</w>
ty ä</w>
t in</w>
suh ta
p er</w>
ne xt</w>
kun ni
id e
gu ar
e l</w>
de al</w>
ain a</w>
ab ility</w>
a isia</w>
G roup</w>
väl ttä
vu os
tech n
su os
sil loin</w>
prog ress</w>
k on</w>
inst itu
fi ed</w>
fav our</w>
et tava</w>
basi s</w>
b ud
alue ella</w>
A 5</w>
ven tion</w>
tav an</w>
ri ittä
p il
ou t
ma in</w>
kil pa
en tu
a voim
väl ine
v er</w>
u ttaa</w>
sop im
pro ses
pres ent</w>
o tt
nä itä</w>
käy te
ku lu
ke e</w>
ist or
g o</w>
contin ue</w>
ac coun
th ree</w>
ryh män</w>
regi on</w>
re com
mä t</w>
ksen a</w>
ful ly</w>
ever y
ett om
en kaan</w>
valti o</w>
sel ke
pec ts</w>
jäsenvaltio t</w>
2 0</w>
var mis
valv on
tä nä
tor s</w>
si gn
pl ic
p rec
li on</w>
lainsääd ä
l ö
kann alta</w>
ka hd
jo pa</w>
ita isiin</w>
ihmis oikeu
hi gh</w>
edust aj
certa in</w>
M in
var ten</w>
valio kunnan</w>
ust u
tule e</w>
si j
responsi bility</w>
puheen vuor
per us
mit ään</w>
k el
c t</w>
ac tu
a w
M E
ti c</w>
saad a</w>
sa maa</w>
ri ippu
propos als</w>
markk ino
le t</w>
kilpa il
esitteli jä</w>
b il
appro ach</w>
am p
al i
Tur kin</w>
vo itaisiin</w>
viljelijö iden</w>
to ivo
til anne</w>
te iden</w>
sel v
o ver
la ad
kuit enkaan</w>
kau p
jo on
em min</w>
att ention</w>
an ge</w>
G o
va kuu
tan ut</w>
puheenjohta ja</w>
ous ly</w>
onn istu
nuor ten</w>
mil joon
men e
me et
lo c
ist s</w>
initiati ve</w>
b ased</w>
ava il
alu een</w>
Välim er
3 0</w>
valio kun
tänä än</w>
to te
ta ble</w>
su m
some thing</w>
ra ther</w>
on ce</w>
li ian</w>
li f
kuu ssa</w>
fin d</w>
fin ally</w>
c u
a maan</w>
G re
with out</w>
viran om
vi r
val tion</w>
uran ium</w>
ur g
ul es</w>
mi ä</w>
im prov
huom i
hel p</w>
h ed</w>
fish ing</w>
f re
d r
Välimer en</w>
yle is
w ards</w>
vel y</w>
ti m
talou s
strate gi
sit en</w>
om me</w>
käyttä ä</w>
ks issa</w>
invol ved</w>
im man</w>
guar ante
est y
environ ment</w>
ef for
du ce</w>
c all</w>
y t</w>
todel lakin</w>
res pect</w>
peac e</w>
par ti
met sä
maatal ou
lu on
kka asti</w>
ker ran</w>
it te</w>
en larg
cr it
citiz ens</w>
at taa</w>
asi aa</w>
al though</w>
aik o
Ruot sin</w>
Presid ency</w>
wor kers</w>
w ard</w>
ur ing</w>
terr or
r e</w>
p opu
mil it
l y
l en
keh ittä
järjestel mä
fur ther</w>
fer ence</w>
b er
aik a
agre e</w>
Un ited</w>
yksin kerta
yhte isen</w>
yhd y
yhd en
vo in</w>
to inen</w>
te xt</w>
speci fic</w>
sh i
manag ement</w>
le v
koh ta
ki en</w>
kaik kea</w>
is yy
ik en
enti al</w>
d ly</w>
conf lic
ch ange</w>
c l
b en
acc ord
B ur
yhte en
vä ksi</w>
uu ri
ur ity</w>
toiminn an</w>
thir d</w>
st u
sid e</w>
s ing</w>
ro ss</w>
r ole</w>
muka isesti</w>
ma tta</w>
lainsääd än
käyttö ön</w>
it self</w>
ist ra
es ittää</w>
ener gi
appro pri
M embers</w>
use in</w>
ura an
te itä</w>
si g
se qu
ro l</w>
re ally</w>
ra ha
minis ter
ma ase
m ik
le ast</w>
ky se
fi el
ed ell
di v
vi ol
va ar
sy n
si lle</w>
ra att
pro ve</w>
prior ity</w>
op etu
need s</w>
laaj entu
kö yhdy
kor ke
keskustel u</w>
jou tu
inter national</w>
he alth</w>
concer n</w>
c ultural</w>
ac ti
val itetta
ud en</w>
u al</w>
työ llis
to ge
toge ther</w>
re ly</w>
o tetaan</w>
neuvo tte
min d</w>
merk ittä
lo w</w>
inde ed</w>
for ward</w>
että vä</w>
ette i</w>
en sa</w>
ed elleen</w>
co sts</w>
avail able</w>
Br it
to ja</w>
s m
ra kenn
parti ci
or gi
of ten</w>
li ght</w>
j ien</w>
it age</w>
h istor
follo wing</w>
erity is
el ec
de ple
d uring</w>
ase s</w>
alue iden</w>
Y K
D e
B ar
yh tä</w>
uu teen</w>
union issa</w>
ul le</w>
recom mend
re al</w>
pyy d
ni istä</w>
me ille</w>
ma ttom
kultt uuri
kan na
ka t
il o
il i
gener al</w>
ffic e</w>
c or
c c
R i
Banglades h</w>
työ s
tek n
suu re
sh or
se e
päätö ksen
olo g
mu iden</w>
mi in</w>
men tion
mahdollis imman</w>
loo k</w>
lainsäädä nnön</w>
k ri
itor s</w>
g ro
e qu
d er</w>
certa in
at or
an other</w>
P e
tu om
toimi in</w>
til in
tett u</w>
sä il
su cc
seura av
ser ious</w>
respon sible</w>
pu n
pre z</w>
politiik kaa</w>
ole massa</w>
ol em
muu to
k re
k es</w>
jo hd
ig n</w>
hu man
e orgi
di d</w>
deple ted</w>
author ities</w>
an sa</w>
am b
al a
a ffec
S ch
G eorgi
De prez</w>
yhteis ö
wh ile</w>
sää nnö
sit ou
provid e</w>
pa ino
min istra
jä ä</w>
jec ts</w>
il ta</w>
g g
cond itions</w>
comp le
com mun
ben ef
V en
N or
val mis
u jen</w>
suun ta
stan d
sis ä
sc ho
parlament issa</w>
n ing</w>
milit ary</w>
le ad
la w</w>
kolleg at</w>
kir jo
kans allis
k estä
k an</w>
hel p
govern ment</w>
fron ti
f le
enlarg ement</w>
end a</w>
e w
direkti i
co ordin
cle arly</w>
ar ti
alis ation</w>
al an</w>
a te
Go vern
var ious</w>
todel lis
tarv itaan</w>
ser va
rac y</w>
pit kä
par anta
opportun ity</w>
omioistuim en</w>
mention ed</w>
maatal ous
ma jo
lin e</w>
leg al</w>
la s
kansain välis
kaikki a</w>
j ust
inclu ding</w>
i l</w>
ett e</w>
er il
bec ome</w>
as ses
ad ministra
ön pan
us kon</w>
ura l</w>
täytäntö önpan
tä ällä</w>
to wards</w>
tilin tarkast
th em
tapau ksessa</w>
so v
regi onal</w>
poin ts</w>
määr ä</w>
myö n
lo b
kans all
hu on
han kke
enc oura
ellis en</w>
consid er</w>
com es</w>
be g
bac k</w>
asi an</w>
alue illa</w>
adop ted</w>
Sta te</w>
Govern ment</w>
E n
1 5</w>
välttä mä
va ssa</w>
th s</w>
sm all</w>
s p
rati c</w>
par t
ol tava</w>
min ä</w>
majo r</w>
maail man
kertom u
inti ö
infra struc
incre ase</w>
i ons</w>
huomi ota</w>
ell ään</w>
e iv
certain ly</w>
aw are</w>
asi a
agric ultural</w>
accoun t</w>
a pu
Ven ä
Kore an</w>
1 7
vä hen
up on</w>
tim es</w>
tas olla</w>
st and</w>
soci ety</w>
shi p</w>
rec o
raho it
ra jat
om an</w>
ne iden</w>
ma issa</w>
l ann
kse mme</w>
ko kon
ka ksi</w>
jo ista</w>
intere st</w>
ha ving</w>
fronti er</w>
f lik
ext rem
en s
b us
b al
achi ev
Par ty</w>
B 5</w>
ttä vä</w>
star t</w>
sa malla</w>
rec eiv
merk ity
liik ku
kuu l
kon kre
kau tta</w>
jul k
ite taan</w>
her itage</w>
gra tu
g ran
extrem ely</w>
exc ell
ellis esti</w>
curr ent</w>
b our
ase tu
an al
Turk ish</w>
S ol
Min is
K i
B el
vi im
var ma
va ad
v ement</w>
tarv itse
sta te
se cond
pos itive</w>
organis ations</w>
ol i
lainsäädän tö
koske va</w>
ki intiö
it tava</w>
implem entation</w>
id e</w>
go ti
fun ds</w>
et ta
es ses</w>
e ach</w>
d ist
con sequ
au ttaa</w>
ap pe
Ri ghts</w>
EU R</w>
työllis yy
toimin ta
ta b
se con
san i</w>
prom ot
politiik ka</w>
peria atte
om aan</w>
mu istu
mil lion</w>
meet ing</w>
me itä</w>
mahdollis uu
m yy
m b
k im
jä t</w>
itte lu
il mo
con gratu
aj an</w>
a tes</w>
a kti
T O</w>
N o</w>
A ud
yhteis kunn
vi is
valitetta vasti</w>
uud et</w>
todel la</w>
tilintarkast ustu
ta king</w>
si ve</w>
s pan
repres enta
regu la
reat y</w>
rajat yö
puheenjohtaja valtio</w>
on ko</w>
ol s</w>
ne goti
mon et</w>
l es</w>
ko jen</w>
ke ino
is t</w>
int ro
ffici ent</w>
es it
er in
concern s</w>
appropri ate</w>
actu ally</w>
P oh
vah v
uud elleen</w>
tun ut</w>
tiet y
th ings</w>
secon d</w>
se ar
ro ad
puol ust
käsit el
konkre ett
jo sta</w>
is ation</w>
h in</w>
g ed</w>
ff air
ffair s</w>
e ur
difficul t</w>
ch il
au tu
allo w</w>
al ways</w>
Tur key</w>
y stä</w>
vois i</w>
un for
u u</w>
ttä ä</w>
them selves</w>
tav alla</w>
tarkast el
syy stä</w>
s ci
p yst
os in</w>
onn ettom
o im
lif e</w>
kse stä</w>
is essa</w>
h er</w>
gu e</w>
excell ent</w>
cr is
asio iden</w>
Yhd isty
G en
yhteistyö tä</w>
we ap
val ta
tur va
tt un
tt e</w>
st ems</w>
st ate</w>
sa mo
s or
reas on</w>
ra s
per hap
perhap s</w>
pel kä
part n
pal vel
oll ista</w>
ohjel man</w>
intere sts</w>
int en
in ing</w>
i z
enn e</w>
en ough</w>
e ar
do wn</w>
demok rati
d ri
cr imin
cont rol</w>
comm ittee</w>
ch em
c el
bus in
ap plic
acti v
E l</w>
1 0</w>
ä sti</w>
wor ds</w>
vo ted</w>
tar jo
resul t</w>
progra mm
pit e</w>
n or
m er</w>
la ck</w>
käy nn
isi on</w>
indust ri
in stru
hall inn
h on
g lob
ful l</w>
for ce</w>
fiel d</w>
fe el</w>
f y</w>
en ää</w>
e valu
contin u
con struc
an sa
achi eve</w>
I r
Aud itors</w>
vä est
u kset</w>
to d
sy stems</w>
sear ch</w>
s l
s all
reg ar
par ties</w>
os ni
ongel mia</w>
mu o
mietinnö stä</w>
loc al</w>
laaj u
jä ä
jat ku
il tä</w>
halu amme</w>
h im
crit ic
an si
am ista</w>
M or
M a
varma sti</w>
tt y
toteu tta
tehtä vä</w>
suos itu
ri a</w>
resul ts</w>
par ha
nä istä</w>
nim ittäin</w>
mon e
mietintö ä</w>
lop ul
kuulu u</w>
kl o</w>
institu tions</w>
im prove</w>
h and</w>
fra me
f ree</w>
et tiin</w>
el im
e iden</w>
discus sion</w>
cr u
call ed</w>
Swed en</w>
5 0</w>
vä ä
tois eksi</w>
st ain
sol id
r ules</w>
protec tion</w>
programm es</w>
parem min</w>
od s</w>
oc c
neuvotte lu
kon flik
ki it
k r
is taa</w>
is enä</w>
i j
h an</w>
g r
fic ation</w>
f a
ex peri
ensimmä inen</w>
emp ha
conflic t</w>
ch ang
as sist
aik aa</w>
ad v
T reaty</w>
I tal
Euroop assa</w>
B osni
Ar vois
yhd essä</w>
w le
viis u
viim e
vast ust
u su
u res</w>
tutk imu
tunn ust
tu na
tuna tely</w>
trans par
sel västi</w>
sec urity</w>
ou ght</w>
na tural</w>
mp pan
mis estä</w>
liitty y</w>
lar ge</w>
l inen</w>
korost aa</w>
kol man
ko ja</w>
keskustel un</w>
joh on</w>
div id
d on
cel on
c olle
ar v
C ar
Arvois a</w>
weap ons</w>
tie te
ter nal</w>
te tu
s ha
ri en</w>
reco gn
pos e</w>
popu lation</w>
parlamen til
noud atta
ni ihin</w>
n el
m om
luonn on
li es</w>
ite tään</w>
it al</w>
is e
hyö dy
fre ed
erity isen</w>
ent ing</w>
demok raatt
d ue</w>
com pan
Bar celon
ymmär r
yks ity
wle d
vic es</w>
valtio iden</w>
us ko
tulevais uudessa</w>
tt ing</w>
th el
st ly</w>
second ly</w>
päätöksen te
pä iv
pelkä stään</w>
pa red</w>
oll en</w>
ol d</w>
no in</w>
ne en</w>
muu n</w>
mu ita</w>
mp i</w>
mis essa</w>
ma a
lis ää
liitty vät</w>
kä r
komissi ota</w>
kno wled
itt u</w>
ima tta</w>
har jo
govern ments</w>
g en
farm ing</w>
f ood</w>
esi lle</w>
el le
effec t</w>
democ racy</w>
d oc
c lo
ar ity</w>
al le
acc ess</w>
N A
K ar
vast au
us ing</w>
tra de</w>
ser vices</w>
s pec
pa s
os ov
ongel ma</w>
om ais
o ta
o ja</w>
n et
mone y</w>
maase ud
lu ku
kan san
initiati ves</w>
id a</w>
i gn
fund a
frame work</w>
de fin
c ases</w>
b est</w>
as pects</w>
acc id
a kseen</w>
a k
K osov
D ec
1 2</w>
y ksen</w>
vi l</w>
varo ja</w>
tra d
to si
te le
suur i</w>
perust a
pen d
oso itta
op en</w>
o s</w>
m iksi</w>
käsitte le
ku mppan
järjestel mä</w>
it tu
inte gra
en sä</w>
e te
decisi ons</w>
concern ing</w>
au tta
a kin</w>
S tra
E C
A g
4 0</w>
y p
unfor tunately</w>
ul ko
tu u</w>
til an
syy tä</w>
su stain
si s</w>
s bour
rec ent</w>
ran g
puu ttu
puu tte
our selves</w>
ou b
oikeud en
o ista</w>
o ff
l itt
litt le</w>
l ista</w>
ita kin</w>
it ään</w>
it si</w>
hyväks yä</w>
h ing</w>
e tään</w>
curr ently</w>
c ap
asio ita</w>
al e</w>
Stra sbour
S o
S al
R ans
NA TO</w>
N a
uud istu
un ti
unti l</w>
tä vät</w>
tutk im
tt u</w>
tr u
th ers</w>
te ri
ta x</w>
stan ding</w>
speci al</w>
sin nä
ris ti
ri ed</w>
proced ure</w>
pro posed</w>
pro jects</w>
presid ency</w>
pre v
polit ic
pa st</w>
ong er</w>
mis sä</w>
min ulle</w>
kuulu v
kokon ais
ki ito
k ar
huol imatta</w>
hap pen
g rou
ett u</w>
esi in</w>
ell inen</w>
ehdo kas
e taan</w>
direc tives</w>
di alo
contribu tion</w>
br ing</w>
alue ita</w>
Poh jo
yrity sten</w>
vaih e
va d
ud u
u ky
tois in</w>
teh nyt</w>
ta sa</w>
ta il
su ku
sel vää</w>
r ural</w>
prac tic
poh j
pl es</w>
pa tion</w>
oike in</w>
muod ost
mo vement</w>
mat ters</w>
m ann
l yh
l ing</w>
käytä nnö
ky llä</w>
koh te
kin d</w>
ki inno
jou lu
jo ihin</w>
id ence</w>
he sion</w>
fir stly</w>
f ail
en ing</w>
e p</w>
e e</w>
de al
congratu late</w>
ati ve</w>
ann etta</w>
an y
aal ta</w>
Sal vad
EU :
A ffairs</w>
vuo tta</w>
tä män
sinnä kin</w>
re form</w>
pyyd än</w>
pu itte
per he
olev an</w>
muu t</w>
med i
läh esty
käsitte l
kunni o
kor va
kansal aisten</w>
jäsenvaltio issa</w>
j un
itta in</w>
ik ke
ihmis iä</w>
ic ation</w>
h il
grou ps</w>
g es</w>
est en</w>
ess ential</w>
en sinnäkin</w>
en i</w>
effor ts</w>
effec tive</w>
dialo gue</w>
can d
at h</w>
amend ment</w>
P or
O ffice</w>
Alger ian</w>
y jä</w>
väl in
valiokun ta</w>
työs ken
tu ke
tois aalta</w>
te ki
sup por
st ö
si ellä</w>
raho itu
p ik
objec tive</w>
o thers</w>
o iden</w>
ntekijö iden</w>
nope asti</w>
myö nn
mom ent</w>
käytö n</w>
knowled ge</w>
järjestel män</w>
in ut</w>
im mä
ih m
hall it
ener gy</w>
en pit
em oc
eh kä</w>
b ur
ati onal</w>
am mu
am an
aik ais
aih e</w>
Gen ev
A mer
ä t</w>
vi ik
valio kunn
ty nyt</w>
turvallis uus
tt ua</w>
ter m</w>
teho kka
spea k</w>
requ ire
pro f
od a</w>
nn e</w>
mo tion</w>
m embers</w>
l la</w>
kolleg a</w>
keskustel ua</w>
kehity s
keh itty
kal a
it ella</w>
istu n
iste lu
infrastruc ture</w>
in divid
huol est
hel d</w>
fund ing</w>
f el
establis h</w>
edis tää</w>
dr en</w>
doc u
des pite</w>
de f
ch l
c ha
b an</w>
at on</w>
assist ance</w>
anal y
all ista</w>
ag enda</w>
YK :n</w>
R us
Por tu
N G
L I
yhden mukais
yh ten
vaih to
ul k
työ tä</w>
tu u
tt y</w>
requ i
rela tions</w>
ra ised</w>
promot e</w>
produc tion</w>
prior ities</w>
pid ä</w>
p k</w>
oike astaan</w>
objec tives</w>
o l</w>
mä llä</w>
le vel
ksi lle</w>
is ing</w>
invest o
ing ly</w>
in t</w>
ik an</w>
har mon
hap p
di a</w>
cris is</w>
com ing</w>
co hesion</w>
ci vil</w>
chil dren</w>
c ing</w>
a vo
Kore a</w>
H u
E span
yl i</w>
yksity is
yksi miel
yhteen kuuluv
y sy
y ed</w>
vä hän</w>
vuor opu
vuoropu hel
vu n</w>
van kil
u g
toim ien</w>
tila is
te ttiin</w>
ta x
st age</w>
s ing
requ est</w>
re ac
produc ts</w>
proced ures</w>
po w
partici pation</w>
pa an</w>
ord ino
min kä</w>
miljoon aa</w>
mi ght</w>
ma assa</w>
m i</w>
m ed</w>
käy d
kohd alla</w>
koh taan</w>
ko ordino
ki ä</w>
jäl leen</w>
intermod aal
in tia</w>
freed om</w>
fam ily</w>
evalu ation</w>
ett y</w>
asses s
an ne
am inen</w>
aihe utta
a ja</w>
Pohjo is</w>
Ir lann
I s
G al
D emoc
199 8</w>
19 8
väl inen</w>
tur n</w>
tu res</w>
tu kem
til annetta</w>
ti vely</w>
ti ce</w>
tarvitse mme</w>
ta tion</w>
ta kia</w>
t u</w>
st ud
regar ding</w>
receiv ed</w>
osa puol
on kin</w>
nä ky
nä hd
n on</w>
min usta</w>
me th
maail man</w>
ma s
len to
l onger</w>
köyhdy tett
käsitel tä
kuu ta</w>
jo ka
is chl
im pa
il man</w>
ihmisoikeu ksien</w>
ide a</w>
f oc
er ä
ehdotu ksia</w>
edis tä
commit ment</w>
amp ;</w>
adop t</w>
U N</w>
Ruot si</w>
Nor th</w>
F ischl
Euroop pa</w>
Dec ember</w>
. 30</w>
& amp;</w>
väl it
vi e
ver s
uu sia</w>
uu si
uc le
ucle ar</w>
tu s</w>
ti eli
throu gh
through out</w>
thel ess</w>
t ti
sub si
strate gy</w>
s chem
rau han
raken ta
qu ota
quota s</w>
pl an
ou th</w>
oso ittaa</w>
onnettom uu
oike ust
n it
m ist
kehity ksen</w>
ke ho
kaik en</w>
it en</w>
is ista</w>
in kin</w>
ihm isten</w>
har k
hallitu s</w>
g ing</w>
follo w</w>
esity sl
er n</w>
em an</w>
ei ther</w>
ed isty
cre d
c ause</w>
av a</w>
al ais
al a</w>
aj atu
agre ed</w>
accid ents</w>
accep table</w>
P al
Mar ok
M on
F un
Balkan s</w>
& #
&# 9
yh dis
yd in
vä hem
ven ess</w>
vaik uttaa</w>
under stand</w>
tä nä</w>
ty yp
tab led</w>
t on</w>
simp ly</w>
sign ed</w>
sh are</w>
sella isen</w>
sel väksi</w>
s se
ryh mä
road s</w>
re pe
re lation</w>
re fu
polic ies</w>
pain op
pa kol
organis ation</w>
opportun ities</w>
nä kem
na ture</w>
n sä</w>
n am
mielest ämme</w>
li ed</w>
level s</w>
ku olem
koske vaa</w>
kohd istu
ko on</w>
ke in</w>
joh taa</w>
it tanut</w>
it ar
in ta</w>
im p
hu ippu
ha b
guarante e</w>
ex ist
es saan</w>
er r
ent istä</w>
ehdo ttom
effec ts</w>
dra w</w>
do ing</w>
c en
b i
alue ellis
ac tive</w>
a ista</w>
Sol ana</w>
L i
Kar aman
Hu man</w>
w an
vic ti
var sin
val vo
v ista</w>
täytäntö ön</w>
tun te
toim et</w>
techn ical</w>
te tään</w>
ta c
ta as</w>
str ic
st oc
se ik
sa kin</w>
r o</w>
pl an</w>
os la
os alta</w>
om s</w>
n ess</w>
mon ia</w>
mi esten</w>
me an</w>
mahd ollista</w>
lyh y
la p
käsit ellään</w>
kär si
kuu n</w>
koske via</w>
ki ire
itor ing</w>
inter nal</w>
i gh
hi eman</w>
es itett
epä il
ehdotu ksen</w>
c au
at s</w>
akti iv
ag o</w>
P er
P P
Minis ter</w>
G u
ä s
yl lä
wor ks</w>
vi ous</w>
vapa u
vaihto eh
ug osla
tt anut</w>
transpar ency</w>
tra ining</w>
tied on
te idän</w>
tavo in</w>
tav ar
tan eet</w>
samo in</w>
sa anut</w>
regu lation</w>
reas ons</w>
ra uh
prac tice</w>
p .
oura ble</w>
or ity</w>
olo gi
ol ette</w>
o ve</w>
o issa</w>
no thing</w>
nit ra
mu assa</w>
mahdollis uus</w>
ma teri
ma kes</w>
lähesty mis
legis la
l ou
l en</w>
käsit ellä</w>
kysymy ksen</w>
keskustel u
k ään
k ää
j os
it ing</w>
is ely</w>
inc reas
in ed</w>
impl ement</w>
ho it
he ik
for ms</w>
ex ternal</w>
every one</w>
esitysl ist
ens isi
el ta</w>
con text</w>
com b
char ge</w>
car ried</w>
asi aan</w>
apu a</w>
ac tions</w>
ab ove</w>
Venä jän</w>
Portu g
O omen</w>
N ice</w>
yr ittä
x 0
x0 17
x017 E</w>
w ar</w>
vis a</w>
vall an</w>
v yy
uu si</w>
teollis uuden</w>
sää ntö
suhta utu
si vi
sh e</w>
seura a
sano i</w>
ren ch</w>
pä in</w>
po wer</w>
otta maan</w>
on ta</w>
ollo in</w>
olle et</w>
od o
nyky ään</w>
mon itoring</w>
merk itsee</w>
mene tel
markk in
kö yh
iz z
itt i</w>
iti onal</w>
is essä</w>
intro duc
impa ct</w>
ihmis oikeus
hyödy n
hyvä ksi</w>
hallitu ksen</w>
et enkin</w>
esi in
ent ral</w>
encoura ge</w>
de ath</w>
consequ ences</w>
colle ag
b s</w>
app ly</w>
alle kirjo
all inen</w>
aik a</w>
add ition</w>
accep t</w>
ab ly</w>
a ati
Yhd ys
S LI
PP E</w>
N izz
F rench</w>
yksi ä</w>
yhte inen</w>
y jen</w>
w ood</w>
v issä</w>
uraan ia</w>
tärke itä</w>
ther n</w>
te st</w>
t re
su gg
stru k
ste ad</w>
stan ces</w>
sta tes</w>
sci enti
sa i
re search</w>
re fer
prec isely</w>
parlamentil le</w>
of f</w>
n aiset</w>
mä sti</w>
mon ths</w>
min ulla</w>
m men
m .</w>
lu o
la usu
ku t
kos sa</w>
koh ta</w>
kan a</w>
jo int</w>
isi ons</w>
is imme</w>
is estä</w>
is em
instru ments</w>
in stead</w>
in an</w>
ilo inen</w>
hall in
h re
ed es</w>
direktiiv in</w>
de red</w>
de qu
atte mp
ast e
assess ment</w>
ar ri
al ku
ac ross</w>
a dequ
SLI M</w>
Ru ij
Inter national</w>
Brit ish</w>
Bosni a</w>
199 7</w>
yks ittä
yhten ä
we e
vää r
vois imme</w>
void a</w>
valvon ta
vaihe essa</w>
työ järjest
turvallis uuden</w>
tu en</w>
toim enpit
to tal</w>
tilante esta</w>
tilan teen</w>
tapahtu u</w>
ta so
ta pa</w>
st ing</w>
sing le</w>
ris k</w>
re main
re lev
quest ions</w>
pää ttä
puitte issa</w>
pris on
perust u
per inn
par lia
p ä</w>
p onn
os ast
od y</w>
negoti ations</w>
need ed</w>
n tä</w>
muka ista</w>
minister i</w>
mi eh
mat kust
maailman laaju
m el
lö y
lop pu
köyhdytett yä</w>
kun ing
komissi olle</w>
kol le
ko kem
kehity stä</w>
kat so
jat kaa</w>
j ar
infra struk
hab it
en ter
en kään</w>
elin tarv
discus s</w>
construc tion</w>
con tr
compet ition</w>
car ry</w>
c la
asi at</w>
ann ut</w>
aj an
a tely</w>
a inen</w>
P ol
Mor occ
A mend
200 2</w>
1 4
äl i</w>
y li
vast aa</w>
uu ten
to dis
str y</w>
ste p</w>
state ment</w>
speci fic
se ver
require ments</w>
ran ce</w>
pyr kim
pu h
pres ented</w>
painop iste
o p</w>
o k</w>
ni fic
n i</w>
mä ttö
mu r
mo ve</w>
mik äli</w>
maatalou den</w>
lu om
koulutu ksen</w>
kann ust
jo itakin</w>
is tä
ihmis oikeust
i maan</w>
halu avat</w>
h a</w>
ge tary</w>
funda mental</w>
for ces</w>
f f</w>
er ship</w>
en na
ec han
democ ratic</w>
dem an
da ys</w>
cru cial</w>
ci r
ch all
b order</w>
b ody</w>
as soci
am oun
am bo
ais ille</w>
ain akin</w>
V are
Marok on</w>
H er
C ambo
Bel gi
yh tä
w th</w>
välttämä tö
vä ki
victi ms</w>
urg ent</w>
työ paik
toteu ttaa</w>
tarkistu ksia</w>
st on</w>
sopim us</w>
sa attaa</w>
sa atta
ro w</w>
re land</w>
re a
rahoit us
r un
pur su
puolu e
pla y</w>
pi ir
pa ko
p ysy
olog ical</w>
o tettava</w>
nope an</w>
no on</w>
n ro</w>
myönte isesti</w>
miel i
men tion</w>
ma j
ks istä</w>
ko ti
kiit än</w>
kes ki
kal ta
järjestelmä ä</w>
j e
issa mme</w>
ir e</w>
inn in</w>
im medi
fore stry</w>
expres sed</w>
et a</w>
er a
con sul
commun ication</w>
c ost</w>
bu il
benef it</w>
arvois at</w>
arti kl
ar ound</w>
alo itta
all isia</w>
alis ed</w>
al ist
aiko o</w>
agric ulture</w>
administra tive</w>
ab solu
a an
S E</w>
Pro c
I reland</w>
ä kin</w>
yhteis kun
yhte en</w>
vaikutu ksia</w>
va al
use ita</w>
u no
tilintarkastustu omioistuimen</w>
tied ämme</w>
th y</w>
te ty
te tta
te kee</w>
te ita</w>
st er
specific ally</w>
so on</w>
so d
si in</w>
sen se</w>
scienti fic</w>
scho ols</w>
saavu tta
sa man
ryh mä</w>
respon se</w>
re p
re duc
rap id</w>
pyst y
pyr itään</w>
prison ers</w>
prev ent</w>
pa y</w>
pa re
pa itsi</w>
o jen</w>
o is
nati on
maj ority</w>
mahdollisuu ksia</w>
m it</w>
liiken teen</w>
legisla tive</w>
la b
kse ssä</w>
kolle go
kilpail uky
ka sta</w>
jou kko
io d</w>
fur ther
f lo
experi ence</w>
exist ing</w>
euro a</w>
equ al</w>
dra ft</w>
devel op</w>
con nec
artikl an</w>
an to
all isten</w>
agre ements</w>
achiev ed</w>
accord ing</w>
S ep
Morocc o</w>
F R</w>
Con vention</w>
A f
w ed</w>
välit tö
vä ssä</w>
val ta</w>
un n
u t
u ksista</w>
tor y</w>
tiety sti</w>
t ro
sustain able</w>
si mil
s ään</w>
ren ew
relev ant</w>
pi an</w>
per ä
per iod</w>
par ty</w>
ost u
ol ivat</w>
oike us</w>
o on</w>
ne ver</w>
n ut</w>
mon imu
miel essä</w>
maaseud un</w>
lis t</w>
liikku v
li ber
le ad</w>
la gh
kut su
kuning as
kol me</w>
kirj an</w>
j aa</w>
ind ic
ik ä
i el
g ation</w>
expres s</w>
edell yty
ec h
di pl
d oub
c are
bal ance</w>
b el
as ked</w>
adv anta
activ ities</w>
a ar
a a
P o
Gal lagh
G er
C 5</w>
B us
1 2
0 9
yy n</w>
y ttä</w>
vä t
vis taa</w>
vel v
val tu
tärke ä
ty vät</w>
tieli iken
te ke
tarko ittaa</w>
tan a</w>
talous arvi
tal k</w>
tain ed</w>
ta kin</w>
t ally</w>
suur in</w>
st el
some times</w>
sit es</w>
si z
sella isia</w>
representa tives</w>
rec ei
päätöslausel ma
pää tty
provid ed</w>
prov isions</w>
pris ons</w>
politiik kaan</w>
pend ent</w>
pa ho
p lo
ongel mat</w>
olo gy</w>
ole vien</w>
min ua</w>
käytännö ssä</w>
kiinn ittää</w>
ke ep</w>
kaik illa</w>
järjestö jen</w>
jä rke
jo bs</w>
ite m</w>
is taan</w>
intermod al</w>
inno va
individ ual</w>
inclu ded</w>
i ans</w>
h inno
fore st</w>
ex per
et s</w>
ener al</w>
em er
direc tly</w>
d er
critic ism</w>
coordin ation</w>
cir cu
am mat
G eneral</w>
Fischl er</w>
Ch ina</w>
Ar tic
yhte istä</w>
voima kkaasti</w>
vo it
ver otu
vah vistaa</w>
v istä</w>
tu ho
terve yd
tarkoitu ksena</w>
t in
säil yttä
suu ria</w>
str eng
sig nific
si ja
sano en</w>
s ho
recommend ations</w>
puhu a</w>
protec t</w>
pro ject</w>
pre pared</w>
pr im
po or</w>
po ista
pla ced</w>
p idän</w>
oll inen</w>
ol in</w>
ob li
nim en
muistu ttaa</w>
ma tic</w>
kysymy stä</w>
ky mmen
kor kea</w>
k ko</w>
jo ten</w>
jo b</w>
j ud
is o
in f
il lis
i .
i. e
i.e .</w>
hol d</w>
gro wth</w>
further more</w>
establis hed</w>
dis crimin
dec id
da ma
cre ate</w>
compan ies</w>
com munity</w>
clo sed</w>
chang es</w>
cand id
ca pa
bud get</w>
ast e</w>
ans wer</w>
an ni
all isesti</w>
al koh
T h
S ec
Re public</w>
O L
OL A
Georgi a</w>
D i
C O
Balkan in</w>
Alger ia</w>
199 6</w>
yttä vä</w>
vä nä</w>
viranom aisten</w>
velv ollis
vastuu ssa</w>
varmis ta
vah in
täy den
ttun a</w>
tied än</w>
t ou
t on
su fficient</w>
st itu
sovel ta
sisäl tä
shor t</w>
seuraav ana</w>
s al
rik o
regula tions</w>
reg ime</w>
refu ge
recei ve</w>
re ach</w>
qu ic
puolu een</w>
princi ples</w>
p i</w>
ni ille</w>
myönte isenä</w>
men n
la ista</w>
kä y</w>
kuolem an
ksen sa</w>
kalastus politiikan</w>
ka h
k id
jäsen valti
johd on
ja ka
hin d</w>
hi m</w>
ext ent</w>
er ve</w>
empha sis
don esi
dem and</w>
c tion</w>
c lar
be hind</w>
as su
ar gu
amb od</w>
alu e</w>
aj a
S a
Pro d
K ambod</w>
In donesi
I ra
6 0</w>
yst ä
y kset</w>
y an
väl istä</w>
valiokunn assa</w>
v ed
ty yty
ty pe</w>
tulo ksia</w>
ttö myy
tic s</w>
terr itor
tarko it
suor aan</w>
st ay</w>
st ability</w>
sosiaal i
sitou mu
sisäl l
sa mme</w>
res pec
re over</w>
ra di
pos si
peruste ella</w>
osallistu a</w>
oper ations</w>
on stra
ole h
nu mer
ne t</w>
na isia</w>
myö s
my self</w>
muu tta
mo reover</w>
med ium</w>
mann er</w>
ma s</w>
m echan
läh tö
le ft</w>
käyte ttä
ks elle</w>
ko a</w>
kes ku
kas va
inn ing</w>
ine a</w>
ik ö</w>
ihmis et</w>
id enkin</w>
i vät</w>
ho id
h or
h ill</w>
f io
est in
esityslist alla</w>
erin omais
e y
docu ment</w>
dem onstra
busin esses</w>
b ri
au c
ann a</w>
am ong</w>
al most</w>
adequ ate</w>
N ations</w>
Gu inea</w>
Espan jan</w>
Bus hill</w>
ys sel
ympärist ön</w>
vi ously</w>
varo jen</w>
uusi utu
täm istä</w>
to ok</w>
tett y</w>
tel l</w>
tasa paino
tas k</w>
tarpe en</w>
sta ff</w>
st ress</w>
ses sion</w>
sa ying</w>
s pen
risti ri
recommend ation</w>
rec ently</w>
re ality</w>
re action</w>
pää stä</w>
puu n</w>
pro por
pow ers</w>
poliitt isen</w>
per intö
pen sa
p. m.</w>
p ot
on e
omioistu in</w>
ni in
myös kään</w>
maa han
ma te</w>
m ember</w>
luonn ollis
loo king</w>
la isia</w>
kau pun
kaik kein</w>
kaik issa</w>
industri es</w>
inclu de</w>
in o</w>
ic ally</w>
i assa</w>
human itar
hu oleh
he ar
for mer</w>
f our</w>
every thing</w>
ell ista</w>
discus sed</w>
del e
d ers</w>
d ate</w>
b y
asio ista</w>
ase massa</w>
al ter
W or
S ME
SME s</w>
Pe ople</w>
N aton</w>
M c
L u
Bur ma</w>
Brit anni
A m
äänest ä
w id
vi hre
val mi
uno h
ulk opu
ulkopu ol
tr ue</w>
t tav
t os
sy rj
sur ing</w>
suhta udu
sever al</w>
selke ästi</w>
se ems</w>
sa aneet</w>
s how
ryh ty
res ol
ra te</w>
pää osast
prov ed</w>
proses sin</w>
pro per
pl ann
perust el
onn itella</w>
on ne
ole maan</w>
ol itiik
nä h
nam ely</w>
män i</w>
mu l
merkity s</w>
markkino iden</w>
lä he
li ves</w>
lan ds</w>
kultt uur
koske vassa</w>
kos kaan</w>
kokou ksessa</w>
ka s</w>
k ö</w>
k ly</w>
jäsen ten</w>
joh to
j ia</w>
itu ksia</w>
itett u</w>
is tel
invest ment</w>
invest ig
in vo
ik in</w>
id enti
humanitar ian</w>
eurooppal ais
esitteli jää</w>
es sion</w>
en ettel
emp i</w>
elä k
ehdotu sta</w>
ehdotu s</w>
eh kä
discus sing</w>
direc t</w>
de tail
d es</w>
com ments</w>
circu m
c ri
bil ities</w>
bec om
b lo
at the
ap er</w>
am min</w>
Vare la</w>
Rus sia</w>
M atthe
Genev a</w>
F in
E T
C F
B issa
Amer ic
w ill
va t
täm inen</w>
ty p
tote utu
toiv omme</w>
than ks</w>
terror is
teh neet</w>
ta ka
suku puol
ss ään</w>
sivi il
sit ting</w>
schem e</w>
s how</w>
re view</w>
pä ä</w>
pyy tää</w>
pre par
practic al</w>
poliitt ista</w>
poliitt inen</w>
pohj alta</w>
or s</w>
or ig
o in</w>
nu ore
nou da
ne ita</w>
määr itel
mä ä</w>
mä ssä</w>
mm it</w>
mi gra
menettel y
main ita</w>
lisä tä</w>
li gh
li ance</w>
kertom uksen</w>
kaik ille</w>
ka uden</w>
just i
jatku vasti</w>
ita ar
imu m</w>
ik unn
huom atta
ho l</w>
fin al</w>
fi ght</w>
fac e</w>
fa ir</w>
f ish</w>
f er</w>
et ti
es itet
er ail
el s</w>
effor t</w>
edust aja</w>
econom y</w>
e itä</w>
conclu sions</w>
con fir
commit ted</w>
cl ose</w>
cl os
circum stances</w>
c ol
c are</w>
beg inning</w>
att u</w>
ar m</w>
an u
an no
ac t</w>
Sch eng
Par ish</w>
P os
D E</w>
C ha
B SE</w>
2 0
ä tte</w>
yhd en</w>
wh om</w>
wa ter</w>
väest ö
vasta a
varmis taa</w>
uud ista
un ut</w>
u es</w>
täy del
tun ti
tt o
tra ff
traff ic</w>
ti iv
th us</w>
tety n</w>
ter min
tekem ään</w>
tehd ään</w>
solid arity</w>
si jo
si an</w>
ser ve</w>
ser i
sel s</w>
sec tors</w>
scho ol</w>
ryh tyä</w>
re stric
päätöslauselma esity
pro duce</w>
poin ted</w>
par ann
opetu ksen</w>
op p
on in</w>
ol ta</w>
ol es
nuor ille</w>
no te</w>
ni issä</w>
n tel
n or</w>
mit ted</w>
mis sa</w>
mi hin</w>
läh es</w>
la atu
la at
käyd ä</w>
käs ity
kun tien</w>
ku r
koske vasta</w>
kon fer
ki in
ke t
kalast uksen</w>
jäsen en</w>
jä nä</w>
j olloin</w>
il ies</w>
ik o</w>
ic y</w>
i eh
i al</w>
human itaar
hinno ittelu
halu a</w>
foc us</w>
fel low</w>
fam ilies</w>
exc lu
esitteli jän</w>
ensisi j
en päin</w>
effec tively</w>
ec h</w>
ear li
e quality</w>
dis charge</w>
cr iter
con sum
ci es</w>
c ross</w>
c e
ase iden</w>
anu ary</w>
an z
al co
add res
Sep pä
Rans kan</w>
Pol icy</w>
J anuary</w>
4 5</w>
väline itä</w>
vähem män</w>
vä li
vä hä
vuos ina</w>
voima kka
vo isivat</w>
ver theless</w>
val ue</w>
vaik utta
vahv ista
tom or
tomor row</w>
tie tää</w>
tek st
tek ni
tarv itta
tarkoitu s</w>
suun taan</w>
sugg est
succ ess</w>
stoc ks</w>
sis t</w>
sai ra
ri bu
re quest
re main</w>
re gre
re duce</w>
pää st
pyy tä
puheenjohta j
perus raken
pa id</w>
our s</w>
otta en</w>
oles kel
off er</w>
nä ihin</w>
ni illä</w>
ne vertheless</w>
ne g
n ed</w>
muu ttu
menn essä</w>
main it
luon to
lis ään
li it
lainsäädäntö ä</w>
kuljetu s
kas v
istu nn
in eet</w>
implem ented</w>
ik o
id ät</w>
huom autu
hon ourable</w>
ha va
g or
g a
f ound</w>
ev el
evel op
en suring</w>
develop ed</w>
consider ation</w>
con v
con sist
c ust
c am
bal an
asian tunti
ann on</w>
alter nati
alco hol</w>
affec ted</w>
advanta ge</w>
absolu tely</w>
a way</w>
a vi
Wor ld</w>
S pan
S e
P C
Karaman ou</w>
F ore
E A
D evelop
Artic le</w>
Amend ment</w>
. 00</w>
äänest ys</w>
ä h
yhdenmukais ta
wee k</w>
w ish
välittö mästi</w>
vä h
vo ting</w>
vie ws</w>
vi itta
vi erail
ve to
var sin</w>
val taa</w>
uud en
uu t
tr ying</w>
toivo tta
toim ista</w>
tieto a</w>
thin king</w>
te mme</w>
te emme</w>
ta vat</w>
ta st
ta h
t ol
t is
sy istä</w>
sovel taa</w>
solu tions</w>
solu tion</w>
sig n</w>
san ot
s -</w>
requi red</w>
rela ting</w>
rela ted</w>
reg ards</w>
refer red</w>
re st</w>
re fle
pä te
pur pose</w>
pris es</w>
poliitt isten</w>
par antaa</w>
pa per</w>
pa per
nähd ä</w>
nuor ia</w>
nimen omaan</w>
na me</w>
n uclear</w>
n au
mä stä</w>
myö tä</w>
mu ihin</w>
min u
mahdollis uudet</w>
ma at</w>
lä s
luonnollis esti</w>
lu v
lim it</w>
liik enn
ks ella</w>
keskustel uun</w>
kesk itty
kau an</w>
kalast aj
issa an</w>
is istä</w>
ic es</w>
ho ito
gu lation</w>
gen u
fore sts</w>
exc ep
ex ten
ex pec
ei j
dra wn</w>
deal t</w>
de termin
d estä</w>
cor rec
consider able</w>
connec tion</w>
colleag ues</w>
ci vil
beg in</w>
au tom
any thing</w>
amoun t</w>
alo ittaa</w>
allis et</w>
al ka
a kseni</w>
a im
Span ish</w>
S outh</w>
Re gulation</w>
Po ign
P aper</w>
K re
Di rec
Develop ment</w>
D A</w>
Con ference</w>
CF P</w>
C osta</w>
Barcelon a</w>
200 6</w>
0 ,
ymmär tää</w>
yl lis
yh ti
y kseen</w>
w r
vers ity</w>
va i
ust ice</w>
ul kom
uh rien</w>
tärke im
tälla ista</w>
tä mään</w>
tor ju
toimi elim
tied ä</w>
ti u
tarkistu sta</w>
tain s</w>
ta a
t ter</w>
st o</w>
sol di
si dered</w>
sella ista</w>
se tting</w>
s po
ryh mäni</w>
rou ght</w>
renew able</w>
re st
rang ais
rajatyö ntekijöiden</w>
ra ise</w>
quic kly</w>
polic e</w>
po st
perinn ön</w>
peria ate
partn ers</w>
pan e
onnettomuu ksien</w>
on ally</w>
ole vat</w>
od ottaa</w>
o ihin</w>
nuore t</w>
määr in</w>
migra tion</w>
men esty
ma ita</w>
m all
lu m</w>
lo t</w>
llis esti</w>
liitty viä</w>
la tions</w>
käyte tään</w>
kysymy kseen</w>
kustann ukset</w>
kolman sien</w>
kk ää
ker toa</w>
kansal aiset</w>
kanna tan</w>
kan taa</w>
just ice</w>
inter vention</w>
int i</w>
il u
il ta
il me
hyö tyä</w>
hyv invo
hu ge</w>
happ en</w>
g ets</w>
fisher men</w>
finan cing</w>
ffer ing</w>
ex pect</w>
eur o</w>
ete enpäin</w>
es itetään</w>
en ds</w>
ell isten</w>
ei vät
ehdottom asti</w>
ed er
e fficient</w>
e arly</w>
develop ments</w>
demokrati an</w>
decid ed</w>
de pen
dama ge</w>
cred it</w>
con tra
con sidered</w>
com pensa
clar i
candid ate</w>
c tions</w>
b rought</w>
arvo a</w>
applic ation</w>
ann ual</w>
alo illa</w>
ais esti</w>
aino a</w>
aihe uttaa</w>
ai emmin</w>
af ter
administra tion</w>
add ress</w>
Strasbour g</w>
So cial</w>
P s</w>
Mc Car
Kosov o</w>
K y
K ansa
J ustice</w>
Fore ign</w>
C entral</w>
B as
A P</w>
1 4</w>
0 8</w>
yrity ksiä</w>
yrity kset</w>
x i
wh ose</w>
välttämätö ntä</w>
vuos i</w>
viol ence</w>
valtu us
v y
v in
uraan in</w>
tur vapa
tu n</w>
tu ki
ttun ut</w>
ti onal</w>
terror ism</w>
tavoitte ena</w>
t ö</w>
sää ntel
sy r
sy lum</w>
subsi di
stud y</w>
str ö
stan ti
ss on</w>
spe ed</w>
sovel le
se ur
s on</w>
riippu mattom
re al
rati fio
ran ge</w>
ra h
päätöslausel man</w>
proc e
pre hen
po ikke
ple ased</w>
pa y
o sti</w>
o ita</w>
nä illä</w>
niin pä</w>
nel jä
muka isia</w>
mil jar
me et</w>
marke ts</w>
maks aa</w>
lyhy esti</w>
lu otta
lis ää</w>
l l
köyhdy tetyn</w>
kulu tta
ku t</w>
ku s</w>
koske vaan</w>
konkreett isia</w>
ko k
kno wn</w>
kiel te
ker taa</w>
kann atta
k u</w>
k kau
it ur
is tics</w>
is issa</w>
inter ven
het i</w>
hen g
han k
ha a</w>
gu id
go es</w>
gi ving</w>
fi ve</w>
fac ility</w>
fac il
enti re</w>
eläk elä
eivät kä</w>
ec e</w>
earli er</w>
difficul ties</w>
deman ds</w>
de si
de l</w>
d est
compet iti
busin ess</w>
be ar</w>
av an</w>
ator y</w>
ase tta
anne taan</w>
alis t</w>
al one</w>
al aa</w>
a part</w>
V al
T se
Salvad or</w>
Pos sel
P :n</w>
O s</w>
NG Os</w>
ME Ps</w>
Ki inan</w>
Irlann in</w>
EC H
D an
C un
Banglades hin</w>
A n
yl ittä
yhteis kunnan</w>
w ar
vä än</w>
vis it</w>
viljeli jät</w>
vi ra
vapa a
valv onn
vaka vasti</w>
vaik u
uh re
u ksena</w>
tä vä</w>
työ stä</w>
työ n</w>
tyyty vä
turvapa ik
tur ally</w>
tu o</w>
toimi i</w>
to i
tiete ellis
ti t</w>
teho kkaasti</w>
techn ology</w>
tavoitte et</w>
taloudellis en</w>
sup p
spea kers</w>
soldi ers</w>
sitou tu
sc ale</w>
sano taan</w>
sa tis
s ound</w>
ro h
ri in</w>
resolu tions</w>
rem ember</w>
päätöksente koon</w>
päätö ksiä</w>
proper ly</w>
pit kään</w>
p ö
oper ate</w>
o w
o ffici
näkö kul
nä yttää</w>
mis sään</w>
mis elle</w>
mietintö ön</w>
ma ksi</w>
m itta
lis i</w>
lead ing</w>
laad un</w>
l uu
kr itiik
kansain välinen</w>
kan so
k h
jot kut</w>
jos kus</w>
jo idenkin</w>
jat ka
itu de</w>
it tiin</w>
it sel
is elle</w>
invol ving</w>
il laan</w>
hyö d
high ly</w>
high light</w>
hem min</w>
he ar</w>
harjo itta
h ard</w>
glob alisation</w>
fore ign</w>
fail ure</w>
ex ac
ett ing</w>
enter prises</w>
en sin</w>
em me
e tel
e ffici
dri ving</w>
doub t</w>
direktiiv i</w>
di an</w>
d ang
conv inc
competiti veness</w>
co her
cap ital</w>
asia kirj
ase ttaa</w>
app lies</w>
app lied</w>
ansi osta</w>
an tu
an k</w>
ad d</w>
a vun</w>
a sylum</w>
a att
U K</w>
O r
M yan
J un
H i
H e
Gre en</w>
EU: ssa</w>
D el
B ud
ä kseni</w>
yhteistyö n</w>
w aste</w>
viranom aiset</w>
viljelijö ille</w>
vel vo
vast oin</w>
va te</w>
union iin</w>
under standing</w>
tu kee</w>
toimin taa</w>
tod eta</w>
to den
te ta</w>
te lu
tast ro
tain ing</w>
tac k
ta mm
tamm ik
ta kes</w>
ta isiin</w>
sy y</w>
suunta vi
sto jen</w>
state ments</w>
sopim usta</w>
siz ed</w>
sella isten</w>
ru le</w>
ro k
rauh an</w>
ra por
r ans
päätöslausel massa</w>
pub lis
pre vious</w>
politiik assa</w>
pid ä
pid etään</w>
periaate tta</w>
parlament tia</w>
pa in</w>
over all</w>
ov ember</w>
or e</w>
or d</w>
olev a</w>
nä issä</w>
na turally</w>
muuta mia</w>
muu ta</w>
muka inen</w>
mo del</w>
men et
main ly</w>
lopul lis
le ar
la ter</w>
koh ti</w>
kil au
ken ties</w>
kansall isten</w>
kansainvälis en</w>
k än</w>
jul kilau
is issä</w>
integra tion</w>
ihmisoikeust oim
ih mistä</w>
i ght</w>
hd en</w>
hallit usten</w>
habit ats</w>
gr ound</w>
go ods</w>
fir e</w>
ffic king</w>
ex plan
establis h
energi a
en able</w>
e red</w>
dis ast
conf idence</w>
conclu sion</w>
char ging</w>
c ity</w>
bud j
balan ced</w>
b on</w>
avo id</w>
av ust
arti k
analy sis</w>
alu ksi</w>
aloitte ita</w>
all oc
all isen</w>
a ksi</w>
Yhdys val
U N
Su mmit</w>
Scheng en</w>
S pain</w>
R ou
P eij
OLA F</w>
N ovember</w>
K h
Hi gh</w>
Gre ece</w>
B er
A S
14 08</w>
yle isesti</w>
yksinkerta ista
yhteis ö</w>
y tä
wa ters</w>
väl ine</w>
vast uu</w>
v ital</w>
v in</w>
us sels</w>
us ers</w>
tä lle</w>
työsken tel
tor jun
toim itetaan</w>
tiet enkään</w>
th ou
tekem ä
teho k
tas on</w>
tapah tunut</w>
taloudel lista</w>
ta u
suojel em
su per
su ff
strategi c</w>
spe ech</w>
sp ir
situ ations</w>
simil ar</w>
si v
seri ously</w>
saa vat</w>
sa ma</w>
s ent</w>
requ ire</w>
re te</w>
re sur
re mind</w>
radi o
r ky
pää ministeri</w>
propos e</w>
produc ed</w>
pres enta
pr ice</w>
ponn istelu
poh jo
per inte
p om
p h
otta vat</w>
ot s</w>
oso it
ongel mien</w>
ongel man</w>
om in
ohjel ma</w>
määr ää</w>
määr it
muu ten</w>
mu issa</w>
min kin</w>
mat ka
lu oda</w>
lin k</w>
lin es</w>
la ted</w>
l isten</w>
kysymy ksiä</w>
ks on</w>
kok ous</w>
kohd an</w>
koh tia</w>
ko ko
kid utu
keskust ella</w>
kertomu ksessa</w>
kanna tamme</w>
ka ista</w>
k kä
jäsenvaltio ita</w>
järjest ä
julkilau su
joh tu
j an
infrastruk tuu
industri al</w>
improv ement</w>
il mi</w>
ide as</w>
hän elle</w>
huolest u
he itä</w>
gr oun
fac tors</w>
eurooppal aisten</w>
eurooppal aisen</w>
ette lo
et ä</w>
er in</w>
ensimmä isen</w>
enn a</w>
emme kä</w>
edell yttää</w>
dist ribu
direktii viä</w>
def ence</w>
deb ates</w>
cust oms</w>
cre ation</w>
cont ent</w>
commit ments</w>
com prehen
c ra
c ar</w>
by rok
b rea
b ed</w>
as pect</w>
an im
ammat ti
alue et</w>
ain e
aih etta</w>
ai m</w>
ag rap
add itional</w>
ad ded</w>
Salvad or
Rou ge</w>
R ules</w>
Prod i</w>
Par ish
P r
P en
P att
Nizz an</w>
N e
Kh mer</w>
K es
Ital y</w>
Br ussels</w>
Banglades h
7 0</w>
1 1</w>
0 .
yrity ksille</w>
yksityis kohta
wor d</w>
w on
vä stä</w>
viol ations</w>
vaatimu ksia</w>
va i</w>
va at
uu sien</w>
ur s
ur ge</w>
un acceptable</w>
työ ntekijö
tra fficking</w>
tr uc
to p
tied otu
ti ett
tasa puol
tarjo aa</w>
talousarvi on</w>
talou den</w>
tal king</w>
tack le</w>
ta po
succ ess
subsidi arity</w>
sub stanti
strate g
stand ards</w>
sta tus</w>
st ed
sosiaal itur
sion ers</w>
sil tä</w>
siir ty
show s</w>
selv ity
sella inen</w>
riittä vän</w>
ri gh
remain s</w>
refuge es</w>
reac hed</w>
re ference</w>
re ad</w>
rau ta
rakenn era
rakennera ha
prom o
pitä nyt</w>
pen al
par issa</w>
osallistu mista</w>
orig in
or m
on sa</w>
om ien</w>
ol isivat</w>
oh ja
ob viously</w>
numer ous</w>
ne ksi</w>
n ais
min iste
meth od</w>
läh tien</w>
luotta mu
laati ma</w>
la ws</w>
kse ksi</w>
ks issä</w>
kh mer
ke ja</w>
ke ep
k er</w>
jö sted
joh tuu</w>
j aan</w>
itet tava</w>
ish ed</w>
is ms</w>
inc or
in come</w>
improv ing</w>
ihmisoikeu ksia</w>
id aan</w>
halu aa</w>
gran ted</w>
g er</w>
f ri
f o
establish ment</w>
est i
est aan</w>
enem mist
en orm
en ed</w>
el se</w>
ed y</w>
ed iste
du ty</w>
de a
criter ia</w>
cre ating</w>
conc rete</w>
comple tely</w>
comp liance</w>
ch es</w>
ch ec
cen tr
bud getary</w>
b or
at teen</w>
ap proved</w>
an kom
alue ille</w>
al ong</w>
a ver
W all
S jösted
Re presenta
Pro gra
Pr ime</w>
Portug al
Pe ter
J ac
Fun ds</w>
F rance</w>
En viron
Br yssel
200 4</w>
än ä</w>
yö r
yksi k
w ise</w>
w ha
ver s</w>
vaad itaan</w>
v ille</w>
tälla inen</w>
täl tä</w>
tut kia</w>
tt aneet</w>
tor ate</w>
to ista</w>
to isen</w>
tilante eseen</w>
tied ätte</w>
teollis uus
teh ty</w>
te ki</w>
tax ation</w>
ta ata</w>
t old</w>
suhte essa</w>
sub mitted</w>
str ong</w>
st at
sod an</w>
sij ais
se k
sa maan</w>
s k
ru p
ris ks</w>
riittä västi</w>
re conc
ra il</w>
qu i
puuttu u</w>
pri vate</w>
pot ential</w>
pos itions</w>
politiik asta</w>
pol lu
po hd
pit ois
peria atteen</w>
per c
pa ti
osa ksi</w>
os aa</w>
op olitiik
om asta</w>
oikeud et</w>
ohjel mien</w>
odo tamme</w>
myön tä
mor ning</w>
min kään
mieli pit
me an
mar ras
mahdollis uuden</w>
maail massa</w>
ma l</w>
m ää
m ing</w>
li ving</w>
li ve</w>
le e</w>
kää mme</w>
käyttö ä</w>
kyse essä</w>
koske vien</w>
konflik tien</w>
konfer ens
kahd en</w>
jo in</w>
it ation</w>
iste ttava</w>
issa kin</w>
is es</w>
incre ased</w>
in in</w>
in him
in ding</w>
hy viä</w>
hol ding</w>
histor i
hd otu
hall inno
glob al</w>
for get</w>
f arm</w>
ev idence</w>
ett u
esiin tyy</w>
eril aisia</w>
en ge</w>
emp ia</w>
em minkin</w>
e f</w>
di versity</w>
dea ths</w>
convinc ed</w>
con stitu
con serva
con dem
clos ely</w>
chall enge</w>
cam pa
call ing</w>
c ro
c ab
bu re
bil lion</w>
b ly</w>
ator s</w>
ati c</w>
atal ous
asio issa</w>
asetu ksen</w>
ar ily</w>
ap par
ann ettava</w>
aj atte
affec t</w>
actu al</w>
activ ity</w>
Yhdisty neiden</w>
Sta es</w>
Sa ks
S V</w>
Ruij ten</w>
Representa tive</w>
Possel t</w>
Minis ters</w>
Gallagh er</w>
F err
C AP</w>
5 5</w>
3 ;</w>
2 2
1 ;</w>
1 8</w>
&#9 3;</w>
&#9 1;</w>
yksinkerta isesti</w>
y sten</w>
x emb
wor ked</w>
vast ata</w>
var ha
var at</w>
val la
vaati i</w>
uud elle
uudelle en
urs day</w>
tut ki
turvallis uutta</w>
tu otta
tu lisi</w>
tor ture</w>
toimin ta</w>
teke vät</w>
te ttävä</w>
te dly</w>
tapau ksissa</w>
tapa a</w>
tan sa</w>
t sen
t reat
sä mme</w>
syr jä
suuntavi ivo
suppor ted</w>
sto p</w>
stand ard</w>
st i
sopimu kseen</w>
si x</w>
seura uksena</w>
sen d</w>
sec u
se hdotu
san ctions</w>
saa tava</w>
sa ast
sa an
righ tly</w>
ri ä</w>
recogn ise</w>
raken te
rajo itu
ra ts</w>
ra j
pyr ki
pre vention</w>
politic s</w>
po ses</w>
pl ans</w>
pit kän</w>
perusraken teiden</w>
pers ons</w>
partn ership</w>
partici p
par ts</w>
os op
op e</w>
ongel mista</w>
ongel miin</w>
ong st</w>
oma inen</w>
oikeud en</w>
ny a</w>
net works</w>
määrä raho
myö tä
mon it
mil k</w>
merkity stä</w>
men tary</w>
materi al</w>
markkino illa</w>
luonto tyyp
lu ettelo
lou kka
lim its</w>
liitty vän</w>
lead ers</w>
le et</w>
käy tt
käy n
ky ky
ky ken
kustann usten</w>
kunnio itta
kokou ksen</w>
koh taa</w>
kiinno st
khmer ien</w>
keskustel uja</w>
keske yttä
kes ken
keino ja</w>
kalast u
kaikki in</w>
k ki
järjestö t</w>
jä ttää</w>
jä ttä
jat tain</w>
j au
ist o
ist i</w>
isi vät</w>
is ille</w>
is ella</w>
intro duce</w>
increas ing</w>
inc id
implem enting</w>
im es</w>
il leen</w>
ikunn an</w>
igh ted</w>
i va
hil jattain</w>
henkilö stö
fin e</w>
ex ist</w>
est er
esittä nyt</w>
esitett y</w>
elintarv ike
elin es</w>
ech nya</w>
e ikö</w>
dy na
dr in
discus sions</w>
direc tion</w>
differ ences</w>
develop ing</w>
des cri
del ighted</w>
d ic
consul tation</w>
conc ent
com ment</w>
ch ed</w>
c ho
bure auc
arvio inti
arv on</w>
arv o</w>
ar ing</w>
am ongst</w>
alo ite</w>
alo it
al aisten</w>
ag es</w>
a ksemme</w>
Wall strö
Tse tsen
Th ursday</w>
Progra mme</w>
Na ï
M an
Lu xemb
L O
J ugosla
Georgi an</w>
Fun d</w>
E te
Del l</w>
Ch echnya</w>
Cambo dia</w>
Barcelon an</w>
Al ankom
Ag ric
3 5</w>
3 1</w>
ymmär tä
yle ensä</w>
y ester
yester day</w>
viljelijö itä</w>
vi it
ver ra
vast ais
val le</w>
v issa</w>
u ista</w>
tälla isen</w>
työsken tele
työs kenn
tu omioistuimen</w>
tu k
truc tural</w>
treat ment</w>
tois sijais
tois een</w>
to tta</w>
tieto ja</w>
ti ä</w>
terve ys
tarkistu kset</w>
tarkast ella</w>
tarka sti</w>
tammik uu
ta istelu
ta il</w>
ta ar
säännö t</w>
suur im
suu rem
suppor ting</w>
suojel la</w>
spir it</w>
sotila s
sis ällä</w>
seura uksia</w>
ser ies</w>
sel ec
sall ik
sallik aa</w>
saad aan</w>
s ou
rik ostu
responsi bilities</w>
res er
representa tive</w>
ra d
r ise</w>
r id
qu e</w>
pää ttää</w>
päivä nä</w>
propor tion</w>
prior ite
pre ci
pe at</w>
pare mpi</w>
pal autta
osoitta vat</w>
os ittain</w>
organ ised</w>
or y</w>
om a</w>
oikeu tta</w>
o ffice</w>
noud attaa</w>
neuvost ossa</w>
määr än</w>
myö hemmin</w>
muuta ma</w>
mp im
mil lä</w>
miel en
men d</w>
ma ati
m pa
lä pi</w>
lo w
le en
lausu n
la sten</w>
la inen</w>
käytt ö</w>
kuljetu sten</w>
koske vista</w>
kil led</w>
keskustelu ssa</w>
keske y
kesk is
kehity s</w>
kaup pa
kaup an</w>
kaik ista</w>
k ka</w>
jäsen valtion</w>
jäsen iä</w>
järjestel mien</w>
jäl leen
itte l
it sen
ish er
inde pendent</w>
increas ingly</w>
in sa</w>
in aan</w>
hu n</w>
her ä
hel po
he av
harmon isation</w>
h ita
gran ts</w>
gra ph
g ations</w>
farm s</w>
f ying</w>
exac tly</w>
ex plo
ew ton</w>
ev ening</w>
eurooppal aista</w>
es sani</w>
erinomais esta</w>
er o
ensimmä iseksi</w>
empha sis</w>
elä män</w>
ellis ia</w>
edustaj at</w>
ed ure</w>
e maan</w>
e il
e asi
e as
do m</w>
detail ed</w>
del i
crit ical</w>
con su
com par
co ver</w>
c al
blo od</w>
basi c</w>
aver age</w>
at u</w>
asu kka
arvo stel
alternati ve</w>
ajan kohta
aik om
aihe u
agrap h</w>
after noon</w>
ad ap
Y ugosla
Val ko</w>
V an</w>
Sec urity</w>
S tructural</w>
Re gi
Proc edure</w>
N ewton</w>
Jugosla vi
F isher
Ete lä</w>
B ank</w>
Am ster
7 5</w>
3 8</w>
199 5</w>
äär immä
yttä vät</w>
y side</w>
will ing</w>
wh il
whil st</w>
w ron
wron g</w>
w ide</w>
vuo sien</w>
vuo si
ver se</w>
varsin kin</w>
valvon taa</w>
valvon ta</w>
valtio t</w>
val m
valm is</w>
v yö
v ina</w>
uu temme</w>
utu a</w>
use ful</w>
us kom
un able</w>
u ksiin</w>
tälla isia</w>
työ ntekijöiden</w>
turvallis uus</w>
tulo kset</w>
tul lut</w>
tu ki</w>
toiv e
toden näkö
to ber</w>
tion ary</w>
tilante essa</w>
tiedotu s
tied ot</w>
tic ally</w>
tek op
te illä</w>
tax es</w>
tar jota</w>
tapa uksia</w>
sääntö jä</w>
säil y
substanti al</w>
sub sid
su rely</w>
struc tural</w>
str ik
stat istics</w>
star ting</w>
spea king</w>
simp le</w>
signific ant</w>
shor t
sh ip
see m</w>
sano isin</w>
san on</w>
saa maan</w>
sa ttu
sa atu</w>
s issa</w>
rik kom
repres entation</w>
re li
re alis
ratkais ev
ra ja</w>
quot a</w>
qu ali
pyy ntö
puheenvuor on</w>
pu l
pros per
po ver
po is</w>
perusta mis
palj ast
p o</w>
ost en</w>
os ana</w>
os an</w>
on ut</w>
om ia</w>
ol isin</w>
oikeu tetu
oikeu ksien</w>
oikeu ksia</w>
nyky istä</w>
neuvost olle</w>
nation als</w>
n en</w>
muuto ksia</w>
muuta man</w>
muo to
mu kana</w>
mu ista</w>
mor ator
mod ern</w>
mel ko</w>
me kin</w>
läs nä</w>
lu ettel
lis esti</w>
liik ke
lab our</w>
la kaan</w>
l os
kuningas kunnan</w>
koulutu s</w>
korke an</w>
kor ja
ko vasti</w>
kir ja</w>
keep ing</w>
kann an</w>
kal atalous
ka ud
ka tta
ka tastro
k että
jäsenvaltio ille</w>
joulu kuuta</w>
jot kin</w>
joka isen</w>
jat kossa</w>
j uu
j ille</w>
itte lem
it ten</w>
ir y</w>
in su
improv ed</w>
immedi ately</w>
hyväksy i</w>
huom ion</w>
huom enna</w>
he ille</w>
happen ed</w>
hankke iden</w>
h ome</w>
guarante es</w>
fle xi
f light</w>
f are</w>
ex er
est y</w>
esittä mään</w>
enorm ous</w>
en si</w>
elec tions</w>
ed ist
eas y</w>
dipl om
deal ing</w>
d ings</w>
consider ing</w>
con tains</w>
con duc
comple te</w>
compensa tion</w>
c ulture</w>
c ul
c ts</w>
c tober</w>
c li
bo dies</w>
becom ing</w>
b ru
b la
b ar
att e</w>
at ti
as king</w>
ar us</w>
ar me
appe ar</w>
ap pla
an tanut</w>
aloitte en</w>
alku perä
al kaa</w>
aihe utu
ai omme</w>
a ys</w>
S an
O ctober</w>
ME DA</w>
M it
Kansa kuntien</w>
Fisher ies</w>
Environ ment</w>
E ast</w>
E I
C o
Bel arus</w>
Balkan illa</w>
Ag enda</w>
: tä</w>
7 1</w>
1 6</w>
yhteisö jen</w>
yhteis ymmärr
yhte yttä</w>
y es</w>
wor th</w>
whe re
wan ts</w>
wan ted</w>
välin een</w>
vähen tä
vis t</w>
var ma</w>
vapa utta
vapa uden</w>
valmis telu
vaikutu kset</w>
vaike a</w>
vaatimu kset</w>
und erta
typ es</w>
tulevais uuden</w>
tul li
tu sta</w>
tu omioistuim
tu oda</w>
tra vel</w>
toim iv
toim ist
to tally</w>
to p</w>
thor ough</w>
tett ua</w>
te essä</w>
tar ve</w>
taloudel linen</w>
ta kais
ste ps</w>
st ed</w>
ser v
sek tor
se x
sanot tava</w>
saavu ttaa</w>
sa ys</w>
run sa
requi res</w>
rat kaista</w>
rajatyö ntekijö
ra jat</w>
r imin
puhu taan</w>
pu tting</w>
prob ably</w>
politiik kojen</w>
pid ettävä</w>
peria ate</w>
parlia ments</w>
par tly</w>
pain ost
p p
out side</w>
os uus</w>
onn e</w>
ongel man
oma ks
om enettel
ob tain</w>
o tois
o tettu</w>
nä y
no st
mä tö
mp lo
mplo yment</w>
morator ium</w>
mon i
mod es</w>
merk ille</w>
menettel yä</w>
markkin a
main tain</w>
maase utu
maailmanlaaju istu
ma kse
m ot
m min</w>
löy tää</w>
luon te
lu opu
lu ok
lo ka
lo jen</w>
leg iti
la ting</w>
l ää
käs ittä
kuulu vat</w>
kuu lem
kustann uksia</w>
kunni an
ku ol
koske viin</w>
kom mun
kolleg ani</w>
ko vin</w>
kiito s</w>
kiinno stu
keskustel emme</w>
kesken ään</w>
kertom us</w>
kem i
keh ittää</w>
ke jä</w>
kansalais järjestöjen</w>
kann attaa</w>
kaikki alla</w>
k vist</w>
jä rist
jul kais
j iä</w>
itte len</w>
it s
it able</w>
is uutta</w>
is ellä</w>
int ention</w>
infrastruc tures</w>
infor med</w>
inf lu
incor por
in ta
im äär
ilma ista</w>
ik ään</w>
ieh ist
ic ations</w>
i o</w>
hän tä</w>
hyödyn tää</w>
hop es</w>
high ligh
han ds</w>
h ön</w>
h te
guid elines</w>
groun ds</w>
grea test</w>
govern mental</w>
for ced</w>
flo or</w>
ex pla
ev ents</w>
ev ent</w>
että isiin</w>
establis hing</w>
ess ään</w>
enn alta</w>
en tr
en iten</w>
el tä</w>
e re
e en
direktii vien</w>
de ksi</w>
comp ly</w>
char ac
call s</w>
cab in</w>
c ally</w>
benef its</w>
b an
attemp t</w>
asio ihin</w>
as sist</w>
anta maan</w>
ann an</w>
an ts</w>
an to</w>
amp ia</w>
alue elle</w>
alu ssa</w>
al ists</w>
adop ting</w>
accord ingly</w>
a sure</w>
a misen</w>
a miseksi</w>
T u
Seppä nen</w>
Q u
Portug al</w>
Pal estin
P u
N os</w>
M ay</w>
L e
E mployment</w>
Democ rats</w>
Cha mber</w>
Bur man</w>
Amster d
A ust
2 5</w>
1 00</w>
ö no
äs kettä
yr it
wel fare</w>
wa iting</w>
välis en</w>
voima ssa</w>
ve si
valmi ita</w>
vakuu ttunut</w>
use s</w>
use am
unoh taa</w>
un less</w>
ul o
u ssa</w>
täy si
tutkimu ksen</w>
tur y</w>
tule vat</w>
tu ur
tu al</w>
tu a</w>
tou ko
tor sta
to istu
to i</w>
ti i
thou san
thousan ds</w>
th qu
thqu a
terve y
tekn ologi
tavoitte ita</w>
tarv itse</w>
suure mpi</w>
sur pr
subsi dies</w>
sta ted</w>
st y
solid aar
sisältä vien</w>
sisäl tää</w>
sija itse
sij aan</w>
sha red</w>
se r</w>
se par
se ka
saa tav
s ala
ri itä</w>
respon d</w>
resid ence</w>
real ise</w>
re mar
re construction</w>
ratkais u</w>
ratkais em
rahoitu ksen</w>
ra tion</w>
päätty nyt</w>
pää se
pä in
provid ing</w>
provid es</w>
presid en
prec au
pr ices</w>
poliitt isia</w>
pid et
per f
perf ec
pe gn
p ha
p et
our ce</w>
ott or
ott anut</w>
osapuol et</w>
ord ers</w>
op enn
openn ess</w>
on es</w>
on d</w>
olo issa</w>
ol enna
ohjel maa</w>
näkökul masta</w>
näkö kohd
net work</w>
neg ative</w>
mo ottor
miljoon an</w>
mielest ä</w>
menet tely</w>
meet ings</w>
me istä</w>
maan järist
ma x
m olem
m ol
m ille</w>
m et</w>
m es
m alle</w>
lä mpim
lu pa
lim ited</w>
le a
la id</w>
l tä</w>
käyttö öno
kysymy ksiin</w>
kymmen en</w>
ku va
ku kaan</w>
kes ä
kan ta
kan is
kah ta</w>
järjestel miä</w>
joulu kuussa</w>
jou ko
jon kin</w>
jat ke
itu s</w>
ito im
istun to
iste taan</w>
is ena</w>
inn e</w>
infor m</w>
immedi ate</w>
im pres
ilmo ittaa</w>
ili ation</w>
happ y</w>
hankke ita</w>
halu taan</w>
hallinn on</w>
gi ves</w>
gi c</w>
g in</w>
g etting</w>
fron t</w>
fac ed</w>
f oun
exper ts</w>
exer c
eurooppal ainen</w>
eur on</w>
ett i</w>
eril ais
epä onnistu
emphasis e</w>
em ä
elin ten</w>
effici ency</w>
educ ational</w>
ed kvist</w>
ear thqua
discrimin ation</w>
direktiiv e
d le</w>
cre ated</w>
cr imes</w>
coun tr
conserva tion</w>
conflic ts</w>
con ta
com pared</w>
cli mate</w>
cen tury</w>
capa city</w>
bur den</w>
att itude</w>
ate ral</w>
ase man</w>
ap preci
anz es</w>
ammu sten</w>
alkoh oli
aja tel
aihe esta</w>
ag ed</w>
achiev ing</w>
accord ance</w>
a iden</w>
a hd
Su anzes</w>
S i
Ruij ten
Patt en</w>
Matthe ws</w>
M us
L is
Inter net</w>
H edkvist</w>
ECH O</w>
EC B</w>
E x
D un
Car pegn
CO S</w>
C LO
C E</w>
Britanni an</w>
3 7</w>
2 7</w>
2 4</w>
1 .</w>
. .</w>
äänest ää</w>
ympäristö ön</w>
ympäristö ä</w>
yl l
yhtä lä
yhteenkuuluv uus
y ssä</w>
väline iden</w>
väl isten</w>
vyy den</w>
vuos ittain</w>
vois in</w>
vir ka
veto om
ver ko
vastuu n</w>
var au
valtio issa</w>
valti ota</w>
vall itse
vaike uksia</w>
vahin go
uuten sa</w>
uu tin</w>
ur s</w>
tä s
ty yd
tun ne
tru ly</w>
tra g
tor al</w>
toivotta vasti</w>
toimi vat</w>
th re
te ful</w>
te ac
tasa vallan</w>
tasa pain
tarv itsee</w>
tarkoit an</w>
syn ty
sub jects</w>
su ffering</w>
struc tures</w>
st re
sou thern</w>
short com
shortcom ings</w>
sho wn</w>
saa taisiin</w>
sa i</w>
sa amme</w>
ryh mien</w>
runsa asti</w>
ro ol
rimin al</w>
riippu matta</w>
ri es</w>
rela tion
rela tes</w>
re v
re ag
rakenn us
ra a
pää stö
publis hed</w>
pros pects</w>
prom ise</w>
proce ed
pre ad</w>
poli it
plann ing</w>
pl em
pi ä</w>
pers on</w>
parlia mentary</w>
par agraph</w>
p yör
p lu
or ation</w>
onne l</w>
om at</w>
om alla</w>
ol a
oikeus perust
ob vious</w>
määrä yksiä</w>
myönte istä</w>
muu ttaa</w>
mu ista
mot or
monimu t
monimu otois
mietinnö stään</w>
mes sa
merkittä vä</w>
max imum</w>
markkin at</w>
man sa</w>
main itse
maan viljelijöiden</w>
ma ihin</w>
ma as
la i
l s</w>
käsitte lem
ksi lla</w>
kr ite
koulutu sta</w>
kom ite
kno ws</w>
kilpailuky v
kilpailuky ky
kertom usta</w>
kas vu
kanso jen</w>
kahd en
ka us
k käy
järjest ö</w>
joka inen</w>
jo takin</w>
jo kin</w>
jo issakin</w>
jec ted</w>
j ana</w>
it ti
it ettävä</w>
it ate</w>
ist u</w>
is im
ir man</w>
investo inti
inten ded</w>
instru ment</w>
inst ance</w>
ing ing</w>
ing dom</w>
il s</w>
ihmisoikeustoim ikunnan</w>
i ed</w>
huol en
huol ehd
hi il
hi en
henkilö iden</w>
he iken
gra teful</w>
gra du
go al</w>
g issa</w>
fi gu
facil itate</w>
fac ts</w>
fac tor</w>
f all
f ai
etu jen</w>
ette ivät</w>
est ää</w>
er gy</w>
equ ally</w>
en in</w>
en immä
emplo ye
em paa</w>
ell s</w>
el in</w>
ef ly</w>
earthqua ke</w>
direktii vi
dec lar
de tail</w>
de signed</w>
de gre
d ust
crimin al</w>
cra ft</w>
contribu tions</w>
consum er</w>
comprehen sive</w>
compet itive</w>
cau ses</w>
c y
b om
ar my</w>
ar d
an d
al laan</w>
aika ista</w>
addres sed</w>
Yugosla via</w>
Yhdisty neen</w>
V i
Turk ki</w>
So ci
Proc ess</w>
McCar tin</w>
In dust
D o
D R</w>
C riminal</w>
Agric ulture</w>
8 0</w>
2 6</w>
1 5
. ..</w>
äskettä in</w>
yy ttä</w>
yy den</w>
yksi kö
x ima
wa it</w>
vu ot
vi ivä
ve h
vasta an
var ain
vapau tta</w>
vapa a</w>
valvo a</w>
valu able</w>
valtio ita</w>
vaati a</w>
v ang
uu ksia</w>
un anim
ul f</w>
ud et</w>
u tta</w>
täyden tä
tämän päivä
tä mme</w>
tä h
työllisyy ttä</w>
tuot te
tul la</w>
tu s
tu ksen</w>
tu kien</w>
tu esta</w>
tois ta
toim itta
toim i</w>
tilais uus</w>
ti mme</w>
thre at</w>
ther lands</w>
tetta isiin</w>
tett uja</w>
ter v
teki jö
teh ty
te urs</w>
te lev
tavoitte iden</w>
tavo ite</w>
suhtaudu mme</w>
success ful</w>
su s</w>
struc ture</w>
str ong
st ance</w>
sor t</w>
solidaar is
sij asta</w>
serv ice</w>
sen s
selv ittä
see k</w>
satis fac
saa kka</w>
sa ar
re fer</w>
rappor teurs</w>
r ann
pö ytä
päätö ksen</w>
puolust us
puolu eiden</w>
promot ing</w>
presiden tti</w>
pres sure</w>
precau tionary</w>
pover ty</w>
pos ing</w>
politiik ka
poliit ik
poli isi
po int
pik emminkin</w>
perust amista</w>
pers onnel</w>
pers onal</w>
parha illaan</w>
pan o
palvel u
our ism</w>
ot on</w>
osallistu minen</w>
op position</w>
op posed</w>
ollis ia</w>
oll isten</w>
ole via</w>
oc can</w>
ob serva
o graph
nä ille</w>
ne tään</w>
mä ttä</w>
myönte inen</w>
mon th</w>
mon ien</w>
minu tes</w>
mil li
me kanis
man age</w>
main taining</w>
maatalous politiikan</w>
ma att
ma alis
lähtö koh
läh te
luon no
lu ott
le u
lai vast
laajentu misen</w>
laajentu minen</w>
kärsi vät</w>
kysymy kset</w>
kun ta</w>
kulttuuri -</w>
koulutu s
kos sakin</w>
kol m
ko t
kiintiö iden</w>
ki in</w>
kestä vän</w>
keske inen</w>
ker ro
kansallis et</w>
ka ssa</w>
jat kossakin</w>
issu ed</w>
introduc ed</w>
intere sting</w>
inten ds</w>
int ensi
inn ut</w>
inn ista</w>
inn an</w>
ho ita
histor y</w>
histor ic</w>
high er</w>
he ad
happen ing</w>
haluais imme</w>
ha aste
for th
figu res</w>
f our
exam ine</w>
et in</w>
est e
esimerk ki</w>
en ding</w>
employe es</w>
elä kke
elä in
elec toral</w>
ehd ottaa</w>
dipl oma
des er
dele gation</w>
del iv
degre e</w>
cre di
countr yside</w>
continu ing</w>
conclu de</w>
conc ep
con ference</w>
com plic
com pla
chall eng
cau sed</w>
c at
c al</w>
buil ding</w>
bac k
b a</w>
avi ation</w>
ase ma</w>
ase en</w>
ar rang
appro xima
anta vat</w>
analy so
alu etta</w>
allo wed</w>
alkoholi pitois
aj ien</w>
af for
accep ted</w>
ab ol
a z
Yhdysval tojen</w>
Yhdys vall
Yhdisty ne
V ey
T ra
T i
T he</w>
Sjösted t</w>
S an</w>
Rus sian</w>
Qu est
O M</w>
Ne therlands</w>
N uclear</w>
Mor occan</w>
Ma ail
Kre ikan</w>
K ingdom</w>
Jun e</w>
Jac kson</w>
Indust ry</w>
Ger many</w>
F eder
E C</w>
Cun ha</w>
Com mun
Ch risti
C ost
Bal kan</w>
B ol
Af ric
A C
200 3</w>
2 4
2 2</w>
äl tä</w>
ä ssä</w>
yhd yn</w>
y ö</w>
väest ön</w>
vyö hy
vuo ti
vir he
vi ed
verra ttuna</w>
ver en</w>
veh ic
ve red</w>
van kien</w>
val taan</w>
va l</w>
va ksi</w>
va kau
uud elle</w>
use at</w>
us ko</w>
ur o</w>
union ia</w>
und oub
undoub tedly</w>
ulo ttu
u d</w>
työjärjest yksen</w>
tuot annon</w>
tul le
tuke maan</w>
tu on</w>
ttä isiin</w>
tru st</w>
tri ed</w>
tois essa</w>
to tu
to on</w>
tilintarkastustu omioistuin</w>
tie tävät</w>
tie to</w>
ti veness</w>
th ought</w>
terveyd en
tekem istä</w>
tehtä vänä</w>
tehok kuu
tark kaan</w>
tar gets</w>
tapa usten</w>
taloudellis ia</w>
ta ri
ta han
tahan sa</w>
syrj in
syn tyy</w>
sy mpa
suunnitel man</w>
suunnitel ma</w>
supp ly</w>
sup ports</w>
sum ed</w>
suh teen</w>
sisäl ly
simp lif
simp li
seuraav a</w>
saf e
s mo
riippu va
repe at</w>
relation ship</w>
regre t</w>
reag o
read ing</w>
ratkais uja</w>
rans port</w>
rann ik
raho itta
raha a</w>
ra jan</w>
qu an
pää tel
proc esses</w>
pres s</w>
possi bility</w>
pollu tion</w>
pla yed</w>
penal ty</w>
particip ate</w>
parem paa</w>
p anna</w>
out standing</w>
ot te
oso ituksia</w>
origin al</w>
op pil
op is
ongelman a</w>
one theless</w>
on i</w>
oma isia</w>
om aa</w>
oikeutetu sti</w>
nä l
nyky isen</w>
neuvost oa</w>
n onetheless</w>
mun a</w>
mu s</w>
mp ia</w>
monit or</w>
mon ta</w>
minkään laista</w>
messa ge</w>
mechan isms</w>
mb ly</w>
maas sani</w>
maahan muu
ma r</w>
ma mme</w>
ma ito
lämpim ästi</w>
ly kkää
lu n</w>
lu j
lin ed</w>
liitty vien</w>
la it
l ta</w>
käytä ntö
käytettä vissä</w>
käsittele e</w>
kä ä</w>
kysymy ksissä</w>
kyse en
kur in
kulu essa</w>
kri is
kon serva
kol me
kokou sta</w>
koko on
kko jen</w>
kilpailukyv yn</w>
kesku span
kes ken</w>
kas vaa</w>
kansal aisia</w>
kan ta</w>
kan sa</w>
jäsen enä</w>
järjest ön</w>
joutu u</w>
it u</w>
ir a</w>
inter pre
int y</w>
inhim illis
infrastruk tuur
influ ence</w>
inclu des</w>
in spec
ima l</w>
id em
hä mmä
hyv än</w>
huomatta vasti</w>
hon our</w>
hoit aa</w>
hita asti</w>
hear t</w>
he ad</w>
hallitu kset</w>
h ou
go t</w>
genu ine</w>
ge ograph
g ain</w>
forth coming</w>
fail ed</w>
f all</w>
exam ples</w>
ettu ina</w>
erä s</w>
ent y</w>
ent it
ensi ksi</w>
end or
en jo
emer g
elä ke
ell yt</w>
el ement</w>
ehdotu ksesta</w>
ef t</w>
ed ul
du ties</w>
dra f
d ro
cour t</w>
comple x</w>
coher ence</w>
co vered</w>
certa inty</w>
ca me</w>
c y</w>
br inging</w>
bo ard</w>
at tava</w>
as sure</w>
as kel
arvio ida</w>
arrang ements</w>
arm s</w>
approxima tely</w>
appe al</w>
ap u</w>
al alle</w>
aktiiv isesti</w>
adop tion</w>
acc ession</w>
aa muna</w>
a jo
YK P:n</w>
Wallströ m</w>
W ar</w>
T ransport</w>
Se a</w>
Regi onal</w>
Poign ant</w>
Nizz assa</w>
Mar ch</w>
M id
M e
L eft</w>
L aan</w>
K au
J A
Is ra
Is on</w>
Irlann issa</w>
F e
Euroop paan</w>
E K
Do or
D ef
Comm on</w>
Cambo dian</w>
Bud getary</w>
Bissa u</w>
Americ a</w>
Af rik
AS EA
9 5</w>
12 .00</w>
1 .
03 8
ó n</w>
äärimmä isen</w>
äänest in</w>
ym istä</w>
yksik kö
y ers</w>
wr itten</w>
won der</w>
välttämä ttö
väl ittä
väl in</w>
vä hin
viisu min</w>
viime inen</w>
viik olla</w>
ver tail
vastuu ta</w>
var muu
var autu
var a
vankil oissa</w>
valmis tel
vaka uden</w>
vaikutta vat</w>
vaike aa</w>
vaad imme</w>
v est
uu tta
ust e
usko akseni</w>
ulko asioiden</w>
u o
u ne
täytäntöönpan oa</w>
tärke änä</w>
ty ö</w>
ty neet</w>
tule vien</w>
tu han
tru th</w>
tri al</w>
trad ition</w>
tra gic</w>
tos ise
toiminta ohjel
todel lakaan</w>
to ki</w>
thir dly</w>
there by</w>
th en
tekni ikan</w>
te gor
tarv etta</w>
tarkistu sehdotu
tammikuu ta</w>
ta p
ta ho
t kin</w>
sä h
suur en</w>
suku pol
suhta ud
stud ents</w>
streng th
sop i
sisäl tyy</w>
si vu
si t</w>
sh ells</w>
seura ta</w>
sen sus</w>
see king</w>
se ts</w>
san an</w>
saf e</w>
s ource</w>
s low</w>
ryhmä mme</w>
ru o
ro oli</w>
resur sse
repres ents</w>
repres ent</w>
rep ly</w>
recogn ised</w>
reac hing</w>
re ti
re le
raha sto
r ying</w>
r ing</w>
qu iry</w>
päätö kset</w>
päätö kseen</w>
päin vastoin</w>
puu ttua</w>
puol ella</w>
puheenvuor o</w>
pu naisten</w>
prosent in</w>
politic ians</w>
pi i
peruste ellisesti</w>
perust uu</w>
peci al</w>
pe to
pe op
peop les</w>
paik an</w>
paik allis
pa kko</w>
os pit
op ti
one uvo
on te
ol la
ob tained</w>
ne u
ne itä</w>
ne igh
n s</w>
n aisille</w>
mä lle</w>
my r
mu ille</w>
mo ving</w>
min äkin</w>
miljar dia</w>
mik ään</w>
meth ods</w>
merkittä viä</w>
mer i
mene e</w>
men tal
med ia</w>
mar k</w>
mahdollisuu ksien</w>
mahdollis uutta</w>
mahdollis esti</w>
maan i</w>
m im
m al
lopul takin</w>
lin ked</w>
liber alisation</w>
le vat</w>
le hd
lain kaan</w>
l yö
l ying</w>
l i</w>
l emme</w>
käytä nnön</w>
käyd ään</w>
käsitte ly
kä la
kysymy ksestä</w>
kysymy ksessä</w>
kuul la</w>
kunnian him
ku m
kri itt
kom men
kol mas</w>
kol mann
kiito ksia</w>
kestä vä</w>
kesk uudessa</w>
ker ta</w>
ke l</w>
kaup pa</w>
kala kan
jäsenvalti ossa</w>
jä rky
jou du
johdon mukais
jo tain</w>
itu ksen</w>
is inä</w>
is illa</w>
intermod ality</w>
intere sted</w>
initi al</w>
imäär ä
impl ications</w>
ik aan</w>
ihmis en</w>
identi fied</w>
hyöd yllis
hyväksy ttiin</w>
hyväks yttä
huoleh tia</w>
happen s</w>
h un
h ospit
h ir
gi ble</w>
fle et</w>
fac ing</w>
f ers</w>
exten d</w>
ex port</w>
ex pen
ex ists</w>
etu sij
etu ja</w>
ett ua</w>
es samme</w>
er ous</w>
enimmä is
en la
en e
en cies</w>
emerg ency</w>
elintarv ikke
el la
el ements</w>
ehdotu kseen</w>
ehdokas valtioiden</w>
ed ellä</w>
diplom atic</w>
dec ide</w>
de pendent</w>
d essä</w>
cour ts</w>
coordin ated</w>
construc tive</w>
concep t</w>
con stan
con sensus</w>
commun ities</w>
civil ian</w>
chil d</w>
char ges</w>
c ut</w>
c las
b road
b arri
avoim uutta</w>
ast ern</w>
assu me</w>
ase maa</w>
ar tic
ar ies</w>
ar ch
applic ant</w>
anno sta</w>
ann etta
amp i</w>
alue ellisen</w>
alis m</w>
aihe ita</w>
UN E
T si
T ob
T ans
T O
Sol an
S pecial</w>
S imp
S ar
R o
Peij s</w>
PC B
Myan mar</w>
Med ia</w>
Li ber
Karaman ou
J u
Genev essä</w>
G ö
En ergy</w>
E L
Dun n</w>
Belgi an</w>
Americ an</w>
2 8</w>
1 3</w>
03 6
03 5
00 8
00 6
än sä</w>
ä kään</w>
z z
z e
yr ittää</w>
ymmärr än</w>
ymmär re
yhteistyö stä</w>
yhden ty
wish es</w>
välis estä</w>
välin eet</w>
väl ille</w>
vuo teen</w>
vo ttom
vis as</w>
vi est
velvo itte
var aa</w>
van hem
valu es</w>
v ol
uuten a</w>
uud essaan</w>
use iden</w>
un employment</w>
un a</w>
ulk opolitiik
tö itä</w>
täytäntöönpan on</w>
täy s
työpaik koja</w>
tutkim us
tur s
tu ken
tre ated</w>
top ical</w>
toim een
todel lista</w>
tii vi
tied on</w>
ti lis
ther wise</w>
tetu t</w>
territor y</w>
ter ri
te iltä</w>
te il
tar kem
ta ust
suur ta</w>
suunta utu
sustain ability</w>
sup posed</w>
suositu ksia</w>
suhte ellisen</w>
su spen
strong ly</w>
sto im
stan ds</w>
ss äni</w>
spec ies</w>
sion osoituksia</w>
sil ti</w>
sid es</w>
si an
seura ukset</w>
sel vä</w>
se ven</w>
se a</w>
schem es</w>
sc ope</w>
saatta vat</w>
saan en</w>
sa si
s yö
request ed</w>
reduc ing</w>
realis tic</w>
re turn</w>
re pr
ratkais e
rah at</w>
ra ja
r oun
r in</w>
pääosast o</w>
päiv än</w>
pä i
pyst y</w>
pyr kin
puol ue</w>
puol et</w>
proses sia</w>
proses si</w>
pro per</w>
prim ary</w>
practic es</w>
pos t</w>
poliitt iset</w>
po istaa</w>
plann ed</w>
pl ying</w>
pitkä llä</w>
perustamis sopimuksen</w>
perintö ä</w>
perfec tly</w>
pel ast
peac e
pay ments</w>
pas sen
paranta miseksi</w>
pakol ais
p ic
out come</w>
osapuol ten</w>
opetu s
op s</w>
on eet</w>
on d
on alisation</w>
oma ista</w>
om assa</w>
ollis uuden</w>
oike a</w>
od aan</w>
oc cu
o therwise</w>
näl käla
nyky inen</w>
nu mb
numb ers</w>
nor mal</w>
neuvottelu ja</w>
n esty</w>
n esses</w>
n ation</w>
mul ti
mon issa</w>
min uutin</w>
mielen kiin
merkittä västi</w>
mer en</w>
menettel yn</w>
mechan ism</w>
me idät</w>
mahdollis ia</w>
m id
lähtökoh tana</w>
lä hd
luv ulla</w>
luott ola
luo vu
luku isia</w>
lisään ty
lis tan</w>
lik ely</w>
lea ve</w>
le tter</w>
lan d
lainsäädä nnö
laat inut</w>
la y</w>
la ito
l ists</w>
l an</w>
käyttä mään</w>
käsittele vän</w>
kä v
ky l
kuu kauden</w>
kuoleman rangais
kunn assa</w>
kumppan e
kulj etta
kse st
kse s
ks in</w>
koske vissa</w>
kon e
komissi ossa</w>
kolman neksi</w>
kol men</w>
kohd asta</w>
kka a</w>
keskis uur
kehittä misen</w>
keh ottaa</w>
kaud ella</w>
kannust aa</w>
jäsen ille</w>
ju lis
j our
itse stään</w>
it usta</w>
it etu
isyy den</w>
istunn ossa</w>
istunn on</w>
is ter
is on</w>
invol vement</w>
integra ted</w>
ine uvo
in kaan</w>
improv ements</w>
im migration</w>
ilma is
ill ään</w>
ik ka
id ent
hyvä ä</w>
high est</w>
han kal
han d
ha ast
h ti
h jel
gro wing</w>
gen e
gan isation</w>
ga ve</w>
g in
ful fi
fulfi l</w>
fre ight</w>
four th</w>
fam ili
fai l</w>
experi enc
ette mme</w>
et si
esiin ty
es si
er o</w>
ent repr
ensimmä istä</w>
emp ien</w>
edustaj an</w>
dyna mi
distribu tion</w>
dist inc
differ ence</w>
desi re</w>
demokrati aa</w>
deli ber
de tään</w>
de plo
dang erous</w>
d ä</w>
d in
conta ct</w>
constan tly</w>
consist ent</w>
con vic
con te
comb at</w>
com pati
co d</w>
citiz en</w>
chem ical</w>
charac ter
capa ble</w>
c k
c entral</w>
c a</w>
budj etti
bri efly</w>
bri ef</w>
brea k</w>
bil ateral</w>
be ings</w>
aw ar
avoim esti</w>
ase ita</w>
as kel</w>
arvio inti</w>
arri g
appla use</w>
any one</w>
anal yy
an imal</w>
alloc ated</w>
al ha
aikais emmin</w>
aik aisen</w>
acti vely</w>
Tra de</w>
Su om
Presid ents</w>
Or ganisation</w>
Naï r</w>
Kosov ossa</w>
Ital ian</w>
Indonesi an</w>
H ar
Ger man</w>
G arrig
Democ ratic</w>
Def ence</w>
Con serva
A gre
A b
äs ken</w>
ä m
ze go
z one</w>
yll isty
yli op
yleis sopimuksen</w>
yhteist yö</w>
yhteis een</w>
yhd isty
y lä
y istä</w>
x ed</w>
wid es
wides pread</w>
w ers</w>
väli in
vä nsä</w>
vy ttömyy
vuod esta</w>
viranom aisille</w>
viljel y
ve re
vastuu llis
vankil oiden</w>
valvonn an</w>
vall itsee</w>
vaka va</w>
vaikutu sta</w>
vai hd
v isi
v id
uut tia</w>
utta vaa</w>
täydel lis
tärke än</w>
täh tä
tä hd
työ ttömyy
työ nteki
tw enty</w>
tuot anto
tulevais uus</w>
tul i</w>
tu t</w>
tu ksia</w>
tu et</w>
tt oa</w>
transpar ent</w>
tra ck</w>
tosise ik
tois inaan</w>
toiminta ohjelman</w>
todennäkö isesti</w>
tieto inen</w>
tic al</w>
th reat
teho kas</w>
tavar oiden</w>
tas ks</w>
tarvitse vat</w>
tarpe eksi</w>
tarko ita</w>
tarkistu sten</w>
tar get</w>
tapahtu i</w>
taloudellis et</w>
taloudellis esti</w>
tal ks</w>
ta hd
ta an
t rol</w>
t ise</w>
sääntö jen</w>
syn tynyt</w>
sy yllisty
suhte et</w>
suhtaud un</w>
stu dies</w>
star ted</w>
sse mbly</w>
sotila iden</w>
sop e
some what</w>
sit e</w>
sil ence</w>
sign al</w>
si hte
ser ved</w>
sano ttuna</w>
sano in</w>
sa w</w>
sa isi</w>
ryhty mään</w>
ryh mät</w>
respec tive</w>
resol ved</w>
repres ented</w>
recogn ition</w>
receiv ing</w>
reas on
re ment</w>
re akti
rahoit usta</w>
raha ston</w>
raa ka</w>
r ö
r un</w>
r at</w>
quan t
quali fied</w>
päätö sten</w>
päättä vä
pääst ä
päivä llä</w>
päiv ä</w>
pyytä isin</w>
pursu e</w>
puhu n</w>
puhu mme</w>
protec ted</w>
prosper ity</w>
pres erve</w>
post pon
ple ase</w>
pid ämme</w>
perust a</w>
pas sed</w>
parlamen taar
par liament</w>
par as</w>
pan a</w>
pal au
pal a
pakol aisten</w>
pa ys</w>
ow n
ot onta</w>
oso ittanut</w>
os si
op tion</w>
ologi es</w>
oikeuden mukais
observa tions</w>
o sionosoituksia</w>
o ffic
nitra atti
määr ää
myönte isiä</w>
myön tää</w>
muu alla</w>
mu itakin</w>
mu istaa</w>
mit kä</w>
mis essä</w>
min imum</w>
min e</w>
mieli pid
men tally</w>
men ne
me rely</w>
me iltä</w>
maks ujen</w>
ma ata</w>
m illa</w>
lö yd
loppu jen</w>
lop puun</w>
lik vid
liitty vistä</w>
liikenn em
lan gu
la keja</w>
l ist
kysymy kseni</w>
kysy ä</w>
ku ole
ku ka</w>
ksen ä</w>
koulu opetuksen</w>
kommun ist
kokou kseen</w>
ko ihin</w>
kka ita</w>
kiintiö itä</w>
kiinn ittä
kiinn i</w>
kiel tää</w>
keskustel laan</w>
kertomu ksesta</w>
ke ino</w>
katastro f
kansalais ille</w>
kans an</w>
kalast usta</w>
kala varojen</w>
kaik esta</w>
ka m
ka amme</w>
k kiä</w>
jäsen tä</w>
jä tte
joukko jen</w>
johtu vat</w>
joh tanut</w>
itta vat</w>
its isi</w>
iti ous</w>
issa b
io ksi
inten tions</w>
inn on</w>
inc enti
in ju
in ation</w>
impres sion</w>
im possible</w>
im peri
ilme isesti</w>
ihmisoikeust il
hyväksy tty</w>
huon osti</w>
henkilö st
help po
he ard</w>
hark itse
ha z
ha an</w>
h uu
h id
h ence</w>
gener ally</w>
g ers</w>
g end
fin ance</w>
fe el
fav ourable</w>
f ast</w>
expec ted</w>
exerc ise</w>
ex change</w>
ett ää</w>
et taa</w>
ess ämme</w>
ess ing</w>
esittä neet</w>
esitteli jänä</w>
es in</w>
es day</w>
er ää
er ik
er i
er b
energi al
en kä</w>
en ess</w>
en de
ende av
em is
elä mässä</w>
ellis et</w>
eil en</w>
ed essä</w>
ed elle
e ing</w>
dis ci
disci pl
direktiive jä</w>
di ed</w>
descri bed</w>
del ays</w>
deb ating</w>
de ep
d in</w>
d ata</w>
cre w</w>
correc t</w>
contr ols</w>
confir m</w>
con fu
compan y</w>
com mer
colleag ue</w>
co ast
coast al</w>
cla im
challeng es</w>
centr e</w>
care fully</w>
ca tegor
c od
c o</w>
c ent</w>
bi olog
bi g</w>
barri ers</w>
avoim uus</w>
au to
au t
associ ated</w>
arme i
anto i</w>
ansi o
ann oun
am ma
am in</w>
all isiin</w>
al usta</w>
al thy</w>
aj oneuvo
ais i</w>
aim s</w>
aiheutta vat</w>
ac y</w>
ab il
a ion</w>
a io
Su osionosoituksia</w>
Saks an</w>
S ella
Re search</w>
Re port</w>
Palestin ian</w>
Pal ac
Mus car
Matthe w
Lis bon</w>
L issab
Ki m</w>
Ira kin</w>
Indonesi a</w>
Her zego
He aton</w>
G ulf</w>
Fin land</w>
Ferr i</w>
F rid
Euroop paa</w>
En g
EL DR</w>
E uro</w>
Con trol</w>
Commun ist</w>
Agre ement</w>
Afric a</w>
A ssembly</w>
9 0</w>
5 .30</w>
4 2</w>
3 9</w>
2 1
17 .30</w>
1 8
00 7
0. 5</w>
ä stä</w>
ympäristö -</w>
yliop ist
yl imäärä
yksimiel isiä</w>
yksimiel isesti</w>
yhti ö
yhteistyö ssä</w>
yhteis estä</w>
yhteis essä</w>
y ond</w>
y ksestä</w>
wha te
whate ver</w>
wel com
welcom ed</w>
w ent</w>
väär in
välttä ä</w>
vuoropuhel ua</w>
vuod essa</w>
vuo sia</w>
vo itte</w>
vied ä</w>
vi ew
varha is
varautu misen</w>
vapa an</w>
vaikutu s</w>
vaik ka
va ali
v es
ust oim
usko ttav
use im
ur ban</w>
union illa</w>
u ksesta</w>
tö ä</w>
täytäntöönpan osta</w>
tämän hetk
tähtä ä
työllisyy s-</w>
tyytyvä inen</w>
tyyp p
tur ning</w>
tur a</w>
tu tu
tu etaan</w>
ttä vää</w>
tta isiin</w>
trad itional</w>
trad ic
tr ansi
transi t</w>
tol er
toissijais uus
tois taa</w>
toimi elinten</w>
toimenpit eitä</w>
todis taa</w>
to ihin</w>
tilais uutta</w>
tila a</w>
tie tois
ti va
ti me
terve tulle
terroris min</w>
territor ial</w>
te llä</w>
te istä</w>
tarpe ettom
tarkistu s</w>
tapo ja</w>
takais in</w>
ta tions</w>
t yh
t se
sy itä</w>
suure sti</w>
surpr ised</w>
sukupuol ten</w>
suhte iden</w>
suff er</w>
sub mit</w>
strategi es</w>
stoc k</w>
st ac
spea ker</w>
sosiaal isen</w>
sopimu ksia</w>
sopim usten</w>
so hjel
siviil ivä
siviilivä est
sit e
sisäll yttä
siir tää</w>
siir re
sec ure</w>
se where</w>
se tt
se min
se itse
sa l</w>
sa in</w>
ro r</w>
ristiri it
riippu u</w>
resol ve</w>
reconc iliation</w>
re su
re forms</w>
rauhan turva
rau haa</w>
rakenneraha stojen</w>
ra tes</w>
qu es</w>
päätö stä</w>
päätö s</w>
pää osin</w>
pää llä</w>
puutte ita</w>
puolustus politiikan</w>
puheenjohtaja valtion</w>
prov ision</w>
protec ting</w>
produc ing</w>
produc ers</w>
pres er
pre fer
poh tia</w>
poh ti
pitkä aikaista</w>
pil ot</w>
pers onally</w>
periaatte ita</w>
per mit</w>
per intö</w>
parlament tiin</w>
parha iten</w>
paranta maan</w>
pako tte
pain ottaa</w>
paik allisten</w>
paik alla</w>
paho ill
pahoill ani</w>
p ien</w>
os saan</w>
opti mis
ongel maa</w>
om is
om iehist
om aisen</w>
offici al</w>
odo tan</w>
ob stac
o ko</w>
o g
nitra tes</w>
neuvotte lut</w>
ne ar</w>
määrä ykset</w>
määrit ellä</w>
mu kan
mor aal
mon u
min uuttia</w>
mil la
mietintö ni</w>
miel e
met s
med ical</w>
me ko</w>
mattom ia</w>
mat on</w>
main ittu</w>
main itsi</w>
läh että
lä kin</w>
lop etta
lo ok
liikenne onnettomuuksien</w>
liber aal
le vottom
lausu nn
lainsäädän tö</w>
laatu a</w>
laati a</w>
la itt
la hden</w>
l ose</w>
l eng
käytö ssä</w>
käsiteltä väksi</w>
kysymy ksistä</w>
kyseen alais
kurin pit
kunnianhim o
kunni a</w>
ku v
kti iv
ksi kin</w>
kol og
ko itu
kin ä
kiire ellis
keskitty ä</w>
kes kinä
ker ä
kehity kseen</w>
kehittä minen</w>
ke in
kansall isen</w>
kam pan
ka asu
k kaan</w>
jää vät</w>
jäl ke
joutu vat</w>
johd osta</w>
jo ille</w>
jo il
j ur
ittu jen</w>
itett y</w>
ita in</w>
it ä
is emmin</w>
invol ve</w>
introduc tion</w>
innova tive</w>
inn än</w>
individ u
incenti ves</w>
in s</w>
in ely</w>
im posed</w>
im pose</w>
im min</w>
il un</w>
il mi
il lu
il legal</w>
il ahd
ik kaa</w>
i aan</w>
hyö kkäy
hyvä stä</w>
huoleh ti
hun ger</w>
hospit al</w>
highligh ted</w>
h es</w>
go als</w>
genu inely</w>
ful f
for mu
famili ar</w>
ett ujen</w>
est ään</w>
est ima
esity s
es sive</w>
enti rely</w>
ensisi ja
enem pää</w>
endor se</w>
elä mään</w>
ell en</w>
elec ted</w>
el sewhere</w>
el imin
ehd otta
edustaj ien</w>
edelle enkin</w>
e vat</w>
dri vers</w>
dis par
diploma att
dest ro
demokraatt isen</w>
de ad
contribu te</w>
contr ary</w>
continu es</w>
con tradic
compet ence</w>
clo ser</w>
clari fy</w>
chang ed</w>
byrok raatt
bur g</w>
beli ev
be yond</w>
b orders</w>
b it</w>
au tojen</w>
ati es</w>
asian mukaisesti</w>
asi ana</w>
arvio intia</w>
artik la
arm ing</w>
arm ed</w>
are d</w>
appe ars</w>
ap pointed</w>
an ia</w>
amb itious</w>
amb itions</w>
am s</w>
am omiehist
ad e</w>
ab s
a misessa</w>
a kaan</w>
a h
Yhdysvall at</w>
Venä jä
V er
Strasbour gissa</w>
R ome</w>
Poign an
Peter sen</w>
Per sson</w>
Parish in</w>
Na tura</w>
N ew</w>
Mid dle</w>
M ol
M ag
Liber al</w>
L äh
Kes ki</w>
Ira q</w>
I tä
Herzego vina</w>
Gen even</w>
Garrig a</w>
Gallagh erin</w>
E astern</w>
Direc tive</w>
Christi an</w>
C a
Br itain</w>
Belgi um</w>
Bas que</w>
Al ba</w>
ö lle</w>
äl kää</w>
ä nne</w>
ystä väl
ympärist ö</w>
yllä pitä
yl pe
yksi lö
yks is
yhteis keskustelu</w>
yhteenkuuluv uuden</w>
y er</w>
we ak
w inding</w>
väär in</w>
välttämätö n</w>
vähen tää</w>
vol un
vo inut</w>
vo imaan</w>
vo c
viik on</w>
vi estin
ver ran</w>
ver o
velvollis uus</w>
vastuu vapautta</w>
vastaa vasti</w>
var i
vapau ksien</w>
vapaa eh
vapa ata</w>
valti on
valmis ta
valiokun taa</w>
val ko
vakuu ttaa</w>
vaikutu s
vaiku tel
vaati vat</w>
va m
uu h
utu u</w>
uskom me</w>
use r</w>
uni ons</w>
uhre ja</w>
u tilis
tärkeä m
työntekijö itä</w>
työjärjest ys
työ stään</w>
tutkimu ksia</w>
turvallis uu
tulevais uudesta</w>
tulevais uuden
tu te</w>
tu omioistuin</w>
tu olloin</w>
tu kia</w>
tu ista</w>
tt o</w>
tse go
tro ops</w>
trans fer</w>
trag edy</w>
tote si</w>
tois esta</w>
todel linen</w>
to isia</w>
til lis
tiett yjä</w>
terveyd en</w>
terv ehd
terri ble</w>
tekn isiä</w>
te e</w>
tavoitte en</w>
tavo it
tavoit etta</w>
taso illa</w>
tasapaino a</w>
tarkoitu ksen
tarkastel emme</w>
tapa an</w>
ta vasta</w>
ta so</w>
ta istel
t tavan</w>
säil yttää</w>
suojel ua</w>
sugg est</w>
su ffici
stu ot
strik e</w>
streng then</w>
stand ar
spe ech
speech es</w>
sovelle taan</w>
sosiaal ista</w>
sor ry</w>
sk y</w>
sit te</w>
sisäl ty
sisäl lö
simpli fication</w>
si e
ship s</w>
sex es</w>
seuraa vaa</w>
seur anta
separ ate</w>
sens itive</w>
sella iset</w>
sel vi
seitse män</w>
secu tion</w>
saatta isi</w>
sa mat</w>
s inne</w>
s cru
s ch
s ar
ryh dy
roh ke
repe ate
repeate dly</w>
reli gi
regula tory</w>
reduc ed</w>
re tary</w>
re sumed</w>
re h
ratkaise vaa</w>
rajatyö nteki
radio active</w>
r uc
päätöslausel ma</w>
pää sy
pää asiassa</w>
päiv ittäin</w>
pro sen
prim arily</w>
pres enting</w>
prec ise</w>
plem en
pitä en</w>
pil ar
pii riin</w>
pi in</w>
pers pec
p t</w>
p ed
ou red</w>
ou gh
oper ational</w>
op ening</w>
ond ura
om ic</w>
oleskel ua</w>
ol enn
oikeuden käyn
occ asi
oc cur
o tamme</w>
näkö kohta</w>
nor thern</w>
neuvottelu issa</w>
neuvo a</w>
nel jä</w>
neigh bour
na apu
n tö</w>
määrä ysten</w>
muoto il
mul ti</w>
mukan aan</w>
mu illa</w>
mp tion</w>
mon in
mo tions</w>
minu te</w>
minister ineuvo
ministe ri
menettel yjä</w>
me ja</w>
me asure</w>
markkino ille</w>
manag ed</w>
maks uky
maa han</w>
ma tically</w>
ly kä
luom inen</w>
lou kkau
los s</w>
lopul ta</w>
lopu ssa</w>
lear n</w>
lead s</w>
le maan</w>
la un
l ään</w>
l es
käytö stä</w>
käynn issä</w>
käy tetty</w>
käsittel yä</w>
käsittel yn</w>
kysymy sten</w>
kyse isen</w>
kuol on
kunn olla</w>
ksi aan</w>
ks in
kr it
krit iso
kon su
kohd assa</w>
ko ke
kilpail un</w>
kilpail u
kesä kuussa</w>
ke ä</w>
kau pan
kas vun</w>
kann ata</w>
ka sti</w>
k ki</w>
jäsenvalti ota</w>
järjestel mään</w>
jul ka
joutu neet</w>
jou kossa</w>
jo ko</w>
jo kais
j olle</w>
j alla</w>
ittu a</w>
itsen sä</w>
itet tiin</w>
isyy teen</w>
ist ö
ist e</w>
is ol
invol ves</w>
in ev
ima g
ill inen</w>
il tana</w>
ik a</w>
ihmis oikeudet</w>
huom auttaa</w>
helpo sti</w>
help po</w>
he idät</w>
hallit ust
hallin to
hallin ta
hall itse
ha u
ha ki
ha it
h und
h ul
h om
h inn
h een</w>
gran t</w>
gh ting</w>
fun c
f requ
explan ation</w>
exam ined</w>
eurooppal aisia</w>
ett y
esti in
erity inen</w>
er ing</w>
equ ip
entit led</w>
ent is
energial äh
encoura ged</w>
en ter</w>
en taa</w>
en han
emä ttä</w>
em mälle</w>
eläkelä isten</w>
ellis een</w>
edust aa</w>
edisty stä</w>
ediste tään</w>
edellyty s</w>
ed s</w>
ed ing</w>
ed ellisen</w>
ed el
dynami c</w>
duc ation</w>
dro p</w>
drin k</w>
dra maatt
docu ments</w>
difficul ty</w>
determin ed</w>
dest ruc
deliv er</w>
del ay</w>
dec entr
de als</w>
d re
d om
d istor
d et</w>
consequ ence</w>
con tain</w>
car bon</w>
campa ign
br ings</w>
bla me</w>
becom es</w>
b un
awar eness</w>
av usta</w>
author ity</w>
atu zz
attemp ts</w>
atta ck</w>
att rac
associ ations</w>
asia kirjo
as sa
arvo st
argu ment</w>
ar ise</w>
appreci ate</w>
applic able</w>
appar ently</w>
an kin</w>
an e</w>
am paa</w>
am alla</w>
allekirjo itta
al ities</w>
aj ia</w>
air craft</w>
ag g
affec ts</w>
adv ice</w>
adap t</w>
ad ing</w>
ac qu
ac knowledge</w>
a mis
a ffairs</w>
W TO</w>
Välim eri</w>
Sar aj
San ders</w>
Ru le</w>
R K</w>
Per sian
Pen sioners</w>
P RK</w>
Mit ch</w>
Ma es</w>
M al
Läh i</w>
Lissab onin</w>
Kosov on</w>
Kau ka
K u
K inno
Jugoslavi an</w>
I tä</w>
I st
Her tsego
H ondura
H ol
Gre ens</w>
G az
Frid ay</w>
Fin an
F u
F atuzz
Ex ternal</w>
E ducation</w>
Direc torate</w>
D a
D PRK</w>
Carpegn a</w>
CO M</w>
C auc
Bas ki
B ou
B os</w>
B e
B K
A asian</w>
6 2</w>
3 2</w>
199 0</w>
1 9</w>
00 0
ön tä</w>
ään i</w>
än kin</w>
ympäristö lainsäädännön</w>
yli pää
yle isen</w>
yks issä</w>
yhteis päätö
yhdis tä
ydin voim
we alth</w>
w oman</w>
välis iä</w>
välin että</w>
vähem mist
voima varoja</w>
vi ent
vi able</w>
ver ta
vastuu n
vastust aa</w>
vastau ksen</w>
vasta avat</w>
varmista maan</w>
vapa asti</w>
vaikutu ksista</w>
vaihtoeh toja</w>
vah ing
vaal e
vaad ittava</w>
v ittä
v ision</w>
utu nut</w>
ura ani</w>
un to</w>
ulottu v
ulkom in
ul ly</w>
tärke in</w>
tä ten</w>
tutkim usta</w>
tutkim us</w>
tur ing</w>
tuot teiden</w>
tulevais uutta</w>
tu le</w>
tu ja</w>
tu h
tti vät</w>
tta vat</w>
tr end</w>
tr a</w>
tote an</w>
tosi asia</w>
toivo a</w>
toistu vasti</w>
toista iseksi</w>
tois istaan</w>
toiminn asta</w>
toimi maan</w>
todellis uudessa</w>
todellis ia</w>
tieliiken teen</w>
tieliiken ne
ti en
thor ough
then burg</w>
tekop yh
tekijö itä</w>
tehtä vää</w>
teho st
te ihin</w>
te et</w>
te bor
tav an
tarvitta vat</w>
tarkem min</w>
tark istaa</w>
ta sol
ta hol
t osin</w>
säh kö
sä teil
suunnitel tu</w>
suspen ded</w>
sur vi
suositu s</w>
suojel un</w>
suo tu
succ e
sub sequ
su mm
stre am
sto ja</w>
sti pu
sp ic
sp ent</w>
sov ittelu
sivi ili
sisäll yttää</w>
sisä markkinoiden</w>
sin änsä</w>
simil arly</w>
seura a</w>
ser ves</w>
sen sible</w>
selv ittää</w>
sella isena</w>
se es</w>
sano itte</w>
saman aikais
samanaikais esti</w>
sala kuljetu
saavu tetaan</w>
sa vu
sa imme</w>
s y</w>
s low
s cand
s anne</w>
ryh d
ro se</w>
rist y
rikostu omioistuimen</w>
rik ka
resursse ja</w>
restric tions</w>
res pects</w>
request s</w>
remar ks</w>
remain ing</w>
rela te</w>
refuge e</w>
reco very</w>
rec all</w>
reason able</w>
re ven
re infor
rauta tie
raho ittaa</w>
ra w</w>
ra ble</w>
päätöslausel maa</w>
pää dy
pää asi
päi vää</w>
pä nä</w>
pyyd ämme</w>
puheenjohtaj ana</w>
promo tion</w>
prom is
proceed ings</w>
proc essing</w>
prev enting</w>
pre ven
popu lations</w>
ponnistelu ja</w>
pol tto
point ing</w>
pohjo is
po ore
pit i</w>
perusta misesta</w>
perust aa</w>
periaatte essa</w>
peri ods</w>
perc enta
per j
perj anta
palvel ujen</w>
pal kki
pal estiin
paik alliset</w>
p etty
p at
our g</w>
ou ble</w>
otta minen</w>
ott aneet</w>
ot e</w>
osallistu u</w>
ore d</w>
or a
opp ia</w>
oper ators</w>
oper ating</w>
onnistu neet</w>
ongel masta</w>
ongel maan</w>
ongel m
oleskel u
ol laan</w>
ol is
oike assa</w>
ohjel mat</w>
ohjel ma
offici als</w>
oc ca
occa sion</w>
obli gation</w>
o x
o ille</w>
näh neet</w>
noudatta mista</w>
nope us
no body</w>
nim issä</w>
ni em
ne i
nei ther</w>
n er
mää riä</w>
myönn että
myönn etty</w>
muod ossa</w>
mu sta</w>
mu ka</w>
mis sion</w>
mil laisia</w>
mieh et</w>
mar ked</w>
maks uja</w>
maaseud ulla</w>
maail maa</w>
ma tely</w>
ma d
lä hen
luu len</w>
luu l
lu ottaa</w>
lu kuun</w>
look ed</w>
lo wer</w>
ll istä</w>
likvid aati
liitty vä</w>
liikennem uo
liik enne</w>
liik aa</w>
le vi
le h
las ke
lann in</w>
la sting</w>
la aja</w>
l ent
käyttä jä</w>
käy nyt</w>
käsittel yyn</w>
kä sin</w>
kuu kaus
kuu kau
kurinpit omenettel
kul ku
ku olle
ks u
kriis in
koti maassani</w>
kor jat
kom promis
kolleg amme</w>
kiit ollinen</w>
ki pää
kau h
kasvu a</w>
kansall isia</w>
kalastus politiikka</w>
kahd esta</w>
ka a
järjestelmä ssä</w>
jud g
joutu a</w>
ja ks
j yr
j ol
j en
j al
itu kset</w>
it ellen</w>
is uus</w>
is at</w>
introduc ing</w>
int end</w>
institu tional</w>
institu tion</w>
inju red</w>
indic ated</w>
in tä</w>
in es</w>
in ary</w>
in adequate</w>
importan tly</w>
im en
ill emme</w>
iken teen</w>
ihmisoikeus rikkom
ih me
id ioksi
id ent</w>
hämmä st
hy l
huolehd ittava</w>
huippu kokouksessa</w>
hinnoittelu n</w>
hiil idioksi
hi er
herä ttä
heav y</w>
hd o
hall int
ha kem
gend er</w>
g one</w>
g la
g est
g ain
fri ends</w>
fra ud</w>
fra id</w>
flexi ble</w>
fel t</w>
feel ing</w>
fe ar</w>
farm er</w>
f em
f eder
excep t</w>
ex tra</w>
etusij alle</w>
ett yä</w>
ete lä
esitteli jä
esitet yt</w>
esitet tiin</w>
ent isen</w>
ensimmä isessä</w>
ensi ksikin</w>
emis sions</w>
em ia</w>
elle i</w>
elin ympäristö
elec tr
ehkä is
ehdo tetaan</w>
effec tiveness</w>
ef ully</w>
edustaj ia</w>
edistä miseksi</w>
easi ly</w>
e teen</w>
dra wing</w>
dra matic</w>
disast ers</w>
dis tur
direc ted</w>
determin ation</w>
destruc tion</w>
des erve</w>
depen ds</w>
demonstra te</w>
dele gations</w>
defin ed</w>
def ending</w>
de fic
d omin
d a</w>
consequ ently</w>
conclu ded</w>
con ven
con omic</w>
compati ble</w>
cla ss</w>
cha in</w>
ch in</w>
ch ance</w>
car rying</w>
campa ign</w>
c ted</w>
c lu
c er
bureauc ratic</w>
br itti
bec a
beca me</w>
b road</w>
b on
b inding</w>
b ase</w>
avoim uuden</w>
ava in
at tel
at ri
associ ation</w>
asses s</w>
asetu s</w>
ar kk
ar ising</w>
appro ac
ante eksi</w>
an ti</w>
an san
allis een</w>
all an</w>
al aan</w>
aj at</w>
ais uuden</w>
ais in</w>
aika välillä</w>
ai o</w>
accoun ts</w>
abs ence</w>
aan kin</w>
a misesta</w>
a miseen</w>
a ir</w>
a fraid</w>
Y :n</w>
W TO
Turk issa</w>
Saraj ev
Salvador in</w>
Ro oman</w>
R ural</w>
R a
Persian lahden</w>
Palac io</w>
O n</w>
N o
Myan mar
Mon day</w>
M ilo
Luxemb ourg</w>
Ky pro
Kre ik
Karamanou n</w>
H el
Gö tebor
Go thenburg</w>
Fu els</w>
Finan cial</w>
Feder ation</w>
Fatuzz o</w>
F or
E conomic</w>
E Y:n</w>
D en
Conserva tive</w>
C y
C res
C or
C har
Bryssel issä</w>
Bosni assa</w>
Amend ments</w>
A u
3 1.</w>
0 s</w>
ö l
z emb
zemb ow
yksi in</w>
yhti ön</w>
yhteisymmärr ykseen</w>
yhteiskunn assa</w>
yhteis vastuullis
yhteenkuuluv uutta</w>
yhte ys</w>
yhte isiä</w>
yhdenmukaista mista</w>
y llä</w>
wid ely</w>
wha t
what so
whatso ever</w>
w il
w ei
väki valta
vähemmist ö
väh iten</w>
väh itellen</w>
vä istä
vuoropuhel un</w>
vo tes</w>
viljeli jä
viivä st
vihre än</w>
view ed</w>
viel äkin</w>
vi isi</w>
vi gor
vers ities</w>
verotu ksen</w>
vel ko
vehic les</w>
vasta avan</w>
vasta ava</w>
varsin kaan</w>
var ast
valtio ille</w>
vall an
valiokun tamme</w>
va u
va mme</w>
v ency</w>
uudistu ksen</w>
uud estaan</w>
urg ency</w>
ur t
union ille</w>
uni on</w>
un necessary</w>
ulkopuol elle</w>
ul ti
u sa
u kseen</w>
tärkeäm pää</w>
tälla iset</w>
työpaik kojen</w>
työ n
työ hön</w>
turvapaik ka
turvallis uuteen</w>
tun tuu</w>
tun tu
tulo s</w>
tulevaisuuden näky
tuke vat</w>
tuhan sia</w>
tu red</w>
tu ossa</w>
tu kahd
tu ettava</w>
tu emme</w>
tr ans</w>
toteu tetaan</w>
torsta i</w>
toivotta vaa</w>
toivo ttaa</w>
toimin taan</w>
toimenpit eet</w>
to isi
to de
tieliiken teessä</w>
thorough ly</w>
thel l</w>
tett yjen</w>
tervehd yttä
teollis uus</w>
teknologi an</w>
teki jä</w>
tehtä viä</w>
tehtä viin</w>
teho ttom
techn ological</w>
teac hing</w>
te sts</w>
te st
te ja</w>
tarkistu ksen</w>
tapa hd
tan i</w>
talous arvio
taloudel listen</w>
taan ko</w>
ta minen</w>
t k
sääntel yn</w>
syste matic</w>
sy yllis
sy nn
suure t</w>
suotu is
suojel usta</w>
sub stance</w>
sub jected</w>
st er</w>
sov ittu</w>
sosiaalitur va
sopimu ksessa</w>
sopim us
sop iv
sol vency</w>
sil mällä</w>
si m
seuraav an</w>
selke ä</w>
se vi
se uran
sc ap
scap e</w>
saast utta
saa pu
sa massa</w>
sa ke</w>
s pite</w>
s mu
smu gg
s ki</w>
s inc
rup tion</w>
ru st</w>
ris kipää
reti rement</w>
reser va
res erve</w>
regula ted</w>
re als</w>
re alist
