the 19096
, 13907
. 9653
of 9036
to 8898
and 7181
in 6536
is 4322
a 4304
that 4263
I 3037
we 2979
for 2884
on 2693
this 2678
it 2451
be 2239
are 2057
as 1936
which 1890
have 1816
not 1644
with 1625
@-@ 1547
by 1311
European 1223
Mr 1133
will 1130
has 1110
at 1026
would 911
all 906
an 900
s 895
Commission 881
but 859
&apos; 845
also 814
should 791
report 788
our 786
from 764
President 754
must 735
ing 722
there 719
- 716
you 673
been 663
more 663
can 657
Union 645
or 644
they 625
these 624
do 613
so 589
ed 581
was 575
like 560
its 534
their 529
what 527
if 522
one 514
Parliament 510
Member 502
very 492
States 476
re@@ 475
my 473
other 468
up 436
policy 435
who 430
countries 427
people 423
am 419
need 419
time 408
because 399
Council 398
now 394
b@@ 392
in@@ 391
take 384
important 383
EU 382
about 378
ted 370
out 369
only 361
us 356
make 343
when 342
no 340
support 337
those 336
therefore 330
Europe 327
some 326
such 326
: 319
es 312
c@@ 311
between 306
into 305
many 303
were 302
work 300
able 299
( 297
) 297
? 296
way 295
any 289
issue 288
s@@ 286
e 285
&apos;s 284
than 281
situation 278
&quot; 277
however 275
just 275
made 274
debate 272
country 269
well 269
f@@ 268
d@@ 267
first 266
new 265
political 263
t 262
Commissioner 262
being 259
point 259
y 256
/ 256
women 254
even 251
un@@ 250
use 250
rights 247
fact 247
where 246
course 245
human 245
how 242
ly 241
part 238
er 237
say 237
young 236
future 232
Mrs 231
measures 230
me 228
en@@ 227
them 227
here 226
order 223
question 223
year 220
areas 220
e@@ 219
most 218
g@@ 217
transport 212
still 211
within 211
farmers 211
development 210
own 210
a@@ 208
same 207
Community 207
last 206
ate 205
two 205
ting 204
see 203
too 202
Committee 202
p@@ 202
number 201
de@@ 200
much 197
why 196
believe 196
does 196
tion 196
had 194
ar@@ 194
social 194
think 193
2000 192
ts 192
both 192
problems 192
S@@ 191
common 191
against 190
could 189
then 188
cannot 188
possible 187
dis@@ 187
already 186
clear 186
want 185
may 184
years 184
m@@ 183
ent 183
your 182
; 182
ation 182
ally 181
al 181
he 180
system 179
know 178
his 178
w@@ 178
taken 178
great 178
ra@@ 176
over 176
area 174
n@@ 174
good 173
problem 172
legislation 170
hope 169
given 169
d 169
aid 169
m 168
under 168
thank 167
long 167
right 166
economic 166
h@@ 165
particular 164
rapporteur 162
action 161
ated 159
i@@ 159
example 159
today 157
world 157
education 157
C@@ 156
proposal 156
fisheries 155
st@@ 154
means 154
red 154
national 154
A@@ 153
level 153
ad@@ 152
ations 152
t@@ 151
industry 151
% 151
said 151
through 151
process 148
agreement 148
information 148
ity 148
making 148
road 148
regard 147
matter 147
end 147
since 146
place 146
sector 146
give 145
view 145
or@@ 144
resolution 144
F@@ 144
al@@ 144
going 144
safety 143
decision 143
ex@@ 143
environmental 143
o@@ 142
con@@ 142
r@@ 142
u@@ 141
gentlemen 139
after 139
before 139
ab@@ 139
set 138
ladies 137
shall 137
particularly 137
it@@ 137
co@@ 137
T@@ 137
su@@ 137
again 135
ding 135
ers 135
done 135
an@@ 135
subject 135
every 135
l@@ 134
financial 134
tions 134
case 134
issues 133
ating 133
vote 132
ic@@ 131
reports 131
far 131
ac@@ 131
directive 131
cooperation 131
regions 131
Court 131
for@@ 130
quite 130
ensure 130
ve 129
ma@@ 129
th@@ 129
P@@ 129
on@@ 129
terms 128
programme 128
resources 128
wish 127
used 127
put 126
pre@@ 126
ous 124
public 124
behalf 122
er@@ 122
Swedish 122
different 122
few 121
welcome 121
whole 121
market 121
amendments 119
com@@ 119
sion 119
per@@ 119
l 118
quality 118
Mediterranean 118
k 117
yet 117
position 117
concerned 117
working 117
im@@ 116
whether 116
ro@@ 116
ask 115
group 115
opinion 115
Madam 114
House 113
principle 113
greater 113
di@@ 112
importance 111
better 111
especially 111
come 111
la@@ 110
next 110
Group 110
tive 110
ge 110
te@@ 109
basis 109
favour 109
deal 109
progress 109
te 108
present 107
continue 107
less 107
R@@ 106
region 106
three 106
go 105
high 104
ded 104
certain 104
responsibility 103
I@@ 103
pa@@ 103
ks 103
ri@@ 103
necessary 103
proposals 102
let 102
employment 102
ds 102
attention 101
ter 101
approach 101
ch@@ 101
H@@ 100
king 100
based 100
ance 100
as@@ 100
initiative 100
once 99
something 99
il@@ 99
find 99
get 99
rather 99
D@@ 99
finally 99
ti@@ 99
without 98
ed@@ 98
uranium 98
help 98
fishing 98
call 97
involved 97
respect 96
although 96
Presidency 96
citizens 96
peace 96
form 96
environment 96
further 95
ise 95
agree 95
is@@ 95
no@@ 95
workers 95
United 95
specific 94
management 94
itself 93
third 93
role 93
really 92
least 92
tes 92
ses 92
ities 92
est 91
Members 91
priority 91
needs 91
health 91
se@@ 91
concern 91
N@@ 91
cultural 91
international 91
indeed 90
forward 90
li@@ 90
fully 90
available 90
together 90
costs 90
L@@ 90
E@@ 89
during 89
pu@@ 89
following 89
often 88
general 88
real 88
W@@ 87
another 87
le 87
look 87
ary 86
op@@ 86
serious 86
did 86
to@@ 86
c 86
authorities 86
depleted 86
responsible 86
mis@@ 85
ir@@ 85
ch 85
conditions 85
si@@ 85
provide 85
while 85
ful 84
ence 84
clearly 84
en 84
government 84
military 84
ies 84
law 84
ec@@ 84
line 83
opportunity 83
mentioned 83
3 83
various 83
z@@ 83
age 83
including 83
under@@ 83
ment 83
enlargement 83
become 83
back 82
consider 82
points 82
adopted 82
Government 82
comes 82
qu@@ 82
regional 82
towards 82
major 81
ol@@ 81
certainly 81
aware 81
State 81
increase 81
n 81
account 81
als 81
agricultural 81
1 80
having 80
Party 80
small 80
upon 80
interest 80
society 80
frontier 80
y@@ 79
o 79
gu@@ 79
extremely 79
current 79
B@@ 79
start 79
Turkish 79
pro@@ 79
heritage 79
Rights 78
pr@@ 78
change 78
each 78
2 78
EUR 78
implementation 78
positive 78
organisations 78
funds 78
trans@@ 77
sh@@ 77
meeting 77
million 77
ying 77
ap@@ 77
M@@ 76
ant 76
appropriate 76
concerns 76
ments 76
taking 76
i 76
pen@@ 76
actually 76
allow 75
always 75
Turkey 75
ently 75
second 75
ver@@ 75
difficult 75
fied 75
se 74
life 74
things 74
men 74
excellent 74
wor@@ 74
th 74
res 74
No 74
themselves 74
par@@ 73
committee 73
down 73
state 73
enough 73
perhaps 73
reason 73
ical 73
main 73
control 73
her 73
ce 73
Bangladesh 73
lack 72
full 72
words 72
interests 72
feel 72
voted 72
result 72
G@@ 72
force 72
ised 72
achieve 72
field 72
Auditors 72
ble 71
parties 71
rec@@ 71
local 71
systems 71
h 70
k@@ 70
institutions 70
be@@ 70
results 70
hand 70
5 70
mo@@ 70
discussion 70
improve 70
called 70
free 70
Sweden 70
et@@ 69
ents 69
pla@@ 69
bo@@ 69
Treaty 69
acc@@ 69
fe@@ 69
rules 69
protection 69
programmes 69
g 68
natural 68
ws 68
large 68
conflict 68
security 68
ag@@ 68
due 67
weapons 67
le@@ 67
legal 67
2001 67
res@@ 66
access 66
food 66
el@@ 66
st 66
uni@@ 66
secondly 66
ture 66
ta@@ 66
effect 66
6 66
governments 66
min@@ 66
population 66
democracy 66
farming 66
services 65
cases 65
using 65
framework 65
aspects 65
initiatives 65
trade 65
money 65
open 64
v@@ 64
over@@ 64
man@@ 64
concerning 64
best 64
ition 64
ine 64
land 64
decisions 64
9 63
unfortunately 63
ter@@ 63
recent 63
currently 63
fi@@ 63
ourselves 63
little 63
ul@@ 63
4 62
proposed 62
past 62
procedure 62
bring 62
until 62
directives 62
special 62
projects 62
ement 62
contribution 62
presidency 62
tax 62
Affairs 61
mind 61
firstly 61
000 61
matters 61
NATO 61
ling 61
kind 61
congratulate 61
ged 61
movement 61
rural 61
groups 60
dialogue 60
essential 60
ice 60
amendment 60
om@@ 60
effective 60
reform 60
efforts 60
Office 60
ons 59
others 59
moment 59
ic 59
pl@@ 59
per 59
objective 59
energy 59
day 58
assistance 58
held 58
agenda 58
speak 58
members 58
motion 58
tly 58
O@@ 58
despite 58
x@@ 58
establish 58
ur@@ 58
infrastructure 58
de 58
funding 58
1999 58
term 58
led 57
raised 57
ited 57
ty 57
relations 57
sure 57
r 57
priorities 57
7 57
production 57
objectives 57
children 57
cohesion 57
civil 57
promote 57
crisis 57
dec@@ 56
request 56
tra@@ 56
might 56
stage 56
freedom 56
family 56
fy 56
procedures 56
products 56
prof@@ 56
ou@@ 56
evaluation 56
5@@ 56
participation 56
att@@ 56
December 55
late 55
received 55
longer 55
regarding 55
North 55
adopt 55
ish 55
UN 55
A5 55
key 55
ans 55
commitment 55
2@@ 54
throughout 54
sa@@ 54
agreed 54
though 54
fication 54
idea 54
follow 54
strategy 54
gra@@ 54
ency 54
va@@ 54
ever 54
6@@ 54
sur@@ 54
od@@ 54
fin@@ 54
ite 54
either 54
non 54
he@@ 54
cause 54
Balkans 54
quotas 54
accidents 54
sing 53
ob@@ 53
20 53
at@@ 53
understand 53
ion 53
tabled 53
draw 53
organisation 53
share 53
simply 53
relation 53
guarantee 53
cor@@ 53
nature 53
levels 53
ability 53
p 53
opportunities 53
doing 53
policies 53
Human 53
effects 53
roads 53
ness 52
por@@ 52
plan 52
sed 52
mean 52
internal 52
bility 52
technical 52
defin@@ 52
Minister 52
em@@ 51
everyone 51
reasons 51
Nice 51
carried 51
implement 51
ha@@ 51
makes 51
transparency 51
external 51
regulation 51
seen 51
ters 51
above 51
training 51
context 51
nothing 51
In@@ 51
consequences 50
00 50
ences 50
actions 50
French 50
accept 50
encourage 50
visa 50
death 50
war 50
power 50
ent@@ 50
practice 50
ago 50
she 50
apply 50
addition 50
sc@@ 50
mar@@ 50
monitoring 50
impact 50
Korea 50
months 49
joint 49
across 49
off 49
assessment 49
out@@ 49
ought 49
pres@@ 49
instead 49
sta@@ 49
mu@@ 49
research 49
precisely 49
instruments 49
states 49
ing@@ 49
1@@ 48
pi@@ 48
ast@@ 48
competition 48
discuss 48
vis@@ 48
id@@ 48
negotiations 48
risk 48
ates 48
needed 48
der 48
sol@@ 48
ves 48
carry 48
single 48
total 48
questions 48
rati@@ 48
wood 48
statement 47
am@@ 47
sec@@ 47
days 47
8 47
forces 47
border 47
ely 47
crucial 47
requirements 47
move 47
democratic 47
step 47
presented 47
fundamental 47
thing 47
victims 46
urgent 46
expressed 46
mention 46
cost 46
ve@@ 46
side 46
inc@@ 46
administrative 46
les 46
tr@@ 46
around 46
communication 46
benefit 46
es@@ 46
alised 46
half 46
play 46
forestry 46
coun@@ 46
Ireland 46
agriculture 46
pay 45
draft 45
legislative 45
cha@@ 45
Morocco 45
prevent 45
equal 45
ne@@ 45
achieved 45
ke 45
table 45
ff@@ 45
majority 45
experience 45
dra@@ 45
according 45
prisoners 45
existing 45
agreements 45
specifically 45
response 45
develop 45
lu@@ 45
knowledge 45
schools 45
rapid 45
scientific 45
Convention 45
mi@@ 45
vi@@ 45
International 45
Deprez 45
V@@ 44
express 44
asked 44
relevant 44
ran@@ 44
inter@@ 44
activities 44
lead 44
est@@ 44
re 44
never 44
ways 44
ising 44
balance 44
party 44
list 44
sense 44
lar 44
sustainable 44
period 44
included 43
China 43
item 43
self 43
jobs 43
sites 43
sha@@ 43
keep 43
ess@@ 43
forest 43
soon 43
tic 43
pri@@ 43
po@@ 43
prisons 43
coordination 43
provisions 43
text 43
P 43
directly 43
sometimes 43
representatives 43
provided 43
individual 43
gener@@ 43
exc@@ 43
General 43
criticism 43
talk 43
intermodal 43
struc@@ 42
men@@ 42
end@@ 42
ists 42
ved 42
i.e. 42
try 42
furthermore 42
answer 42
lo@@ 42
sions 42
companies 42
hold 42
ision 42
ges 42
Republic 42
ure 42
bel@@ 42
id 42
atta@@ 42
cre@@ 42
job 42
changes 42
established 42
et 42
closed 42
growth 42
project 42
recommendations 42
prepared 42
poor 42
placed 42
create 42
protect 42
ci@@ 42
budget 42
ars 42
ning 41
him 41
.@@ 41
ps 41
demand 41
principles 41
regulations 41
reach 41
behind 41
extent 41
receive 41
community 41
sufficient 41
short 41
ia 41
har@@ 41
regime 41
K@@ 41
ings 40
type 40
left 40
Nations 40
w 40
ill@@ 40
myself 40
moreover 40
document 40
ght 40
stability 40
12 40
businesses 40
ni@@ 40
9@@ 40
among 40
almost 40
iti@@ 40
operations 40
medium 40
sive 40
B5 40
stay 40
session 39
enti@@ 39
ically 39
discussed 39
p.m. 39
include 39
four 39
recently 39
everything 39
People 39
ong@@ 39
J@@ 39
tell 39
looking 39
date 39
industries 39
do@@ 39
staff 39
saying 39
British 39
member 39
recommendation 39
manner 39
stress 39
active 39
tors 39
ction 39
reaction 39
former 39
ative 39
cu@@ 39
took 39
all@@ 39
task 39
powers 39
SMEs 39
reality 39
15 38
ces 38
0@@ 38
discussing 38
seems 38
several 38
hol@@ 38
Algeria 38
Russia 38
turn 38
den@@ 38
direct 38
up@@ 38
namely 38
oun@@ 38
reg@@ 38
ality 38
coming 38
comments 38
investig@@ 38
old 38
true 38
investment 38
lives 38
ten@@ 38
rate 38
humanitarian 38
Geneva 38
beginning 37
yed 37
prepar@@ 37
final 37
sitting 37
times 37
ined 37
close 37
ors 37
fight 37
fair 37
continu@@ 37
ken 37
justi@@ 37
act 37
circumstances 37
show 37
ced 37
ck 37
ked 37
tan@@ 37
effort 37
pil@@ 37
scheme 37
thanks 37
economy 37
4@@ 37
practical 37
col@@ 37
care 37
conclusions 37
committed 37
face 37
Re@@ 37
ving 37
fish 37
ad 36
solidarity 36
families 36
serve 36
10 36
January 36
fellow 36
note 36
sectors 36
van 36
ati@@ 36
wh@@ 36
Georgia 36
thus 36
nor 36
ide 36
ct 36
ka@@ 36
whom 36
review 36
forms 36
produce 36
effectively 36
gh@@ 36
focus 36
school 36
03@@ 36
exclu@@ 36
ce@@ 36
equality 36
dly 36
water 36
cross 36
discharge 36
lies 36
Policy 36
traffic 36
low 36
ned 35
affected 35
comm@@ 35
our@@ 35
ge@@ 35
consideration 35
suggest@@ 35
remain 35
ours 35
found 35
air@@ 35
emb@@ 35
vo@@ 35
tor@@ 35
we@@ 35
Article 35
conc@@ 35
success 35
offer 35
stocks 35
Amendment 35
tomorrow 35
paid 35
developed 35
value 35
nevertheless 35
implemented 35
reduce 35
ensuring 35
rely 35
7@@ 35
away 35
sign@@ 35
honourable 35
advantage 35
Solana 35
alcohol 35
50 34
el 34
Barcelona 34
referred 34
voting 34
drawn 34
Conference 34
thinking 34
absolutely 34
dealt 34
body 34
considerable 34
related 34
week 34
light 34
views 34
Ch@@ 34
solution 34
purpose 34
Spanish 34
mp@@ 34
relating 34
trying 34
rest 34
um 34
ten 34
required 34
lin@@ 34
regards 34
paper 34
anything 34
begin 34
limit 34
connection 34
rem@@ 34
ological 34
sign 34
solutions 34
stra@@ 34
fer@@ 34
World 34
ist 34
the@@ 34
forests 34
amount 34
me@@ 34
Regulation 34
ism 34
Bosnia 34
colleagues 34
name 34
South 34
nuclear 34
Paper 34
ese 34
CFP 34
Central 33
onal 33
El 33
med 33
police 33
Justice 33
decided 33
brought 33
fac@@ 33
Social 33
credit 33
expect 33
spo@@ 33
ev@@ 33
candidate 33
fore@@ 33
contra@@ 33
raise 33
efficient 33
refle@@ 33
ions 33
early 33
justice 33
comb@@ 33
quickly 33
administration 33
happen 33
developments 33
huge 33
setting 33
partners 33
intervention 33
mod@@ 33
application 33
isation 33
financing 33
damage 33
considered 33
annual 33
Foreign 33
address 33
leg@@ 33
Parish 33
Development 33
renewable 33
fishermen 33
ost 32
terrorism 32
meet 32
Strasbourg 32
MEPs 32
whose 32
alist 32
ously 32
interven@@ 32
known 32
goes 32
study 32
earlier 32
violence 32
entire 32
rest@@ 32
five 32
ill 32
business 32
ale 32
tary 32
harmon@@ 32
markets 32
range 32
operation 32
lot 32
speed 32
ms 32
apart 32
giving 32
atory 32
oc@@ 32
alone 32
demands 32
ca@@ 32
pleased 32
difficulties 32
bear 32
ep@@ 32
Kosovo 32
cap@@ 32
facility 32
signed 32
NGOs 32
Burma 32
3@@ 31
highlight 31
speakers 31
hear 31
operate 31
war@@ 31
doubt 31
wing 31
visit 31
competitiveness 31
soldiers 31
add 31
il 31
viol@@ 31
scale 31
prom@@ 31
applies 31
b 31
applied 31
der@@ 31
involving 31
indic@@ 31
sub@@ 31
technology 31
sound 31
den 31
globalisation 31
foreign 31
properly 31
leading 31
UK 31
resolutions 31
highly 31
tri@@ 31
failure 31
enterprises 31
capital 31
Green 31
asylum 31
driving 31
statements 30
Salvador 30
fire 30
November 30
pursu@@ 30
habitats 30
rou@@ 30
overall 30
fa@@ 30
avoid 30
later 30
mainly 30
Al@@ 30
naturally 30
ase 30
bu@@ 30
rule 30
Spain 30
takes 30
ground 30
balanced 30
goods 30
Summit 30
waste 30
au@@ 30
40 30
integration 30
ered 30
emplo@@ 30
confidence 30
model 30
Greece 30
analysis 30
enable 30
ties 30
conclusion 30
tre@@ 30
remember 30
previous 30
understanding 30
tory 30
High 30
sized 30
charging 30
seriously 29
Rules 29
debates 29
propose 29
car 29
sent 29
similar 29
situations 29
Brussels 29
ban 29
lines 29
mer@@ 29
speech 29
remind 29
pe 29
tation 29
jud@@ 29
ys 29
vital 29
strategic 29
produced 29
obli@@ 29
lation 29
und@@ 29
improvement 29
added 29
users 29
ideas 29
iting 29
industrial 29
aspect 29
pos@@ 29
require 29
ric@@ 29
produc@@ 29
ots 29
loc@@ 29
content 29
customs 29
inv@@ 29
ore 29
lated 29
1998 29
additional 29
eng@@ 29
price 29
Italy 29
factors 29
creation 29
waters 29
link 29
spec@@ 29
defence 29
Khmer 29
Rouge 29
completely 28
ue 28
ar 28
A 28
ind@@ 28
approved 28
pan@@ 28
duty 28
ru@@ 28
os@@ 28
gre@@ 28
along 28
unacceptable 28
ened 28
ound 28
urge 28
remains 28
ord 28
urg@@ 28
laws 28
198@@ 28
ches 28
ser@@ 28
read 28
talking 28
off@@ 28
hard 28
compliance 28
tackle 28
obviously 28
concrete 28
improving 28
ily 28
critic@@ 28
ished 28
establishment 28
reached 28
budgetary 28
word 28
negoti@@ 28
standards 28
care@@ 28
shows 28
chec@@ 28
dist@@ 28
criteria 28
creating 28
reference 28
subsidiarity 28
Funds 28
numerous 28
else 28
commitments 28
granted 28
income 28
method 28
refugees 28
trafficking 28
violations 28
Prime 28
sen@@ 27
forget 27
adequate 27
potential 27
cro@@ 27
actual 27
evidence 27
holding 27
ming 27
ot@@ 27
deaths 27
ises 27
morning 27
Sch@@ 27
ell@@ 27
ss 27
told 27
so@@ 27
affect 27
closely 27
positions 27
respon@@ 27
submitted 27
living 27
u 27
tu@@ 27
cle@@ 27
mean@@ 27
ke@@ 27
aim 27
live 27
rep@@ 27
tion@@ 27
ut@@ 27
billion 27
itions 27
itation 27
bly 27
convinced 27
strong 27
demonstra@@ 27
&#91; 27
&#93; 27
global 27
ple@@ 27
risks 27
ports 27
calling 27
stand 27
constitu@@ 27
challenge 27
Ministers 27
increased 27
int@@ 27
diversity 27
Costa 27
x 27
activity 27
condem@@ 27
Representative 27
hy@@ 27
ably 27
private 27
farm 27
taxation 27
Fischler 27
rail 27
Karamanou 27
test 26
Thursday 26
thy 26
jo@@ 26
comment 26
delighted 26
supported 26
limits 26
us@@ 26
aring 26
amongst 26
send 26
ched 26
sor@@ 26
expres@@ 26
increasing 26
France 26
incid@@ 26
ak@@ 26
ime 26
str@@ 26
implementing 26
stop 26
torture 26
dic@@ 26
speci@@ 26
cho@@ 26
fine 26
poses 26
differences 26
construction 26
ages 26
six 26
euro 26
worked 26
parts 26
rightly 26
direction 26
discussions 26
acceptable 26
mil@@ 26
developing 26
var@@ 26
networks 26
standard 26
material 26
concent@@ 26
buil@@ 26
O 26
recognise 26
ine@@ 26
consultation 26
exist 26
milk 26
Fund 26
persons 26
sanctions 26
plans 26
prevention 26
introduce 26
Oomen 26
politics 26
leaders 26
dri@@ 26
H 26
partnership 26
Chechnya 26
Cambodia 26
spirit 25
killed 25
Procedure 25
exactly 25
representative 25
cal@@ 25
ders 25
detailed 25
wa@@ 25
sp@@ 25
pris@@ 25
evening 25
independent 25
yesterday 25
ians 25
ess 25
tained 25
increasingly 25
Mon@@ 25
larg@@ 25
organised 25
treatment 25
cover 25
harmonisation 25
ose 25
alternative 25
series 25
tic@@ 25
grants 25
afternoon 25
SLIM 25
average 25
sci@@ 25
fying 25
selec@@ 25
ory 25
ei@@ 25
status 25
super@@ 25
responsibilities 25
ile 25
gi@@ 25
compar@@ 25
see@@ 25
ho@@ 25
basic 25
explo@@ 25
vely 25
emphasis 25
mend 25
Structural 25
conf@@ 25
works 25
critical 25
supporting 25
office 25
rise 25
proportion 25
consu@@ 25
Programme 25
Security 25
Nor@@ 25
farms 25
E 25
Bank 25
blood 25
whilst 24
ens 24
speaking 24
wrong 24
Fisheries 24
Varela 24
happened 24
becoming 24
wide 24
substantial 24
unable 24
complete 24
conduc@@ 24
hor@@ 24
home 24
flight 24
Par@@ 24
ases 24
cr@@ 24
pun@@ 24
els 24
October 24
ist@@ 24
deb@@ 24
cts 24
improved 24
seem 24
verse 24
appro@@ 24
elections 24
surely 24
simple 24
rela@@ 24
cing 24
ging 24
wed 24
tal@@ 24
dealing 24
considering 24
cul@@ 24
dings 24
modern 24
labour 24
ately 24
starting 24
nationals 24
div@@ 24
significant 24
enormous 24
1997 24
culture 24
statistics 24
Con@@ 24
appear 24
representation 24
structural 24
gg@@ 24
subsid@@ 24
bodies 24
contains 24
respec@@ 24
willing 24
guarantees 24
taxes 24
compensation 24
keeping 24
asking 24
useful 24
immediately 24
easy 24
2002 24
Environment 24
Belarus 24
peat 24
Y@@ 23
man 23
oms 23
informed 23
floor 23
top 23
events 23
alists 23
intention 23
wanted 23
expla@@ 23
repres@@ 23
ational 23
Employment 23
obtain 23
moratorium 23
assu@@ 23
Gre@@ 23
outside 23
fic@@ 23
putting 23
adopting 23
types 23
insu@@ 23
probably 23
autom@@ 23
cally 23
worth 23
governmental 23
Nos 23
hi@@ 23
restric@@ 23
steps 23
ish@@ 23
itable 23
greatest 23
forced 23
ft 23
attempt 23
guidelines 23
lim@@ 23
thorough 23
lating 23
establishing 23
Chamber 23
coordin@@ 23
hopes 23
accordingly 23
requires 23
wants 23
partly 23
grounds 23
ver 23
fu@@ 23
fra@@ 23
ud@@ 23
underta@@ 23
19@@ 23
incorpor@@ 23
ants 23
where@@ 23
yes 23
qui@@ 23
consider@@ 23
parliaments 23
calls 23
quota 23
assist 23
hands 23
maintain 23
benefits 23
event 23
May 23
tar@@ 23
sup@@ 23
Ruijten 23
Portugal 23
comply 23
travel 23
Democrats 23
says 23
infrastructures 23
totally 23
modes 23
cabin 23
century 22
thousands 22
inform 22
ration 22
laid 22
tac@@ 22
accordance 22
respond 22
follo@@ 22
ima@@ 22
ining 22
conflicts 22
tor 22
met 22
flo@@ 22
ones 22
immediate 22
spen@@ 22
ghts 22
iz@@ 22
shor@@ 22
plan@@ 22
tual 22
mb@@ 22
openness 22
unless 22
happy 22
tab@@ 22
tt@@ 22
om 22
hop@@ 22
providing 22
compared 22
burden 22
mon@@ 22
stated 22
negative 22
gives 22
getting 22
efficiency 22
climate 22
C5 22
da@@ 22
experts 22
limited 22
achieving 22
emphasise 22
educational 22
network 22
foun@@ 22
front 22
her@@ 22
ats 22
shared 22
conservation 22
ening 22
30 22
subsidies 22
East 22
CAP 22
waiting 22
comp@@ 22
finan@@ 22
ans@@ 22
prices 22
reconstruction 22
aged 22
uses 22
crimes 22
attitude 22
fir@@ 22
199@@ 22
provides 22
faced 22
ECB 22
lied 22
created 22
capacity 22
residence 22
meetings 22
realise 22
welfare 22
discrimination 22
09@@ 22
Gallagher 22
Korean 22
earthquake 21
shown 21
subjects 21
suffering 21
irman 21
intended 21
maximum 21
promise 21
parliamentary 21
Soci@@ 21
commun@@ 21
compet@@ 21
relates 21
Dan@@ 21
addressed 21
comprehensive 21
person 21
knows 21
ils 21
fall@@ 21
Yugoslavia 21
prove 21
ership 21
declar@@ 21
published 21
cred@@ 21
excep@@ 21
instance 21
inte@@ 21
ries 21
confir@@ 21
govern@@ 21
designed 21
noon 21
Inter@@ 21
ann@@ 21
tal 21
1996 21
ied 21
Co@@ 21
arm@@ 21
causes 21
obvious 21
detail 21
consumer 21
grateful 21
help@@ 21
prospects 21
join 21
goal 21
ls 21
pend@@ 21
factor 21
pul@@ 21
exper@@ 21
oration 21
bac@@ 21
competitive 21
truly 21
instrument 21
facilitate 21
asu@@ 21
curr@@ 21
planning 21
Prodi 21
motor@@ 21
U@@ 21
equally 21
structures 21
8@@ 21
OLAF 21
pointed 21
shortcomings 21
Staes 21
contributions 21
S 21
facts 21
ous@@ 21
BSE 21
rev@@ 21
sho@@ 21
emer@@ 21
lic@@ 21
bom@@ 21
gradu@@ 21
criminal 21
cy@@ 21
paragraph 21
Agriculture 21
possi@@ 21
army 21
­ 21
southern 21
Process 21
Criminal 21
tur@@ 20
prov@@ 20
figures 20
31 20
Netherlands 20
kil@@ 20
month 20
son 20
conclude 20
minutes 20
unanim@@ 20
rapporteurs 20
employees 20
z 20
refer 20
cal 20
complic@@ 20
Algerian 20
discrimin@@ 20
happening 20
Russian 20
continuing 20
Industry 20
personal 20
June 20
pressure 20
cont@@ 20
caused 20
head@@ 20
aviation 20
back@@ 20
compla@@ 20
cat@@ 20
hear@@ 20
accepted 20
mor@@ 20
ial 20
are@@ 20
fo@@ 20
identi@@ 20
introduced 20
pur@@ 20
ety 20
threat 20
degree 20
guarante@@ 20
examine 20
service 20
pha@@ 20
sort 20
wait 20
ss@@ 20
pon@@ 20
depen@@ 20
seek 20
repe@@ 20
allowed 20
minis@@ 20
Bushill 20
Matthews 20
exam@@ 20
outh 20
structure 20
consul@@ 20
promoting 20
valuable 20
building 20
soci@@ 20
successful 20
iter@@ 20
lab@@ 20
countryside 20
higher 20
ends 20
affor@@ 20
conference 20
posing 20
history 20
historic 20
ard 20
deser@@ 20
lations 20
Germany 20
interesting 20
opposed 20
appe@@ 20
ourism 20
issued 20
personnel 20
delegation 20
credi@@ 20
satisfac@@ 20
cl@@ 20
electoral 20
abol@@ 20
Kingdom 20
invest@@ 20
legiti@@ 20
pet@@ 20
intends 20
teen 20
poverty 20
manage 20
G 20
maintaining 20
Quest@@ 20
The 20
Moroccan 20
precautionary 20
America 19
honour 19
undoubtedly 19
forthcoming 19
prec@@ 19
&apos;@@ 19
draf@@ 19
tin@@ 19
participate 19
with@@ 19
message 19
press 19
pollution 19
trust 19
port 19
assure 19
appeal 19
av@@ 19
supports 19
arrangements 19
thought 19
itte@@ 19
head 19
don@@ 19
regret 19
reading 19
tried 19
rance 19
cy 19
interpre@@ 19
ban@@ 19
original 19
heart 19
lined 19
rac@@ 19
Aust@@ 19
coherence 19
safe@@ 19
came 19
bringing 19
nonetheless 19
played 19
wel@@ 19
approximately 19
complex 19
monitor 19
simplif@@ 19
processes 19
adoption 19
repeat 19
tively 19
ession 19
00@@ 19
smo@@ 19
duties 19
usu@@ 19
ulture 19
board 19
arms 19
possibility 19
emphasis@@ 19
inf@@ 19
enjo@@ 19
lan@@ 19
cla@@ 19
gain 19
targets 19
mechanisms 19
geograph@@ 19
outstanding 19
ong 19
includes 19
plu@@ 19
fall 19
examples 19
des 19
ey@@ 19
ren@@ 19
influence 19
Sea 19
covered 19
val 19
Min@@ 19
Budgetary 19
EC 19
od 19
failed 19
foc@@ 19
60 19
March 19
Transport 19
Common 19
element 19
nor@@ 19
F 19
relationship 19
court 19
genuine 19
supply 19
regi@@ 19
inspec@@ 19
tional 19
Guinea 19
War 19
Left 19
penalty 19
accession 19
tragic 18
tw@@ 18
rele@@ 18
cond@@ 18
mark 18
ome 18
reply 18
ordin@@ 18
pose 18
happens 18
ste@@ 18
represent 18
necess@@ 18
consist@@ 18
ring 18
assume 18
consensus 18
wit@@ 18
broad@@ 18
child 18
wonder 18
media 18
ga@@ 18
An@@ 18
correc@@ 18
linked 18
shells 18
Regional 18
tun@@ 18
ot 18
ven@@ 18
written 18
courts 18
Internet 18
br@@ 18
artic@@ 18
seeking 18
certainty 18
elements 18
tradition 18
main@@ 18
strength@@ 18
sets 18
PPE 18
Mar@@ 18
contribu@@ 18
American 18
tari@@ 18
signific@@ 18
cut 18
implications 18
constructive 18
coordinated 18
expen@@ 18
quiry 18
fun@@ 18
initi@@ 18
interested 18
arch@@ 18
clas@@ 18
students 18
methods 18
cies 18
encoura@@ 18
safe 18
alisation 18
reaching 18
obtained 18
concept 18
lying 18
dependent 18
communities 18
yers 18
extend 18
colle@@ 18
recom@@ 18
lands 18
recognised 18
thereby 18
encies 18
45 18
aries 18
thirdly 18
fers 18
decide 18
initial 18
iel@@ 18
ig@@ 18
moving 18
ord@@ 18
charges 18
Special 18
ust@@ 18
identified 18
exists 18
gible 18
onally 18
Balkan 18
expec@@ 18
ep 18
slow 18
liberalisation 18
T 18
truth 18
export 18
politic@@ 18
politicians 18
source 18
peoples 18
alism 18
represents 18
nation@@ 18
applicant 18
habit@@ 18
facing 18
gn@@ 18
emergency 18
intermodality 18
Bur@@ 18
Bissau 18
fleet 18
diplomatic 18
civilian 18
mun@@ 18
Schengen 18
trial 18
Seppänen 18
jour@@ 17
ased 17
requested 17
topical 17
sympa@@ 17
wish@@ 17
bru@@ 17
Presidents 17
hand@@ 17
disast@@ 17
normal 17
clari@@ 17
argu@@ 17
appropri@@ 17
briefly 17
lay 17
treated 17
rea@@ 17
anyone 17
break 17
highest 17
Trade 17
Energy 17
supposed 17
letter 17
nesses 17
ik@@ 17
mas 17
duc@@ 17
territory 17
citizen 17
occu@@ 17
opposition 17
1.@@ 17
otherwise 17
consistent 17
improvements 17
del@@ 17
difference 17
German 17
matic 17
central 17
accep@@ 17
desire 17
experienc@@ 17
capable 17
payments 17
posed 17
constantly 17
character@@ 17
entrepr@@ 17
fail 17
fourth 17
involvement 17
allocated 17
gave 17
contact 17
fulfil 17
scope 17
D 17
sea 17
primary 17
sel@@ 17
roun@@ 17
enter@@ 17
outcome 17
reducing 17
unemployment 17
distinc@@ 17
allo@@ 17
strongly 17
val@@ 17
integrated 17
pic@@ 17
environ@@ 17
peace@@ 17
values 17
ol 17
practices 17
likely 17
planned 17
perfectly 17
deliber@@ 17
vel@@ 17
conte@@ 17
combat 17
lists 17
14 17
emp@@ 17
deplo@@ 17
cial 17
nation 17
mber 17
return 17
ject 17
R 17
schemes 17
pow@@ 17
animal 17
Sec@@ 17
stands 17
Defence 17
sides 17
cris@@ 17
brief 17
seven 17
distribution 17
sustainability 17
du@@ 17
realistic 17
leave 17
bilateral 17
post 17
hon@@ 17
mate 17
growing 17
inst@@ 17
numbers 17
proper 17
actively 17
elec@@ 17
dangerous 17
onalisation 17
ign@@ 17
wishes 17
plying 17
tro@@ 17
chemical 17
measu@@ 17
species 17
essi@@ 17
beings 17
convic@@ 17
freight 17
2006 17
applause 17
Poignant 17
cod 17
mechanism 17
Myanmar 17
Democratic 17
immigration 17
passen@@ 17
visas 17
Cambodian 17
ere 16
deep@@ 16
silence 16
served 16
spe@@ 16
offic@@ 16
oura@@ 16
postpon@@ 16
esday 16
Agreement 16
somewhat 16
dered 16
every@@ 16
company 16
described 16
colleague 16
big 16
5.30 16
Research 16
run 16
run@@ 16
correct 16
civil@@ 16
pursue 16
pas@@ 16
exchange 16
zone 16
pays 16
talks 16
died 16
categor@@ 16
lear@@ 16
twenty 16
Peijs 16
fav@@ 16
confu@@ 16
resolved 16
recognition 16
intentions 16
organ@@ 16
impression 16
aims 16
qualified 16
exten@@ 16
bar@@ 16
explan@@ 16
tasks 16
cent 16
minimum 16
Finland 16
kers 16
heard 16
wi@@ 16
cod@@ 16
barriers 16
oll@@ 16
transparent 16
exercise 16
eing 16
racy 16
uc@@ 16
ron@@ 16
associated 16
mentally 16
Lisbon 16
claim@@ 16
receiving 16
carefully 16
jec@@ 16
challenges 16
enta@@ 16
ologies 16
regre@@ 16
prosperity 16
ns 16
langu@@ 16
sum@@ 16
althy 16
tise 16
centre 16
acy 16
studies 16
wn 16
evalu@@ 16
quant@@ 16
generally 16
xed 16
data 16
own@@ 16
Democ@@ 16
congratu@@ 16
preserve 16
protected 16
imin@@ 16
represented 16
debating 16
Control 16
observations 16
wers 16
discipl@@ 16
impossible 16
finance 16
signal 16
Palestinian 16
started 16
inten@@ 16
mine 16
delays 16
Report 16
def@@ 16
olu@@ 16
multi@@ 16
tter 16
rad@@ 16
hence 16
conclu@@ 16
tical 16
target 16
Organisation 16
expected 16
merely 16
benef@@ 16
endeav@@ 16
confirm 16
saw 16
vest@@ 16
gro@@ 16
stric@@ 16
favourable 16
passed 16
respective 16
commer@@ 16
Man@@ 16
announ@@ 16
Communist 16
Assembly 16
widespread 16
controls 16
tel@@ 16
mental 16
threat@@ 16
regar@@ 16
Gulf 16
haz@@ 16
saf@@ 16
coastal 16
please 16
ECHO 16
Africa 16
Cunha 16
ck@@ 16
parliament 16
migration 16
crew 16
0.5 16
Posselt 16
resu@@ 15
destro@@ 15
16 15
dead@@ 15
formu@@ 15
Fe@@ 15
clarify 15
appears 15
beyond 15
Pro@@ 15
individu@@ 15
imposed 15
arming 15
aim@@ 15
contrary 15
impose 15
wards 15
Britain 15
rist@@ 15
illegal 15
whatever 15
submit 15
hunger 15
sting 15
promo@@ 15
site 15
near 15
itors 15
tain 15
20@@ 15
leng@@ 15
oper@@ 15
welcomed 15
read@@ 15
personally 15
protecting 15
desi@@ 15
ade 15
keen 15
endorse 15
introduction 15
continues 15
consum@@ 15
elsewhere 15
surprised 15
highlighted 15
goals 15
Liberal 15
bit 15
entirely 15
ams 15
appointed 15
Li@@ 15
pilot 15
producers 15
addres@@ 15
ented 15
intensi@@ 15
tou@@ 15
refer@@ 15
got 15
ire 15
innovative 15
abil@@ 15
ination 15
borders 15
competence 15
ared 15
pe@@ 15
permit 15
sy@@ 15
wr@@ 15
fulf@@ 15
hes 15
sal 15
urban 15
UNE@@ 15
closer 15
une@@ 15
preser@@ 15
trad@@ 15
tiva@@ 15
incentives 15
speaker 15
traditional 15
ca 15
arly 15
familiar 15
Laan 15
reforms 15
deman@@ 15
ror 15
elimin@@ 15
hospital 15
Middle 15
medical 15
bor@@ 15
ensi@@ 15
lose 15
contr@@ 15
tives 15
turning 15
Rome 15
sett@@ 15
official 15
provision 15
aties 15
io@@ 15
Herzegovina 15
estima@@ 15
transit 15
ins 15
ost@@ 15
believ@@ 15
reconciliation 15
Belgium 15
bil@@ 15
producing 15
territorial 15
went 15
ria 15
illu@@ 15
changed 15
contradic@@ 15
secure 15
innova@@ 15
obstac@@ 15
fri@@ 15
Eastern 15
tations 15
1408 15
Ber@@ 15
essive 15
genuinely 15
ambitions 15
nitrates 15
Directive 15
ambitious 15
popu@@ 15
option 15
suffer 15
involve 15
strategies 15
Christian 15
dispar@@ 15
armed 15
resolve 15
democ@@ 15
elected 15
charge 15
Iraq 15
contribute 15
gers 15
drivers 15
Basque 15
mption 14
resumed 14
Friday 14
occasi@@ 14
tragedy 14
minute 14
edy 14
terror@@ 14
attack 14
documents 14
Rule 14
Cha@@ 14
delay 14
11 14
18 14
sorry 14
Sjöstedt 14
sensitive 14
distor@@ 14
enting 14
Sta@@ 14
tute 14
perc@@ 14
ress 14
mas@@ 14
terrible 14
bur@@ 14
External 14
affects 14
radioactive 14
authority 14
arri@@ 14
occur@@ 14
ry 14
prote@@ 14
fast 14
wee@@ 14
sal@@ 14
isol@@ 14
repeatedly 14
hund@@ 14
strike 14
toler@@ 14
pid@@ 14
ian 14
dom@@ 14
pt 14
winding 14
ering 14
deals 14
prefer@@ 14
involves 14
blame 14
gets 14
difficulty 14
comple@@ 14
some@@ 14
simplification 14
laun@@ 14
drop 14
gue 14
adapt 14
track 14
inev@@ 14
contain 14
func@@ 14
dynamic 14
sible 14
managed 14
shi@@ 14
Su@@ 14
sioners 14
deliver 14
unions 14
regulatory 14
Education 14
eds 14
learn 14
voc@@ 14
ators 14
brings 14
ols 14
techn@@ 14
attempts 14
volun@@ 14
weak@@ 14
scru@@ 14
equip@@ 14
entitled 14
gin@@ 14
awareness 14
associations 14
enhan@@ 14
ious 14
asses@@ 14
encouraged 14
attrac@@ 14
alities 14
partn@@ 14
ships 14
vil@@ 14
perspec@@ 14
loss 14
regu@@ 14
suff@@ 14
enter 14
lis@@ 14
primarily 14
suggest 14
na@@ 14
religi@@ 14
propor@@ 14
stock 14
frequ@@ 14
land@@ 14
ang@@ 14
ual 14
ear@@ 14
affairs 14
typ@@ 14
yment 14
ship 14
oured 14
ghting 14
matically 14
Directorate 14
appreciate 14
ading 14
examined 14
mend@@ 14
arise 14
star@@ 14
plemen@@ 14
determined 14
reduced 14
presenting 14
applicable 14
precise 14
operational 14
transfer 14
acknowledge 14
utilis@@ 14
apparently 14
explanation 14
separate 14
suffici@@ 14
consequence 14
Ag@@ 14
decentr@@ 14
McCartin 14
grant 14
measure 14
argument 14
ura@@ 14
ements 14
thern 14
leads 14
ligh@@ 14
time@@ 14
EI@@ 14
advice 14
speeches 14
B 14
strengthen 14
ira 14
multi 14
2004 14
resul@@ 14
Pensioners 14
U 14
neighbour@@ 14
dang@@ 14
reduc@@ 14
milli@@ 14
He@@ 14
becomes 14
campaign@@ 14
ali@@ 14
WTO 14
asi@@ 14
55 14
ication 14
secution 14
dr@@ 14
Patten 14
AC@@ 14
Indonesia 14
la 14
reas@@ 14
MEDA 14
northern 14
Greens 14
motions 14
opening 14
retary 14
troops 14
aircraft 14
ane 14
DPRK 14
drink 14
carbon 14
user 14
sexes 14
bun@@ 14
Cauc@@ 14
hom@@ 13
rose 13
became 13
injured 13
recovery 13
ET@@ 13
distur@@ 13
bed 13
requests 13
Monday 13
Dell 13
Alba 13
can@@ 13
sch@@ 13
mid@@ 13
siz@@ 13
turing 13
arily 13
feeling 13
broad 13
consequently 13
obligation 13
acqu@@ 13
arising 13
24 13
ines 13
dre@@ 13
Media 13
ther 13
Federation 13
recall 13
association 13
100 13
Cy@@ 13
detail@@ 13
base 13
guar@@ 13
afraid 13
lead@@ 13
intend 13
neither 13
officials 13
Economic 13
institution 13
carrying 13
except 13
amb@@ 13
concluded 13
introducing 13
proceedings 13
suspended 13
looked 13
gla@@ 13
efully 13
ight 13
similarly 13
sensible 13
Amendments 13
delegations 13
remaining 13
extra 13
rable 13
differ@@ 13
doub@@ 13
ored 13
go@@ 13
DE 13
appar@@ 13
Le@@ 13
amoun@@ 13
bureaucratic 13
heavy 13
standing 13
subsequ@@ 13
periods 13
mately 13
eding 13
respects 13
Gothenburg 13
operating 13
determination 13
ger 13
binding 13
bureauc@@ 13
0s 13
accoun@@ 13
approac@@ 13
conven@@ 13
remarks 13
stipu@@ 13
promotion 13
preven@@ 13
ner@@ 13
hil@@ 13
ison 13
preventing 13
sin@@ 13
ther@@ 13
deserve 13
ility 13
easily 13
imen@@ 13
flexible 13
depends 13
defined 13
serves 13
importantly 13
class 13
35 13
rates 13
assess 13
reasonable 13
sees 13
monu@@ 13
destruction 13
cer@@ 13
electr@@ 13
judg@@ 13
eli@@ 13
cted 13
70 13
percenta@@ 13
pay@@ 13
ident 13
spic@@ 13
absence 13
COM 13
hap@@ 13
Financial 13
blo@@ 13
inary 13
fraud 13
demonstrate 13
sto@@ 13
des@@ 13
scand@@ 13
wer 13
ext@@ 13
achiev@@ 13
accounts 13
institutional 13
err@@ 13
gone 13
slow@@ 13
imag@@ 13
reven@@ 13
effectiveness 13
spent 13
compatible 13
1995 13
fre@@ 13
directed 13
Pe@@ 13
stitu@@ 13
viable 13
felt 13
38 13
wealth 13
ouble 13
nobody 13
nam@@ 13
poore@@ 13
hen@@ 13
dramatic 13
marked 13
inadequate 13
vari@@ 13
mission 13
Luxembourg 13
bon@@ 13
fear 13
mat@@ 13
alloc@@ 13
reinfor@@ 13
lik@@ 13
domin@@ 13
drawing 13
succe@@ 13
vision 13
indicated 13
gain@@ 13
gest@@ 13
campaign 13
chain 13
lower 13
torate 13
friends 13
occasion 13
farmer 13
Conservative 13
survi@@ 13
chance 13
lasting 13
Char@@ 13
relate 13
emissions 13
trend 13
Wallström 13
Rural 13
bilities 13
ox@@ 13
raw 13
defic@@ 13
refugee 13
gender 13
27 13
ast 13
pointing 13
disasters 13
anz@@ 13
ania 13
C 13
populations 13
contin@@ 13
operators 13
restrictions 13
woman 13
For@@ 13
defending 13
Newton 13
Dunn 13
air 13
Petersen 13
Ferri 13
Naïr 13
sinc@@ 12
disc@@ 12
distribu@@ 12
Suanzes 12
Carpegna 12
Bar@@ 12
processing 12
presid@@ 12
sla@@ 12
mur@@ 12
stances 12
.30 12
p.@@ 12
subjected 12
stu@@ 12
via 12
vere@@ 12
smugg@@ 12
san@@ 12
van@@ 12
whatsoever 12
Den@@ 12
refu@@ 12
lap@@ 12
rust 12
solvency 12
regulated 12
cri@@ 12
reconc@@ 12
pect 12
objec@@ 12
coher@@ 12
unnecessary 12
gations 12
entu@@ 12
easi@@ 12
stream@@ 12
ulti@@ 12
ology 12
reserva@@ 12
opin@@ 12
syn@@ 12
stand@@ 12
centr@@ 12
tim@@ 12
urgency 12
funda@@ 12
75 12
22 12
tured 12
second@@ 12
ffering 12
teaching 12
chang@@ 12
fiel@@ 12
systematic 12
technological 12
sake 12
ques 12
han@@ 12
integra@@ 12
atal@@ 12
Her@@ 12
scape 12
ail@@ 12
wei@@ 12
vers 12
bi@@ 12
ich 12
Per@@ 12
substance 12
votes 12
ree 12
retirement 12
viewed 12
supp@@ 12
reals 12
mental@@ 12
manag@@ 12
ne 12
brea@@ 12
reserve 12
ju@@ 12
25 12
spite 12
feder@@ 12
atu@@ 12
materi@@ 12
clu@@ 12
Au@@ 12
union 12
fem@@ 12
widely 12
thir@@ 12
tests 12
medi@@ 12
itt@@ 12
ossi@@ 12
versities 12
low@@ 12
secu@@ 12
drin@@ 12
sist 12
entation 12
ices 12
Jackson 12
wil@@ 12
Ma@@ 12
car@@ 12
gen@@ 12
enlarg@@ 12
thoroughly 12
vigor@@ 12
optimis@@ 12
ards 12
Mol@@ 12
vehicles 12
attemp@@ 12
erb@@ 12
trans 12
heav@@ 12
ern 12
sia 12
Euro 12
ster 12
Mitch 12
Ky@@ 12
agg@@ 12
Hedkvist 12
New 11
gation 11
28 11
af@@ 11
rs 11
plic@@ 11
connec@@ 11
j@@ 11
Amsterd@@ 11
unfor@@ 11
os 11
list@@ 11
sts 11
fail@@ 11
adv@@ 11
renew@@ 11
void@@ 11
olog@@ 11
proble@@ 11
ped@@ 11
hel@@ 11
summ@@ 11
solid@@ 11
adap@@ 11
sim@@ 11
eur@@ 11
proc@@ 11
sion@@ 11
len@@ 11
ference 11
pp@@ 11
ple 11
tures 11
row 11
emia 11
visi@@ 11
alle@@ 11
rat 11
facil@@ 11
N 11
26 11
decisi@@ 11
Th@@ 11
stru@@ 11
incre@@ 11
22@@ 11
é@@ 11
Isra@@ 11
neg@@ 11
viously 11
anti 11
COS 11
12@@ 11
author@@ 11
assist@@ 11
37 11
yer 11
CE 11
prim@@ 11
Ir@@ 11
co 11
require@@ 11
ita 11
kin@@ 11
0.@@ 11
just@@ 11
satis@@ 11
Agenda 11
atri@@ 11
gran@@ 11
post@@ 11
En@@ 11
flexi@@ 11
absolu@@ 11
will@@ 11
gene@@ 11
ker 11
71 11
proce@@ 11
beg@@ 11
fron@@ 11
dian 11
teri@@ 11
agre@@ 11
ouse 11
econom@@ 11
ino 11
ard@@ 11
ried 11
accid@@ 11
Nuclear 11
energi@@ 11
CLO@@ 11
fisher@@ 11
cau@@ 11
requ@@ 11
jun@@ 11
freed@@ 11
Pol@@ 11
human@@ 11
ran 11
nesty 11
ore@@ 10
cour@@ 10
med@@ 10
wise 10
Bol@@ 10
jur@@ 10
rup@@ 10
streng@@ 10
inn@@ 10
Door@@ 10
won@@ 10
proved 10
need@@ 10
ures 10
mal 10
wid@@ 10
alternati@@ 10
Pu@@ 10
imu@@ 10
than@@ 10
osop@@ 10
pat@@ 10
ide@@ 10
strik@@ 10
038@@ 10
Vey@@ 10
ultural 10
da 10
que 10
show@@ 10
ster@@ 10
protec@@ 10
2003 10
clos@@ 10
reac@@ 10
reli@@ 10
bla@@ 10
Gu@@ 10
tta@@ 10
net 10
crimin@@ 10
ship@@ 10
gr@@ 10
ath 10
succ@@ 10
hu@@ 10
basi@@ 10
thor@@ 10
oh@@ 10
ets 10
sioner 10
resid@@ 10
any@@ 10
descri@@ 10
affec@@ 10
milit@@ 10
taining 10
PCB@@ 10
semin@@ 10
itive 10
nitra@@ 10
ef 10
hing 10
arm 10
tically 10
tting 10
and@@ 10
sson 10
Persson 10
,@@ 10
ses@@ 10
leu@@ 10
Van 10
San 10
ote 10
itiz@@ 9
ir 9
Tu@@ 9
sit@@ 9
ón 9
him@@ 9
Com@@ 9
ingly 9
radi@@ 9
Tsi@@ 9
direc@@ 9
ip@@ 9
loo@@ 9
ign 9
candid@@ 9
enc@@ 9
mitted 9
200@@ 9
036@@ 9
vers@@ 9
tains 9
etting 9
atic 9
origin@@ 9
ena 9
hau@@ 9
effici@@ 9
quot@@ 9
teac@@ 9
asure 9
inde@@ 9
ben@@ 9
meth@@ 9
adequ@@ 9
there@@ 9
dama@@ 9
Na@@ 9
itage 9
ident@@ 9
clo@@ 9
ay 9
jected 9
sig@@ 9
Europe@@ 9
ministeri@@ 9
decid@@ 9
iv@@ 9
13 9
sex@@ 9
Garriga 9
035@@ 9
princi@@ 9
19 9
isms 9
add@@ 9
Me@@ 9
remar@@ 9
advanta@@ 9
Z@@ 9
fund@@ 9
itude 9
los@@ 9
whe@@ 9
ven 9
95 9
les@@ 9
vir@@ 9
sever@@ 9
reser@@ 9
ih@@ 9
ood 9
entr@@ 9
divid@@ 9
ope 9
guid@@ 9
compensa@@ 9
alis@@ 9
pub@@ 9
penal@@ 9
anim@@ 9
mation 9
cru@@ 9
compan@@ 9
ources 9
UN@@ 9
publis@@ 9
Bos 9
008@@ 9
ularly 9
liance 9
Pen@@ 9
Coun@@ 9
orig@@ 9
Sep@@ 9
omen 9
Tob@@ 9
Simp@@ 9
JA@@ 9
006@@ 9
Ab@@ 9
Sa@@ 8
80 8
yan@@ 8
ral 8
Ca@@ 8
14@@ 8
top@@ 8
90 8
inclu@@ 8
paper@@ 8
telev@@ 8
city 8
yl@@ 8
ays 8
int 8
Euro@@ 8
Artic@@ 8
proceed@@ 8
xi@@ 8
lar@@ 8
sl@@ 8
istics 8
mom@@ 8
liber@@ 8
highligh@@ 8
receiv@@ 8
lic 8
Sanders 8
Hol@@ 8
aut@@ 8
autu@@ 8
educ@@ 8
criter@@ 8
tech@@ 8
appreci@@ 8
deli@@ 8
doc@@ 8
stre@@ 8
ber@@ 8
sis@@ 8
Belgian 8
tural 8
exist@@ 8
applic@@ 8
rid@@ 8
tics 8
sis 8
oli@@ 8
clar@@ 8
gh 8
sid@@ 8
21@@ 8
ruption 8
pati@@ 8
ok 8
igh@@ 8
Kinno@@ 8
comprehen@@ 8
proced@@ 8
ural 8
24@@ 8
quali@@ 8
part@@ 8
char@@ 8
kim@@ 8
ross 8
them@@ 8
consid@@ 8
ero 8
ffici@@ 8
ina 8
quic@@ 8
Bud@@ 8
suppor@@ 8
prosper@@ 8
Heaton 8
Har@@ 8
! 8
cra@@ 8
kl@@ 8
kes@@ 8
hal@@ 8
success@@ 8
territor@@ 8
ras@@ 8
listen 8
imperi@@ 8
Italian 8
alth 8
PC@@ 8
Si@@ 8
cam@@ 8
pain@@ 8
analy@@ 8
bet@@ 8
tia 8
after@@ 8
L 8
Sella@@ 8
pollu@@ 8
regula@@ 8
39 8
NG@@ 8
fle@@ 8
provid@@ 8
stance 8
resolu@@ 8
ods 8
fel@@ 8
ika 8
Kim 8
ASEA@@ 8
representa@@ 8
Cor@@ 8
007@@ 8
Muscar@@ 8
din@@ 8
Ju@@ 7
amend@@ 7
bus@@ 7
edul@@ 7
dle 7
Cres@@ 7
mul@@ 7
sil@@ 7
mad@@ 7
ain@@ 7
prior@@ 7
sit 7
ole@@ 7
tedly 7
occ@@ 7
onger 7
iliation 7
separ@@ 7
appla@@ 7
ctions 7
ond 7
ton@@ 7
recogn@@ 7
determin@@ 7
hed 7
Commis@@ 7
vehic@@ 7
plem@@ 7
15@@ 7
surpr@@ 7
monit@@ 7
keh@@ 7
hier@@ 7
hid@@ 7
ready 7
ending 7
sm@@ 7
experi@@ 7
proper@@ 7
f 7
Am@@ 7
knowled@@ 7
thou@@ 7
pol@@ 7
Fin@@ 7
nu@@ 7
syste@@ 7
ential 7
point@@ 7
ech 7
sk@@ 7
neu@@ 7
olle@@ 7
Da@@ 7
Sarajev@@ 7
tom@@ 7
resol@@ 7
seri@@ 7
partici@@ 7
ta 7
... 7
sti@@ 7
recommend@@ 7
prac@@ 7
propos@@ 7
fur@@ 7
equ@@ 7
fam@@ 7
ger@@ 7
imp@@ 7
craft 7
0 7
AS@@ 7
esit@@ 7
Eng@@ 7
institu@@ 7
particip@@ 7
Fatuzzo 7
Palestin@@ 7
quest@@ 7
bs 7
ser 7
Mal@@ 7
practic@@ 7
assess@@ 7
lia@@ 7
tely 7
marke@@ 7
high@@ 7
62 7
reaty 7
orders 7
ital 7
itor@@ 7
tunne@@ 7
ves@@ 7
sels 7
Palacio 7
Is@@ 7
remain@@ 7
Ar@@ 7
No@@ 7
Portu@@ 7
Maes 7
Or@@ 7
mmit 7
Milo@@ 7
sevi@@ 7
vil 7
Be@@ 7
thell 7
M 7
rap@@ 7
Kore@@ 7
echan@@ 7
assa@@ 7
parti@@ 7
Ti@@ 7
ski 7
Bou@@ 7
Mag@@ 7
Georgian 7
Hondura@@ 7
vast@@ 6
ef@@ 6
po 6
urt@@ 6
v 6
sy 6
victi@@ 6
Feder@@ 6
exerc@@ 6
ja@@ 6
avi@@ 6
ud 6
uring 6
ank 6
Ex@@ 6
ene@@ 6
este@@ 6
cust@@ 6
alu@@ 6
charac@@ 6
standar@@ 6
itta@@ 6
onom@@ 6
deliv@@ 6
Hel@@ 6
ki 6
organis@@ 6
peri@@ 6
pers@@ 6
esty 6
nati@@ 6
ym@@ 6
histor@@ 6
arti@@ 6
Regi@@ 6
ority 6
Gaz@@ 6
sens@@ 6
ribu@@ 6
certain@@ 6
itional 6
32 6
iry 6
oth 6
ris@@ 6
impor@@ 6
tiveness 6
isen 6
construc@@ 6
EA@@ 6
ti 6
ium 6
issu@@ 6
anne@@ 6
impres@@ 6
omis@@ 6
glob@@ 6
mm@@ 6
EC@@ 6
Dec@@ 6
legisla@@ 6
versity 6
Å@@ 6
ELDR 6
mit 6
stain@@ 6
un 6
tain@@ 6
42 6
pects 6
by@@ 6
istra@@ 6
Natura 6
groun@@ 6
isions 6
reti@@ 6
pros@@ 6
app@@ 6
lif@@ 6
wan@@ 6
000@@ 6
search 6
Vi@@ 6
ua 6
tastro@@ 6
Ra@@ 6
ange 6
Indonesian 6
Mus@@ 6
Car@@ 6
á@@ 6
Gal@@ 6
ff 6
dia 6
weap@@ 6
Ira@@ 6
q@@ 6
bri@@ 6
Se@@ 6
exac@@ 6
zembow@@ 6
cel@@ 5
aw@@ 5
tribu@@ 5
m. 5
invo@@ 5
Po@@ 5
ton 5
ko 5
ole 5
ys@@ 5
pation 5
ike@@ 5
sted 5
í@@ 5
polic@@ 5
dele@@ 5
lou@@ 5
perfec@@ 5
ansa@@ 5
ME@@ 5
yst@@ 5
ean 5
simpli@@ 5
infor@@ 5
£ 5
CO@@ 5
ths 5
lem@@ 5
rat@@ 5
tus 5
numer@@ 5
net@@ 5
Kar@@ 5
ever@@ 5
yd@@ 5
dem@@ 5
ais@@ 5
usa@@ 5
excell@@ 5
Christi@@ 5
beli@@ 5
kes 5
kly 5
cand@@ 5
entit@@ 5
circu@@ 5
Agric@@ 5
tunately 5
gor@@ 5
stly 5
idem@@ 5
tax@@ 5
hou@@ 5
ü@@ 5
hem@@ 5
nn@@ 5
sumed 5
à 5
Med@@ 5
ro 5
Direc@@ 5
prob@@ 5
conserva@@ 5
AP 5
ications 5
prog@@ 5
incor@@ 5
1990 5
impa@@ 5
stud@@ 5
use@@ 5
sist@@ 5
lea@@ 5
DR 5
17@@ 5
hab@@ 5
ken@@ 5
conta@@ 5
kno@@ 5
sul@@ 5
rying 5
enem@@ 5
iden 5
pread 5
anno@@ 5
request@@ 5
balan@@ 5
pensa@@ 5
ire@@ 5
nific@@ 5
nec@@ 5
het@@ 5
pot@@ 5
ero@@ 5
sian 5
Bangladesh@@ 5
lob@@ 5
0,@@ 5
mentary 5
Jun@@ 5
So@@ 5
ov@@ 5
ward 5
itar@@ 5
ention 5
Sw@@ 5
rah@@ 5
sa 5
graph@@ 5
Di@@ 5
tele@@ 5
OM 5
frame@@ 5
oli 5
ino@@ 5
yp@@ 5
Ver@@ 5
ateral 5
sse@@ 5
flik@@ 5
hre@@ 5
Lu@@ 4
Ger@@ 4
itu@@ 4
isia 4
spir@@ 4
j 4
ita@@ 4
thin@@ 4
Á@@ 4
Ô@@ 4
tally 4
imes 4
compati@@ 4
tail@@ 4
gic 4
nal 4
parlia@@ 4
dom 4
mention@@ 4
conv@@ 4
cur@@ 4
yside 4
accord@@ 4
yr@@ 4
met@@ 4
San@@ 4
Ru@@ 4
concer@@ 4
ems 4
tast@@ 4
cil 4
levi@@ 4
docu@@ 4
level@@ 4
agraph 4
agrap@@ 4
my@@ 4
suspen@@ 4
pec@@ 4
earli@@ 4
observa@@ 4
relev@@ 4
pover@@ 4
ratic 4
substanti@@ 4
Aud@@ 4
ma 4
mone@@ 4
challeng@@ 4
bud@@ 4
ili@@ 4
cir@@ 4
avail@@ 4
ough 4
enorm@@ 4
ource 4
je@@ 4
Sol@@ 4
wth 4
V 4
mechan@@ 4
lev@@ 4
administra@@ 4
tti 4
lamen@@ 4
mus 4
rang@@ 4
gan@@ 4
tte 4
aper 4
tin 4
associ@@ 4
Wor@@ 4
prev@@ 4
tice 4
fronti@@ 4
sear@@ 4
Environ@@ 4
alo@@ 4
influ@@ 4
legis@@ 4
scienti@@ 4
idence 4
lan 4
youn@@ 4
industri@@ 4
keep@@ 4
eij@@ 4
Bas@@ 4
Fuels 4
vic@@ 4
olla@@ 4
efly 4
endor@@ 4
vention 4
tru@@ 4
diplom@@ 4
ful@@ 4
fish@@ 4
ech@@ 4
migra@@ 4
tail 4
tol@@ 4
ko@@ 4
ka 4
til@@ 4
Yugosla@@ 4
Bel@@ 4
realis@@ 4
convinc@@ 4
CF@@ 4
Conserva@@ 4
io 4
real@@ 4
DA 4
rement 4
nau@@ 4
vat@@ 4
Commun@@ 4
tionary 4
ba 4
cab@@ 4
ph@@ 4
alter@@ 4
stan@@ 4
neigh@@ 4
Pos@@ 4
fai@@ 4
ate@@ 4
opu@@ 4
hesion 4
Tra@@ 3
illa 3
Afric@@ 3
fer 3
sky 3
ow@@ 3
tta 3
Í@@ 3
ells 3
ain 3
ergy 3
Q 3
ach 3
short@@ 3
tau@@ 3
dro@@ 3
ould 3
inning 3
test@@ 3
ê@@ 3
cen@@ 3
mer 3
oni 3
De@@ 3
astern 3
ular 3
zz@@ 3
biolog@@ 3
omin@@ 3
ops 3
veness 3
scho@@ 3
empha@@ 3
serv@@ 3
reason@@ 3
euro@@ 3
further@@ 3
farm@@ 3
sing@@ 3
prehen@@ 3
lop@@ 3
prises 3
feel@@ 3
strong@@ 3
awar@@ 3
terri@@ 3
ava@@ 3
partic@@ 3
Bal@@ 3
X 3
gin 3
hun@@ 3
Mc@@ 3
estin@@ 3
Comm@@ 3
elin@@ 3
quan@@ 3
· 3
ö 3
Ö@@ 3
ki@@ 3
J 3
chl@@ 3
tilis@@ 3
capa@@ 3
suring 3
essing 3
thers 3
ener@@ 3
ffice 3
reat@@ 3
subsidi@@ 3
enna 3
enty 3
tunn@@ 3
view@@ 3
vol@@ 3
elines 3
programm@@ 3
é 3
estab@@ 3
ista 3
vel 3
eve 3
Morocc@@ 3
eet 3
four@@ 3
conflic@@ 3
deple@@ 3
az@@ 3
deal@@ 3
rats 3
inno@@ 3
sten 3
ivo@@ 3
of@@ 3
mal@@ 3
stel@@ 3
offici@@ 3
achi@@ 3
preci@@ 3
gend@@ 3
SV 3
vate 3
onn@@ 3
call@@ 3
ainst 3
Af@@ 3
ista@@ 3
strö@@ 3
mbly 3
prison@@ 3
Liber@@ 3
siv@@ 3
lle 3
truc@@ 3
road@@ 3
inju@@ 3
ug@@ 3
stat@@ 3
ber 3
rol 3
hospit@@ 3
portun@@ 3
oda 3
emoc@@ 3
aman@@ 3
tries 3
Del@@ 3
olle 3
ator@@ 3
ok@@ 2
eness 2
ala@@ 2
hol 2
happ@@ 2
Ï 2
effec@@ 2
Qu@@ 2
hdo@@ 2
impl@@ 2
stanti@@ 2
establish@@ 2
ond@@ 2
ministra@@ 2
then@@ 2
recei@@ 2
iste@@ 2
Ven@@ 2
imal 2
Pal@@ 2
esses 2
ante@@ 2
secon@@ 2
Govern@@ 2
tty 2
cli@@ 2
ministe@@ 2
fficient 2
eiv@@ 2
famili@@ 2
arity 2
rau@@ 2
hin@@ 2
ece 2
sty@@ 2
ly@@ 2
pian 2
inging 2
lain@@ 2
righ@@ 2
Br@@ 2
Ne@@ 2
ellis@@ 2
ai@@ 2
LI@@ 2
messa@@ 2
esti@@ 2
Go@@ 2
terr@@ 2
stoc@@ 2
concep@@ 2
gy 2
aste 2
barri@@ 2
goti@@ 2
sus 2
rimin@@ 2
Ro@@ 2
mist@@ 2
iso@@ 2
cc@@ 2
introduc@@ 2
Mor@@ 2
ä@@ 2
vie@@ 2
è@@ 2
Progra@@ 2
tila@@ 2
ha 2
sou@@ 2
Frid@@ 2
isely 2
valu@@ 2
ty@@ 2
bour@@ 2
aj@@ 2
op 2
relation@@ 2
itoring 2
radio@@ 2
soldi@@ 2
solu@@ 2
fic 2
pite 2
pared 2
Bosni@@ 2
ved@@ 2
Jac@@ 2
ollo@@ 2
grou@@ 2
jects 2
rik@@ 2
jar@@ 2
Bus@@ 2
specific@@ 2
08 2
meri@@ 2
&amp; 2
stems 2
Ital@@ 2
opp@@ 2
fare 2
precau@@ 2
chem@@ 2
enn@@ 2
gent@@ 2
exer@@ 2
uu@@ 2
fore 2
Un@@ 2
ues 2
activ@@ 2
sustain@@ 2
look@@ 2
countr@@ 2
emis@@ 2
Gö@@ 2
prin@@ 2
mpa@@ 2
spea@@ 2
Ri@@ 2
fficking 2
opportun@@ 2
dialo@@ 2
gratu@@ 2
-@@ 2
termin@@ 2
sin 2
Tur@@ 2
aver@@ 2
simil@@ 2
tack@@ 2
ket@@ 2
Fore@@ 2
simp@@ 2
ah@@ 2
Cambo@@ 2
ella 2
isi 2
ternal 2
asian 2
ora@@ 2
kas 2
Alger@@ 2
SE 2
tiet@@ 2
uro 2
Mid@@ 2
ulf 2
McCar@@ 2
än@@ 2
Mediterran@@ 2
pa 2
isi@@ 1
lent@@ 1
.. 1
ito@@ 1
kar@@ 1
tas@@ 1
del 1
transpar@@ 1
competiti@@ 1
Kau@@ 1
pi 1
incenti@@ 1
lum 1
vista 1
vern@@ 1
anta@@ 1
bure@@ 1
eli 1
Representa@@ 1
forth@@ 1
Cour@@ 1
ö@@ 1
onnel 1
one@@ 1
Uni@@ 1
unto 1
ough@@ 1
dest@@ 1
reh@@ 1
Hu@@ 1
employe@@ 1
mall@@ 1
las@@ 1
edes 1
dyna@@ 1
lemen 1
treat@@ 1
Belgi@@ 1
dy@@ 1
ette 1
ee 1
dea@@ 1
kid@@ 1
omic 1
18@@ 1
tis@@ 1
ota 1
kon@@ 1
rete 1
discus@@ 1
ingdom 1
nit@@ 1
toral 1
turally 1
erous 1
TO@@ 1
busin@@ 1
consequ@@ 1
+ 1
jo 1
ó@@ 1
uran@@ 1
Brit@@ 1
iod 1
ku@@ 1
ou 1
lla 1
Develop@@ 1
amp@@ 1
aa@@ 1
rok@@ 1
arrang@@ 1
ew 1
ã@@ 1
itten 1
Swed@@ 1
mes@@ 1
ze@@ 1
osa 1
extrem@@ 1
sequ@@ 1
Fisher@@ 1
ani 1
ples 1
oles@@ 1
ere@@ 1
anu@@ 1
oso@@ 1
plo@@ 1
hir@@ 1
ise@@ 1
Finan@@ 1
Peter@@ 1
max@@ 1
ky@@ 1
allis@@ 1
Pr@@ 1
state@@ 1
Ü@@ 1
FR 1
thorough@@ 1
infra@@ 1
etty 1
Fu@@ 1
Mad@@ 1
destruc@@ 1
Kosov@@ 1
urs@@ 1
ollen 1
ens@@ 1
vain 1
humanitar@@ 1
acti@@ 1
ember 1
ei 1
velv@@ 1
Ps 1
urs 1
dren 1
Span@@ 1
trag@@ 1
ks@@ 1
thre@@ 1
tos@@ 1
Presid@@ 1
Wall@@ 1
ett@@ 1
nost@@ 1
alta 1
maj@@ 1
ite@@ 1
meet@@ 1
amis@@ 1
ye@@ 1
On 1
nte@@ 1
mit@@ 1
presiden@@ 1
sylum 1
approxima@@ 1
Americ@@ 1
wle@@ 1
LO@@ 1
.00 1
union@@ 1
polit@@ 1
ker@@ 1
usel@@ 1
alco@@ 1
vices 1
ollis@@ 1
ll@@ 1
osta 1
Poh@@ 1
atte@@ 1
iste 1
rö@@ 1
istor@@ 1
esty@@ 1
anal@@ 1
tois@@ 1
eh@@ 1
stry 1
lä 1
Indust@@ 1
Do@@ 1
apua 1
degre@@ 1
constan@@ 1
ut 1
circum@@ 1
Kh@@ 1
Rou@@ 1
pala@@ 1
ody 1
tto 1
abs@@ 1
burg 1
uno@@ 1
aar@@ 1
strateg@@ 1
sall@@ 1
Georgi@@ 1
jan 1
pel@@ 1
jen@@ 1
mel@@ 1
peac@@ 1
sie@@ 1
Def@@ 1
itious 1
tod@@ 1
Sal@@ 1
X@@ 1
ida 1
implem@@ 1
ala 1
earthqua@@ 1
sop@@ 1
pare@@ 1
eas@@ 1
onne 1
etta 1
ú@@ 1
ette@@ 1
dies 1
Por@@ 1
Mediter@@ 1
fro@@ 1
figu@@ 1
presenta@@ 1
intere@@ 1
citiz@@ 1
ograph@@ 1
Stra@@ 1
emerg@@ 1
commit@@ 1
q 1
Sar@@ 1
anni@@ 1
enda 1
Agre@@ 1
