#version: 0.2
i s
t h
t e
i n
t a
i t
a n
e n
e n</w>
th e</w>
o n</w>
i n</w>
a l
t i
e s
a n</w>
o n
a r
e r
l l
s i
r o
t u
t ä
a t</w>
t a</w>
o u
r e
t o</w>
o r
o f</w>
o m
o s
a s
o l
e t
e l
j a</w>
i s</w>
u s
k s
t ä</w>
an d</w>
e m
i k
i m
in g</w>
i d
t o
e s</w>
r a
l a
o p
m a
s a</w>
j o
k a
u u
i l
e d</w>
m is
i c
ä n</w>
m en
th at</w>
e r</w>
ti on</w>
h a
v a
m e</w>
k u
v o
v ä
v i
k e
al l
v e</w>
e c
u ro
a l</w>
w h
p ro
t y
s a
s u
o r</w>
e t</w>
E uro
n e
r es
p u
et tä</w>
n o
ä ä
n i
l i
a t
m i
r i
d e
k o
j ä
w e</w>
te n</w>
t i</w>
e en</w>
h d
p os
f or</w>
a c
te l
m u
th is</w>
c on
a s</w>
i t</w>
v al
p ar
t ta
y s
t s</w>
l e
is i
@ -
@- @</w>
p a
p e
ks i</w>
k i
l e</w>
en t</w>
k a</w>
b e</w>
l y</w>
v at</w>
y h
k ä
is ta</w>
ll a</w>
s e
s ä</w>
si on</w>
m e
p or
ll e</w>
id en</w>
ar e</w>
in en</w>
k an
it i
t ö
it ä</w>
ta r
l d</w>
ti on
p er
c om
no t</w>
te r
d i
m y
tä m
u n
k in</w>
ha ve</w>
u t</w>
u o
ou ld</w>
c e</w>
v er
men t</w>
a is
te d</w>
e d
c i
i h
ou n
ll ä</w>
u r
a d
w it
k si
C om
wit h</w>
ic h</w>
p ol
t r
u l
ll is
wh ich</w>
ta an</w>
te n
f or
s e</w>
k om
Euro op
t ta</w>
h u
it y</w>
a si
n ä
a g
h y
l u
jä s
h o
v as
n n
ta a</w>
a tion</w>
& a
&a pos
e x
al u
m me</w>
h e
a b
to im
er e</w>
b y</w>
Euro pe
v a</w>
il l</w>
my ö
e i</w>
ta n
Europe an</w>
th e
s o
t e</w>
a an</w>
w ill</w>
s o</w>
hd o
s h
kom is
k os
yh te
g h
is es
is sa</w>
Euroop an</w>
it tä
Com mis
ik e
l is
i r
it u
ou r</w>
tion s</w>
p o
ha s</w>
q u
al l</w>
is tu
m ä
p ää
it a</w>
f f
e v
y t
as sa</w>
m in
M r</w>
ks en</w>
w or
i v
l o
it te
j en</w>
n a
d en</w>
tu r
kan s
th er</w>
us t</w>
res id
n y
la men
em me</w>
par lamen
o ike
vo is
0 0
v ar
i es</w>
ty ö
i te
vä t</w>
es ta</w>
por t</w>
k es
r is
jäs en
er s</w>
ka ik
a p
is i</w>
ou t</w>
Commis sion</w>
myö s</w>
is tä</w>
m an
t ra
it y
em b
a m
c h
parlamen t
p ä
s el
is en</w>
in s
P resid
v el
i o
u s</w>
i lle</w>
o vat</w>
ol e</w>
ä än</w>
w ould</w>
re c
val ti
m an</w>
r j
u ni
at e</w>
2 00
b e
en t
in n
g o
h alu
tu s
te s</w>
ta l
per us
vois a</w>
c oun
al so</w>
ti ve</w>
p al
v uo
ne u
es sa</w>
i a</w>
ises ti</w>
d u
a r</w>
te r</w>
m o
k ys
on e</w>
mi el
tä ä</w>
yhte is
id än</w>
b ut</w>
Presid ent</w>
h em
e hdo
sh ould</w>
k uu
v u
komis sion</w>
f ro
a j
ny t</w>
fro m</w>
U ni
m ust</w>
d s</w>
s en</w>
kos ke
d is
v ä</w>
b le</w>
re g
c h</w>
d a
it ta
a a</w>
ar voisa</w>
p l
k e</w>
li a
uni on
&apos ;
all a</w>
isi a</w>
t ri
ksi a</w>
d o
&apos ;</w>
p ec
v os
t ing</w>
all y</w>
m uu
s uu
&apos; s</w>
y o
b een</w>
P ar
valti o
ö n</w>
m on
o ll
an n
s sä</w>
h ta
th ere</w>
p it
yo u</w>
tal ou
d e</w>
s ta
on s</w>
S ta
a u
s tä</w>
m or
pu ol
es s</w>
s an
g e</w>
m ar
k ä</w>
a ik
tar k
de ll
te t
s y
jo ka</w>
jo t
täm ä</w>
ka an</w>
pu hem
e ksi</w>
ää n
m er
it s</w>
as ta</w>
u d
ma an</w>
ou r
l ik
p res
M emb
es s
Par lia
neu vos
i r</w>
tä än</w>
ti l
k y
uo t
kes k
us e</w>
en n
jä rj
Parlia ment</w>
p an
u ks
t h</w>
puhem ies</w>
kä y
mor e</w>
h i
Uni on</w>
es e</w>
järj es
t or
d em
d er</w>
tta a</w>
c an</w>
f i
ver y</w>
f in
C oun
a ti
es sä</w>
jot ka</w>
gh t</w>
ci l</w>
is uu
Coun cil</w>
con c
i ta
w a
k ing</w>
ka u
in g
d o</w>
th ese</w>
f u
w as</w>
ä n
u p</w>
in o
t y</w>
pro pos
ti c
em ent</w>
hy vä
r ke
c o
isi in</w>
p i
t om
wh at</w>
s it
in c
ih in</w>
on n
the y</w>
komis si
si itä</w>
men ts</w>
me idän</w>
jäs en</w>
hu om
ten kin</w>
q uot
quot ;</w>
& quot;</w>
m ää
ä ä</w>
v e
s op
d ing</w>
tu n
ta mis
lik e</w>
g ra
vi r
mi et
no w</w>
tion al</w>
Sta tes</w>
l ä
s ec
mu tta</w>
re port</w>
i f</w>
ac c
t on</w>
e i
parlament in</w>
tel u
o ther</w>
vä l
y y
g i
v all
the ir</w>
ma hdo
te en</w>
j a
en ce</w>
y r
tä vä</w>
tä rke
p e</w>
k i</w>
g u
ma a
tta va</w>
Memb er</w>
th er
k o</w>
kys y
ne et</w>
for e</w>
ta pa
os sa</w>
s is
en c
ku i
s om
p re
vo im
d er
ou s</w>
ic al</w>
t u</w>
v an</w>
täm än</w>
s itä</w>
pu he
ab le</w>
kesk us
b ec
ku n
te h
h an
on g
tä n
su p
ke h
iti ik
an s
ku in</w>
va ik
el i
tri es</w>
sop im
pol ic
wor k</w>
i lla</w>
m y</w>
it ty
f ac
hyvä ks
jäsen valtio
is ten</w>
Euro pe</w>
ta i</w>
im por
ol isi</w>
h all
jo hta
ci al</w>
se kä</w>
coun tries</w>
g h</w>
puhe en
j ec
a tions</w>
pro v
us ta
k er
ti in</w>
oike u
al ais
o c
i d</w>
pää tö
sa a
u la
tur e</w>
mää r
ku nn
h än</w>
y e
impor tan
du c
ta va</w>
os e</w>
toim i
a m</w>
pol itiik
ks et</w>
ll e
d ec
iti on</w>
v es</w>
llis uu
w i
in a</w>
ma t
tr u
vas ta
union in</w>
al is
su r
k em
o b
ab out</w>
s er
f ir
p la
is su
ku n</w>
h en
ks een</w>
s tan
as ti</w>
y m
b et
ar d</w>
mu ka
to is
j ä</w>
us ta</w>
ag re
it t
te u
wh o</w>
p en
k en
kä yt
E U</w>
e p
ff ic
s t</w>
lis ä
o h
m p
ta vo
as t</w>
ih mis
jo s</w>
mu n
n o</w>
po in
kui tenkin</w>
com m
op le</w>
kysy my
on ly</w>
in te
m än</w>
al o
ti et
is sä</w>
komissi o</w>
j el
re s</w>
an t</w>
m inen</w>
le g
al ta</w>
iti es</w>
a use</w>
san o
o w
t itu
m s</w>
: n</w>
er ity
ho w
si on
n e</w>
u ra
ehdo tu
e ll
ev er</w>
re as
in ter
l op
y hd
j on
kans sa</w>
vi en</w>
h e</w>
m in</w>
tä y
i en</w>
e lla</w>
ti me</w>
t in
wi th
hy v
na tional</w>
es ti</w>
ku ten</w>
ag a
v en
pe ople</w>
sis ä
r yh
em p
w el
pol i
pro c
ne ed</w>
i on</w>
vo id
ther e
il ity</w>
tu le
b o
k k
de vel
ko h
ol en</w>
e h
li itty
tr y</w>
qu es
vo i</w>
ti ed
E U
ik ä</w>
men d
ne w</w>
la aj
p r
ol emme</w>
en er
polic y</w>
e ve</w>
ar y</w>
it ys
puheen johta
k il
c le
u n</w>
d es
te taan</w>
v an
e uro
i c</w>
bec ause</w>
t tu
k on
g re
g ro
l em
e w</w>
h ar
h el
k s</w>
there fore</w>
v er</w>
kos ka</w>
miel es
va pa
importan t</w>
os ta</w>
o d</w>
ta ke</w>
wa y</w>
kan n
ol u
k ka
da y</w>
talou s
ks en
tä vä
ittä ä</w>
pol it
i p
alu e
va a</w>
ma in
l ar
gh ts</w>
u tu
neuvos ton</w>
en ts</w>
t ro
k ti
on om
hyväks y
ti a</w>
järjes tel
m a</w>
pro s
ta l</w>
p on
mer k
tä ssä</w>
su ch</w>
tu o
conc er
devel op
su b
it s
os t</w>
op er
r an
miet inn
tark istu
wh en</w>
ka is
ar e
ar vi
is et</w>
an s</w>
how ever</w>
si ble</w>
in v
p ri
th ose</w>
Commis sion
is h</w>
vi a</w>
itte e</w>
m ä</w>
ittä in</w>
in to</w>
ma ke</w>
di rec
a ih
al s</w>
en s
ra t
j o</w>
in e
jon ka</w>
ään es
t ly</w>
ni in</w>
ol i</w>
th ing</w>
s tra
enc y</w>
el y</w>
hyv in</w>
poli itt
a al
u m
as e
pro b
ec onom
ong el
y ks
b eli
k ou
mis ta</w>
f a
on g</w>
va in</w>
j ou
de b
pit ä
el ä
k ra
tar ko
som e</w>
p id
kaik ki
be ing</w>
c an
sup port</w>
an y</w>
te ttava</w>
os o
f er
a d</w>
Commission er</w>
at ta
y s</w>
k ö
si llä</w>
se ura
w een</w>
tä mis
bet ween</w>
pec i
en ti
asi o
i llä</w>
val io
im me</w>
c r
v is
k ol
y d
ol e
f un
ti e
par tic
i g
o lla</w>
halu an</w>
s ti</w>
va an</w>
e dell
b ility</w>
o g
ver n
res pon
u us
vas ti</w>
man y</w>
kaik ki</w>
k as
us e
e pä
k al
ll a
ar s</w>
polit ical</w>
g an
ed is
ma de</w>
com p
fir st</w>
lä h
the m</w>
vä lis
tar v
b u
g e
täm ä
ar ly</w>
as e</w>
pu b
ter ro
j at
im e</w>
huom io
ka a</w>
th an</w>
b ud
u ksen</w>
se e</w>
et te
w ere</w>
beli eve</w>
C on
propos al</w>
it taa</w>
l in
i an</w>
tr ans
ff ec
re ad
com e</w>
tä tä</w>
isi ä</w>
as u
1 9
el ä</w>
an ce</w>
vi elä</w>
ää d
ei vät</w>
a ted</w>
per i
a mme</w>
an a</w>
p le</w>
tel y</w>
d ed</w>
va h
ra ho
re la
kans alais
ta in</w>
tän i</w>
t w
c es</w>
mis en</w>
tur vall
li c</w>
ma a</w>
sur e</w>
r ik
m il
g et</w>
te hd
kunn an</w>
or der</w>
ro u
la us
mar kk
ko hd
de llis
su o
sa y</w>
k en</w>
m itä</w>
is e</w>
m ost</w>
ku l
tavo itte
an te
x t</w>
y le
ta n</w>
ri ghts</w>
ra c
f ic
nä in</w>
jo tta</w>
toim in
re d</w>
concer n
Y hd
c l
nn ö
j ul
e lle</w>
to teu
b er</w>
halu ais
k or
in ä</w>
pro duc
hu ol
ar ds</w>
suu r
terro ris
aih e
mieles täni</w>
n te
v ic
es tä</w>
si ih
p a</w>
itte li
ap pro
Com m
re kti
siih en</w>
j ossa</w>
so si
el in
määr ä
isi on</w>
us sa</w>
ni iden</w>
im er
ur e</w>
euro op
kä än</w>
void aan</w>
issu e</w>
er ittäin</w>
tar y</w>
ho w</w>
di rekti
poin t</w>
a mend
suu n
ing s</w>
euroop pal
c re
e f
deb ate</w>
o kra
en a</w>
ys te
it e</w>
ins t</w>
all e</w>
ais ten</w>
aga inst</w>
or d
pub lic</w>
ti c</w>
fac t</w>
l uo
ac h</w>
ev en</w>
es itteli
i ll
tu t
k im
jä l
i vat</w>
oh jel
o ver</w>
j ust</w>
un der
keskus tel
en si
tiet o
uu d
c er
jo ita</w>
h al
ke a</w>
s tr
s in
ny ky
tru c
y ing</w>
kä sit
Comm ittee</w>
ro s
si a</w>
lisä ksi</w>
tä stä</w>
u p
mun ity</w>
t ö</w>
an ta
ad op
cle ar</w>
tel y
ta b
ra p
yhteis työ
rat kais
stra te
maa il
s yste
l an
oike us
th in
ko lle
mi en</w>
f e
ff er
d ra
en em
con si
vuo ksi</w>
e llis
kan sa
i in</w>
ra l</w>
haluais in</w>
tw o</w>
s itu
in for
ym pä
p yy
do es</w>
men tal</w>
min is
EU :n</w>
v ing</w>
ke en</w>
pro te
pos sible</w>
vi ew</w>
en ta
h tu
th an
econom ic</w>
g iv
it o
par t</w>
op e</w>
u h
ha d</w>
wel l</w>
ri ght</w>
dem okra
ye ars</w>
h ere</w>
wh ere</w>
en s</w>
p yr
mu kaan</w>
ksi ä</w>
li ik
h er
ins ääd
ksi in</w>
di es</w>
it us
mahdo llisuu
th ou
y ty
is la
kä si
ques tion</w>
va ati
erity isesti</w>
t te
tä llä</w>
t re
es t</w>
iti z
ta mme</w>
c our
to de
en g
parlament ti</w>
te ll
ä mme</w>
T ur
u tta
pal j
I n
al a
fu ture</w>
read y</w>
o tta
coun try</w>
go vern
c us
ta in
to jen</w>
gan is
to a</w>
en d</w>
ympä ris
jo ta</w>
es imer
w ant</w>
inc lu
la insääd
ksi en</w>
m mä
ent ly</w>
h än
sa id</w>
n ec
mietinn ö
tö ä</w>
vuo den</w>
arvi o
miet in
f o
et y</w>
s peci
to iv
th en</w>
ke t</w>
tus ta</w>
so cial</w>
hy ö
to o</w>
pu hu
vi ä</w>
e ikä</w>
con s
con tin
f re
tä ys
mis tä</w>
ti en</w>
im pl
ha p
to day</w>
enn en</w>
vas tu
situ ation</w>
c ur
e ffec
200 1</w>
can not</w>
val mis
develop ment</w>
is een</w>
prov id
c ould</w>
c itiz
inc reas
m alla</w>
u e</w>
sa me</w>
hu man</w>
uu den</w>
n ä</w>
pa ik
a f
r s</w>
kansa in
n im
tä hän</w>
men et
vir on
mi a</w>
me asu
ki rj
ye ar</w>
tö ön</w>
ette i</w>
mu ch</w>
yhteis ön</w>
pec t</w>
olu tion</w>
tark as
jäsenvaltio iden</w>
v än</w>
dem oc
thin k</w>
ch an
oper ation</w>
s ää
a i
m it
si ksi</w>
or ity</w>
in d
ol em
tu om
s pe
palj on</w>
ul t</w>
M rs</w>
at ing</w>
al ready</w>
res s</w>
til l</w>
A r
ter s</w>
leg isla
measu res</w>
sel vä
jo iden</w>
s till</w>
ta ken</w>
prote c
h ä
acc ep
vaik ka</w>
with in</w>
ys tä</w>
ula r</w>
va ih
ou se</w>
ins titu
su m
fin an
f ur
miel tä</w>
w n</w>
pos ition</w>
neu vo
inte res
ais en</w>
ac hi
n ou
b asi
m at</w>
i ous</w>
päätö s
pitä isi</w>
a at
tö n</w>
tu ral</w>
y our</w>
p ys
fu l</w>
cur r
nä mä</w>
jec t</w>
rap por
mar ket</w>
k et
bo th</w>
th rou
Com munity</w>
ti la
huomio on</w>
ex c
as s
ip pu
ensi mmä
h is</w>
oll ut</w>
u ksia</w>
puol esta</w>
i la
dis cus
vo te</w>
sosi aal
kans all
wh y</w>
ku lu
mahdo llis
s ä
go od</w>
19 9
pro gra
os all
kuu lu
lop u
pla ce</w>
w e
j uu
for m</w>
tärke ää</w>
täm ään</w>
ite t
cour se</w>
al ity</w>
p uu
ta s
som e
h ope</w>
h et
r ic
t in</w>
k now</w>
ti ves</w>
saa vu
di ffer
un der</w>
ko kou
e l</w>
b er
sec on
e tu
kau p
l ast</w>
tapa htu
ll y</w>
is in</w>
seura a
hen kil
citiz ens</w>
wor ld</w>
to r</w>
u a</w>
comm on</w>
ad d
jo h
mu o
on al</w>
k ke
c ase</w>
it se</w>
ti es</w>
asi assa</w>
pää t
uu tta</w>
200 2</w>
neuvos to</w>
t is
a ino
r i</w>
g y</w>
keskus telu
ni itä</w>
an taa</w>
c a
y l
n um
H ouse</w>
perus te
ve l</w>
sa an</w>
en viron
reg ula
o w</w>
tu nn
tu lo
agre ement</w>
h te
j ien</w>
direc tive</w>
emp lo
tehd ä</w>
jäl keen</w>
ur ity</w>
ow n</w>
j at</w>
v ed</w>
b r
ma tion</w>
ex am
ra u
pr in
Yhd ys
partic ular</w>
osall istu
ven tion</w>
th re
em min</w>
ty ä</w>
proc ess</w>
ob jec
tut kim
ter ve
va ka
g ener
markk ino
than k</w>
inter national</w>
si g
te ho
mis een</w>
laaj en
be fore</w>
p el
yt tää</w>
so ci
prin ci
n al</w>
co operation</w>
asi an
e ar
em ents</w>
a ir
ki el
var o
I s
va isuu
qu i
lar g
j an</w>
politiik an</w>
direkti iv
v il
ma y</w>
si inä</w>
teu r</w>
mä r
ser vic
käsit tel
as taan</w>
d ly</w>
with out</w>
ty y</w>
onn a</w>
mi ll
tri bu
vas ta</w>
täys in</w>
num ber</w>
vu onna</w>
in a
pu t</w>
pro mis
rappor teur</w>
Uni ted</w>
m ikä</w>
it se
var mis
et ta</w>
es it
e llä</w>
henkil ö
ä t
hall itu
te tään</w>
ym mär
or ganis
k ed</w>
sa ad
pal vel
g ent
te ri
me ans</w>
syste m</w>
k in
d y
nec ess
pa a</w>
ne ed
ac tion</w>
hy vät</w>
200 3</w>
ko ko</w>
au th
tet tu</w>
giv en</w>
s et</w>
j ö
m assa</w>
s ol
kys e
c c
vah vis
Euroop pa</w>
y ksi
uks essa</w>
es een</w>
ann e</w>
ks essa</w>
issu es</w>
inv ol
iti ons</w>
tun ut</w>
g en
amend ments</w>
s te
us ed</w>
gre at</w>
as ed</w>
si ons</w>
thou gh</w>
mis eksi</w>
u t
hän en</w>
tarko itu
pit ää</w>
to dell
exam ple</w>
en sure</w>
tä ä
i ä</w>
P ro
vä li
ka t
gent lem
I ra
d a</w>
te kem
A f
yhte yd
jäsen et</w>
o in</w>
gentlem en</w>
in iti
le vel</w>
dec ision</w>
infor mation</w>
re pres
om en</w>
keh itys
tä vät</w>
vi ime</w>
s ed</w>
neuvo t
us ten</w>
r as
are a</w>
si is</w>
äänes ty
la dies</w>
asi a</w>
tu a</w>
ffic i
c k</w>
f oll
sel f</w>
pa il
vas taan</w>
mi ten</w>
sh i
sopim uksen</w>
iv an</w>
f ar</w>
te k
in e</w>
in no
a vu
ac t</w>
finan cial</w>
inv es
i vo
ed usta
isi lle</w>
si ir
ul es</w>
tamis ta</w>
or ities</w>
val v
reg ard</w>
la ati
impl em
puheenjohta ja
voim me</w>
nä kö
ra ken
sit ten</w>
toim ia</w>
k l
tule vaisuu
turvall isuu
hal f</w>
tu ksen</w>
et ta
as em
prob lem
im in
gi ve</w>
ma ks
i vä
om e</w>
ma iden</w>
mä än</w>
lo o
m es</w>
is ta
a k
h ed</w>
kil pail
al th</w>
laus el
val ta
le m</w>
esimer ki
pros ent
päätös lausel
ic e</w>
to te
y ment</w>
s ään
prob lem</w>
h as
yhteyd essä</w>
in de
y n</w>
ki r
tor j
tu s</w>
juu ri</w>
t on
a va
puheenjohta ja</w>
e et</w>
es tab
estab lis
throu gh</w>
sa a</w>
el ec
ed u
myö nte
ol og
sin ce</w>
w er</w>
f ra
onn istu
ympäris tö
u m</w>
wh e
er i</w>
necess ary</w>
ou ra
ti ce</w>
jul k
f t</w>
sa f
kä s
kun ni
pu r
esimerki ksi</w>
va ike
si en</w>
reg i
problem s</w>
kys e</w>
con f
ta sa
kolle g
ises ta</w>
consi der
iti ve</w>
propos als</w>
me illä</w>
nä iden</w>
ra jo
Memb ers</w>
per s
ar vo
om a
i l</w>
l ong</w>
l ed</w>
go ti
aga in</w>
ks esta</w>
fi c</w>
valio kunnan</w>
whe ther</w>
m emb
ais et</w>
con tro
il ma
c ar
0 0</w>
por tun
ne goti
muka isesti</w>
edell een</w>
in f
mat ter</w>
ta ble</w>
kansain välis
merk ittä
comp et
te lla</w>
pää s
te xt</w>
la w</w>
ex pres
r u
yt tä</w>
ul arly</w>
a a
to ja</w>
shi p</w>
it or
af ter</w>
op e
is ed</w>
tan ut</w>
f is
d en
leg al</w>
g es</w>
n u
is eksi</w>
in ten
ksen i</w>
isi ons</w>
tus la
conc lu
peri aat
sec urity</w>
kaikki en</w>
asi a
basi s</w>
a ivan</w>
is ty
aj a
s in</w>
se ll
h ing</w>
o m</w>
d one</w>
si bility</w>
fur ther</w>
en larg
he idän</w>
op portun
ap p
ag e</w>
koske van</w>
sää nnö
käy tä
w omen</w>
c ed</w>
ki a</w>
re qui
wa ys</w>
enem män</w>
ke y</w>
at t
R e
o f
are as</w>
c oll
laajen tu
s i</w>
bud get</w>
y ksi</w>
l ess</w>
adop ted</w>
suun ni
su hte
vir an
täm me</w>
op in
s c
partic ularly</w>
ou t
por ts</w>
mi t</w>
jo illa</w>
c all
s en
di ffic
l as
kal as
val tion</w>
fa v
nä än</w>
ou s
täy tän
tu l
ne xt</w>
me work</w>
ac e</w>
e e</w>
cer tain</w>
th ir
lainsääd än
väl t
al alla</w>
ac coun
p resid
o t</w>
til ante
vaik u
p rac
sisä l
fu lly</w>
pro g
il e</w>
keh ity
Is ra
res pect</w>
M ar
sel ke
ki inn
vi im
h ol
200 0</w>
lopu ksi</w>
sy y
ol ev
mietinn ön</w>
ks ista</w>
ver y
vi in</w>
e qu
ises sä</w>
m ely</w>
union i</w>
llis esti</w>
aik ana</w>
h is
d essa</w>
oun d</w>
esitteli jä</w>
w ish</w>
g a
pa in
legisla tion</w>
pres ent</w>
k no
go ing</w>
fi ed</w>
os a
b ac
asio iden</w>
su cc
o do
G ro
yr ity
u al</w>
tä nään</w>
n ut</w>
con tribu
su or
id e
e very
perus tusla
mis esta</w>
avu lla</w>
h in
el i</w>
toim en
re f
menet tely
differ ent</w>
ten t</w>
d el
m ik
jo lla</w>
es ty
c u
p ite
aik a
po h
en ted</w>
komissi o
a id</w>
con d
ind us
il i
ic ation</w>
r ules</w>
j us
w ard</w>
k ko
m asta</w>
tö ö
l et</w>
et tava</w>
is sa
kou lu
so vel
T re
In ter
perus tu
ter ms</w>
si j
comm it
kes ke
r an</w>
kann alta</w>
ef for
ryh mä
it tel
aino astaan</w>
si mp
his tor
u es</w>
servic es</w>
ro le</w>
koske e</w>
gro up</w>
vuo ro
ric ul
pi en
yle is
te ch
ol tava</w>
toiv on</w>
il man</w>
agre e</w>
tar pe
g o</w>
oike ud
progra mme</w>
gre a
w ards</w>
o ttaa</w>
gu ar
some thing</w>
j än</w>
toimin ta
protec tion</w>
ma king</w>
sel ves</w>
re fer
isi vat</w>
tet tävä</w>
ises sa</w>
suunni tel
si ve</w>
uu s</w>
res olution</w>
cl os
mit ään</w>
gra tion</w>
o t
k ri
suo jel
stan d
fra mework</w>
as k</w>
concern ed</w>
200 4</w>
o ver
ll oin</w>
air s</w>
ff airs</w>
ma an
ex is
kysymy s</w>
pä ivä
os alta</w>
ko hta
te o
ite tta
I ta
koske vat</w>
id e</w>
prog ress</w>
s tar
C h
kuu ta</w>
hy vä</w>
Yhdys val
be half</w>
its em
tö jen</w>
uud istu
foll ow
ar ti
w s</w>
en ä</w>
n ope
Sta te</w>
enlarg ement</w>
vo ivat</w>
thre e</w>
emplo yment</w>
a vat</w>
en ä
to ge
me di
min u
ll ista</w>
tor s</w>
es sion</w>
at y</w>
os a</w>
va ar
sub ject</w>
si l
tech n
ta v
he alth</w>
al an</w>
ma in</w>
jo issa</w>
pro mo
valti o</w>
com pan
at taa</w>
vapa u
talou dellis
neuvot telu
wor king</w>
asi asta</w>
a ina</w>
saf ety</w>
f ew</w>
a voim
di v
lu on
vu os
ten kaan</w>
nn ön</w>
opin ion</w>
jo on
a w
secon d</w>
contin ue</w>
c or
bet ter</w>
sh all</w>
hi gh
te tta
hyö dy
oikeu ksien</w>
kui tenkaan</w>
mil joon
mietinnö ssä</w>
B ar
sa maa</w>
wh ole</w>
an sa
an other</w>
ko ros
is uus
puol u
rac y</w>
palvel u
sit ou
to ivo
propos ed</w>
b i
teh tävä</w>
qu ite</w>
il ta</w>
B r
for ward</w>
enc es</w>
sec tor</w>
te itä</w>
A mer
institu tions</w>
väli llä</w>
g ed</w>
do wn</w>
M ad
Gro up</w>
ur ing</w>
mi ä</w>
ä l
min un</w>
se e
ki ittää</w>
f ul
su l
im mä
al i
tule e</w>
kun ta</w>
tä lla
tuom io
G o
n ing</w>
tä ll
toimen pite
t tö
tärke ä</w>
in is
l im
ty nyt</w>
periaat te
hyväksy ä</w>
fun da
tapa uksessa</w>
fav our</w>
mää ri
ous ly</w>
sopim uks
k usta
sano a</w>
ed ure</w>
an im
kansalais ten</w>
toge ther</w>
at ten
res ult</w>
ig n</w>
me ille</w>
kulu tta
l ö
achi ev
ll een</w>
d y</w>
lin e</w>
talous arvi
e very</w>
ta is
va kuu
kaikki a</w>
b en
e en
itta va</w>
vel y</w>
cle arly</w>
ik ke
chan ge</w>
pre par
ra tic</w>
m as
su hta
tet tiin</w>
appro ach</w>
saad a</w>
wel come</w>
princi ple</w>
uu n</w>
ar m
a tive</w>
kan na
yks ity
ta so
täm inen</w>
k es</w>
s to
Con vention</w>
P al
k on</w>
enta tion</w>
ri ippu
our ces</w>
se lla
ne en</w>
ear ch</w>
yhd en
vo ita
sa malla</w>
1 0</w>
lo b
muu ta
vä ä
s or
speci fic</w>
di d</w>
et t
com mun
l ic
viim e
uu dell
an sa</w>
curr ent</w>
jat ku
k op
p le
ag ricul
is yy
ra ther</w>
pen d
oll en</w>
nou d
ki jö
guar ante
ffic e</w>
ap pe
de fin
pa ino
vaati mu
l and</w>
li ber
on ce</w>
Presid ency</w>
c ri
to wards</w>
halu amme</w>
työ nte
sta te</w>
et te</w>
es ittä
ka ksi</w>
asi aa</w>
d esta</w>
d uring</w>
valv on
et s</w>
d ic
stan d</w>
työ s
im prov
es ti
to inen</w>
it see</w>
vaik utu
nä itä</w>
ta king</w>
aik aan</w>
tode lla</w>
s ta</w>
Tre aty</w>
vas sa</w>
cer tain
enti al</w>
fre ed
gener al</w>
järjestel mä
a ks
a kin</w>
b ased</w>
kir jo
yks in
ises tä</w>
muo d
man ag
im man</w>
kans an
kans ala
vel vo
mietin tö</w>
a v
ku in
need s</w>
ty yty
ac ti
fi el
parlament issa</w>
sa an
il y</w>
nn e</w>
mill ion</w>
at ta</w>
t tom
vastu u
kol man
jäsenvaltio t</w>
appro pri
sisä ll
eurooppal a
s m
edis ty
tu kea</w>
grea ter</w>
il mo
myö n
työ llis
n ed</w>
kuin ka</w>
t ol
aj an</w>
an ne
se qu
toteu tta
c ul
a ine
vas tus
y et</w>
trans port</w>
valmis telu
tra de</w>
so v
het ke
ris ti
kaik kea</w>
el im
hel p</w>
g g
it self</w>
viran om
prosent tia</w>
regula tion</w>
asi an</w>
demokra ti
alo itte
tä nyt</w>
y ys
tää llä</w>
n or
A ffairs</w>
vä hen
ko kon
cond itions</w>
fin ally</w>
es ittää</w>
G re
00 0</w>
s truc
tar jo
ka hd
c ap
raho itus
me et
strate gi
respon sibility</w>
as es</w>
e ach</w>
maa han
si ten</w>
la a
kunni o
yh tä</w>
bec ome</w>
ha ving</w>
N o</w>
u du
tuomio istu
importan ce</w>
teh tävä
si de</w>
ord in
voim a
it te</w>
tuo tte
opportun ity</w>
valtio iden</w>
li f
accoun t</w>
wh ile</w>
käsi tel
vält tämä
mon e
in tro
inde ed</w>
thir d</w>
kolleg at</w>
ke e</w>
rec og
turvall isuus
yh ä</w>
le ast</w>
con sum
recog n
ksen a</w>
r en
comm ittee</w>
su os
inclu ding</w>
til anne</w>
k ers</w>
ac tu
im p
ni istä</w>
es peci
aik o
ku ussa</w>
de al</w>
auth orities</w>
pid et
k an</w>
muu t
yhteis ö
pe ace</w>
al though</w>
mu iden</w>
re ally</w>
gu e</w>
ex tre
Yhd isty
hetke llä</w>
democ racy</w>
val itetta
käyt tää</w>
te ille</w>
especi ally</w>
terroris m</w>
d ou
negoti ations</w>
muu to
1 5</w>
tie tenkin</w>
Ar voisa</w>
environ mental</w>
poin ts</w>
g al</w>
Ita li
b al
sä il
par lia
p er</w>
al ways</w>
vi ol
cons titu
jo hd
teho kka
lo c
uks et</w>
pros ess
par t
increas e</w>
kul ttu
provid e</w>
in ti
e ur
suu re
M a
du ce</w>
ul kop
g lob
töö n
op a</w>
mi in</w>
ap pl
fin d</w>
tämis tä</w>
ag en
nä kem
k enn
j opa</w>
hyväks yt
direkti i
Mad am</w>
p rec
la te</w>
et tom
div id
m en</w>
toim inn
k el
lainsääd ä
ehdotu ksen</w>
Euroop assa</w>
res ources</w>
democ ratic</w>
ser ious</w>
n er
la ad
an i</w>
c all</w>
at or
ryh män</w>
void a</w>
direktiiv in</w>
vasta a
re form</w>
tö jä</w>
koske va</w>
o tetaan</w>
A mend
kysymy ks
te ks
wor ds</w>
EU R</w>
ter m</w>
com b
en ää</w>
k ar
j et
y t</w>
tyyty vä
os ta
sh or
th ings</w>
minis ter
B el
väl ine
V enä
res earch</w>
li ian</w>
val tu
va al
spe a
politiik kaa</w>
an g
pyy d
ke ho
ite taan</w>
tr ic
olev an</w>
govern ment</w>
diffic ult</w>
yr itys
par ha
ma tta</w>
S ch
polic ies</w>
vi ik
yhd essä</w>
s titu
achi eve</w>
huom au
h on
cr imin
suun ta
produc ts</w>
ki it
ri ittä
contro l</w>
comp le
var ious</w>
jo ista</w>
parlamen ti
ll inen</w>
M inis
om me</w>
var ten</w>
de f
re ac
es tin
talou den</w>
ch ar
te m
maail man
in nä
ur g
pä iv
hu man
hi gh</w>
funda mental</w>
tan ce</w>
l es</w>
tav alla</w>
all ow</w>
arti kl
R i
b us
tä vän</w>
hu ippu
mahdollis imman</w>
kunn assa</w>
jo in
par ti
oso itta
lar ge</w>
ex ten
töön pan
täytän töönpan
fic ation</w>
concern s</w>
can d
bac k</w>
pec ts</w>
un d</w>
s usta
acc ess</w>
h and</w>
le ad
Go vern
e tel
kö yh
amend ment</w>
gro w
s olu
reas on</w>
vo ted</w>
käyt töön</w>
h an</w>
ma jo
yh ten
im mi
om aan</w>
perus tamis
2 0</w>
os in</w>
interes ts</w>
laaj u
sel v
indus try</w>
talou dell
po is
fiel d</w>
en sa</w>
freed om</w>
h er</w>
d r
follow ing</w>
demokra att
pos itive</w>
regi ons</w>
ess ential</w>
ker ran</w>
majo r</w>
re duc
dec isions</w>
on e
ä t</w>
vä ä</w>
ro ad</w>
proc edure</w>
aik ais
ma j
ku mp
re al</w>
we e
v es
keskustel u</w>
sol id
tic le</w>
l yh
tek n
o th
loo k</w>
soci ety</w>
r e</w>
peruste ella</w>
e ag
en tra
Amer ic
susta in
yhte isen</w>
acti v
ener gi
mat tom
atten tion</w>
A 5</w>
str eng
strate gy</w>
invol ved</w>
p ris
muu tta
objec tives</w>
s tu
ben ef
t ou
jä ä</w>
res ul
et o
on ko</w>
ir e</w>
jä t
mon et</w>
j osta</w>
v ista</w>
sm all</w>
aw are</w>
vuo tta</w>
fer ence</w>
so ve
re ign</w>
tamis eksi</w>
s ing</w>
gra tu
puol us
es itet
implem entation</w>
per ä
be g
certain ly</w>
con gratu
te tu
qu ality</w>
3 0</w>
ra kenn
m men
min d</w>
keh ittä
con sequ
a tes</w>
5 0</w>
yhte en
tä v
cr it
yhteistyö tä</w>
accep t</w>
Tur key</w>
tunn us
bu il
consi der</w>
maj ority</w>
th s</w>
ful l</w>
op en</w>
es ite
ää r
tö n
sy n
vä sti</w>
järjes ty
hall in
w an
maa talous
compet ition</w>
ch il
m ed</w>
effor ts</w>
kul j
k ki
effec tive</w>
O ffice</w>
ens innä
todell akin</w>
2 0
mone y</w>
se ik
g ing</w>
inter nal</w>
vo in</w>
ab ility</w>
cr u
th em
kau tta</w>
concer n</w>
Govern ment</w>
y yttä</w>
mi ksi</w>
tavo in</w>
oikeu ksia</w>
environ ment</w>
pl es</w>
for ce</w>
ros s</w>
us ko
to on</w>
kusta nn
P or
ni fic
ys sä</w>
on in</w>
compan ies</w>
objec tive</w>
ehdotu s</w>
pu hel
alis ation</w>
b our
työnte kijö
an al
mahdo llista</w>
ki ito
ste p</w>
tur va
re ques
an si
emp i</w>
ta tion</w>
A l
tun a</w>
is m</w>
tar vi
im atta</w>
extre mely</w>
n on</w>
its i</w>
he ik
initi ative</w>
n aisten</w>
van a</w>
uudell een</w>
voita isiin</w>
läh esty
pro f
jä lleen</w>
tion ed</w>
s s
kump pan
ins tru
ar ity</w>
p op
interes t</w>
hall itus
coll eag
Con stitu
o a</w>
L i
f le
pro ve</w>
union issa</w>
rec ent</w>
selvä sti</w>
for ms</w>
er ila
l en
i ksi</w>
en ing</w>
dou b
järjestel män</w>
sig nific
ensinnä kin</w>
mi ght</w>
com pl
simp ly</w>
joh on</w>
ker tom
R us
asio ita</w>
m all
fre e</w>
sta te
call ed</w>
trans par
tarvi taan</w>
saavu tta
j aa</w>
käy nn
alo gue</w>
tur n</w>
kilpail u
E s
in divid
hel p
ke ino
com promis
lop pu
kuu n</w>
ra ti
pit kä
vois i</w>
a in
j ud
elin tarv
conf lic
yksin ker
yksity is
ti mes</w>
alu een</w>
aihe utta
san i</w>
fo od</w>
bus in
w ar</w>
oike us</w>
tu u</w>
s olution</w>
o s</w>
täm än
ky mmen
es iin</w>
vall an</w>
2 5</w>
min usta</w>
ag o</w>
kor va
te llä</w>
sub stan
b an
har jo
to d
j ää
ener gy</w>
olem assa</w>
huol imatta</w>
ita kin</w>
r in
Ar ticle</w>
ä sti</w>
yhten ä
pre v
bud jet
es itys
parti ci
tois in</w>
puheenjohtaja valtio</w>
prac tic
el ess</w>
b il
1 2</w>
reg ar
do cu
mil i
liik en
c os
n et
f y</w>
sa mo
f am
P ol
pos e</w>
d es</w>
toimi elin
si lle</w>
meet ing</w>
use in</w>
is ation</w>
ro w</w>
br ing</w>
b an</w>
oth ers</w>
econom y</w>
com es</w>
mu istu
h im
of ten</w>
kor ke
r y</w>
up on</w>
s how
iti onal</w>
ne iden</w>
fis her
d ate</w>
tarkas tel
huom atta
appropri ate</w>
po wer</w>
ong er</w>
C our
l ann
di alogue</w>
b est</w>
gro up
id a</w>
kä r
all ow
s ten</w>
a ffec
men tioned</w>
li ght</w>
uu sia</w>
han kke
tet ty</w>
Por tu
i in
per io
agre ements</w>
maail man</w>
minis tra
kno w
as te
s ing
develop ing</w>
ko jen</w>
vä hem
hap s</w>
tois eksi</w>
sup por
a ta</w>
ava ila
ar vos
per haps</w>
vu or
lis ää
u ri
työs ken
osa puol
respon sible</w>
wor kers</w>
n i</w>
Yhdysval tojen</w>
m el
markkino iden</w>
ongel mia</w>
ko ja</w>
pos ed</w>
intro duc
tet tu
cand id
ik an</w>
ent ing</w>
la it
fe el</w>
er a
to si
suur i</w>
c ris
ka h
työ tä</w>
fi ght</w>
progra m
il o
oikeud en
aik aa</w>
p ik
com ing</w>
an y
luon no
elä in
vuoro puhel
men n
uks ista</w>
Cour t</w>
en kin</w>
en sä</w>
s p
il tä</w>
ffici ent</w>
en i</w>
huippu kokou
ymmär r
vi lle</w>
ques tions</w>
f arm
ver s
kansain väl
fun ds</w>
rela tions</w>
it ään</w>
ll ing</w>
koh taan</w>
toimi in</w>
l ää
vaih e
s all
tied on
star t</w>
fa il
ulkop u
isuu den</w>
em aan</w>
acc ession</w>
1 1</w>
yksi miel
valitetta vasti</w>
C O
op is
määr ä</w>
memb ers</w>
e tenkin</w>
ttu a</w>
o ff
do ing</w>
ä s
group s</w>
lif e</w>
kat so
nn et
ran g
yl i</w>
p ö
sy ystä</w>
Y K
erity isen</w>
accep table</w>
tor y</w>
ris k</w>
mi eh
dra ft</w>
re com
g ation</w>
komissio ta</w>
agricul tural</w>
ad van
si lloin</w>
torj un
is ista</w>
lähesty mis
käytä nnö
me itä</w>
Tur k
us kon</w>
a pu
koros taa</w>
n el
epä il
enc oura
concern ing</w>
pys ty
nim ittäin</w>
tävä ä</w>
emb er</w>
th eless</w>
strate g
l tä</w>
actu ally</w>
W T
I r
o tettava</w>
m om
under stand</w>
llis en</w>
ku t
them selves</w>
f oc
at te
yy den</w>
kokon ais
D i
kti iv
re alis
el in</w>
selvä ä</w>
app li
A n
c ation</w>
j ia</w>
le d
ko ro
tämis eksi</w>
rik o
teo llisuu
tus ten</w>
repres enta
kalas tus
S o
enn e</w>
y ed</w>
un for
nä istä</w>
secon dly</w>
human ita
know led
huomio ta</w>
b ur
hap pen
availa ble</w>
se ver
erity is
eh kä
d i</w>
ad ministra
h es</w>
it usta</w>
ehdo kas
t tä</w>
sta tes</w>
vaih to
tamis en</w>
mat ters</w>
curr ently</w>
isuu tta</w>
enem mis
g ran
ol o
menn essä</w>
om an</w>
jec ts</w>
au tta
reg ion</w>
om ais
t ment</w>
liitty vät</w>
in kin</w>
on kin</w>
ent istä</w>
co ordin
vi e
re ports</w>
B er
par ties</w>
toimi elim
us ing</w>
tel e
Ri ghts</w>
oikeu dellis
kau den</w>
ens isi
asian muka
yritys ten</w>
alue ella</w>
Itali an</w>
pid ä</w>
all e
de al
Ira q</w>
dem on
re ly</w>
b re
a kseen</w>
manag ement</w>
il u
alue iden</w>
pit e</w>
kom promis
id ence</w>
vi l</w>
tä neet</w>
mu l
mis sä</w>
ma issa</w>
ity ks
ci es</w>
d on
ar v
käy tö
199 9</w>
mon ths</w>
laus un
fer ens
produc tion</w>
po ikke
en d
op im
it tu</w>
Es pan
vir as
ver o
tuomioistu im
mu ita</w>
ohjel man</w>
demon stra
cre ate</w>
valio kunta</w>
w r
vaiku ttaa</w>
ex peri
et tu</w>
parlamenti lle</w>
tu ll
tied ämme</w>
sing le</w>
ensimmä inen</w>
con text</w>
ou th</w>
koske via</w>
me th
ti u
par an
oso ittaa</w>
kon ferens
fir s
täy tyy</w>
m i</w>
grow th</w>
v ement</w>
stand ards</w>
c ases</w>
ongel ma</w>
liitty y</w>
fin al</w>
torj u
pop ula
firs tly</w>
vi ous</w>
nä ky
a vo
tu na
ar vois
la ck</w>
e p</w>
reas ons</w>
de lle</w>
is em
program mes</w>
i lle
compromis e</w>
tuna tely</w>
ik o
tra c
Amend ment</w>
pi en</w>
mo ve</w>
jäsen ten</w>
esti in
achiev ed</w>
ne i
ob li
p s</w>
talous arvio
ki en</w>
ei lla</w>
myö s
ta c
reg ards</w>
po w
k re
pu n
la tion</w>
kun ing
edu cation</w>
i al</w>
es sa
pa ko
sustain able</w>
im prove</w>
no thing</w>
t tu</w>
t ossa</w>
liik ku
govern ments</w>
s on</w>
at tom
tois a
ab o
ri ed</w>
mahdollisuu s</w>
jä rke
techn olog
ity s</w>
en na
am oun
var m
pel käs
tarkoitu ksena</w>
regi onal</w>
Pal estin
tamis een</w>
syste ms</w>
mietin töä</w>
e iv
re le
kan a</w>
itt le</w>
er o
b on</w>
C o
de ta
du e</w>
pelkäs tään</w>
ehdotu ksia</w>
l ittle</w>
E n
tarv itta
tamis esta</w>
is tan</w>
su gg
taso lla</w>
ihmis ten</w>
vä es
l onger</w>
tarkistu ksia</w>
kysy m
tän ä</w>
G er
terve y
R om
abo ve</w>
syy tä</w>
resul ts</w>
requi re
in ing</w>
ess es</w>
ään ty
yh ti
te idän</w>
contin u
er in
ti al</w>
myös kään</w>
al ku
ehdo tusta</w>
si in</w>
or row</w>
dr en</w>
Yhdys vall
EU :
s een</w>
organis ations</w>
ten ce</w>
ks emme</w>
R ans
ty jen</w>
pri va
ol i
ine et</w>
com pe
jo itakin</w>
is enä</w>
sub si
ge tary</w>
mili tary</w>
kuning as
is ing</w>
ta maan</w>
miljoon aa</w>
me an</w>
nou da
jäsenvaltio issa</w>
tom orrow</w>
perio d</w>
jo ihin</w>
jou tu
as sis
pys y
D em
mieles tämme</w>
miel ip
toisa alta</w>
esitys lis
varm asti</w>
suu nn
la i
ti vely</w>
itta in</w>
cons truc
S ec
its emme</w>
S w
p et
p ast</w>
mar ket
tied o
princi ples</w>
or ig
p h
la p
tavoitte ena</w>
legisla tive</w>
et ting</w>
s t
muu n</w>
v issa</w>
p i</w>
ol is
g en</w>
rela tion</w>
n ess</w>
mom ent</w>
k is
L is
B al
ul ko
need ed</w>
g ets</w>
ch all
kin d</w>
pri ority</w>
poh j
pl an</w>
edell yty
tru e</w>
prev ent</w>
hap p
a im
tulevaisuu dessa</w>
kuulu u</w>
kal ta
uus i</w>
i re
val u
presid ent
chil dren</w>
exc ell
sopim us</w>
congratu late</w>
si s</w>
ni ihin</w>
keskustelu n</w>
candid ate</w>
ou gh</w>
ter nal</w>
koske vaa</w>
l ec
as et
Dem oc
rau han
n sä</w>
ma kes</w>
jo ka
o ds</w>
isuu s</w>
p as
en ough</w>
tell ään</w>
nä hd
lu ku
agre ed</w>
tu kem
1 .</w>
agen da</w>
b our</w>
c el
u b
M E
i z
le ad</w>
a ina
paik all
yt tävä</w>
ter min
as pects</w>
kansalais et</w>
k ö</w>
var sin
tab led</w>
ihmis oikeus
it ing</w>
euro a</w>
cris is</w>
hi m</w>
sa man
isi lla</w>
join t</w>
fun ding</w>
as te</w>
d ang
YK :n</w>
te iden</w>
con sul
commun ication</w>
U N</w>
polit ic
commit ment</w>
un ti
terroris min</w>
te s
halu a</w>
os taa</w>
i vät</w>
Constitu tion</w>
tuo tta
ab ly</w>
aik a</w>
puheen vuor
L a
cri teri
yhden muka
järjestel mä</w>
kuu l
val mi
Tur kin</w>
M e
kansainvälis en</w>
D ec
asi aan</w>
budjet ti
kal a
muu t</w>
l ing</w>
a tely</w>
eh kä</w>
L issa
tu ho
individ ual</w>
teh nyt</w>
koske vien</w>
nu or
kolle go
sa at
es ter
vä ki
Lis bon</w>
loc al</w>
acc or
pla y</w>
p ly</w>
kom ite
c ing</w>
unti l</w>
a ati
Lissa b
pyr ki
uud esta</w>
työ paik
pros es
fur ther
ci vil</w>
prov ed</w>
kirj an</w>
ide a</w>
ta pa</w>
kiit än</w>
kut su
app ly</w>
c ho
velvo llisuu
ä kin</w>
bo dy</w>
w ar
ol d</w>
l ou
regar ding</w>
res tric
yhd is
tä isiin</w>
inf ras
artikl an</w>
H e
re main
lyh y
tie te
a maan</w>
x i
pö y
nope asti</w>
for m
te st</w>
mis estä</w>
edis tää</w>
to o
gu id
kysymy ksiä</w>
ass ess
oike in</w>
lainsäädä nnön</w>
my y
teho k
sa attaa</w>
provid ed</w>
p ass
ha a</w>
effec t</w>
istu n
tön tä</w>
cru cial</w>
er i
de lla</w>
maailman laaju
jä t</w>
further more</w>
a ar
our selves</w>
kaik ille</w>
every one</w>
men tary</w>
toimielin ten</w>
re li
des pite</w>
Bel gi
te ki
B ud
mu r
k ää
et tel
keskustelu a</w>
välis en</w>
unfor tunately</w>
tode ta</w>
dec id
excell ent</w>
guarante e</w>
luo tta
kka asti</w>
va ad
hel d</w>
vah in
pi an</w>
min kä</w>
e te
promo te</w>
el ta</w>
ty jä</w>
B 5</w>
tö mä
tell aan</w>
pa an</w>
lainsäädän tö
jo ten</w>
oura ble</w>
lu om
of f</w>
le a
keh itty
Venä jän</w>
rec eiv
discus sion</w>
Par ty</w>
stan ding</w>
kon f
b order</w>
prac tice</w>
ob ser
suhta utu
pä ä</w>
hallitu ksen</w>
jäsen en</w>
b s</w>
turvallisuu den</w>
tu res</w>
t ti</w>
re main</w>
pa itsi</w>
ki in
j ar
enn a</w>
re t</w>
conflic t</w>
sa tis
pyr itään</w>
emp has
ci r
n er</w>
inte gration</w>
fis hing</w>
kann atta
ko ti
ol ivat</w>
tarko ittaa</w>
1 3</w>
tuo tan
pres ented</w>
kehity ksen</w>
activ ities</w>
sel s</w>
bal ance</w>
se em
politiik ka</w>
itu s</w>
y ö
immi gration</w>
gen u
väl it
j ille</w>
j os
es saan</w>
imp act</w>
cos ts</w>
chan ges</w>
Rom an
contribu tion</w>
r on
con nec
in ut</w>
toim et</w>
ri a</w>
N or
huol es
ne ver</w>
n or</w>
mietinnö stä</w>
in kaan</w>
di a</w>
dra w</w>
inves to
varmis taa</w>
signific ant</w>
toimi en</w>
sh are</w>
konf lik
ky ky
ol ette</w>
expres s</w>
ab solu
mon im
sen se</w>
it tu
kos kaan</w>
ase tu
vaihto eh
hallitu s</w>
ai m</w>
lan gu
sever al</w>
mon ia</w>
jo lloin</w>
speci al</w>
sh e</w>
myö nnet
F ran
inclu de</w>
a ktiiv
em an</w>
ihmis oikeuksien</w>
every thing</w>
ul kom
th us</w>
ra te</w>
min ä</w>
vas to
tämä llä</w>
ite ttava</w>
crit ic
samo in</w>
u ttaa</w>
memb er</w>
ks issa</w>
Minis ter</w>
ansi osta</w>
men etel
adop t</w>
kon kre
lö y
tu en</w>
res ol
poliitt inen</w>
ing ly</w>
entra l</w>
vapa utta
po ver
popula tion</w>
kär si
he ar
union iin</w>
ne ksi</w>
so on</w>
pl an
yksinker ta
pyyd än</w>
käy tet
Rus sia</w>
as ked</w>
wor ks</w>
toiminn an</w>
til ann
at h</w>
vä h
is t</w>
s ci
ryhmä ni</w>
koh ta</w>
len to
kas vu
c ha
e il
tarkoitu s</w>
t lan
Di rec
re pe
b ro
eurooppal aisen</w>
e an</w>
tyytyvä inen</w>
p p
ehdo tta
minister i</w>
än i</w>
sh ar
ö l
määri tel
ko ord
use ita</w>
p ac
ellis esti</w>
h es
transpar ency</w>
knowled ge</w>
y oun
con tain
acc ord
prov isions</w>
kol me</w>
työ järjesty
atte mp
ta u
lin es</w>
pro jects</w>
oikeu den</w>
it telu
ksi lle</w>
ellis en</w>
ta sa</w>
dem an
car ried</w>
ta minen</w>
muu ta</w>
ra h
em paa</w>
c ks</w>
val ues</w>
shor t</w>
os ten</w>
nim en
jus ti
ind ic
add ition</w>
sano en</w>
glob al</w>
presid ency</w>
respon se</w>
ra has
im um</w>
fa ir</w>
colleag ues</w>
su ku
da ta</w>
vil j
lis t</w>
kohd istu
ei ther</w>
pä in</w>
ka s</w>
fisher ies</w>
sa ying</w>
cir c
uu dis
elec tions</w>
talousarvi on</w>
ll ed</w>
itu ksia</w>
d et</w>
ill aan</w>
par emmin</w>
fi ve</w>
neuvos tossa</w>
sij aan</w>
har mon
exc lu
Isra el</w>
tilann etta</w>
varo ja</w>
va tion</w>
sta ge</w>
inde pend
val vo
to ista</w>
uu sien</w>
ta vat</w>
uu teen</w>
vaik utta
s es</w>
state ment</w>
bud getary</w>
pover ty</w>
hall inno
criteri a</w>
techn ical</w>
ihmis et</w>
sh ip
markk ina
hall inn
fo reign</w>
ati ves</w>
am mat
Ir lann
val taa</w>
is taan</w>
käsitel tävä
pöy tä
ord ers</w>
kun tien</w>
benef it</w>
ti mme</w>
ten sa</w>
ta as</w>
na ture</w>
täytän töön</w>
tärke itä</w>
hi eman</w>
valio kunnassa</w>
jus tice</w>
ite m</w>
ri an</w>
rau ta
te mme</w>
pi ir
vaihe essa</w>
lis ää</w>
accor ding</w>
succ ess</w>
te kee</w>
n ers</w>
joh taa</w>
it ti</w>
read ing</w>
kas v
fle xi
anne taan</w>
yd in
er ä
de termin
L e
an teen</w>
S ep
ko kem
toteu ttaa</w>
halu aa</w>
edu res</w>
suhta udu
va m
yhti ö
del e
minu lla</w>
ma at</w>
C 5</w>
puolu e
proc edures</w>
hu on
v eto
M on
l uu
kaik en</w>
con sis
h or
spea k</w>
ro h
consum ers</w>
Con ference</w>
noud atta
valvon ta
val ta</w>
inte gra
es ille</w>
aina kin</w>
pro ject</w>
ke in</w>
täy ty
au ttaa</w>
kysymy ksen</w>
am ong</w>
id enti
am b
d ers</w>
pa tion</w>
k ään
it tanut</w>
vo ting</w>
v uutta</w>
servic e</w>
g ar
palvelu jen</w>
c lar
u no
esityslis ta
tä viä</w>
asi at</w>
eur o</w>
ehdo ttom
al e</w>
tas k</w>
oll eet</w>
y ksiä</w>
kas va
tehd ään</w>
expres sed</w>
en tr
h in</w>
tan a</w>
lle et</w>
y li
tu ksia</w>
j e
alo illa</w>
kulttu uri
ple ased</w>
neuvos to
ref lec
diffic ul
ryh mä</w>
solid arity</w>
ul o
tur vapa
seem s</w>
youn g</w>
requi red</w>
y ll
no in</w>
200 5</w>
p ä</w>
ac tions</w>
S um
i el
ru le</w>
d le</w>
edell yttää</w>
al ka
ti vat</w>
Sw ed
Pol ic
N ations</w>
cl ose</w>
tu ne
h uu
ed us
p lo
ra uh
market s</w>
läh et
g n
200 6</w>
toimin taa</w>
tasa paino
in ed</w>
ans wer</w>
teh ty</w>
farm ers</w>
tutkim us
mu assa</w>
Ira kin</w>
t tiin</w>
oikeuden muka
käsi tellä</w>
ne ver
kehitys tä</w>
as y
tu n</w>
eurooppal ais
hyödy n
vilj eli
throu gh
la bour</w>
jo htu
til anteen</w>
Pro di</w>
ins te
exis ting</w>
Polic y</w>
dis e
K ansa
ta kin</w>
va ksi</w>
ra ised</w>
si jo
lu m</w>
reac hed</w>
k ly</w>
poin ted</w>
ell inen</w>
basi c</w>
tarkistu kset</w>
co ver
b el
v in</w>
sy ys
res pec
s ään</w>
na mely</w>
inste ad</w>
pac ka
kan taa</w>
through out</w>
koord ino
i ted</w>
sell ais
lä he
bil ities</w>
Lissab onin</w>
itor ing</w>
K re
ta kia</w>
ais esti</w>
h un
clos ed</w>
str ong</w>
d eli
E ast</w>
pa ho
ic ations</w>
vasto in</w>
kahd en</w>
jou kko
Sum mit</w>
sta bility</w>
poliitt ista</w>
equ al</w>
add res
öl j
asy lum</w>
aj an
ta x</w>
increas ing</w>
huom enna</w>
tarv itsemme</w>
spe ec
lu onn
L u
ed es</w>
0 1
tälla inen</w>
he itä</w>
sove ll
im ate</w>
effor t</w>
ky llä</w>
en la
cap ac
siir ty
sa kin</w>
pa y</w>
poliitt isen</w>
määrä raho
reques t</w>
vää r
inn in</w>
tapahtu u</w>
kaup pa
g al
F o
& #
&# 9
tämis estä</w>
id ät</w>
histor i
establis h</w>
hol d</w>
onn ettom
rec ently</w>
qu ic
pri orities</w>
sopimuks een</w>
komissio lle</w>
tarkistu sta</w>
o re
to den
institu tional</w>
ic es</w>
in tia</w>
gh tly</w>
a an
pyr kim
kaik issa</w>
all inen</w>
pur su
alle kirjo
yks ittä
po ten
ille gal</w>
S aks
ter r
s ch
mu is
cul tural</w>
jou sta
alu eilla</w>
ens i</w>
käynn is
in ä
ensisi j
tekem ään</w>
kansall isten</w>
er e
b io
asio ista</w>
Af ric
d in</w>
ty ö</w>
oikeu tta</w>
t tävä</w>
b ar
puu ttu
prepar ed</w>
mä t</w>
käyt tä
ki ire
yhteistyö n</w>
doub t</w>
vic ti
risti ri
ta kes</w>
ar ound</w>
tek ni
puu tte
sugg es
ko ko
busin ess</w>
yhte inen</w>
ta ka
i ans</w>
harjo itta
men ta
f ri
ity ksen</w>
am inen</w>
on ta</w>
käy d
kl o</w>
ik ka
lisä tä</w>
b or
s sa</w>
konkre ett
tem ber</w>
j ana</w>
Sep tember</w>
4 0</w>
ur s
viranom aisten</w>
j u
wee k</w>
va t
tra ining</w>
appl ication</w>
tieto ja</w>
b orders</w>
wa ter</w>
tark is
establis hed</w>
con fir
ac tive</w>
ita n</w>
A g
dis as
i o</w>
uks issa</w>
so tila
ni ille</w>
rat ka
järjes tö
decid ed</w>
consum er</w>
ä h
työntekijö iden</w>
ten kään</w>
viol ence</w>
tote si</w>
initi atives</w>
kyse essä</w>
tärke ä
mo re
maahan muut
työllis yys
pre vious</w>
more over</w>
men esty
et tävä</w>
v uuden</w>
consequ ences</w>
conclu sion</w>
vä t
op ol
käsi tellään</w>
ase tuksen</w>
f our</w>
S pan
äl i</w>
minu lle</w>
com munity</w>
us es</w>
F is
yhd en</w>
dec lar
vi ously</w>
istu nn
ks ella</w>
da m</w>
ura l</w>
puolu een</w>
so d
neuvot tel
ker taa</w>
il s</w>
hyvä ksi</w>
cor rec
representa tives</w>
mon itoring</w>
succ ess
0 2
than ks</w>
im aan</w>
S e
e f</w>
ulkopu ol
fac e</w>
ven ess</w>
m olem
is o
tarkistu ksen</w>
f f</w>
a ir</w>
rela ting</w>
itet tu</w>
lainsäädän töä</w>
jat kaa</w>
ac ross</w>
yy n</w>
suunta vi
require ments</w>
mik äli</w>
ma teri
lo w</w>
ex ternal</w>
direc t</w>
u ary</w>
advan ta
va a
sa atta
no te</w>
P e
ko a</w>
ik en
add ress</w>
ti ä</w>
to isen</w>
men tion</w>
kysym ystä</w>
he ad</w>
ed er
ta x
e ed
de qu
su fficient</w>
pu itte
käytännö ssä</w>
jou lu
h il
a min
tun te
ita l</w>
f ell
B us
un ds</w>
me et</w>
terr itor
ai emmin</w>
pres sure</w>
never theless</w>
implem ented</w>
as tu
sano i</w>
im medi
har k
res t</w>
ät te</w>
käsit tely
cel on
prosess in</w>
merk itsee</w>
ap proved</w>
Bar celon
fun c
as ure</w>
L at
liitty viä</w>
g s</w>
b ly</w>
as sa
wh ose</w>
hon ourable</w>
fell ow</w>
mahdollisuu ksia</w>
i taan</w>
as soci
ät tä</w>
inclu ded</w>
Span ish</w>
lait tom
foc us</w>
dis crimin
tä s
demokrati an</w>
G u
ks estä</w>
president ti</w>
tan i</w>
K y
kysymy kseen</w>
ke ep</w>
d ri
tra d
halu avat</w>
N a
seuraa vana</w>
to i</w>
johd on
mi la
varo jen</w>
o p</w>
da ma
ta h
pu ite
b ri
W or
ik ä
F R</w>
too k</w>
se ur
pow ers</w>
jäsen valtion</w>
ex amin
re forms</w>
päätö kseen</w>
sopim usta</w>
lis äänty
P E</w>
va i</w>
Isra elin</w>
rou ght</w>
re ality</w>
kulttu ur
selvä ksi</w>
mo der
kunnio itta
immä is
vi is
tu al</w>
ex pec
itys tä</w>
suur in</w>
ar gu
te et</w>
p een</w>
maks u
li ve</w>
sosiaal i
o ffici
mis essa</w>
priva te</w>
onn is
kanna tan</w>
hallitus ten</w>
selke ästi</w>
ilo inen</w>
valtio t</w>
amoun t</w>
myönte isesti</w>
järjestelmä ä</w>
jo bs</w>
is ella</w>
H u
ku t</w>
mielip ite
experi ence</w>
e u
g ations</w>
WT O</w>
to ihin</w>
r un
is ely</w>
tar peen</w>
ra ts</w>
saa ta
päätö ksen
s po
1 4</w>
or m
ris h</w>
practic al</w>
yhteis kunn
o ta</w>
ha va
uks esta</w>
si ellä</w>
valmistelu kunnan</w>
te tta</w>
elin es</w>
cre ation</w>
ho ito
devel op</w>
assis tance</w>
U S</w>
sä h
kaup an</w>
con v
capac ity</w>
bec om
si bilities</w>
op en
con dem
al most</w>
te ur
tas tro
id dle</w>
ra por
protec t</w>
R uot
min kin</w>
inves tment</w>
C y
parlia mentary</w>
ex er
exc ep
direktii vi
Af gh
u g
t te</w>
in ta</w>
giv ing</w>
d ru
suor aan</w>
u ksiin</w>
ann ettava</w>
tel l</w>
Af rik
V äl
te ke
sy rj
äänesty s</w>
tuomioistuim en</w>
esitteli jän</w>
en su
vel s</w>
tre at
s ti
pro per
speci fic
ex tent</w>
de l</w>
Väl imer
Fran ce</w>
s how</w>
comple tely</w>
tie tää</w>
vä hän</w>
maail massa</w>
c are
ag es</w>
ti i
i ra
em ään</w>
perustu u</w>
c ause</w>
itu ksen</w>
increas ed</w>
koh tia</w>
yt tä
to dellis
p idän</w>
Dec ember</w>
va l</w>
til as
eurooppal aisten</w>
S E</w>
vahvis taa</w>
m et
ks essä</w>
jatku vasti</w>
V er
val ue</w>
receiv ed</w>
dem and</w>
kymmen en</w>
em minkin</w>
ki er
is istä</w>
co hes
foll ow</w>
G al
ll isia</w>
Me di
väl inen</w>
uud et</w>
ul ta</w>
sta ted</w>
sään töjä</w>
em is
sil tä</w>
le ft</w>
des tä</w>
ulo ttu
regula tions</w>
recom men
tr as
aino a</w>
en ter
to dis
coordin ation</w>
rang ais
le vels</w>
mit ted</w>
päiv än</w>
tal king</w>
t os
pää stä</w>
vi h
I rish</w>
0 3
c am
alais ten</w>
oikeud et</w>
f io
vuos ina</w>
le ar
ko on</w>
w is
tal k</w>
f ound</w>
R o
tu kseen</w>
et e</w>
esityslista lla</w>
rik os
liiken ne
asio issa</w>
prec isely</w>
et tiin</w>
ole vien</w>
läh es</w>
in o</w>
or y</w>
c ost</w>
ys ten</w>
ter ran
re ach</w>
p ann
kaik kein</w>
J us
teh neet</w>
connec tion</w>
a way</w>
v ision</w>
huomatta vasti</w>
s al
vo it
valv onn
discus sed</w>
absolu tely</w>
pa y
terran ean</w>
merkittä vä</w>
b rought</w>
kuu lem
tiedo tus
tapa a</w>
päätö s</w>
pyy n
ki lle</w>
Medi terranean</w>
tic ally</w>
circ um
refer ence</w>
def ence</w>
th y</w>
o ista</w>
pal estiin
leg it
1 2
ratkais u</w>
pain opis
w aste</w>
työ n</w>
ess ään</w>
Espan jan</w>
välttämä töntä</w>
impl ement</w>
ec han
S ol
tömä sti</w>
tavoitte et</w>
p il
hin d</w>
em er
be hind</w>
ku olem
alku perä
da ys</w>
anim als</w>
s ääd
luo vu
jat ka
o v
llis ten</w>
ik ö</w>
direc tion</w>
mo vement</w>
ag rap
Jus tice</w>
bal an
aihe utu
r up
ma ase
työ stä</w>
direktiiv i</w>
var sin</w>
te ty
ta van</w>
saad aan</w>
r ann
on ni
nu clear</w>
G ener
s ha
nä ihin</w>
Re gu
accord ance</w>
is imme</w>
I I</w>
instru ments</w>
conc ep
com par
E C
Direc tive</w>
tic s</w>
laajentu misen</w>
ner ship</w>
im en
consider ed</w>
tel ev
jo b</w>
par antaa</w>
our s</w>
sopim usten</w>
sy istä</w>
cohes ion</w>
tilante essa</w>
kansala isille</w>
guid elines</w>
streng th
saan ut</w>
jäsen iä</w>
in ti</w>
P PE</w>
b ill
jat kos
e valu
kohd alla</w>
gro und</w>
O r
sell aisen</w>
koske vasta</w>
sc ope</w>
myö hem
syn ty
anim al</w>
G en
m echan
hyväksy i</w>
alis ed</w>
jo in</w>
te ta</w>
emp ia</w>
a alis
alu ksi</w>
toimenpite itä</w>
parha illaan</w>
mi es
inn ing</w>
Palestin ian</w>
parlament tia</w>
cr ime</w>
Americ an</w>
tavo ite</w>
kno wn</w>
al ong</w>
os an</w>
ou ght</w>
m essa
ex per
elintarv ike
aine iden</w>
koh ti</w>
yhte istä</w>
un acceptable</w>
re duce</w>
energi a
iz z
quic kly</w>
me istä</w>
J un
N izz
keskustel ussa</w>
opportun ities</w>
ll u
j aan</w>
en päin</w>
w ise</w>
vi itta
teo llis
o il</w>
aih e</w>
miel essä</w>
ev ents</w>
vir all
puhu a</w>
ni issä</w>
kesk itty
ha aste
del a
aiko o</w>
j an
var au
us sels</w>
tuotte iden</w>
kohd an</w>
luonno llisesti</w>
eur on</w>
valtu us
tämis een</w>
te ral</w>
specific ally</w>
c are</w>
nä yttää</w>
la an</w>
al ter
Br ussels</w>
viran oma
N ice</w>
re jec
käy tetään</w>
ri t</w>
q uo
otta en</w>
ma l</w>
li it
Gener al</w>
s ens
luo da</w>
lu ettel
turvallisuu tta</w>
läh tö
fam ily</w>
en able</w>
treat ment</w>
tilante esta</w>
out side</w>
mil jar
vähem män</w>
effec ts</w>
appli ed</w>
vuo teen</w>
discus sions</w>
1 8</w>
pen sa
päät tää</w>
Br ys
victi ms</w>
1 6</w>
minis teri
ihmis iä</w>
agricul ture</w>
sell aisten</w>
kes ki
conclu sions</w>
mo del</w>
m ys
kokou ksessa</w>
ther n</w>
tarkas tus
täll ais
suppor ted</w>
poliitt isten</w>
koro sta
re view</w>
ol in</w>
he ard</w>
he ad
puolus tus
k u</w>
el f</w>
assess ment</w>
alis t</w>
w id
su per
develop ed</w>
til in
govern mental</w>
var a
s us
ad d</w>
pid e
id enkin</w>
v ant</w>
k ki</w>
tieto a</w>
ator y</w>
clar i
A ra
saa vat</w>
sitou tu
c k
c la
llis et</w>
ks elle</w>
id ent</w>
to tta</w>
na tion
i ons</w>
es taan</w>
pos sibility</w>
n et</w>
ec e</w>
kor ja
instru ment</w>
am min</w>
aj at
uks een</w>
tieto jen</w>
h ard</w>
circum stan
yhte en</w>
osallistu a</w>
tri al</w>
n s</w>
vi lla</w>
on d</w>
spe ak
si ja
tas on</w>
om in
tä yt
mieles tä</w>
or s</w>
nä issä</w>
ks u
em me
con tr
u tta</w>
in s</w>
pä te
S tras
id em
Democ rats</w>
toimin ta</w>
de llä</w>
apu a</w>
Stras bour
Bal kan
propos e</w>
is saan</w>
eläin ten</w>
välis tä</w>
sitou mu
per he
rele vant</w>
pa kol
cre ating</w>
v ed
markk in
t to
refer red</w>
h ön</w>
pa ti
mat ka
sy m
nimen omaan</w>
ete enpäin</w>
docu ment</w>
vaka us
res er
partici pation</w>
Wor ld</w>
Sec urity</w>
pää tel
käy tän
koske vassa</w>
we ap
ke l</w>
jäsen tä</w>
B an
par anta
min ua</w>
car ry</w>
I re
spea king</w>
re fu
päätö ksen</w>
com ments</w>
a ksi</w>
P at
än ä</w>
miel en
ell ista</w>
circumstan ces</w>
alter na
Ire land</w>
li es</w>
sec tors</w>
kann attaa</w>
discus s</w>
vi era
ti iv
ser i
pro per</w>
lainsäädä nnö
ka tta
U kra
f lo
Brys sel
vie ws</w>
ver ta
accep ted</w>
yhteis kunnan</w>
ongel mat</w>
kri te
consider able</w>
U S
säil yt
ili ation</w>
ester day</w>
Af ganis
täv issä</w>
over all</w>
enti fic</w>
nei gh
m al
wan ted</w>
tode llisuu
remain s</w>
add itional</w>
tull ut</w>
ne tään</w>
i ten</w>
Inter national</w>
vers ity</w>
C ha
y esterday</w>
mahdollisuu den</w>
is es</w>
kau pun
L äh
pr im
p onnis
mp i</w>
Yhdysvall at</w>
Irlann in</w>
tämis en</w>
kau tta
Regu lation</w>
rati fio
vois imme</w>
pr ice</w>
is elle</w>
mys elf</w>
ku m
de tään</w>
6 0</w>
vas taa</w>
ex pla
Läh i</w>
w ide</w>
llis tä</w>
for ces</w>
yy s</w>
suo j
reg ime</w>
L am
tu ke
as kel</w>
em iseksi</w>
yhden ty
tämä ttä</w>
jot kut</w>
genu ine</w>
di taan</w>
beg in</w>
M iddle</w>
A gre
w ing</w>
tu lis
säh kö
ator s</w>
h tunut</w>
P s</w>
puhem i
ni a</w>
kes ä
itse vat</w>
yle isesti</w>
mis sa</w>
Euroop paa</w>
tälla ista</w>
ei ve</w>
muod os
muistu ttaa</w>
Belgi an</w>
el tä</w>
vaike a</w>
re qu
jäl j
tervey den</w>
la ista</w>
in vo
technolog y</w>
ittä vä</w>
ta m
si x</w>
pers on
ole vat</w>
äär immä
sy r
p ic
ann ual</w>
N os</w>
encoura ge</w>
direc tly</w>
ch ed</w>
allow ed</w>
1 .
kann us
auth ority</w>
D E</w>
y es</w>
vaikutu ksia</w>
pä in
avo id</w>
ympäris tön</w>
r yhd
neuvosto lle</w>
inf lu
vapa a
sec u
par agrap
onni tella</w>
ex pect</w>
ex plo
difficul ties</w>
ka tastro
. .
te g
on i</w>
mo tion</w>
ei vät
sur ing</w>
sa fe
main it
liber alisation</w>
järjes töjen</w>
elä mä
crimin al</w>
v uus</w>
e va</w>
e ed</w>
tavoitte ita</w>
ar ms</w>
tr ying</w>
solid aar
om s</w>
g r
part ners</w>
pi ä</w>
loo king</w>
riippu mattom
gan i</w>
buil ding</w>
toiv omme</w>
in al</w>
conf idence</w>
ta ul
K ore
tulis i</w>
saavu ttaa</w>
par ty</w>
em ättä</w>
us i</w>
po llu
lo t</w>
kann an</w>
er ship</w>
La e
poten tial</w>
jäsenvaltio ita</w>
bill ion</w>
prov ision</w>
alais et</w>
vasta ta</w>
tä vien</w>
su ffer
e ja</w>
compl ete</w>
ik in</w>
s pec
päätö ksiä</w>
f oun
es tää</w>
a kseni</w>
packa ge</w>
o on</w>
ear li
administra tive</w>
vä hä
kä y</w>
Ky pro
ohjel ma</w>
määr in</w>
N e
speec h</w>
sove lle
saan eet</w>
ri ghtly</w>
na a
päätöslausel man</w>
menettely n</w>
Pro c
Portu gal
val tion
fac il
d re
struc tural</w>
päivä nä</w>
kau an</w>
yhteis kun
ni illä</w>
johdon muka
a id
vuos i</w>
pers onal</w>
mar k</w>
beg inning</w>
Q u
pik emminkin</w>
peri aa
pa in</w>
consider ation</w>
affec ted</w>
end or
e taan</w>
pre hen
o iden</w>
ev ent</w>
e th
P act</w>
saa tava</w>
re turn</w>
is ena</w>
hel po
rela tion
off er</w>
mä llä</w>
myö tä</w>
di pl
deman ds</w>
F in
päät tynyt</w>
go es</w>
V al
A m
ehkä is
sa ta
om a</w>
meth od</w>
kan ta</w>
it ur
hy l
yrity kset</w>
ty vät</w>
R u
käy tön</w>
hu ge</w>
vapau den</w>
humanita rian</w>
po or</w>
F ren
ta nn
yr ittä
humanita ar
con tent</w>
si z
ship s</w>
conv inc
commit ments</w>
Re public</w>
Jun e</w>
noud at
il mi</w>
hu ole
ens in</w>
perus tel
e as
yksityis kohta
vuo si
di o
vi elä
tet tua</w>
main ita</w>
es iin
con duc
J oh
gen e
näkö kul
myöhem min</w>
T h
1 7</w>
vaka vasti</w>
ta an
g in</w>
ma assa</w>
kiinn os
to ta
mu kana</w>
eurooppala ista</w>
suu ria</w>
neuvottelu jen</w>
as etta
P o
syr jä
käytä nnön</w>
eurooppala inen</w>
tied ätte</w>
te emme</w>
sa ma</w>
gh ted</w>
elintarv ikke
pa ten
k ka</w>
al a</w>
Rans kan</w>
8 0</w>
terve ys
tehokka asti</w>
ette ivät</w>
ud et</w>
pl ann
mies ten</w>
comb at</w>
messa ge</w>
main tain
de ath</w>
asem a</w>
puu n</w>
ehdotu ksesta</w>
viljeli jö
Fren ch</w>
pide tään</w>
jud ic
is issa</w>
E C</w>
sään töjen</w>
käyt töö
h ment</w>
ensimmä isen</w>
c tions</w>
to tal</w>
si an</w>
s etting</w>
poliitt isia</w>
tied än</w>
menet tel
et tu
dipl om
c ross</w>
S a
ratkais u
dra wn</w>
tehok kuu
pur pose</w>
Americ a</w>
docu ments</w>
deal ing</w>
valio kun
sta tus</w>
sor t</w>
käsittel yssä</w>
kansala isia</w>
epä onnistu
ar ily</w>
s ty
ol isivat</w>
laus u
ref er</w>
r ans
l s</w>
il ed</w>
Agre ement</w>
voima kkaasti</w>
b road</w>
C ar
sella isia</w>
oikeu dell
var ain
streng then</w>
se par
ole va</w>
esitteli jä
ys ti</w>
tu lla</w>
i ri
esite tään</w>
ap er</w>
ryh mien</w>
päätöslausel ma
läh tien</w>
K oso
tutkim uksen</w>
tapa htunut</w>
lyhy esti</w>
ab or
tavoitte iden</w>
nä h
kuulu vat</w>
la at
käyt töä</w>
jul ki
implem enting</w>
dequ ate</w>
alo itta
neigh bour
organis ation</w>
effec tively</w>
sci entific</w>
reli gi
P oh
vil jel
tä ltä</w>
sto p</w>
eivät kä</w>
coll ec
b ab
ammat ti
toden näkö
histor y</w>
dec ide</w>
per inte
ma ita</w>
ec h
any thing</w>
tärke im
tote an</w>
sisäll y
Ger many</w>
sel vi
satis fac
pa id</w>
m is</w>
inten ded</w>
commit ted</w>
ty pe</w>
re mind</w>
ic ally</w>
B ri
pers pec
koske vaan</w>
hyö tyä</w>
b y
sum mit</w>
il men
Pat ten</w>
ll isiä</w>
des ig
E ur
uks ena</w>
kolle gani</w>
k ko</w>
ilma is
asia kirj
Br it
en suring</w>
ehdotu kset</w>
pl ans</w>
issa kin</w>
varsin kin</w>
balan ced</w>
Afgh an
vi tal</w>
tiedon ann
rec eive</w>
kir ja</w>
inc or
a tional</w>
1 3
sään tely
weap ons</w>
tetta isiin</w>
ik o</w>
com mer
D ev
te dly</w>
raken te
m ing</w>
henkilö s
ty y
mis sään</w>
da tions</w>
Afghan istan</w>
un anim
str ic
lu pa
äs ket
provid es</w>
oc c
con trac
co l</w>
vähem mis
tu kee</w>
lä s
käyttöö no
äänes tää</w>
to col</w>
s ession</w>
laati ma</w>
vaar all
l er</w>
koko on
ä ty
al aa</w>
terroris t</w>
koh taa</w>
C har
val mis</w>
kaik illa</w>
äsket tä
ä ssä</w>
viranom aiset</w>
tu on
tasa pain
ob viously</w>
hallinn on</w>
bre a
asian tun
pre vention</w>
h op
emphas ise</w>
aika taul
seri ously</w>
Ch risti
urg ent</w>
u re
.. .</w>
respon d</w>
re mo
polic e</w>
pa ket
maa talouden</w>
P er
s pi
discrimin ation</w>
yh tä
m us
tiet ysti</w>
establis hing</w>
com prehen
clos ely</w>
L A
out come</w>
kaikki in</w>
alo ittaa</w>
T ans
ra ise</w>
main tain</w>
lim it</w>
el s</w>
toim itta
heik en
vaatimu ksia</w>
res olu
teollis uus
tapa uksissa</w>
suuntavi ivo
recogn ise</w>
mis sion</w>
ma s</w>
ka p
exer c
be y
wh om</w>
tu ken
kan so
ed el
ul gar
par empi</w>
kaik ista</w>
vih re
esitteli jää</w>
anal y
K iin
keskus tella</w>
gran ts</w>
ehdo ttaa</w>
contribu te</w>
Ban k</w>
some times</w>
ol os
o issa</w>
huoles tu
Fo reign</w>
taloudellis en</w>
k kä
het i</w>
aihe uttaa</w>
uu des
pu l
el op
call s</w>
So ci
Ma y</w>
sovel tamis
pyy tää</w>
langu age</w>
kuningas kunnan</w>
k ous</w>
dama ge</w>
vir ka
it ure</w>
reduc tion</w>
min imum</w>
in es</w>
al one</w>
yhdenmuka is
ta kais
muu ttaa</w>
do m</w>
toim itetaan</w>
sella ista</w>
periaa tetta</w>
li ving</w>
com ment</w>
tuo tann
perustamis sopimuksen</w>
me asure</w>
kilpailu kyky
happ en</w>
reg ret</w>
improv ing</w>
Dev elop
ky v
k keen</w>
com pensa
an ti
kysymy ksiin</w>
des cri
merk itystä</w>
henkilö kohta
En viron
c o</w>
tou ko
inves ti
v istä</w>
parlia ments</w>
bey ond</w>
han sa</w>
B ulgar
titu de</w>
Ch ina</w>
op position</w>
hallitus ten
defin ition</w>
conc entra
A T
var ma</w>
toiminta suunnitel
Yhdysval tain</w>
Hu man</w>
wor d</w>
lim ited</w>
earli er</w>
ME Ps</w>
me an
chall eng
alis ts</w>
refu ge
cre ated</w>
as kel
po is</w>
lu j
jäsenvaltio ille</w>
ati es</w>
vahin go
adop tion</w>
J an
cam pa
aks emme</w>
tur ally</w>
säil y
l y
high ly</w>
direc tives</w>
yhteisö jen</w>
mi hin</w>
ku kaan</w>
ehdottom asti</w>
v en</w>
requi res</w>
periaat teen</w>
merk itys</w>
päätöksen te
provid ing</w>
mon ien</w>
kokou ksen</w>
ite tta</w>
isi vät</w>
S pain</w>
hä ne
e dellis
te red</w>
talous -</w>
ta ar
s ter
koske vista</w>
isi ksi</w>
ex pend
reas on
ra ja
success ful</w>
oper ate</w>
mis elle</w>
täy si
o d
all oc
prof es
par ann
it tiin</w>
puheen vuoro
maa talou
dis tribu
A us
show n</w>
la ter</w>
välttämä ttö
la id</w>
1 4
at tava</w>
toivo tta
toimi i</w>
Brit ish</w>
äärimmä isen</w>
pr us</w>
näkem y
hän tä</w>
expend iture</w>
Cy prus</w>
si vi
qu ali
sta ff</w>
neuvottel ut</w>
independ ent</w>
yd en
produc ed</w>
Develop ment</w>
ris ks</w>
benef its</w>
S ad
sa maan</w>
pidet tävä</w>
oc cu
ex ac
0 4
tu kset</w>
teollisuu den</w>
sella inen</w>
r o</w>
par em
equ ality</w>
ti t</w>
Sch eng
ä kseni</w>
olog ical</w>
infras truc
R ules</w>
w ha
olos uh
sosiaal isen</w>
pohj alta</w>
medi um</w>
develop ments</w>
st ress</w>
li ves</w>
lan ds</w>
Nizz an</w>
strategi an</w>
tu ksesta</w>
tarkistu s</w>
perus ta
p ia</w>
activ ity</w>
A lan
us kon
respon sibilities</w>
enter pris
dele gation</w>
contr ary</w>
Alan kom
j alla</w>
in sa</w>
S u
sur ance</w>
jo idenkin</w>
T ra
voim assa</w>
v ol
pl en
ik ka</w>
ole via</w>
las tly</w>
l os
sotila all
m et</w>
taloudell ista</w>
ta hansa</w>
pre ci
ihmis oikeuksia</w>
appe ar</w>
markkin at</w>
e ffici
auth or
bro ad
tark ka
tais tel
pos itions</w>
pla ced</w>
im bab
stu dy</w>
ratka ista</w>
7 0</w>
ur ge</w>
täy den
si mila
ku s</w>
sovel taa</w>
kan sa</w>
f ish</w>
en orm
concep t</w>
markkino illa</w>
Yhdisty neen</w>
thou ght</w>
sopim uksia</w>
rauh an</w>
cul ture</w>
R es
A C
y n
saa mme</w>
s pen
hyvä ä</w>
huol en
e arly</w>
consul tation</w>
terve yden
te et
säännö t</w>
nyky istä</w>
ki is
er in</w>
vi ita
tois een</w>
r uo
ita mme</w>
her ät
esite ty
viik olla</w>
rela ted</w>
kolleg a</w>
appli es</w>
tetu n</w>
äänes tin</w>
comp li
vastu ussa</w>
luotta mu
kuu n
happen ed</w>
vastu u</w>
simila r</w>
lea ve</w>
P aper</w>
ksen sa</w>
erin omais
analy sis</w>
aihe esta</w>
suku puol
part nership</w>
man ner</w>
en ds</w>
tr ansa
telu a</w>
exis t</w>
e k</w>
char ge</w>
M O
wh il
whil st</w>
vo isivat</w>
tode taan</w>
organis ed</w>
neuvos toa</w>
ko kous</w>
ke hy
inter pre
esitet ty</w>
par ts</w>
kiel te
flexi bility</w>
ehdotu ksessa</w>
ad s</w>
O LA
hyv invo
discus sing</w>
suun taan</w>
muu ten</w>
laa tu
dis t
c tion</w>
busin esses</w>
wee ks</w>
valvon taa</w>
recom mend
puol usta
increas ingly</w>
P u
wr ong</w>
paragrap h</w>
promo ting</w>
crit ical</w>
as pect</w>
Minis ters</w>
ra jat</w>
ol ta</w>
Sad dam</w>
tilante eseen</w>
en ge</w>
emme kä</w>
chall enge</w>
v in
llisuu den</w>
ann es
ste ps</w>
sens itive</w>
ki ell
ver kko
no on</w>
direktii viä</w>
asian mukaisesti</w>
1 5
h ome</w>
di versity</w>
ty yd
requ ire</w>
relation ship</w>
politiik kaan</w>
otta maan</w>
enti re</w>
1 9</w>
dra f
Z imbab
van sa</w>
its enä
conclu de</w>
conc iliation</w>
wan ts</w>
kunni an
itor s</w>
sit ting</w>
pres s</w>
m usta</w>
ongel man</w>
de ksi</w>
comb ating</w>
bur g</w>
a kaan</w>
N G
va i
ryh tyä</w>
la un
ho id
y ers</w>
na turally</w>
cons ensu
aset taa</w>
maase udu
lop ulta</w>
bi g</w>
pro duce</w>
joh to
issa mme</w>
k r
suu res
prosess i</w>
op pos
giv es</w>
es i
2 4</w>
c al
Turk ish</w>
muuto ksia</w>
nä yt
me dic
kulj e
Yhdisty neiden</w>
sopim uksessa</w>
op ening</w>
muu ttu
ks istä</w>
fail ure</w>
asia kirjo
ker toa</w>
g er
arvo a</w>
lle en
asiantun ti
vi es
vaa ditaan</w>
bo dies</w>
Inter net</w>
vam ma
jä r
h ti
f all</w>
ati c</w>
em en
achiev ing</w>
mik ään</w>
tan sa</w>
sisäll yt
addres sed</w>
tu ki
po hd
mahdollisuu tta</w>
lää kke
kysymy kset</w>
el ements</w>
cre di
t tuna</w>
re ply</w>
anal ys
tämä ttö
sovelle taan</w>
rajo itta
net works</w>
es sani</w>
Environ ment</w>
t it
ni in
ittel en</w>
il e
N ov
t ty</w>
medi a</w>
becom ing</w>
la inkaan</w>
incor por
alis m</w>
äänesty s
koh te
elä im
Jan uary</w>
call ing</w>
2 1</w>
ta tions</w>
luu l
jä lleen
convinc ed</w>
Nov ember</w>
prob ably</w>
pain os
he ille</w>
ton ta</w>
raho itta
parlamen taar
ymmär tää</w>
valmis tel
työ ttö
tulo ksia</w>
main itsem
lop puun</w>
G e
solu tions</w>
mat kusta
tic al</w>
min kään
ins pec
high er</w>
enti rely</w>
yksinkerta isesti</w>
on es</w>
keskustel uun</w>
k än</w>
cap ital</w>
poliitt iset</w>
c y</w>
Char ter</w>
tu ki</w>
kolman neksi</w>
char ac
tr ust</w>
mar ras
el se</w>
P ak
thin king</w>
riittä västi</w>
compet itive</w>
thre at</w>
t ting</w>
nei ther</w>
de gre
bo ard</w>
attemp t</w>
ac y</w>
uudell een
na tural</w>
ma alis
consensu s</w>
use ful</w>
Bar ro
Afric a</w>
mel ko</w>
du ty</w>
perus taa</w>
ks eksi</w>
etu jen</w>
ar rang
tä nne</w>
suure m
hu n</w>
an ti</w>
see k</w>
na me</w>
jou du
Amend ments</w>
vasta an
os la
kes tävän</w>
ilma ista</w>
Fis ch
uno h
su h
M o
tam mik
sääd ö
markkino ille</w>
K ar
proper ly</w>
pers on</w>
mietin töön</w>
in aan</w>
il me
dise ase</w>
V i
Swed ish</w>
todell inen</w>
teur s</w>
koh tu
colleag ue</w>
b lo
H er
äänes tä
täy dellis
tettu ja</w>
kaikki alla</w>
ug osla
spi rit</w>
sov ittelu
muuta man</w>
mor ning</w>
monim ut
is ms</w>
des er
var muu
net work</w>
laajentu minen</w>
demokra at
at s</w>
Christi an</w>
nyky ään</w>
hallin to
asem assa</w>
O c
me kin</w>
ex plan
et ty</w>
compan y</w>
Afganis tan
sisäl tyy</w>
puitte issa</w>
liber aal
la ws</w>
k tu
k tor
des ire</w>
de pen
Välimer en</w>
mer kille</w>
improv ed</w>
actu al</w>
T he</w>
1 00</w>
stand ar
perustusla in</w>
jät tää</w>
deal t</w>
r ö
ac e
v uu
rappor teurs</w>
käyt tö
kansainväl inen</w>
epäil emättä</w>
S er
C or
toim ista</w>
cl imate</w>
Proc edure</w>
vuo sien</w>
tu t</w>
a mista</w>
Joh annes
sosi aalis
puheenvuor on</w>
hil j
ci vil
b ed</w>
a head</w>
ver s</w>
ksi lla</w>
ca used</w>
alue ita</w>
sc ale</w>
kol men</w>
Ber l
vaatimu kset</w>
luonn on
istunn ossa</w>
d ik
judic ial</w>
alais en</w>
Ita ly</w>
produc t</w>
Poh jo
tra ffic
t tunut</w>
r id
ol enna
he ar</w>
H us
recogn ition</w>
käsittel ev
go ods</w>
jon kin</w>
asem aa</w>
f eder
e asi
tru ktu
tetu t</w>
sop i
sod an</w>
show s</w>
x emb
jul istu
D an
välit tömästi</w>
mahdollis esti</w>
is im
WT O
ymmär re
ti vät</w>
rann ik
r ural</w>
kulj etu
kolman sien</w>
hy lä
eil en</w>
väl in
uu si
C entral</w>
ys tävä
ta ata</w>
sup pl
s issa</w>
ev idence</w>
differ ences</w>
teke vät</w>
oike astaan</w>
muka ista</w>
introduc tion</w>
Pe ople</w>
Li ber
tarv itse</w>
co ver</w>
käyt tö</w>
kyse en
b ia</w>
ap preci
Sta bility</w>
under standing</w>
tta vat</w>
lou kka
ita tion</w>
o jen</w>
la ito
c al</w>
ac qu
varmis tettava</w>
pää ministeri</w>
pr ices</w>
ette mme</w>
om aa</w>
So cial</w>
Kansa kuntien</w>
nel jä
n os
infor med</w>
au c
yhteiskunn all
construc tion</w>
P r
thir dly</w>
L an
mu ihin</w>
jo takin</w>
ver kos
valti ossa</w>
str ong
pen al
lead ers</w>
e ing</w>
M ac
M aa
ti ma
er ous</w>
a ff
C an
le hd
a vi
partici p
kanna tamme</w>
infras truktu
a miseksi</w>
täll aisen</w>
t ista</w>
alue ellis
w on
qu e</w>
c ut</w>
P T</w>
Hus se
ty h
ma ihin</w>
introduc ed</w>
c entr
2 7</w>
pro por
degre e</w>
Lu xemb
2 2</w>
järjestel y
is issä</w>
d it</w>
He alth</w>
re mar
pal autta
kom men
Gre ek</w>
F und</w>
valmis ta
mahdollisuu det</w>
deb ates</w>
pitä nyt</w>
op les</w>
kat son</w>
Mar ch</w>
sa ys</w>
la isia</w>
huippukokou ksessa</w>
esittä nyt</w>
vää rin
veto om
ken ties</w>
järjestel mien</w>
julk isen</w>
ff ic</w>
cho ice</w>
administra tion</w>
state ments</w>
kunnian him
dru gs</w>
aim ed</w>
r un</w>
nyky isen</w>
j our
iken teen</w>
väl in</w>
turvapa ikka
suppor ting</w>
asio ihin</w>
subsi di
o ita</w>
sup ply</w>
määr ää</w>
mi c</w>
constitu tion</w>
yl ittä
tu o</w>
min äkin</w>
meth ods</w>
kiito s</w>
väes tö
ri itä</w>
os ittain</w>
mi lle</w>
ll ään</w>
ku va
e fficient</w>
tra ffic</w>
s ett
huol eh
yhd isty
wor ked</w>
san ctions</w>
pos es</w>
kulutta jien</w>
ensimmä isessä</w>
de pend
ca pa
199 8</w>
substan tial</w>
ren e
invol ving</w>
era has
aih etta</w>
vi estin
kehity s</w>
k us
eurooppal aiset</w>
sy y</w>
sub mitted</w>
happ y</w>
EU: ssa</w>
ö ö
o ther
monim uo
in in</w>
f all
ell isia</w>
agen cies</w>
Gre ece</w>
strategi c</w>
resolu tions</w>
kohd at</w>
ing ing</w>
enorm ous</w>
elec ted</w>
cover ed</w>
Europe ans</w>
to isi
ho ita
J u
v alla</w>
tä isi</w>
ta a
to ber</w>
la u
challeng es</w>
c he
c entral</w>
ann oun
alterna tive</w>
aika välillä</w>
Oc tober</w>
toimin taan</w>
constitu tional</w>
S lo
2 3</w>
re member</w>
r ing</w>
ol s</w>
C A
s ound</w>
ol enn
g ia</w>
S outh</w>
uu ta</w>
o tettu</w>
con ven
toim iv
pe ace
other wise</w>
keske inen</w>
clos er</w>
U K</w>
iti veness</w>
Eur o</w>
1 1.</w>
one theless</w>
n onetheless</w>
menettely ä</w>
ful fi
con om
E conom
contro ls</w>
beli ev
tu h
m usten</w>
m itta
form er</w>
saat u</w>
politiik assa</w>
lo ka
osapuol ten</w>
liitty mis
kiinn ittää</w>
yhteis työ</w>
tilin tarkastus
ter ing</w>
l ess
au tom
y er</w>
t inen</w>
kiin ni
ty p
influ ence</w>
dang erous</w>
con tac
ti me
prosent in</w>
oikeudellis ten</w>
keh ittää</w>
jot kin</w>
it tämään</w>
tut ki
tol d</w>
imen sion</w>
f ec
any one</w>
re ject</w>
alu e</w>
ä stä</w>
pu tting</w>
pe oples</w>
ki in</w>
et ä</w>
muod osta
a jo
päin vastoin</w>
cl as
c oura
t ti
sij ais
perus oikeus
käy n
as king</w>
we a
s ala
os aa</w>
maahan muutta
Portu gal</w>
C as
telu n</w>
mi llä</w>
maaseudu n</w>
i ght</w>
e vä
as su
intro duce</w>
con stan
appe ars</w>
Barro so</w>
pit kään</w>
co her
tyytyvä isiä</w>
sy ö
sa mme</w>
repres ent</w>
ka amme</w>
gi c</w>
yksimiel isyy
plen ary</w>
atta cks</w>
1 0
yhtenä is
nä illä</w>
vi ll
var at</w>
ris e</w>
rakenn erahas
henkilö iden</w>
be ar</w>
suur ta</w>
recogn ised</w>
inn an</w>
proses sia</w>
p t</w>
laa ja</w>
kohd assa</w>
ir man</w>
im äär
Roman ia</w>
sig ned</w>
etu ja</w>
yhteis ymmärr
saf e</w>
iti ous</w>
indus trial</w>
de ks
compet itiveness</w>
ad ded</w>
Commission ers</w>
exten d</w>
ta ho
nu mer
lö yd
f ying</w>
ann ut</w>
inten tion</w>
buil d</w>
P :n</w>
tiete ellis
ra ha
profes sion
Kypro ksen</w>
un able</w>
toteu tu
per fec
perus ta</w>
establis hment</w>
Afrik an</w>
tulo s</w>
sur pris
raho itusta</w>
noud attaa</w>
it ime</w>
dang er</w>
I ran
taloudell inen</w>
kiinn i</w>
i j
g etting</w>
exac tly</w>
consequ ently</w>
at on</w>
K uu
sp ace</w>
ista minen</w>
Koso v
ul tima
op ti
ha gen</w>
fun d</w>
pi ll
fi gu
construc tive</w>
ryh ty
puheenjohta jan</w>
op posed</w>
merkittä västi</w>
ja ka
ehdokas valtio
repe at</w>
odo ttaa</w>
W h
Am ster
te kijö
lu vu
tuo da</w>
suur im
politiik asta</w>
pen sion</w>
la inen</w>
ja ks
critic ism</w>
raken ta
pu h
inter ven
B ur
s end</w>
main ly</w>
commer cial</w>
ulkopu ole
resol ve</w>
määr än</w>
ing dom</w>
en in</w>
c ement</w>
thou san
oike a</w>
Pr ime</w>
tulevaisuu den</w>
roh ke
c ally</w>
Ag ency</w>
ulkopuole lle</w>
inte ll
for ced</w>
Ch ech
gh ting</w>
bac k
ap pla
tä lle</w>
subsi dies</w>
res urs
päät tävä
finan cing</w>
tälla isia</w>
poh jo
otta nut</w>
ep ing</w>
wh ere
se a</w>
m alle</w>
tus ti</w>
emplo ye
tärke änä</w>
see king</w>
mer ely</w>
lead ing</w>
äskettä in</w>
rec or
en han
pid ämme</w>
järjes tön</w>
erila isia</w>
ch ec
Econom ic</w>
suo si
sopim us
fo re
Yhdisty ne
vuoropuhel ua</w>
vat ko</w>
ta vall
san on
mo di
f ron
all i
thousan ds</w>
re ad</w>
Isra eli</w>
tol er
tem por
sch em
ma ille</w>
inno va
ex pen
K ingdom</w>
simp le</w>
oh ja
laati a</w>
id aan</w>
e ita</w>
a iden</w>
Pal estiin
vaati i</w>
va at
pit kän</w>
kysymyks istä</w>
traffic king</w>
to t</w>
institu tion</w>
fe ar</w>
enterpris es</w>
av us
P a
Ge or
yksinker tais
työjärjesty ksen</w>
mi lla
meet ings</w>
man date</w>
esimer kki</w>
ai omme</w>
Kre ikan</w>
tavoitte en</w>
par issa</w>
a tu
vuo desta</w>
tule vat</w>
tiet y
tettu jen</w>
ta po
ra il</w>
ong st</w>
o ffice</w>
kat som
exis tence</w>
emis sions</w>
ca teg
am ongst</w>
adop ting</w>
use im
päät ty
olo gi
struc ture</w>
p es
oike assa</w>
o ja</w>
k y</w>
correc t</w>
compe tence</w>
al ussa</w>
E T
union ia</w>
recommen dations</w>
im es</w>
funda menta
con ference</w>
19 8
taloudell isia</w>
manag ed</w>
wis hes</w>
v isi
työnte ki
tied ot</w>
kokon aan</w>
ma as
ec u
E x
ten a</w>
e vat</w>
e iden</w>
speak ers</w>
our ce</w>
ac ts</w>
vapaa eh
refer en
jo ille</w>
ik kaa</w>
a men
viras ton</w>
päätö kset</w>
im possible</w>
grea test</w>
si t</w>
in tä</w>
usko tta
ka m
jo issakin</w>
tu k
mu tual</w>
kor kea</w>
kansainvälis tä</w>
ch ance</w>
c ro
mä ssä</w>
ka ks
halu taan</w>
ma ista</w>
lä mp
guarante es</w>
for get</w>
tark asti</w>
painopis te
os ti</w>
n aiset</w>
in him
improv ement</w>
pre ven
pass eng
n ation</w>
l et
ky ken
esit tämä
disas ter</w>
contain s</w>
comp ly</w>
S har
ölj y
r ying</w>
si mme</w>
ri es</w>
inter vention</w>
appe al</w>
aim s</w>
T am
us kom
strength ening</w>
reduc ing</w>
de fic
br inging</w>
pi in</w>
O M</w>
tois ta
il mas
erä s</w>
voim aan</w>
tarko ite
suhte essa</w>
substan ces</w>
en jo
asem an</w>
a ate</w>
ve h
ur he
ss ään</w>
practic es</w>
an d
P ub
A z
transpar ent</w>
tois sijais
h a</w>
esit tel
vä lia
safe gu
mä ä</w>
Saks an</w>
vi id
torjun n
arvio ida</w>
ar ri
valtio ta</w>
suo ja
monimuo to
em inen</w>
väline itä</w>
tr on
si vat</w>
raken ne
om en
Pub lic</w>
yrity ksiä</w>
väh immäis
v ina</w>
ratkais un</w>
kä ä</w>
isuu teen</w>
b in
riittä vän</w>
johtu u</w>
chan ged</w>
20 10</w>
uni vers
takais in</w>
suur en</w>
ra tes</w>
pys ty</w>
kaup paa</w>
uh re
suh teen</w>
kuolem an
ess ämme</w>
avu n</w>
3 ;</w>
&#9 3;</w>
te lleet</w>
rejec ted</w>
occ asi
immedi ately</w>
a ffairs</w>
1 ;</w>
&#9 1;</w>
ku r
figu res</w>
f el
valvonn an</w>
la use
h om
ensi ksi</w>
koulu tus
am er
D oh
yle ensä</w>
jos kus</w>
emp ha
Tra de</w>
or gan
liitty vien</w>
ide as</w>
evalu ation</w>
enemmis tö</w>
w ed</w>
to ki</w>
p .
muuta mia</w>
katastro f
integra ted</w>
tuomioistu in</w>
säännö s
orig in</w>
al usten</w>
toimi vat</w>
amb itious</w>
yhteis ö</w>
sc ho
f er</w>
köyh yyden</w>
kk ää
ker ro
c e
ar ing</w>
Pro gra
u ksien</w>
n ro</w>
high li
e ikö</w>
congratu la
comple x</w>
vapau tta</w>
tulevaisuu tta</w>
lop et
ex change</w>
propos ing</w>
pres sion</w>
pitkä llä</w>
ko vin</w>
väl ine</w>
uud essa</w>
ser va
ran ge</w>
todell ista</w>
t onn
n en</w>
aloitte en</w>
te in</w>
käyd ä</w>
continu ing</w>
ad ap
Tam per
tarko itan</w>
peri aate</w>
on sa</w>
m ber</w>
komite an</w>
facil ita
exerc ise</w>
ed ing</w>
advanta ge</w>
Euro sta
tarjo aa</w>
strong ly</w>
repres ents</w>
reduc ed</w>
con tra
turvallisuu teen</w>
t osta</w>
huolen aihe
ta nne</w>
see m</w>
ohjel maa</w>
offici al</w>
al aan</w>
E rik
vo tes</w>
refuge es</w>
re ite
pay ments</w>
palvelu ja</w>
lu op
julki lausu
j un
harmon isation</w>
fi f
ca me</w>
val taan</w>
s ent</w>
mi e
id ents</w>
on ia</w>
fail ed</w>
ver si
ra haa</w>
op p
anta maan</w>
F re
väline iden</w>
subsidi arity</w>
ma x
aw ar
maahanmuut to
unoh taa</w>
tu te</w>
pan o
enemmis tö
ei ght</w>
territor y</w>
ris m</w>
ch es</w>
Nor th</w>
te ful</w>
ad vo
demokrati aa</w>
alka en</w>
sisäl tää</w>
päätöslauselma es
mp tion</w>
mon i
käsiteltävä ksi</w>
eas y</w>
compensa tion</w>
appl ic
alue et</w>
selke ä</w>
recommend ation</w>
jäl ke
esit tämään</w>
velvo itte
ten ed</w>
sup ports</w>
ser ies</w>
neuvottelu issa</w>
ko ke
ita va</w>
f rau
välia ik
vol un
s ho
inten d</w>
ehdotu kseen</w>
vic e</w>
sij asta</w>
koske viin</w>
ehdo tetaan</w>
des truc
N AT
Ju ly</w>
tila isuus</w>
proc eed
o gra
ki ä</w>
erin oma
yhteen kuulu
emb ly</w>
at titude</w>
Euroop paan</w>
he inä
aikais emmin</w>
tota lly</w>
to isessa</w>
star ting</w>
se ktor
rahoitus näky
obli gations</w>
ne ita</w>
arvois at</w>
B ol
Aus tri
t isen</w>
myön tää</w>
effici ency</w>
Pohjo is</w>
2 8</w>
te re
tar gets</w>
ra ja</w>
muo do
kunnianhim o
idem okra
ha min
dic ta
öö pen
ööpen hamin
toim i</w>
tapa an</w>
reason able</w>
legit im
hi en
K ööpenhamin
3 5</w>
mon issa</w>
liik enn
con ver
Barcelon a</w>
g y
as sosi
ans w
B SE</w>
open hagen</w>
om ien</w>
keino ja</w>
S E
C openhagen</w>
B ro
2 6</w>
te ki</w>
perspec tive</w>
kos kem
ga tive</w>
dy na
des tro
Progra mme</w>
hyv än</w>
fac ed</w>
US A</w>
CO M</w>
A s
säil yttää</w>
politiik ka
hyväksy tään</w>
fac ing</w>
V an</w>
un employment</w>
todennäkö isesti</w>
pub lis
käytö stä</w>
comprehen sive</w>
arti k
E S</w>
veh ic
tärke in</w>
tiedon an
tied ä</w>
kansall iset</w>
il un</w>
gra teful</w>
d essä</w>
osa ksi</w>
ohjel mien</w>
krite er
en ab
ag ed</w>
Ger man</w>
os as
itu kset</w>
tu pa
ten ces</w>
tarkas tella</w>
tamis essa</w>
orig inal</w>
kulj etta
is ts</w>
te ver</w>
jo ko</w>
d imension</w>
ristiri id
referen du
lä pi</w>
liik ke
kans an</w>
e dellä</w>
deta iled</w>
arrang ements</w>
Bud get</w>
wha tever</w>
puheenjohta j
periaatte ita</w>
oh j
e ten
valio kunn
te li
sää s
d aan</w>
B as
sosiaal ista</w>
com pla
pres ence</w>
kiito ksia</w>
bu re
an tu
yhteistyö stä</w>
voima kka
ryhmä mme</w>
desig ned</w>
yhteistyö ssä</w>
uu tta
sa astu
kalas ta
ik ään</w>
tion ing</w>
situ ations</w>
pann a</w>
Le gal</w>
sano in</w>
kah ta</w>
val ko
transa tlan
o ffer
nyky inen</w>
g er</w>
ehdokas valtioiden</w>
Ruot sin</w>
3 1</w>
ne l</w>
merk ityks
hyväksyt tiin</w>
ta ud
päätöslausel massa</w>
luon te
langu ages</w>
elä kke
u is
osoitta vat</w>
keho tan</w>
an toi</w>
tie tenkään</w>
tempor ary</w>
sa ira
myönte inen</w>
ma tic</w>
f la
ell ei</w>
va tions</w>
s man</w>
reg is
mu issa</w>
ensimmä istä</w>
by ro
V itor
sy nn
jat ket
ex port</w>
atta ck</w>
vastuu ta</w>
vaike aa</w>
os uus</w>
ker ta
frau d</w>
aiko ina</w>
M an
to i
opim uksen</w>
oikeus -</w>
muuta ma</w>
llis een</w>
an tanut</w>
M c
pyr ittävä</w>
ponnis telu
ma ksi</w>
defin ed</w>
ag o
Rus sian</w>
me idät</w>
d ical</w>
a ver
än kin</w>
ympäris töä</w>
turvallisuu s</w>
miljoon an</w>
infrastruc ture</w>
er ää
consis tent</w>
co t
appro val</w>
si hte
p o</w>
m .</w>
happen ing</w>
v ity</w>
ko he
invol ve</w>
ent it
Com mun
5 00</w>
. 00</w>
ri en</w>
re te</w>
na isia</w>
man u
k käy
it or</w>
invol vement</w>
te ita</w>
sta tis
koulu tuksen</w>
häne lle</w>
elä ke
atta in</w>
ajat tel
tu emme</w>
puhemi eh
kilpail un</w>
jo tain</w>
is yyttä</w>
ff er</w>
wi lling</w>
seura uksena</w>
las ten</w>
kehitys maiden</w>
charac ter
tu jen</w>
resol ved</w>
menet tely</w>
histori all
elec tion</w>
byro kra
arv on</w>
E tel
spe ed</w>
määräraho ja</w>
mä ttö
kulutta ja
keskustel emme</w>
ka a
i ed</w>
G MO
työsken tel
one u
om asta</w>
in come</w>
hallitu kset</w>
follow ed</w>
en tu
vä än</w>
sa ar
pollu tion</w>
nähd ä</w>
ne gative</w>
myönte isenä</w>
4 5</w>
1 7
merkittä viä</w>
lik ely</w>
m min</w>
lä hen
loppu jen</w>
is ellä</w>
b ad</w>
avoim uutta</w>
vastus ta
vaikutu kset</w>
esti ma
declar ation</w>
Tre aties</w>
rah at</w>
esit ti</w>
alue elle</w>
p is
ke eping</w>
het k
gran ted</w>
care fully</w>
utu a</w>
mon th</w>
mahdo tonta</w>
kuu ka
työ n
sil ti</w>
si vely</w>
pres er
näkökul masta</w>
edusta ja</w>
a io
Gre en</w>
tiu k
pääs tö
me ko</w>
huippukokou ksen</w>
I tä
ongel maa</w>
en ter</w>
b ian</w>
äänesty ksen</w>
vakuu ttunut</w>
suffer ing</w>
shar ed</w>
päätös ten</w>
pää asiassa</w>
ple ase</w>
kansainvälis ten</w>
edusta jat</w>
contribu tions</w>
kasvu n</w>
interes ting</w>
grow ing</w>
at tu</w>
aktiiv isesti</w>
jon kin
fo or
täs mä
tulo kset</w>
ra il
af ter
F unds</w>
t ments</w>
si des</w>
kesk en</w>
its es
compli ance</w>
vä hin
sovell etta
representa tive</w>
mon ta</w>
memb ership</w>
flo or</w>
equ ally</w>
ensisi ja
employe es</w>
conc rete</w>
vaiku tus
sel vä</w>
ll s</w>
gro unds</w>
deta il</w>
9 0</w>
yll ä
kyseen alais
joutu vat</w>
immi grants</w>
contin ent</w>
allekirjo itta
suojel ua</w>
lämp im
lainsäädän tö</w>
l ost</w>
kysy ä</w>
c ell
Bol kes
te istä</w>
päiv ä</w>
pre ad</w>
kol m
ex ecu
200 7</w>
rauta tie
olem aan</w>
no jalla</w>
mä stä</w>
yhtä lä
viime inen</w>
toivotta vasti</w>
thre a
ter n</w>
per man
per c
inn än</w>
propos es</w>
pan kin</w>
om ia</w>
myö tä
mu ista</w>
0 1</w>
under min
teh os
tarv etta</w>
riippu matta</w>
poliitt isesti</w>
monimut ka
ik k
S truc
tu oll
san on</w>
man a</w>
ma ton</w>
I ran</w>
tas ks</w>
hy viä</w>
f are</w>
a part</w>
reg re
im ag
N ew</w>
B o
val in
us tra
tuotte ita</w>
siz ed</w>
sano ttuna</w>
kustann ukset</w>
er o</w>
ri is
poli it
ob sta
määr ittel
ent y</w>
Fisch ler</w>
äänesty ksessä</w>
ver rat
ro und</w>
Amer ikan</w>
suojel un</w>
sano ttava</w>
kan is
Struc tural</w>
Kiin an</w>
re kis
person ally</w>
odo tamme</w>
kri itt
isi llä</w>
expla in</w>
tieto inen</w>
rik kom
justi fied</w>
edisty stä</w>
direktiiv issä</w>
tut k
syys kuun</w>
pas s</w>
el ement</w>
destruc tion</w>
te x
manu fac
ko ihin</w>
en kä</w>
de ad
CO D</w>
se et</w>
pöytä kirj
lla kin</w>
kki ä</w>
immedi ate</w>
acc o</w>
valmi ita</w>
sto cks</w>
p us
Etel ä</w>
vi hdo
toista iseksi</w>
pi iri
markkino ita</w>
le v
kam pan
julk isten</w>
endor se</w>
aloitte ita</w>
Ru le</w>
2 00</w>
vähen tää</w>
päätö stä</w>
oll aan</w>
mechan isms</w>
lim its</w>
alue ille</w>
ver ei
politic s</w>
glob alisation</w>
pi d</w>
ol itiik
j al
ga ve</w>
fin e</w>
enn alta</w>
te ja</w>
oso ituksia</w>
na tions</w>
itte es</w>
initi al</w>
H a
Constitu tional</w>
maan viljelijö
el o
un less</w>
työsken ne
mar itime</w>
for th
een kin</w>
A ud
gen der</w>
al ha
Pro tocol</w>
vall e</w>
toim ik
isyy den</w>
high light</w>
bure auc
A u
tar jota</w>
sa in</w>
r ä
le vi
is taa</w>
in surance</w>
hear t</w>
ef ly</w>
di gn
a dequate</w>
tu ja</w>
tru ly</w>
to istu
str ik
sisäl ty
pil ar
essa mme</w>
b ra
st res
mu kau
he u
struc tures</w>
kyse isen</w>
kansan terveyden</w>
infor m</w>
pers ons</w>
oikeu teen</w>
en iten</w>
F e
tehtävä nä</w>
sp ent</w>
fa il</w>
dis pu
vi an</w>
to b
nouda tettava</w>
lää ke
kaup all
contin ues</w>
ar ed</w>
yksi kö
us ko</w>
pyrki i</w>
ki inti
Cha mber</w>
yks is
sisä llä</w>
on te
max imum</w>
lin ked</w>
gener ally</w>
an na
Inter governmental</w>
toim ittava</w>
om at</w>
n ais
expec ted</w>
appropri ations</w>
Re gi
vapau ksien</w>
tob acco</w>
sosiaal itur
kulu ttua</w>
ks e
histor ic</w>
dise ases</w>
bin ding</w>
Turk ki</w>
. 000</w>
ulkopuol ella</w>
tur ning</w>
pen sions</w>
oso itus</w>
mo ving</w>
ent ises
dis charge</w>
def end</w>
cl es</w>
arv o</w>
Po et
K io
pyr imme</w>
l uot
Bus h</w>
periaatte essa</w>
occasi ons</w>
löy tää</w>
i assa</w>
ann ettu</w>
väär in</w>
vo inut</w>
sec ure</w>
se hdo
ilmo ittaa</w>
id emme</w>
ta ke
strateg ia</w>
seuraa van</w>
k assa</w>
inn e</w>
aj oneu
Ver heu
tarkistu ksista</w>
miljar dia</w>
konferens sin</w>
E gy
ser ve</w>
k er</w>
itet tävä</w>
investo in
hä tä
hal un
dis ap
Chech ny
B os
so verei
individ u
il ies</w>
elintarvikke iden</w>
do ll
verrat tuna</w>
Euroop asta</w>
var aa</w>
vah v
s tre
ca uses</w>
ase iden</w>
sa ttu
on a</w>
k asta</w>
dela y</w>
2 9</w>
ulkop olitiik
raho itu
emen tary</w>
Chechny a</w>
tarpe eksi</w>
joka isen</w>
jatkos sakin</w>
is ku
campa ign</w>
ty ihin</w>
ten ing</w>
tell ut</w>
pää sy
mieh et</w>
inclu des</w>
elä män</w>
yo to</w>
vastu un</w>
union ille</w>
un d
tasa puol
sano taan</w>
la be
entises tään</w>
K yoto</w>
tra vel</w>
reac hing</w>
o ts</w>
g la
T rans
Sol ana</w>
ll emme</w>
hyö kkäy
flexi ble</w>
expres sion</w>
Bud gets</w>
vasta us</w>
ti an</w>
suo sion
per in
opti mis
kää mme</w>
improv ements</w>
G ö
tod ettava</w>
tied otta
respec ted</w>
in ts</w>
in t</w>
sit o
pla yed</w>
k id
ester n</w>
P res
toimenpite et</w>
tieto isia</w>
ther lands</w>
perus tamista</w>
pa per</w>
ku ka</w>
ai empaa</w>
a u</w>
Ne therlands</w>
tarkastel tava</w>
ta ri
ratkais em
kompromis si
forth coming</w>
dis ab
E L
th u
tehtävä ä</w>
ongel mien</w>
ob vious</w>
W at
vaal e
oper ations</w>
maks aa</w>
kansall isen</w>
k yt
emer g
comm ittees</w>
a inen</w>
Dan ish</w>
se x
kuu lla</w>
kiit oll
i va
fam ilies</w>
eurooppala isia</w>
cla im
aja tus</w>
ad ver
ro oli</w>
par as</w>
ne itä</w>
tämän päivä
ttu ja</w>
hyväksyt ty</w>
fisher men</w>
esit än</w>
erinomais esta</w>
ar ies</w>
appla use</w>
there by</w>
ta van
neuvottelu ja</w>
min uu
ev an</w>
En g
sig n</w>
läs nä</w>
k risti
it täminen</w>
NAT O</w>
ty yn</w>
tri ed</w>
Is la
täys istunnossa</w>
ttu jen</w>
torju miseksi</w>
r y
koske vissa</w>
ar k
3 7</w>
toim imaan</w>
han d
e vät</w>
ap par
rah a</w>
markk ina</w>
imäär ä
hilj attain</w>
Swed en</w>
Aud itors</w>
täysi määrä
tarkoitu ksen
kanso jen</w>
Strasbour g</w>
N L</w>
A nn
yr it
vis it</w>
tävä än</w>
toteu tetta
todell akaan</w>
pol tto
po l</w>
l än
d t</w>
ti eli
stand ard</w>
mon opol
kehittä misen</w>
ro ol
re ci
re ago
niin pä</w>
maa ta</w>
jul kais
joka inen</w>
jatkos sa</w>
yrity ksille</w>
s tään</w>
religi ous</w>
protec ting</w>
pre fer
let ter</w>
an in</w>
tarv itsee</w>
satisfac tory</w>
saa pu
particip ate</w>
muod ossa</w>
mas s</w>
Palestiin an</w>
vää ris
naa pur
j au
asi all
al laan</w>
yleis sopimuksen</w>
vuo ros
t ter</w>
im pose</w>
huom i
f as
commun ities</w>
Bel ar
wa it</w>
varain hoito
sisä markkinoiden</w>
pri l</w>
ongel mista</w>
ma mme</w>
ke ino</w>
ik u
freed oms</w>
certain ty</w>
Res earch</w>
M one
A pril</w>
th o
seura uksia</w>
opin ions</w>
om ista
lo g
kohd ista</w>
di g
be ings</w>
wor se</w>
star ted</w>
pa per
it ten</w>
am alla</w>
A K
vaad imme</w>
profession al</w>
differ ence</w>
Val ko</w>
Erik a</w>
ultima tely</w>
työllis yyden</w>
l ent
F or
C ub
erity istä</w>
cons ol
yy teen</w>
tune ita</w>
saavutta miseksi</w>
promo tion</w>
liitty vistä</w>
h ours</w>
v issä</w>
tutkim usta</w>
tiet tyjä</w>
l ta</w>
i um</w>
brea k</w>
am pi</w>
olis imme</w>
me at</w>
genu in
J ap
vä stä</w>
re he
näkö kohtia</w>
lin k</w>
capa ble</w>
affec t</w>
y ri
suhte ita</w>
sto od</w>
ristiriid assa</w>
reflec t</w>
genuin ely</w>
continu ed</w>
Mone tary</w>
ó n</w>
tämän hetk
työ hön</w>
toim is
peace ful</w>
lo wer</w>
i it
fac tors</w>
com pati
aj ien</w>
a y</w>
Scheng en</w>
pöytä kirjan</w>
perä isin</w>
numer ous</w>
mon itor</w>
isuu desta</w>
hu hti
farm ing</w>
demonstra ted</w>
conflic ts</w>
ann etta
Al ger
ympäristö asioiden</w>
kul ku
itet tiin</w>
chil d</w>
An g
vuoropuhel un</w>
tu kien</w>
palestiin alais
laajentu mis
j ur
edisty s
demonstra te</w>
typ es</w>
poli isi
lähestymis tapaa</w>
il ta
f al
alo jen</w>
vil pit
täytäntöönpan oa</w>
suure t</w>
ol isin</w>
kysymyks issä</w>
kehitys yhteistyö
ista maan</w>
assosi aati
A tlan
sopimuks et</w>
san om
sa isi</w>
ole vaa</w>
ob tain</w>
myönte istä</w>
miel ell
kol mas</w>
interes ted</w>
de ep
al ities</w>
sosiaal idemokra
pros per
nyky isin</w>
f ran
er ed</w>
ensisij ais
en de
dec isi
conduc t</w>
WTO :n</w>
teks t
taloudellis ten</w>
nel jä</w>
käyttööno t
inn ut</w>
f il
Ag ricul
vakuu ttaa</w>
v i</w>
tunn usta
tu ks
touko kuuta</w>
te issa</w>
produc ers</w>
ma us
järjestel mään</w>
fac tor</w>
puol ella</w>
ol es
minis ters</w>
me kanis
järjestö t</w>
wor th</w>
pal au
a man
K es
Au th
varmis tamaan</w>
talousarvi osta</w>
rup tion</w>
fi ghting</w>
el imin
d us
consol id
c ra
aika välin</w>
T u
7 5</w>
y kset</w>
union ista</w>
taloudellis et</w>
oso ittanut</w>
li itt
cus tom
199 7</w>
yhd ys
tele vat</w>
tekem istä</w>
repres ented</w>
ratkais ua</w>
puol estaan</w>
liitty mistä</w>
komissi ossa</w>
ko t</w>
jäsen elle</w>
a isia</w>
Pal ac
Inter nal</w>
Con sum
sosi alis
si vu
saa maan</w>
onnettom uu
liiken teen</w>
om assa</w>
muu n
kuul u</w>
go al</w>
väli lle</w>
tho rou
so tilas
ri ers</w>
raho ituksen</w>
puu ttua</w>
moder n
lähestymis tapa</w>
is tö
exc es
Or ganis
z one</w>
voita va</w>
pitkä lle</w>
pi c</w>
kuu kauden</w>
ite tään</w>
it ä
wel fare</w>
vaikutu s</w>
tur ing</w>
pois taa</w>
olog y</w>
is e
huu me
N ig
tarko ita</w>
sa i</w>
ro ati
ratkais e
A L
yle isen</w>
realis e</w>
käytö ssä</w>
in tiin</w>
ilmo itta
hyväksy mään</w>
obli gation</w>
m er</w>
jud g
distribu tion</w>
d ro
al ta
a ista</w>
valtio ita</w>
suosion osoituksia</w>
puhu n</w>
nyky isten</w>
kka a</w>
ke don
in vi
emplo yed</w>
edell yt
Gal ic
1 8
ta bility</w>
kiinti ö
en immäis
aine ita</w>
Mar ket</w>
y ksen</w>
se ja</w>
s ource</w>
plann ing</w>
kau della</w>
kaik enla
h ou
edusta jien</w>
tu han
suhtaudu n</w>
ra j
mul ti
im posed</w>
b la
K OM</w>
vält tää</w>
väes tön</w>
tus sa</w>
terroris mia</w>
kas vaa</w>
contra dic
alo ite</w>
Consum er</w>
tr a</w>
to p
ins tance</w>
ex pl
ag ency</w>
D ut
tied on</w>
laa tua</w>
käs itte
kysymyks essä</w>
itus ten</w>
institu tion
he idät</w>
T ou
Euro pol</w>
wa iting</w>
tuoll oin</w>
saa tav
politic ians</w>
kes ku
empha sis</w>
contain ed</w>
valtio issa</w>
vaati a</w>
it u</w>
hyödyn tää</w>
OLA F</w>
Kio ton</w>
vi ed
riippu va
min ority</w>
la isten</w>
käytet tävissä</w>
conclu ded</w>
vi isi</w>
se ka
m id
ed y</w>
vasta uks
valvon ta</w>
tuotann on</w>
huomau ttaa</w>
citiz en</w>
bri efly</w>
Bryssel issä</w>
vir he
require ment</w>
legit imate</w>
kahd en
hol ding</w>
Bri tan
nuor ten</w>
kk inä</w>
in ation</w>
gra du
et na
aikais esti</w>
vo ice</w>
tu lle
tal ks</w>
prec ed
co as
Auth ority</w>
vuos ittain</w>
siirty mä
mielen kiin
fin ance</w>
en try</w>
con su
anta vat</w>
Pres ti
Portugal in</w>
M i
te bor
ch em
katsom me</w>
enem pää</w>
credi bility</w>
tul k
toimenpite iden</w>
re infor
perman ent</w>
Lae ken</w>
Gö tebor
Dut ch</w>
Comm on</w>
tärke än</w>
oma ksu
katso o</w>
equ ip
entit led</w>
enlarg ed</w>
determin ation</w>
demokraatt isen</w>
äänes tämme</w>
ulkom inis
sy d
kulu essa</w>
ik an
dra wing</w>
Organis ation</w>
tain ed</w>
parlament tien</w>
ordin ary</w>
op tion</w>
ksi aan</w>
kol me
ihmis tä</w>
govern ance</w>
työjärjesty s
sub sequ
oikeus asia
materi al</w>
huu maus
en ess</w>
F i
vahvis tetaan</w>
tuotan to
qu ar
kno ws</w>
amoun ts</w>
vapa us</w>
han kal
esitteli jö
d ings</w>
vaal ien</w>
uudistu ksia</w>
tre ated</w>
te illä</w>
pid ät
na apu
i pu
curr ency</w>
au t
1 6
yksimiel isesti</w>
työ voim
trad itional</w>
mill ään</w>
kesk en
alu etta</w>
vi ivä
suos tu
spen ding</w>
pur poses</w>
käsittely n</w>
hyväksy nyt</w>
edellyty kset</w>
AC P</w>
teks tin</w>
pid äty
kesk isuu
kaup pa</w>
an kar
ab s
N S</w>
tarkistu ksessa</w>
mahdo llinen</w>
jäsen valtiossa</w>
D el
ratkaisu ja</w>
produc tive</w>
pan a</w>
paik alla</w>
ex emp
ch ing</w>
va kau
tapa us</w>
referendu m</w>
ner gy</w>
kaik esta</w>
att le</w>
ati t</w>
yhte isestä</w>
vä is
komissi olla</w>
exten ded</w>
ende av
co decision</w>
Slo va
ymmärr än</w>
wel com
welcom ed</w>
tehd yn</w>
suhte et</w>
sig nal</w>
restric tions</w>
nä mme</w>
k kau
han ds</w>
A ss
än sä</w>
vaikutta vat</w>
toissijais uus
to re
sit te</w>
realis tic</w>
julk isia</w>
yhd yn</w>
valvo a</w>
teh tä
t osin</w>
jäsen ille</w>
ha kem
dik ta
dign ity</w>
Co ton
us con
u tunut</w>
teki jä</w>
ta usta
s em
poliit ik
pass ed</w>
ongel miin</w>
laajentu mista</w>
ke ja</w>
en e</w>
a misen</w>
seik ka</w>
quali fied</w>
ku mo
istun to
ha ki
exper ts</w>
d om
artikl assa</w>
ann an</w>
ad vis
He ads</w>
D R</w>
Cub a</w>
yhteis päätös
y e</w>
us ti</w>
tä kin</w>
strategi aa</w>
puheenvuor oni</w>
mer i
advo c
Husse in</w>
Berl uscon
tasa vallan</w>
rec o
p om
om et
mon en
Ira q
volun tary</w>
seuraa vaksi</w>
matka ilu
käyd ään</w>
c ou
bri ef</w>
Sec re
yhte isiä</w>
union illa</w>
tul osta</w>
tarkistu sten</w>
su hd
reco very</w>
kiire ellis
kaikki aan</w>
c en
allow ing</w>
vakaus -</w>
todellisuu dessa</w>
tax ation</w>
tarvitta vat</w>
regula tory</w>
oc ca
occa sion</w>
no ted</w>
kehity kseen</w>
ke jä</w>
k issa</w>
happen s</w>
gr ant</w>
Vi etna
t isesti</w>
rahas ton</w>
puheenjohtaja valtion</w>
lento yhtiö
kes tävää</w>
ha ita
h id
b it</w>
at te</w>
työ markkina
tur ned</w>
m pää</w>
hyväks ym
deli ghted</w>
confir m</w>
c ent</w>
Agricul ture</w>
te tä</w>
pri or
ka asu
inhim i
ev ening</w>
depend ent</w>
M us
un ut</w>
sym b
sivi il
mu la
läh te
kasvu a</w>
joulu kuuta</w>
coura ge</w>
compe tences</w>
al kaa</w>
onnistu nut</w>
believ es</w>
Lae ken
tä h
teho kas</w>
sijo itta
puhu mme</w>
llisuu tta</w>
kuu ll
inn ista</w>
hen g
ehdo tusten</w>
Ma kedon
use am
un da
täll aiset</w>
toteu tetaan</w>
sov itta
si bly</w>
hyväksy ty
ti veness</w>
ta hd
järjestel miä</w>
inno vation</w>
im iel
P SE</w>
Belar us</w>
toimi valta
tark emmin</w>
res tor
käsiteltävä nä</w>
jä tte
hyväksy y</w>
edis tämiseksi</w>
wr itten</w>
tö ihin</w>
su rely</w>
perus tan</w>
odo tta
is hed</w>
avoim esti</w>
as ta
al usta</w>
Ukra in
ulko -</w>
tra gic</w>
la in</w>
l yö
j emme</w>
g one</w>
ajoneu vo
O s</w>
D en
suku pol
pla ces</w>
molem mat</w>
lo w
to p</w>
stan ds</w>
re vis
p k</w>
mun a</w>
lausun non</w>
kysymyks estä</w>
ill ani</w>
experi enc
Fin an
use at</w>
some what</w>
separ ate</w>
perustusla kis
esittelijä nä</w>
as h
acc idents</w>
Ir lan
5 5</w>
199 6</w>
talousarvio ta</w>
ri it
n tä</w>
maa han</w>
kom mun
emb ar
condem n</w>
a mis
H ome</w>
F ra
sija itse
s anne</w>
rajo jen</w>
mi tenkään</w>
mechan ism</w>
lop ussa</w>
la in
consider ing</w>
Bulgar ia</w>
time table</w>
mit kä</w>
kohtu u
c y
to isia</w>
ph ase</w>
mu ille</w>
kun no
independ ence</w>
ehkä isem
z z
wa ters</w>
valitetta vaa</w>
tä hd
talou s</w>
sugg est</w>
perustu van</w>
periaatte iden</w>
ic ated</w>
gla d</w>
fel t</w>
f our
elec tron
centr e</w>
Balkan s</w>
Afric an</w>
to tu
talousarvio on</w>
sosiaal inen</w>
s mo
mul tila
me ja</w>
käsittelev än</w>
keskustelu ja</w>
ic ate</w>
encoura ging</w>
vi iden</w>
str ö
parlamenti lla</w>
mu s</w>
la tter</w>
itu n</w>
aa muna</w>
vaka via</w>
suures ti</w>
seura a</w>
or al</w>
oike uksista</w>
j en
guarante ed</w>
A gen
uni ted</w>
tule van</w>
remar ks</w>
parlament tiin</w>
i taa</w>
examin e</w>
Barcelon an</w>
uks ella</w>
s ources</w>
n es
l ying</w>
ks issä</w>
confir med</w>
P os
vois in</w>
vastu un
varmis tamiseksi</w>
tan t</w>
met sä
h ence</w>
go t</w>
g issa</w>
exam ples</w>
associ ation</w>
toimielim et</w>
pitä vät</w>
muka inen</w>
ko os
joulu kuussa</w>
saata isiin</w>
s ou
pr e</w>
os al
huole hd
ess ing</w>
äs ken</w>
tapahtu mat</w>
sopimuks esta</w>
ra pid</w>
moder n</w>
imp ia</w>
väki vallan</w>
vaati musten</w>
ta var
liit to
ksen ä</w>
j ääd
etu sij
an t
EL DR</w>
tie tävät</w>
saavu tettu</w>
pos t</w>
ot sa
elä k
c le</w>
bur den</w>
b ila
U N
H ar
työpaik koja</w>
t isia</w>
ohjel massa</w>
descri bed</w>
a h
Roman ian</w>
Lat in</w>
Bolkes tein</w>
rene w
prec ise</w>
muu ton</w>
koros tetaan</w>
kehittä mistä</w>
ite et
ase tus</w>
ark alu
I C
ni an</w>
kansall is
g as</w>
for es
S an
tit uu
tiet tyjen</w>
re por
kilpail ua</w>
kansall isia</w>
dis tor
I tä</w>
vi ksi</w>
pa yment</w>
kon e
k kuu
ar m</w>
an tly</w>
teh täviä</w>
san a
perfec tly</w>
nim issä</w>
ita ble</w>
ans all
B u
wi ll
palvel ut</w>
kasv u</w>
invol ves</w>
emerg ency</w>
clari fy</w>
ben e
ar me
AK T</w>
varmis ta
torj ua</w>
r ich</w>
minkään laista</w>
mer en
äänesty stä</w>
toim een
tan ts</w>
osallistu mista</w>
man age</w>
k kaan</w>
inte gro
han kkeen</w>
fri ends</w>
Gal ile
3 2</w>
vapau teen</w>
va kauden</w>
tosi asiassa</w>
tar ve</w>
see ks</w>
r at</w>
p at
kysym ysten</w>
fir m</w>
F unda
tois inaan</w>
säännö ksiä</w>
proc esses</w>
p. m.</w>
nähd äkseni</w>
il mi
he al
go als</w>
Funda mental</w>
yksin omaan</w>
tavo itetta</w>
so ta</w>
proc eed</w>
prim ary</w>
Vitor ino</w>
Afganistan in</w>
vielä kin</w>
vakuu tus
u hd
s li
rekis ter
oper ating</w>
muo to
ins ist</w>
fe el
yhteistyö hön</w>
väl isessä</w>
varmis tetaan</w>
tu vat</w>
ex tra
ar kk
Wh ite</w>
yksi puol
ves sels</w>
vastaa maan</w>
uudes saan</w>
onn e</w>
om aisen</w>
käy tettävä</w>
käsittel yyn</w>
fle et</w>
avoim uuden</w>
am ma
E mp
vasta avat</w>
pien ten</w>
ne taan</w>
kka ita</w>
il u</w>
h ir
e ties</w>
as sure</w>
Finan cial</w>
w arm
under taken</w>
tukem aan</w>
tta vaa</w>
res truc
puheenjohta jana</w>
nä y
im pression</w>
enn ut</w>
Pu ol
ta p
po or
penal ty</w>
facilita te</w>
enemmis tön</w>
T i
Liber al</w>
Agen da</w>
0 2</w>
suure mpi</w>
safegu ard</w>
pp ed</w>
maahan muuton</w>
hyväksyt tävä</w>
en e
ed essä</w>
E nergy</w>
vaka va</w>
ku vi
fo ot</w>
exis ts</w>
a void
ä llä</w>
yr ittää</w>
vi enti
suur ten</w>
saman aikaisesti</w>
paran tamiseksi</w>
l ose</w>
is tamme</w>
cour t</w>
ac knowled
oper ational</w>
kel po
easi er</w>
yksi lö
vaati vat</w>
proses siin</w>
käsittely ä</w>
f ru
b es
aj at</w>
Ass embly</w>
3 3</w>
w th</w>
siir re
mi d</w>
kos sa</w>
inten ds</w>
br uary</w>
Gro wth</w>
Fe bruary</w>
tämis essä</w>
politic ally</w>
komissi olta</w>
järke vää</w>
a misesta</w>
suunn ittel
spo ke</w>
kansall ista</w>
awar eness</w>
alo ja</w>
ad e</w>
va ali
tois istaan</w>
tar get</w>
sus pen
s inc
ra dio
l or
kasv us
hall itusta</w>
elec tor
M al
In dus
E K
vall an
use iden</w>
tavoitte ista</w>
protec ted</w>
oper ators</w>
o l</w>
fic ations</w>
es tic</w>
el ää</w>
Ukra ine</w>
viestin tä
toteu tettava</w>
tekni ikan</w>
tar jou
syys kuuta</w>
ro om</w>
pill ar</w>
mone tary</w>
man sa</w>
laad u
h inn
negoti ating</w>
mill oin</w>
is empi</w>
en ed</w>
b om
Poet tering</w>
O l
saa kka</w>
ryhmä t</w>
r in</w>
koh tana</w>
kesken ään</w>
elin ten</w>
Kore a</w>
vuo sia</w>
m ly</w>
kustann uksia</w>
go ro
ase tetaan</w>
appl ying</w>
Mo ro
H el
yle istä</w>
maatalous politiikan</w>
ha an</w>
a miseen</w>
NG Os</w>
uni on</w>
täv istä</w>
tw enty</w>
spo ken</w>
puheen vuoros
kertom uksen</w>
hel mik
esimer kkinä</w>
edis tetään</w>
dist inc
tur y</w>
torjun ta</w>
suunnitel man</w>
ne w
bud sman</w>
uskon no
rau haa</w>
poikke uks
osapuol et</w>
kas vi
kan ta
electron ic</w>
assa ol
Kosov o</w>
velvollisuu s</w>
se itsem
sa man</w>
ryhd yttävä</w>
pyrki ä</w>
pro hi
piiri in</w>
neighbour s</w>
k le</w>
fre qu
argu ments</w>
Lat in
vä itte
tila isuutta</w>
pu hta
kap pal
ihmis ille</w>
gener ation</w>
fe ed</w>
an ts</w>
yy destä</w>
u ne
työn anta
tu ettava</w>
tois tan</w>
suhte iden</w>
su ffici
stric t</w>
saatta vat</w>
p lu
ker ta</w>
ke pt</w>
vaike uksia</w>
tyyd yt
pyyd ämme</w>
kri isin</w>
im peri
ga in</w>
ed ut</w>
c king</w>
Trans port</w>
Austri a</w>
wor k
voit u</w>
valti osta</w>
tasapain o</w>
talousarvi o</w>
tab ly</w>
suoj ella</w>
sol ve</w>
prepar ing</w>
otta matta</w>
offici als</w>
mis essä</w>
min im
kommun is
kiitoll inen</w>
han ke</w>
be ha
Venä jä
4 8</w>
vasta inen</w>
ud esta</w>
te tusti</w>
paho illani</w>
määräraho jen</w>
kun kin</w>
cr imes</w>
Emp lo
tut kin
technolog ies</w>
mahdollisuu ksien</w>
esittä neet</w>
Y :n</w>
Mac ed
prev enting</w>
plann ed</w>
pa si
maintain ing</w>
luovu tta
jäsenvaltio ta</w>
etel ä
appro ve</w>
announ ced</w>
M or
Fis her
työpaik kojen</w>
tila isuuden</w>
tet täisiin</w>
lämpim ästi</w>
foor u
am bi
aik om
regre tta
on ers</w>
ja mme</w>
deta ils</w>
L än
muod ostaa</w>
aut onom
ala inen</w>
a z
vastus taa</w>
terroris ts</w>
sy yt
reques ted</w>
re di
rakenn us
la w
k kä</w>
istunn on</w>
defin e</w>
consis ten
b ase</w>
aver age</w>
an no
0 5
u d</w>
pow er
nouda tetaan</w>
no ise</w>
myönte isiä</w>
hyväks y</w>
demokra tia</w>
bila teral</w>
ad jus
W all
Tans kan</w>
Iraq i</w>
tä yttää</w>
tun tuu</w>
stu d
sel ven
proceed ings</w>
peruste ellisesti</w>
os ana</w>
medic ines</w>
lear n</w>
konferens sissa</w>
kesk inä
he illä</w>
ess enti
arvo ja</w>
am in</w>
H i
Emplo yment</w>
9 5</w>
vapa a</w>
täytäntöönpan on</w>
tämä stä</w>
tarv itsevat</w>
saata villa</w>
sa mat</w>
mo bility</w>
lis ään
käy nyt</w>
exten sion</w>
et si
ai o</w>
ad vice</w>
K al
vasta ista</w>
pursu e</w>
perus tell
ni ght</w>
ir a</w>
hä v
ent ity</w>
teh tiin</w>
pid em
keho ttaa</w>
ite ll
henkilö t</w>
edis tämään</w>
dru g</w>
uni la
satis fied</w>
lu v
isyy s</w>
dom estic</w>
cond ition</w>
tutkim us</w>
tul i</w>
taloudellis esti</w>
tule vien</w>
than king</w>
sa w</w>
over come</w>
lai m</w>
individu als</w>
ic s</w>
fiel ds</w>
dou ble</w>
c at
a var
D P</w>
Ang ol
prosess issa</w>
oikeus valtion</w>
la iset</w>
käynn issä</w>
koulu tusta</w>
determin ed</w>
ajan kohta
yhte y
uo ll
tion ary</w>
sor kka
sisäll yttää</w>
hankke iden</w>
e hd
contrac ts</w>
consu mption</w>
cen tury</w>
Verheu gen</w>
I D
äänes timme</w>
yl imäärä
vi it
tulo ksena</w>
tel u</w>
sen sible</w>
ongel maan</w>
lä hem
hankke ita</w>
b ann
S to
Isra el
tois taa</w>
tac kle</w>
shor t
rati fication</w>
päätöslausel maa</w>
opol itiik
m oun
lin ed</w>
kokonais uudessaan</w>
kah deks
decisi ve</w>
Fisher ies</w>
ty neet</w>
see ing</w>
prepar e</w>
liik aa</w>
hall into</w>
da ily</w>
cla use</w>
as en
aal i
ö in</w>
vo itte</w>
t tia</w>
sisä asioiden</w>
puhu taan</w>
pal k
li ev
Mar o
A sia</w>
won der</w>
perustu vat</w>
li i
la a</w>
johd osta</w>
com men
arme i
y kseen</w>
us ers</w>
täll aisten</w>
tu ista</w>
ro ko
publis hed</w>
lisä ttävä</w>
fundamenta lis
alis e</w>
ver on
re construction</w>
mie hi
la test</w>
kuu kau
ittu jen</w>
ine u
hyl kää
en cies</w>
contac t</w>
consi ders</w>
al usta
Ara f
expec tations</w>
x ed</w>
väl isiä</w>
tra te
syy llis
rik ka
p in
olu m
a kti
vehic les</w>
suu -</w>
politiik kojen</w>
mä ttä</w>
la isen</w>
käyt tävät</w>
f in</w>
eed ed</w>
d omin
Qu es
yl pe
vastaa van</w>
sm all
mo ot
menettely jä</w>
koh tien</w>
fac ts</w>
O m
yhteis een</w>
uh kaa</w>
työsken tely
prosper ity</w>
huol issaan</w>
bi olog
b ers</w>
arvio inti
J ugosla
1 1.
substan ce</w>
paikall is
kesk ity
introduc ing</w>
h ouse</w>
een i</w>
assosiaati os
an kin</w>
am paa</w>
va cc
työs tään</w>
tu kia</w>
tapahtu mien</w>
re vision</w>
ra tion</w>
pr ing</w>
p li
ongel mana</w>
main itsi</w>
m es
luop u
fa ir
asia kirjan</w>
Indus try</w>
valu able</w>
tra g
telev ision</w>
ri d</w>
myön netään</w>
min orities</w>
ll i
laittom an</w>
konkreett isia</w>
jäsen enä</w>
is emmin</w>
compar ed</w>
As soci
4 2</w>
vo ineet</w>
valmistelu kunta</w>
vaal it</w>
työttö my
o ihin</w>
ig nor
compe tent</w>
allow s</w>
ab ol
K au
C NS</w>
19 7
luo tetta
kr itiik
f os
vas em
tu tus
fin ding</w>
coher ent</w>
al alle</w>
tre aty</w>
ko vasti</w>
Can c
ver ran</w>
us k
työntekijö itä</w>
teks ti</w>
nor mal</w>
kan tojen</w>
essenti ally</w>
cre dit</w>
argu ment</w>
Zimbab we</w>
täll öin</w>
ta vasta</w>
statis tics</w>
sex ual</w>
sano ttu</w>
reite rate</w>
r on</w>
kristi llis
investo inte
fulfi l</w>
ase ita</w>
alloc ated</w>
S A
C ol
vasta uksen</w>
under stood</w>
tu le</w>
huom ion</w>
eu vos
chan ging</w>
care ful</w>
c au
In don
vi esti</w>
trans fer</w>
ter ri
pro secu
ohjel masta</w>
kolman nen</w>
impl ications</w>
Yhdistyne essä</w>
Om budsman</w>
viivä sty
onn ittelen</w>
maintain ed</w>
la h
jatket tava</w>
enn us
N ic
van g
taud in</w>
parlia ment</w>
ogra ph
kuningas kunnassa</w>
järjes täyty
Yhdysvall oissa</w>
Nig er
I N
uudistu ksen</w>
ristiri ita
riippu u</w>
rela tes</w>
mi lla</w>
br ings</w>
ar rest</w>
yle inen</w>
teki jä
tarkas tellaan</w>
ins tituu
effec tiveness</w>
ai em
Secre tary</w>
Kööpenhamin an</w>
ympäristö n
tää ltä</w>
suos itu
määrä yksiä</w>
func tioning</w>
eläk elä
elä mään</w>
edusta j
Den mark</w>
tru th</w>
tammik uuta</w>
refer ring</w>
recor d</w>
larg ely</w>
kuluttaja politiikan</w>
jo kin</w>
ing ness</w>
ineu vos
as taa</w>
acc ident</w>
Associ ation</w>
. 30</w>
tek op
immä t</w>
arm ed</w>
välttämä ttä</w>
tote sin</w>
terve yttä</w>
sisä markkina</w>
obsta cles</w>
merkittä vää</w>
keino in</w>
help ing</w>
Palac io</w>
will ingness</w>
vi our</w>
vapa asti</w>
stu dies</w>
lear ning</w>
joukko jen</w>
associ ated</w>
3 8</w>
199 5</w>
trad ition</w>
tii vi
succ eed</w>
reques ts</w>
haluais imme</w>
Galile o</w>
v on</w>
tyy pp
muka isia</w>
luku isia</w>
ehdottom an</w>
dis pos
co operate</w>
ala isia</w>
Sch re
N iel
Eurosta t</w>
3 4</w>
viime is
viik on</w>
van ho
sion ers</w>
p ath</w>
mill ions</w>
käsitel tävä</w>
järjes tää</w>
id es</w>
b urg
ar ia</w>
ac knowledge</w>
va ura
te e</w>
riko llisuuden</w>
re min
ohjel mia</w>
o u</w>
nation als</w>
main ittu</w>
keskus tellaan</w>
itses tään</w>
i aan</w>
explan ation</w>
cho ose</w>
after noon</w>
ys tä
väki valta
ton sa</w>
spec ies</w>
selvä sti
ilme isesti</w>
coun ter</w>
appreci ate</w>
Sto ck
varau ks
tu etaan</w>
tel ee</w>
suunnitel ma</w>
lla mme</w>
ket ta</w>
ill een</w>
el v
e b
au tu
viljel y
tää kseen</w>
tä essä</w>
suor itta
run ning</w>
er ing</w>
er imiel
Portu gu
E I
vakuu ttu
tra ding</w>
toimenpite isiin</w>
os assa</w>
kun taa</w>
its isi</w>
fir mly</w>
en ding</w>
ehdo t</w>
compati ble</w>
blo od</w>
arkalu onte
Presid ents</w>
Portugu ese</w>
Maa ilman</w>
vastus tamme</w>
sta ble</w>
ohjel maan</w>
consider ations</w>
CA P</w>
x im
urg ency</w>
tulo kseen</w>
tell en</w>
te iltä</w>
pää sihte
päivä ä</w>
pakol ais
oppos ite</w>
myy n
kiito kset</w>
julk is
an ia</w>
valtuus kunnan</w>
vall itsee</w>
til ä
s cru
pos t
pla ying</w>
liitty vän</w>
high est</w>
disas ters</w>
democ ra
C a
Balkan in</w>
o tte
me ant</w>
intell ig
ho itaa</w>
halu a
af for
ad ing</w>
B la
todellis en</w>
sugges ted</w>
nä ille</w>
ni lle</w>
muis tettava</w>
liitty vää</w>
enna kko
ed un</w>
do w</w>
con tain</w>
tarkistu ksesta</w>
tarkas ta
jäsen valtio</w>
gi ble</w>
en for
vat kin</w>
toiv e
toiminn asta</w>
myö nn
koh tiin</w>
exces sive</w>
ed etä</w>
cha irman</w>
Fre ed
12 .00</w>
yll ät
var i
vall itse
tex ts</w>
syd ä
kyse inen</w>
jour n
inves tments</w>
b a
advanta ges</w>
3 6</w>
tet tä</w>
teh tävän</w>
päätöslausel ma</w>
kau pan
k eli
alu n</w>
D u
t issa</w>
schem e</w>
ot ti</w>
ni c</w>
m outh</w>
jo lle</w>
il tana</w>
exclu sion</w>
Pak istan</w>
Johannes burg</w>
u den</w>
tävä ssä</w>
se where</w>
on going</w>
ep idem
el sewhere</w>
at ly</w>
Al ban
y llä</w>
vall assa</w>
obli ged</w>
maail maa</w>
laati maan</w>
käsi tell
itur vall
him self</w>
constitu te</w>
anna mme</w>
acti vely</w>
uudes taan</w>
us in</w>
ulkom aan
puolue iden</w>
maas sani</w>
indic ated</w>
hä pe
follow s</w>
ensisij aisesti</w>
constan tly</w>
c laim</w>
beha viour</w>
3 9</w>
uh ka
seura ukset</w>
prim arily</w>
o ffic
korke an</w>
huole llisesti</w>
ex ports</w>
collec tive</w>
D e</w>
tävä ksi</w>
syn tyy</w>
produc ing</w>
periaatte et</w>
minister ineuvos
koulu tukseen</w>
ihmis en</w>
Y or
W omen</w>
Soci alist</w>
viim eksi</w>
ratkais eva</w>
pit o
maan i</w>
keske y
kansainväl isiä</w>
kaks in
anne tun</w>
ab use</w>
Regi onal</w>
1 ,
vaiku tusta</w>
usko akseni</w>
tod ennut</w>
telev isi
mieh en</w>
lu omaan</w>
han k
demokraatt inen</w>
deli ber
c as
asianmuka ista</w>
Soci alists</w>
G ar
uus sa</w>
ut tom
tapo ja</w>
p yys
no body</w>
mo d
kohd is
head ing</w>
fi g
ensimmä iseksi</w>
sano isin</w>
op tions</w>
mä lle</w>
myönnet tävä</w>
equip ment</w>
amen ding</w>
accoun ts</w>
D ef
varo va
kah teen</w>
järjes tet
for med</w>
c ol
aja tu
4 4</w>
taa taan</w>
suo tu
soci eties</w>
passeng ers</w>
o tamme</w>
mu illa</w>
ki ista
econom ies</w>
buil t</w>
