#version: 0.2
i s
t h
t e
i n
t a
i t
a n
e n</w>
e n
th e</w>
o n</w>
i n</w>
l l
t i
e s
a n</w>
o n
a r
e r
s i
a l
t ä
r o
t u
r e
t a</w>
a t</w>
o u
o r
t o</w>
a s
o m
o f</w>
o s
o l
e t
i s</w>
e l
t ä</w>
j a</w>
u s
k s
an d</w>
e m
i k
i m
in g</w>
m a
i d
e s</w>
r a
t o
l a
j o
u u
s a</w>
o p
i c
e d</w>
v a
i l
k a
ä n</w>
m en
e r</w>
h a
m is
th at</w>
ti on</w>
m e</w>
k u
k e
v o
v i
w h
e c
v ä
v e</w>
s a
p ro
t y
a l</w>
s u
o r</w>
et tä</w>
e t</w>
r es
p u
u ro
n o
n e
l i
m i
n i
a t
e ll
ä ä
k o
E uro
w e</w>
te n</w>
t i</w>
j ä
r i
h d
e en</w>
m u
l e
th is</w>
f or</w>
a c
a s</w>
c on
l y</w>
i t</w>
@ -
@- @</w>
p os
y s
p ar
t ta
t s</w>
p a
is i
k i
l e</w>
ll a</w>
k a</w>
ks i</w>
l u
e d
en t</w>
v al
p e
b e</w>
k ä
p or
it ä</w>
y h
v at</w>
t ö
ar e</w>
s ä</w>
si on</w>
is ta</w>
id en</w>
it i
m e
l d</w>
ll e</w>
m y
in en</w>
q u
ta r
c om
no t</w>
s e
k an
ti on
tä m
ll is
men t</w>
k in</w>
ou ld</w>
ha ve</w>
u t</w>
ic h</w>
wh ich</w>
a is
C om
a d
te d</w>
te l
v er
i h
p er
u r
u n
c e</w>
t r
c i
o t
te r
s e</w>
d i
d e
k si
a si
ou n
w it
f or
k om
wit h</w>
h u
ta an</w>
ll ä</w>
ta n
p ol
t ta</w>
v u
te n
a tion</w>
u l
h y
a g
v as
e x
jä s
ta a</w>
al u
n ä
e i</w>
s h
er e</w>
it y</w>
my ö
a b
a m
kom is
s o</w>
b y</w>
k os
Euro op
il l</w>
a an</w>
h o
Com mis
yh te
th e
to im
s o
w ill</w>
is es
a pos
& apos
it tä
t e</w>
is sa</w>
a ll
it te
Euro pe
h e
Europe an</w>
n n
g h
al l</w>
i r
p o
tion s</w>
u ks
p ää
ik e
as sa</w>
ha s</w>
M r</w>
hd o
it a</w>
f f
m ä
m in
y t
v a</w>
vo is
ou r</w>
uu d
l is
n y
por t</w>
i es</w>
Euroop an</w>
us t</w>
m me</w>
w or
th er</w>
i v
er s</w>
e v
0 0
l o
u d
Commis sion</w>
res id
i te
myö s</w>
n a
j en</w>
tu r
em me</w>
es ta</w>
ty ö
k es
vä t</w>
&apos ;</w>
c h
o ike
u s</w>
ka ik
a p
is tä</w>
ou t</w>
is tu
is en</w>
la men
m an
par lamen
is i</w>
v ar
ä än</w>
em b
s el
at e</w>
t ra
k ys
it y
s an
P resid
p ä
o d
ar vois
ta l
r j
w ould</w>
ol e</w>
i a</w>
in n
i lle</w>
u c
re c
o vat</w>
m an</w>
i o
b ut</w>
b e
jäs en
a r</w>
te r</w>
d is
p it
h alu
r is
pu h
ny t</w>
ti ve</w>
es sa</w>
ises ti</w>
arvois a</w>
j a
al so</w>
v el
s en</w>
g o
c h</w>
en t
parlamen t
mi el
in s
2 00
Presid ent</w>
tä ä</w>
te s</w>
val ti
ro m</w>
k e</w>
s uu
f rom</w>
yhte is
sh ould</w>
ne u
m ust</w>
tu s
komis sion</w>
on e</w>
s it
kos ke
b le</w>
re g
c oun
s sä</w>
p l
p al
y d
isi a</w>
m uu
id än</w>
li a
P ar
y o
u ni
p ec
ksi a</w>
kan s
ö n</w>
un d
th ere</w>
b een</w>
tal ou
g e</w>
yo u</w>
t ing</w>
it ta
es s</w>
ks en</w>
m ar
puh em
a y</w>
m or
jo ka</w>
s tä</w>
m o
a a</w>
jo t
us e</w>
all y</w>
U ni
v os
m on
a ik
u tta
k uu
an n
k us
on s</w>
täm ä</w>
o ll
puhem ies</w>
as ta</w>
h i
k y
per us
M emb
v ä</w>
l ik
valti o
c an</w>
s ta
S ta
Par lia
t ri
m er
ou r
ä ä</w>
ti l
Parlia ment</w>
jot ka</w>
qu ot
e hdo
jäs en</w>
k ä</w>
mor e</w>
uni on
es e</w>
tar k
ka an</w>
p an
p res
pu ol
jä rj
s y
u p</w>
quot ;</w>
& quot;</w>
ver y</w>
te t
i ta
komis si
e ksi</w>
d e</w>
järj es
tä än</w>
es sä</w>
h ta
kys y
ma an</w>
en n
gh t</w>
re port</w>
r ke
d o
d o</w>
mu tta</w>
es s
it s</w>
w as</w>
mi et
con c
in g
neu vos
th ese</w>
t om
f in
wh at</w>
si itä</w>
the y</w>
f u
C oun
no w</w>
isi in</w>
in c
o tta
on n
f i
ci l</w>
to d
s itä</w>
Coun cil</w>
Uni on</w>
i r</w>
tu n
a ti
p i
men ts</w>
kä y
k ing</w>
ih in</w>
or d
hy vä
ää n
ä n
g ra
ti c
k o</w>
in o
em ent</w>
an s
d s</w>
c o
t or
e i
tä rke
Memb er</w>
o ther</w>
t y</w>
lik e</w>
p re
ten kin</w>
vo im
ell a</w>
a j
i f</w>
pro pos
l ä
g i
s ec
ta pa
kes kus
j el
s is
me idän</w>
r an
on g
vä l
b ec
ma a
k i</w>
a m</w>
u la
te en</w>
os sa</w>
m ää
h än</w>
k er
ac c
ta mis
Sta tes</w>
s op
ma hdo
ab le</w>
täm än</w>
en c
y r
hu om
iti ik
s om
th er
t h</w>
m y</w>
for e</w>
as ti</w>
im por
ma t
ku in</w>
ou s</w>
ku n</w>
f ac
a tions</w>
v an</w>
te lu
ta i</w>
tur e</w>
pää tö
kysy my
ic al</w>
the ir</w>
su p
u n</w>
ku i
t u</w>
e g
en ce</w>
wor k</w>
ke h
d uc
pol ic
jäsen valtio
impor tan
h an
n e</w>
ha ll
ci al</w>
ne et</w>
it ty
pol itiik
p e</w>
a u
d em
y ty
g h</w>
uud en</w>
v e
v es</w>
tion al</w>
va ik
y e
qu es
te h
ti in</w>
is ten</w>
em m
i lla</w>
vu o
t on</w>
is su
parlament in</w>
ka u
y m
p la
ku n
komissi o</w>
i d</w>
d ing</w>
mu n
kä yt
tä n
i en</w>
ab out</w>
al is
a use</w>
re s</w>
j ec
to is
f ir
o b
o w
pro v
el ä
hyvä ks
as t</w>
sop im
tr y</w>
h en
in a</w>
pu he
s t</w>
op le</w>
as e</w>
u ra
u m
us ta</w>
w i
po in
al o
mää r
ar d</w>
vas ta
al a
j ä</w>
k en
k em
ku nn
com m
ag re
k k
d ec
p en
s er
hy v
n o</w>
san o
Euro pe</w>
ti ed
1 9
se kä</w>
ff ic
is h</w>
mahdo llis
ti et
b et
e p
it u
is sä</w>
bec ause</w>
os e</w>
wh o</w>
iti es</w>
s tan
tä vä</w>
tu ks
ka is
v an
su r
in te
iti on</w>
al ais
si on
pe ople</w>
on ly</w>
vi r
sa a
r yh
o h
tri es</w>
g u
h e</w>
vo i</w>
puhe en
el i
ih mis
em p
ti me</w>
tu le
polic y</w>
ol isi</w>
le g
ni in</w>
w el
en er
ar e
tä ssä</w>
o d</w>
men d
va pa
o c
ne ed</w>
e h
: n</w>
y hd
union in</w>
k on
kans sa</w>
vi en</w>
sis ä
kui tenkin</w>
jo hta
ev er</w>
i on</w>
coun tries</w>
al ta</w>
toim i
al s</w>
m p
y ks
in ter
ittä in</w>
ol en</w>
wi th
jo s</w>
er ity
pro c
importan t</w>
k il
in v
uks en</w>
ik ä</w>
ar y</w>
m s</w>
in e
kan sa
k ka
ta ke</w>
lis ä
E U</w>
s tr
alu e
de b
ther e
itte e</w>
j on
kos ka</w>
it t
i c</w>
it s
il ity</w>
j o</w>
li itty
ku ten</w>
ag a
pro b
it ys
y s</w>
va in</w>
l em
ittä ä</w>
p on
ro u
l op
de vel
ko h
g re
ol emme</w>
conc er
us ta
k ti
k s</w>
in to</w>
t in
w ay</w>
miet inn
v er</w>
m inen</w>
wh en</w>
tr ans
ma ke</w>
va a</w>
p r
os ta</w>
di rec
ong el
uu tta</w>
hyv in</w>
i p
e w</w>
talou s
ell e</w>
p ri
su b
h ar
si ble</w>
vo id
pit ä
there fore</w>
k ou
ta va</w>
tta va</w>
u tu
ol u
ti a</w>
vi el
na tional</w>
viel ä</w>
ta vo
v en
os t</w>
k ol
va an</w>
on om
te taan</w>
ta l</w>
su ch</w>
t ly</w>
m a</w>
miel es
o g
mer k
am me</w>
a d</w>
s in
el y</w>
tel y
c r
e ve</w>
ti e
im e</w>
pec i
c le
&apos ;
200 0</w>
i llä</w>
en ts</w>
a ih
an t</w>
19 9
o lla</w>
talou d
t ro
as u
ne w</w>
som e</w>
op er
m ä</w>
pol i
pu b
pro s
Commis sion
enc y</w>
ho w
c l
se e</w>
how ever</w>
ec onom
i ll
tä vä
E U
an y</w>
kan n
on g</w>
vi a</w>
halu ais
th ing</w>
devel op
im me</w>
a llis
uu s</w>
ol i</w>
&apos; s</w>
neuvos ton</w>
e uro
mis ta</w>
t tu
se ura
u e</w>
li c</w>
asi o
Commission er</w>
ma in
en ti
res pon
tä tä</w>
k ö
200 1</w>
tark istu
k as
es ti</w>
jon ka</w>
ks een</w>
p id
hyväks y
fir st</w>
tä mis
ku l
h el
to te
os o
i an</w>
as e
si llä</w>
pol it
sup port</w>
lä h
j at
a al
val io
ka a</w>
is et</w>
si ksi</w>
en a</w>
p y
vas ti</w>
s tra
kaik ki</w>
in e</w>
w een</w>
bet ween</w>
jo tta</w>
p a</w>
com p
th ose</w>
m itä</w>
deb ate</w>
j ou
g ro
puheen johta
k en</w>
in d
ko hd
järjes tel
re as
kaik ki
be ing</w>
ar ly</w>
w a
si d
pro duc
g an
ff ec
ta in</w>
la us
ä t
s ti</w>
j ust</w>
ma de</w>
par tic
ko ll
er ittäin</w>
r i</w>
es tä</w>
ei vät</w>
a ted</w>
v is
ar vi
tä yty
gh ts</w>
pub lic</w>
li ik
b u
g e
u ation</w>
an a</w>
th an</w>
te hd
haluais in</w>
vu od
issu e</w>
h er
mu ka
im er
Com m
p le</w>
man y</w>
f a
poin t</w>
an s</w>
mar kk
ks et</w>
ed ell
w ere</w>
b eli
hu ol
ra t
k or
d es
poli itt
isi ä</w>
c an
in for
h al
re ad
us sa</w>
it taa</w>
ke a</w>
te ly</w>
si ih
in ä</w>
ma a</w>
re d</w>
siih en</w>
ver n
tar ko
s ell
b ility</w>
la aj
propos al</w>
tar v
ar s</w>
ques tion</w>
concer n
sur e</w>
Comm ittee</w>
tur va
su o
i g
an te
ym pä
n te
c es</w>
us e
suu n
mun ity</w>
f ic
k im
th in
re la
r ik
r s</w>
mis en</w>
T ur
k ra
m il
h ol
ord er</w>
e pä
u ksia</w>
oh jel
tu t
t w
m ost</w>
t ö</w>
me asu
miet in
con sid
com e</w>
fac t</w>
m än</w>
f er
c er
M rs</w>
utta a</w>
polit ical</w>
tä stä</w>
ys te
isi on</w>
ap pro
pu hu
sa y</w>
per i
huom io
e f
gan is
y le
te ll
sit uation</w>
the m</w>
re kti
jo ita</w>
pal j
j ul
vas tu
wel l</w>
ympä ris
pit ää</w>
ni iden</w>
x t</w>
k al
measu res</w>
j ossa</w>
c our
tän i</w>
kans alais
ll y</w>
it e</w>
ev en</w>
di rekti
ol e
oike ud
g et</w>
beli eve</w>
tu ra
ny ky
wh ere</w>
pro te
o llis
jä l
itte li
h ere</w>
a lla</w>
c us
und er
so si
c re
tar y</w>
va ll
vir on
ra u
r u
ta b
ho w</w>
kä än</w>
s yste
aih e
ur e</w>
keskus tel
tod ell
I n
ympäris tö
tu ksen</w>
tiet o
s en
t itu
tta a</w>
halu an</w>
par t</w>
jo h
ing s</w>
f o
o ver</w>
ye ar</w>
is e</w>
do es</w>
y ing</w>
a mend
ää d
mieles täni</w>
d ed</w>
ään es
ais ten</w>
es itteli
ff er
ch an
va h
yhteis työ
el in
ki rj
i vat</w>
en si
b ud
m mä
v il
b er</w>
tä llä</w>
s peci
mietinn ö
h op
ed is
u us
toim in
thin k</w>
ta n</w>
ri ght</w>
ke en</w>
ti c</w>
coun try</w>
te ttava</w>
kä si
stra te
en ta
ku lu
void aan</w>
pitä isi</w>
palj on</w>
men tal</w>
m it
en i</w>
th en</w>
nn ö
ra p
ins t</w>
ic e</w>
ell ä</w>
es t</w>
ex am
tä hän</w>
kä s
aga inst</w>
tavo itte
min is
ad op
ro s
vä lis
ar ds</w>
vuod en</w>
pos sible</w>
mi en</w>
kunn an</w>
ot h</w>
es imer
c ur
tä ys
v ing</w>
tw o</w>
ä mme</w>
l ar
koll eg
emm in</w>
o w</w>
jo ta</w>
te k
at ta
j ö
ke t</w>
hall it
si is</w>
et y</w>
ra c
ra ho
n ec
t re
n im
p s</w>
lisä ksi</w>
ula tion</w>
th an
it o
g iv
ac h</w>
or ganis
with in</w>
ta in
is in</w>
im pl
f e
keskus telu
inc lu
dis cus
to a</w>
econom ic</w>
an ta
ta ken</w>
fu ture</w>
p uu
vi ew</w>
mu kaan</w>
en viron
ha d</w>
y ksi
si a</w>
r ic
is la
f re
wh y</w>
read y</w>
l ast</w>
inte res
et te
h än
so cial</w>
enn en</w>
täyty y</w>
tu s</w>
ye ars</w>
ent ly</w>
e ikä</w>
vi ä</w>
päätö s
sa me</w>
j uu
tu a</w>
to r</w>
tura l</w>
parlament ti</w>
i in</w>
ta mme</w>
jäsenvaltio iden</w>
i la
cour se</w>
miel tä</w>
ma tion</w>
s pe
ad d
ri ghts</w>
n ä</w>
tö ön</w>
olu tion</w>
tus ta</w>
su m
in iti
rat kais
otta a</w>
us ten</w>
cle ar</w>
tapa h
ma lla</w>
ksi in</w>
ex c
to iv
mu ch</w>
to o</w>
ys tä</w>
määr ä
di es</w>
d ra
taloud ell
e ffec
pro gra
f und
w ant</w>
oike u
h ä
ol em
th rou
cur r
euro op
kuu lu
oike us
yhteis ön</w>
mi ll
leg isla
b oth</w>
c ould</w>
vuo ksi</w>
res s</w>
k et
is een</w>
fin an
can not</w>
con tin
va ati
euroop pal
erity isesti</w>
Com munity</w>
ow n</w>
at ing</w>
id e</w>
al ready</w>
en s</w>
en g
develop ment</w>
acc ep
ou gh</w>
ensi mmä
puol esta</w>
a f
suu r
hy ö
til l</w>
s ä
e ar
c c
men et
tärke ää</w>
la ins
mar ket</w>
s till</w>
prote c
va is
p el
it se</w>
v än</w>
r as
g y</w>
infor mation</w>
h et
c ase</w>
ti en</w>
ter s</w>
sel vä
Y hd
k now</w>
b asi
mi a</w>
asi a</w>
sa id</w>
sec on
mis tä</w>
iti z
e et</w>
EU :n</w>
jec t</w>
tod ay</w>
tehd ä</w>
op e
maa il
ksi en</w>
tä ll
ar m
an taa</w>
tu u</w>
oper ation</w>
nä in</w>
hu man</w>
emp lo
tö ä</w>
ki r
emm än</w>
pa ik
en d
ais en</w>
ol og
ma y</w>
ti la
j ien</w>
y l
pec t</w>
i ous</w>
ni itä</w>
lains ääd
jo iden</w>
y n</w>
va ih
a va
si inä</w>
a kin</w>
tu om
pla ce</w>
a at
turva llis
hen kil
ter ve
por te
ac hi
s in</w>
onn a</w>
go od</w>
u r</w>
comm on</w>
vu onna</w>
und er</w>
ul t</w>
h is</w>
täm ä
sa f
o in</w>
j an</w>
inv es
tark as
go vern
S w
hop e</w>
hal f</w>
an ce</w>
n um
di ffer
as taan</w>
agre ement</w>
rap porte
s ää
d u
b er
nä mä</w>
neu vo
iv an</w>
h te
ta sa
juu ri</w>
proc ess</w>
an im
uks essa</w>
w e
tut kim
ip pu
s ed</w>
or ity</w>
min u
direc tive</w>
are a</w>
w n</w>
in f
arvi o
s et</w>
c itiz
a k
sit ten</w>
vaik ka</w>
a ja
vi ime</w>
v ed</w>
p yr
ko kou
ite t
d a
os allis
s ol
te ch
f ur
re qu
som e
j at</w>
asi assa</w>
sosi aal
al ity</w>
mat ter</w>
kys e</w>
pos ition</w>
pää t
con f
l an
A r
t is
n ou
a i
for m</w>
ula r</w>
ti ves</w>
lop u
py y
u k
en d</w>
ty ä</w>
oll ut</w>
au th
markk ino
m m
ac tion</w>
fu l</w>
tö n</w>
asi a
tech n
th re
ind us
c k</w>
yhte yd
ffic i
al th</w>
R u
jäl keen</w>
et ta</w>
prob lem
pa in
kä sit
k l
p ys
vä li
so ci
huomio on</w>
inv ol
täys in</w>
c ar
s i</w>
henkil ö
tä ä
num ber</w>
il u
ed usta
is sa
ve l</w>
u m</w>
o kra
mi ten</w>
than k</w>
be fore</w>
neuvos to</w>
y ment</w>
it uks
tule vais
s ään
l in
kansa in
si ir
ko ko</w>
sa ad
a ino
te lla</w>
exam ple</w>
c u
mä r
ki el
si g
0 0</w>
va ka
m ikä</w>
syste m</w>
s te
ra jo
le m</w>
pr in
a ivan</w>
prob lem</w>
f is
ym mär
kal as
g ener
to jen</w>
pu t</w>
k in
i ä</w>
laus el
P ro
täm ään</w>
te ho
problem s</w>
y our</w>
ric ul
te tään</w>
päätös lausel
tu nn
on al</w>
o t</w>
ksi ä</w>
w er</w>
d ly</w>
consid er
te ri
in no
tun ut</w>
prin ci
vil jel
gre at</w>
tri bu
giv en</w>
c a
politiik an</w>
k ke
k ed</w>
em ents</w>
us ed</w>
rapporte ur</w>
por ts</w>
vas taan</w>
n u
are as</w>
yhteyd essä</w>
esimer ki
tu o
te kem
e qu
voim me</w>
ter n
me illä</w>
co operation</w>
ti es</w>
ins titu
es it
seura a
a ks
mis een</w>
hän en</w>
at t
yt tää</w>
es een</w>
nec ess
sin ce</w>
si ons</w>
j e
jul k
te ollis
m assa</w>
re pres
l ong</w>
kysymy s</w>
g ent
f oll
val v
perus te
kau p
saa vu
asi an
wh e
ises ta</w>
tab lis
i vä
esimerki ksi</w>
es tablis
wor ld</w>
issu es</w>
dem okra
citiz ens</w>
a ista</w>
vo te</w>
lo o
a vu
partic ular</w>
en sure</w>
m ed
i vo
direkti iv
sopim uksen</w>
as ed</w>
te le
ma ks
n ope
v ic
tä vät</w>
or ities</w>
vas ta</w>
impl em
f ar</w>
a inen</w>
t in</w>
so v
h ed</w>
gent lem
f ra
f arm
throu gh</w>
tä y
nä iden</w>
toim ia</w>
la ati
er i</w>
C on
ll ista</w>
gentlem en</w>
a tive</w>
til ann
ou ra
fi c</w>
ma an
k ri
amend ments</w>
var o
ra ken
kou lu
b r
Sw ed
tu lo
s on</w>
tan n
kil pa
h ing</w>
ou se</w>
va ike
la dies</w>
mä än</w>
gi ve</w>
M ar
väl t
neuvo t
en emmän</w>
us ti
ul es</w>
myö nte
min un</w>
fi ed</w>
dec ision</w>
om en</w>
nä kö
sel f</w>
pu r
le vel</w>
reg ard</w>
pa a</w>
k on</w>
whe ther</w>
m at</w>
im in
comp et
me ans</w>
dem oc
a in
ne ed
iti ve</w>
yd en</w>
ven tion</w>
sa a</w>
por tun
in ten
ll oin</w>
ke y</w>
finan cial</w>
ou s
ette i</w>
a voim
a ir
wa ys</w>
be half</w>
val mis
koske van</w>
hy vät</w>
pää s
et t
is ed</w>
it or
ob jec
c ed</w>
s c
ul arly</w>
requ i
l as
iti ons</w>
isi ons</w>
ais et</w>
l ed</w>
b o
o f
ki a</w>
ehdo tuks
op portun
mit ään</w>
aga in</w>
puheenjohta ja
y ksi</w>
vah vis
tet tu</w>
res olution</w>
yt tä</w>
sano a</w>
mis eksi</w>
kansa llis
it se
str uc
as em
sisä l
g en
uud essa</w>
u p
ä l
ta ble</w>
ou t
a isia</w>
om e</w>
te iden</w>
si bility</w>
emplo yment</w>
a id</w>
ten t</w>
pros ent
op in
en ä</w>
e l</w>
tamis ta</w>
with out</w>
tu l
necess ary</w>
he alth</w>
is eksi</w>
partic ularly</w>
ala lla</w>
H ouse</w>
vi ran
uks et</w>
til ante
l ess</w>
koske e</w>
tan ut</w>
G ro
ha p
Ru ot
trans port</w>
oun d</w>
viran om
sh all</w>
kir jo
h an</w>
fu lly</w>
B S
o m</w>
ki inn
inter national</w>
e ver
e en
isi lle</w>
sa an</w>
sec tor</w>
me work</w>
leg al</w>
i l</w>
neuvot telu
menet tely
pres ent</w>
a a
af ter</w>
valio kunnan</w>
täm me</w>
go ing</w>
nä än</w>
cl os
c all
th ir
g es</w>
d y
u t
C h
ic ation</w>
ag ricul
legisla tion</w>
keh itys
is ty
basi s</w>
M ad
proc ed
in de
propos als</w>
go ti
adop ted</w>
l and</w>
d one</w>
suun ni
progra mme</w>
komissi o
differ ent</w>
t ol
sub ject</w>
is ta
et ta
po h
avu lla</w>
s or
kaikki en</w>
con tro
b ac
ne goti
elä in
d ay</w>
p ite
ne xt</w>
199 9</w>
to ja</w>
si en</w>
th ough</w>
tar pe
si mp
kulu tta
ac t</w>
jäsen et</w>
ag e</w>
sel ke
k no
uud esta</w>
llis y
hy vä</w>
e tu
a lle</w>
il e</w>
p as
il i
conc lu
ever y
väli llä</w>
toim en
l ic
en ted</w>
tä nään</w>
tule e</w>
reg i
lopu ksi</w>
he idän</w>
asi asta</w>
Gro up</w>
Euroop pa</w>
isi vat</w>
o ver
is y
di ffic
cer tain</w>
alo itte
aik ana</w>
ma iden</w>
keh ity
fur ther</w>
esitteli jä</w>
Uni ted</w>
mietinn ön</w>
su or
mis esta</w>
w ard</w>
at or
onn istu
mi t</w>
h as
yr ity
tu ksia</w>
sh i
kann alta</w>
si ve</w>
r ules</w>
ap p
w s</w>
w ish</w>
te xt</w>
hi gh
ter ms</w>
ear ch</w>
Memb ers</w>
su hte
Mad am</w>
vä h
vastu u
u h
pal vel
as k</w>
var mis
asio iden</w>
tö jen</w>
indus try</w>
il mo
ryh mä
k ko
thre e</w>
ex pres
peri aat
opin ion</w>
f ew</w>
ta u
ch ar
A 5</w>
vi in</w>
val ta
re f
ma king</w>
in ti
ud en</w>
m emb
a v
qu ite</w>
pi en
con tribu
com mun
al i
ac coun
tärke ä</w>
mietin tö</w>
ku in
it us
el ec
G o
tapa uksessa</w>
ta so
kysymy ks
koske vat</w>
gro up</w>
saf ety</w>
r an</w>
puheenjohta ja</w>
n ut</w>
kuin ka</w>
ka t
sy y
tel em
sel ves</w>
pro g
it see</w>
concern ed</w>
tu ot
il ma
w omen</w>
sää nnö
su cc
fra mework</w>
con sum
me ille</w>
p rac
com pan
s tar
for ward</w>
suo jel
jo on
uu teen</w>
saad a</w>
ous ly</w>
ff air
ffair s</w>
c os
Sta te</w>
vu os
vo ita
u al</w>
ra ther</w>
comm it
c oll
agre e</w>
vuo ro
vo ivat</w>
mil joon
kes ke
jo lla</w>
c ris
bud get</w>
aino astaan</w>
tapah tu
täm inen</w>
ta va
do cu
gre a
a ina</w>
w ards</w>
g o</w>
e hd
sa maa</w>
ises sä</w>
es ty
con d
os a</w>
jo illa</w>
suunni tel
lainsääd än
gra tion</w>
ta s
kun ni
f t</w>
sa an
pro mis
osallis tu
ord in
m ik
ki jö
al an</w>
muka isesti</w>
maa talous
BS E</w>
täy tän
ro le</w>
muu ta
inc reas
tö ö
l et</w>
ko hta
fa v
a vat</w>
R e
stan d
llis esti</w>
on ce</w>
tor s</w>
tet tiin</w>
secon d</w>
jo issa</w>
chan ge</w>
asi aa</w>
te ille</w>
m asta</w>
yks ity
yh ä</w>
union i</w>
tek n
su l
pä ivä
yle is
uu n</w>
ur ity</w>
man ag
va ar
to inen</w>
protec tion</w>
B r
toiv on</w>
ite tta
tie tenkin</w>
mietinnö ssä</w>
kansain välis
ik ke
res pect</w>
environ mental</w>
an i</w>
im prov
f ul
b en
aik aan</w>
reg ula
mu kais
mi ä</w>
im man</w>
cer tain
an other</w>
tuom io
s to
merk ittä
li ber
e very</w>
valv on
m od
ises tä</w>
tor j
re ques
d el
ar ti
vel vo
ty y</w>
si l
käy tä
te itä</w>
wor king</w>
wh ole</w>
si ten</w>
lu on
di v
prog ress</w>
la w</w>
ar vo
tr uc
n ing</w>
ises sa</w>
contin ue</w>
shi p</w>
foll ow
en s
viljel i
vi im
toimen pite
acc ess</w>
äänes ty
p le
ol ev
nä itä</w>
in is
c k
l im
jäsenvaltio t</w>
bet ter</w>
kul je
its em
ex is
de al</w>
tää llä</w>
hu man
el i</w>
B 5</w>
ty nyt</w>
su hta
mu od
at taa</w>
y et</w>
il man</w>
hyväksy ä</w>
farm ers</w>
as es</w>
va kuu
our ces</w>
het ke
kaikki a</w>
se e
mon e
ka hd
pro f
ko kon
ef for
a w
enc es</w>
aik o
ten kaan</w>
some thing</w>
ryh män</w>
g ed</w>
at ten
techn olog
sa malla</w>
ac e</w>
te tta
p resid
mill ion</w>
di d</w>
kui tenkaan</w>
et te</w>
T re
prov id
il ta</w>
c or
aik a
p er</w>
maa han
initi ative</w>
hetke llä</w>
an g
työ llisy
speci fic</w>
os a
m in</w>
lu o
l ine</w>
kaik kea</w>
princi ple</w>
pre par
kolleg at</w>
it te</w>
cle arly</w>
vä ä
valti o</w>
tu kea</w>
oikeud ell
käyt tää</w>
ke e</w>
comm ittee</w>
00 0</w>
työ nte
ko ros
ex tre
respon sibility</w>
ma in</w>
le ast</w>
kol man
g ran
b i
uud istu
on ko</w>
muu t
gu ar
curr ent</w>
as s
0 1
valio kun
liik en
vel y</w>
reg ulation</w>
per s
p rec
ac tu
uud ell
k ar
halu amme</w>
e ur
n ed</w>
cris is</w>
N o</w>
hel p</w>
u a</w>
tr u
to ivo
id e
edell een</w>
b ased</w>
tilann e</w>
ka ksi</w>
b us
acc ord
A mer
su os
me et
im mi
i in
fin ally</w>
es ittää</w>
Yhd ys
vaik u
to ge
toge ther</w>
it self</w>
a k</w>
Swed ish</w>
täm ät
k el
en sa</w>
appro ach</w>
nn ön</w>
ni istä</w>
l ö
kus tann
j usti
a ine
vic es</w>
opportun ity</w>
käyt töön</w>
järjestel mä
ta king</w>
si lloin</w>
kan na
gener al</w>
voim a
ti m
sisä ll
achi ev
yh y
do wn</w>
ker tom
in tro
alis ation</w>
yks in
thir d</w>
asi an</w>
si de</w>
re ally</w>
Yhd isty
työ s
o re
ker ta
h in
A f
vas sa</w>
peci ally</w>
importan ce</w>
es pecially</w>
N i
In tern
val tion</w>
ur ing</w>
tar jo
grea ter</w>
environ ment</w>
ener gi
en ää</w>
un d</w>
tuomio istu
to wards</w>
t on
sel v
im p
il y</w>
conf lic
z z
stan d</w>
ser vices</w>
k es</w>
appro pri
aj an</w>
sh or
s ta</w>
om me</w>
mää ri
men e
r en
kys e
ku ussa</w>
ac ti
S ch
sa ll
loo k</w>
keskustel u</w>
institu tions</w>
enta tion</w>
guar ante
direkti i
tan ce</w>
pros ess
jo hd
fin d</w>
väl ine
v es
tä nyt</w>
res ources</w>
la te</w>
k op
el im
ap pe
Tur k
toimin ta
res earch</w>
ll inen</w>
auth orities</w>
A ffairs</w>
pec ts</w>
k ers</w>
j än</w>
fis her
fer ence</w>
3 0</w>
te ell
ne en</w>
l ann
ki ittää</w>
at y</w>
tö n
tod ella</w>
olem assa</w>
u es</w>
tote utta
ol tava</w>
c ul
so vel
lo b
li f
fic ation</w>
es ittä
res ult</w>
markk in
m as
laaj en
P or
voita isiin</w>
kes k
fi el
en sä</w>
de fin
c all</w>
at ta</w>
n er
u g
s ing</w>
ker ran</w>
invol ved</w>
an sa
o s</w>
taloud en</w>
o tetaan</w>
n or
jo pa</w>
im mä
hi gh</w>
Euroop assa</w>
suun ta
propos ed</w>
mahdollis imman</w>
d on
d er</w>
tra de</w>
teh tävä</w>
ol o
yh tä</w>
mone y</w>
inc re
alue ella</w>
G re
A l
m ot
fav our</w>
et s</w>
interes ts</w>
cond itions</w>
produc tion</w>
myö n
certain ly</w>
al ways</w>
y oun
tor y</w>
mu iden</w>
inde ed</w>
inclu ding</w>
parlamen ti
p ris
k an</w>
jä t
hu ippu
har jo
d uring</w>
wel come</w>
hyö dy
m en</w>
kka asti</w>
h er</w>
end a</w>
econom y</w>
ri ippu
fo od</w>
Por tu
li ian</w>
b al
Go vern
tämis tä</w>
nou d
lar g
kansalais ten</w>
du ce</w>
cr it
ava ila
val itetta
vä hen
tä yd
re ports</w>
ha ving</w>
sit ou
ou th</w>
muu to
fre ed
yr itys
viim e
th s</w>
talous arvi
se qu
prov ide</w>
nu or
kilpa ilu
ben ef
Tre aty</w>
ro ad</w>
prosent tia</w>
poin ts</w>
need s</w>
kan san
et tava</w>
trans par
sy n
käsi tel
tr ic
si j
jat ku
inf ras
achi eve</w>
M inis
soci ety</w>
la ad
al though</w>
M ac
var ten</w>
pen d
kunn assa</w>
kalas tus
fund a
I r
vo in</w>
politiik kaa</w>
cr imin
wh ile</w>
tö jä</w>
k re
diffic ult</w>
dec isions</w>
vois i</w>
todell akin</w>
te s
suu re
concer n</w>
accoun t</w>
2 0</w>
inn an</w>
aik ais
1 5</w>
youn g</w>
wor ds</w>
var ious</w>
su g
ig n</w>
ser ious</w>
py yd
n et
käs itte
itta va</w>
es itys
agricul tural</w>
yhd essä</w>
vaati mu
tun a</w>
tu ll
tied on
s tu
po is
med i
Tur key</w>
vu ot
qu ality</w>
ed uc
consid er</w>
Govern ment</w>
f y</w>
alu een</w>
parlament issa</w>
extre m
c ap
ta tion</w>
pro ve</w>
ener gy</w>
be g
a ffec
s olu
re com
nim ittäin</w>
j osta</w>
dis e
bac k</w>
anim als</w>
sec urity</w>
minis ter
k enn
ik an</w>
bec ome</w>
an sa</w>
Presid ency</w>
ks essa</w>
it us</w>
human ita
extrem ely</w>
a kti
var m
strate gi
s m
ra tic</w>
produc ts</w>
od a</w>
h on
es sion</w>
up on</w>
te ita</w>
sol id
pe ace</w>
palvel u
mi ksi</w>
enti al</w>
comp le
availa ble</w>
ri ittä
ap pl
tä v
reas on</w>
puol u
ite taan</w>
c ri
as sis
respon sible</w>
j et
interes t</w>
co ordin
vall an</w>
tet tävä</w>
par ha
lar ge</w>
ffic e</w>
div id
aw are</w>
strate gy</w>
og n
jo ista</w>
govern ment</w>
compan ies</w>
accep t</w>
tion ed</w>
teh tävä
tava lla</w>
sm all</w>
rec ogn
par t
koske va</w>
ab ility</w>
A mend
sta te</w>
kuu ta</w>
its i</w>
ful l</w>
yksity is
suu ri</w>
päätö ks
os ta
gro w
to on</w>
ques tions</w>
h and</w>
g ing</w>
arti kl
työnte kijö
sä il
s ing
par lia
kans ala
an ne
yhd en
vi ik
vasta a
oikeu ksien</w>
ma jo
incre ase</w>
ste p</w>
re al</w>
fre e</w>
ex ten
contro l</w>
vä ä</w>
kor va
k ki
all ow</w>
B ar
1 2</w>
va ad
op en</w>
kul ttu
tarko ituks
simp ly</w>
re ac
rac y</w>
on e
om aan</w>
in ing</w>
töö n
pit kä
perus tamis
p et
muu tta
direktiiv in</w>
1 0</w>
& #
&# 9
re le
kon kre
gu e</w>
em mis
uks ista</w>
sta te
selvä sti</w>
ko ja</w>
amend ment</w>
I s
vi taan</w>
mat ters</w>
majo r</w>
gra tu
ell isesti</w>
con s
com es</w>
b an</w>
I ra
EU R</w>
v ista</w>
rau ta
min d</w>
l ää
tu jen</w>
ti ci
s s
b an
pos itive</w>
p op
os in</w>
cr u
con gratu
car ri
asio ita</w>
yhteis ö
yhte isen</w>
ter m</w>
reg ar
proced ure</w>
mahdo llista</w>
jä ä</w>
b io
v ement</w>
toimi in</w>
ou b
id a</w>
h is
a tes</w>
yksin kerta
use in</w>
te llä</w>
op is
manag ement</w>
et tom
concern s</w>
appropri ate</w>
a ta</w>
yhte en
varm asti</w>
men tioned</w>
il o
ehdo tuksen</w>
eg al</w>
concern ing</w>
M a
viljeli jö
tois eksi</w>
per ä
pa ino
f am
I ta
we e
tar vitaan</w>
joh on</w>
ita kin</w>
follow ing</w>
edis ty
d er
acti v
negoti ations</w>
la b
il tä</w>
r e</w>
lainsääd ä
kom ite
il ities</w>
an al
yh ten
val tu
mi in</w>
ma tta</w>
li ght</w>
freed om</w>
0 2
yl i</w>
tö mä
tek ni
sin nä
raho itus
mahdollis uu
laaj u
er ila
en sinnä
ehd ot
call ed</w>
B el
B al
yhteistyö tä</w>
th em
ris ti
re form</w>
pid et
lo c
R i
R ans
E s
ros s</w>
ra kenn
progra mm
la a
fiel d</w>
es itet
cos ts</w>
void a</w>
si lle</w>
res ul
S to
vas tus
te ks
taso lla</w>
mar ket
jä ll
hyväks yt
c ases</w>
W T
uks een</w>
of ten</w>
o th
kokon ais
keh ittä
C O
vä es
liitty y</w>
id ence</w>
e ach</w>
bus in
ar ity</w>
C our
union issa</w>
tic le</w>
t ment</w>
keskustelu n</w>
a an
Cour t</w>
po wer</w>
per ha
perha ps</w>
min ä</w>
intro duc
ihmis ten</w>
compet ition</w>
com b
ran g
ki ito
for ce</w>
te ki
sa mo
ong er</w>
kor ke
kau tta</w>
es ite
ent ing</w>
conflic t</w>
K oso
5 0</w>
vo ted</w>
van a</w>
mi ght</w>
ensinnä kin</w>
at tom
secon dly</w>
ne iden</w>
ä t</w>
us kon</w>
s usta
olev an</w>
n al</w>
mis sä</w>
me th
le ad
la it
g lob
atten tion</w>
P V
ur g
pl es</w>
ou ght</w>
is ista</w>
vapa u
us ing</w>
kun ing
ku mp
reg ion</w>
r in
ongel ma</w>
n i</w>
min usta</w>
meet ing</w>
i taan</w>
hel p
com pl
Ar vois
te tu
mu istu
minis tra
ks ista</w>
ki it
funda mental</w>
ad van
vi ol
ul kop
kno w
hall in
Sto ck
töön pan
tote u
tim es</w>
re duc
maail man
ko jen</w>
emp i</w>
uu sia</w>
un for
täytän töönpan
tois a
ra ti
p ik
ke ho
jec ts</w>
hol m</w>
T uk
Stock holm</w>
Arvois a</w>
puu ttu
kysy m
e ag
b re
an y
U kra
Tuk hol
vi l</w>
ti ma
pu n
m om
l es</w>
käsi tell
kuulu u</w>
ik en
en tra
eh kä</w>
educ ation</w>
b est</w>
y t</w>
valtio iden</w>
työs ken
erity is
con sequ
actu ally</w>
täm än
mon et</w>
in divid
implem entation</w>
ffici ent</w>
de al
wor kers</w>
pos e</w>
ongel mia</w>
mon ths</w>
kuning as
h im
fe el</w>
ensimmä inen</w>
en kin</w>
M ed
uudell een</w>
pre v
oike us</w>
od s</w>
ma ll
li es</w>
ke ino
j ia</w>
exc ell
esitys lis
Ni zz
us ko
tus ten</w>
star t</w>
r on
oso itta
ess ential</w>
tunn us
repres enta
r y</w>
oth ers</w>
liik ku
ir e</w>
b on
työ tä</w>
toisa alta</w>
liitty vät</w>
j ud
is m</w>
demokra ti
programm es</w>
nope asti</w>
ni fic
mat tom
im atta</w>
han kke
ei lla</w>
commun ication</w>
a utta
N ice</w>
vi ous</w>
tulevais uudessa</w>
technolog y</w>
susta in
san i</w>
ran ce</w>
pos ed</w>
os alta</w>
markkino iden</w>
m ed</w>
ik o
br ing</w>
aihe utta
Es pan
ä sti</w>
vuot ta</w>
u ri
te en
ris k</w>
pl an</w>
os la
organis ations</w>
jou tu
dise ase</w>
valitetta vasti</w>
le d
j ää
es saan</w>
ää r
ra di
f lik
de ta
par tici
par an
määr ä</w>
huippu kokou
democ racy</w>
uud et</w>
tu ja</w>
Tur kin</w>
transpar ency</w>
re ly</w>
po ikke
p ö
n on</w>
bu il
akti iv
accep table</w>
Ir lann
Ar ticle</w>
under stand</w>
tä vän</w>
ter min
te et</w>
sing le</w>
käy tö
kump pan
enc oura
a uttaa</w>
Ruot sin</w>
vu or
parlamenti lle</w>
in t</w>
el ess</w>
A g
ug osla
to si
th ings</w>
tet ty</w>
mietin töä</w>
know led
is imme</w>
im prove</w>
curr ently</w>
ad ministra
B ri
se ver
me itä</w>
järjes ty
elä im
b s</w>
ag o</w>
Y K
yritys ten</w>
vaih to
ty yty
sy ystä</w>
l yhy
elin tarv
coll eag
as pects</w>
Amer ic
selvä ä</w>
pä iv
pro mot
ohjel man</w>
mu o
ja a</w>
huol imatta</w>
do ing</w>
Portu g
ta kia</w>
strate g
sig nific
käy nn
kä r
ehdo tuksia</w>
S o
tuo tan
oike in</w>
kirj an</w>
järjestel män</w>
b on</w>
them selves</w>
nn e</w>
l onger</w>
kon flik
i re
g a
en ä
yksi miel
u ol
sup por
recom mend
perus tu
od o
kunni o
en ough</w>
effec tive</w>
e iv
tila is
tamis eksi</w>
saa ta
nä kem
komissio ta</w>
f oc
epä il
discus sion</w>
ch il
E n
techn ical</w>
rik ollis
requi re
pri ority</w>
objec tive</w>
l uu
koros taa</w>
ic ations</w>
d ate</w>
vä sti</w>
tamis esta</w>
ta ud
sub stan
regi ons</w>
re fer
kan a</w>
in kin</w>
g rou
enn e</w>
en ing</w>
pit e</w>
n el
ku t
konkre ett
k ö</w>
for ms</w>
erity isen</w>
demokra att
anim al</w>
puheenjohtaja valtio</w>
pri va
ob li
mo ve</w>
kohd alla</w>
vapa utta
tu na
s et
miljoon aa</w>
ma issa</w>
lif e</w>
i ksi</w>
d oub
valiokun ta</w>
tön tä</w>
tuna tely</w>
nä istä</w>
nn et
llis en</w>
ess es</w>
em an</w>
aik aa</w>
P al
un ti
pel käs
jäsenvaltio issa</w>
ity ks
ehdo tus</w>
ymmär r
vält tämä
va m
v in
tois in</w>
pelkäs tään</w>
kä yd
ko ro
kl o</w>
ins tru
ati ves</w>
alue ell
200 2</w>
yhten ä
unti l</w>
rec ent</w>
pu itte
pl an
o ff
o a</w>
grou ps</w>
excell ent</w>
e p</w>
ci vil</w>
a tely</w>
ti al</w>
th eless</w>
s t
es tin
es ille</w>
alo gue</w>
si jo
sano i</w>
s ten</w>
ll isia</w>
jo itakin</w>
iti onal</w>
in om
el ta</w>
d en</w>
b ur
a kseen</w>
tän ä</w>
tamis en</w>
syste ms</w>
s ci
ro w</w>
regar ding</w>
om an</w>
objec tives</w>
keh itty
immi gration</w>
b ia</w>
am mat
w r
tur n</w>
tuomioistu im
tu otta
polic ies</w>
oll en</w>
n aisten</w>
is enä</w>
fisher ies</w>
effor ts</w>
ag enda</w>
L is
te st</w>
te idän</w>
reques t</w>
mom ent</w>
ity s</w>
can d
Yhdys val
M E
yd in
ta as</w>
saavu tta
pys y
men n
is em
initi atives</w>
huomio ta</w>
eh kä
ys sä</w>
maail man</w>
koske via</w>
keskustelu a</w>
grow th</w>
ar i
vaih e
puh el
ma j
l y
ky llä</w>
ky ky
emb er</w>
crit ic
cre ate</w>
cr ime</w>
con nec
as et
no thing</w>
main it
it tel
y ed</w>
vi e
tuks et</w>
reas ons</w>
p p
p h
muu t</w>
koh taan</w>
its emme</w>
hyvä ksi</w>
hap pen
fis hing</w>
P P
w an
m men
hi eman</w>
democ ratic</w>
at te
Ri ghts</w>
Bal kan
B er
wor ks</w>
prac tic
mieles tämme</w>
me an</w>
k ala
it ään</w>
es iin</w>
e taan</w>
e go
asi aan</w>
am b
vaik utu
tied ämme</w>
teh nyt</w>
kas va
er inom
e e</w>
di alogue</w>
ans wer</w>
ä s
w ers</w>
suu nn
str eng
ser va
mu ita</w>
ma teri
harjo itta
fund s</w>
b our
käsit tel
jo ihin</w>
e tenkin</w>
com ing</w>
0 1</w>
v on</w>
uc le
par ties</w>
maj ority</w>
itta in</w>
i al</w>
ha a</w>
agre ements</w>
vaik uttaa</w>
tu kem
toimi elim
speci al</w>
s p
mil i
fir s
e an</w>
cons titu
var sin
tä isiin</w>
rec eiv
par emmin</w>
oura ble</w>
läh esty
lu otta
laajen tu
käsit tely
ki en</w>
inves to
huom atta
firs tly</w>
ar vos
O ffice</w>
vuoro puhel
va t
ucle ar</w>
ty jen</w>
on kin</w>
kaup pa
inter nal</w>
congratu late</w>
sh e</w>
p ly</w>
järjestel mä</w>
et o
er a
con text</w>
pop ulation</w>
oikeud en
of f</w>
ni ihin</w>
memb ers</w>
kolleg a</w>
agre ed</w>
ta is
sov ell
rela tions</w>
puheen vuor
poh j
pid ä</w>
on ta</w>
myö s
l tä</w>
itu ksia</w>
ine et</w>
N a
Lis bon</w>
än i</w>
val vo
v o</w>
tämis eksi</w>
ra h
consum ers</w>
an d
L issa
tutkim us
sopim us</w>
peruste ella</w>
n am
miel ip
market s</w>
l en
j os
en na
all ow
tarkistu ksia</w>
s ch
pla y</w>
nä ky
n sä</w>
le ad</w>
kansain väl
docu ments</w>
bud jet
unfor tunately</w>
ti ce</w>
s olution</w>
pa itsi</w>
onn is
kysymy ksen</w>
elin ten</w>
an si
tä neet</w>
syy tä</w>
prev ent</w>
pi en</w>
menn essä</w>
la ck</w>
h in</w>
d ic
co ver
al ku
U N</w>
PP E</w>
C 5</w>
velvo llis
v ice</w>
si b
res tric
politiik ka</w>
minu lle</w>
lis ää
l itt
litt le</w>
käytä nnö
jä t</w>
ab solu
tra c
h or
ge tary</w>
et tu</w>
ehdot tom
Lissa bon
L i
uks issa</w>
resul ts</w>
I re
turvallis uus
tra ining</w>
toim innan</w>
tavo in</w>
pi an</w>
pa ko
muu n</w>
luon no
ind ic
eur o</w>
es sa
ulkop uol
ti vely</w>
p ast</w>
knowled ge</w>
it ing</w>
fo re
f le
ex peri
e f</w>
d ue</w>
a pu
Ire land</w>
tävä ä</w>
regi onal</w>
re alis
ky mmen
jäll een</w>
il ed</w>
his tor
hallit us</w>
every thing</w>
effec t</w>
V äl
tyyty vä
ta vat</w>
so on</w>
si in</w>
se ik
ol d</w>
o ta</w>
myös kään</w>
mo tion</w>
is ation</w>
in ut</w>
ehdo tusta</w>
as tu
y teen</w>
v issa</w>
tab led</w>
state ment</w>
sever al</w>
r en</w>
mo vement</w>
individ ual</w>
hap p
e b
YK :n</w>
Pro d
D E</w>
puol us
os taa</w>
legisla tive</w>
käsitte le
ab ly</w>
A n
suhta utu
qu ic
puu t
or row</w>
mietinnö stä</w>
er ä
consum er</w>
N or
uks esta</w>
tom orrow</w>
si s</w>
sh are</w>
rela tion</w>
o tettava</w>
käsitell ään</w>
komissio lle</w>
kol me</w>
every one</w>
esityslis ta
des pite</w>
tuks een</w>
merk itsee</w>
laus un
kysymy ksiä</w>
koske vaa</w>
en larg
char ge</w>
ac tive</w>
vaik utta
tern al</w>
s een</w>
re fu
pa kol
oike uksia</w>
jä rke
j an
istu n
hu on
gen e
d eli
commit ment</w>
benef it</w>
artikl an</w>
F is
ra te</w>
minu lla</w>
käy tet
itte lu
g ets</w>
dec id
as ked</w>
app ly</w>
ais esti</w>
achiev ed</w>
H e
y li
tie teell
samo in</w>
ks eni</w>
kin d</w>
kilpa il
h es</w>
f lo
enlarg ement</w>
clos ed</w>
a ati
vi lle</w>
tärke itä</w>
tamis een</w>
san ot
oso ittaa</w>
lop pu
cru cial</w>
Väl imer
S ol
Med i
ta kin</w>
t ossa</w>
s es</w>
osa puol
or ig
jo ka
hallit uksen</w>
con sul
torj un
toim et</w>
ord ino
m er</w>
j u
y tä
työ paik
throu gh
si ellä</w>
pro jects</w>
liiken ne
la i
ko ordino
in ed</w>
chil d
c ha
a vo
Intern et</w>
Amend ment</w>
vaihto eh
tö my
tied o
through out</w>
spe ak</w>
pä in</w>
pres ented</w>
kuu l
koll ego
exc ep
ain akin</w>
ty jä</w>
shor t</w>
n uclear</w>
is ing</w>
imp act</w>
eläin ten</w>
chan ges</w>
Sch eng
Medi ter
tu res</w>
tarkas tus
tapah tuu</w>
sug g
si ja
ne ver</w>
n ess</w>
mili tary</w>
mene tel
is taa</w>
inclu de</w>
har k
Mediter ran
M on
Ita li
vas to
princi ples</w>
our selves</w>
men tary</w>
kut su
aik a</w>
Par ty</w>
In ter
vi is
tote uttaa</w>
t ou
ri an</w>
pys ty
pain opis
p onnis
koh ta</w>
it tanut</w>
id enti
ass ess
alu eilla</w>
Mediterran ean</w>
L A
yhd is
ter ro
re pe
n er</w>
muu ta</w>
markkin a
lu onn
kär si
j ille</w>
fin al</w>
ei ther</w>
eg ulation</w>
bal ance</w>
P ol
ul ko
se em
p ä</w>
käsi tellä</w>
ksi lle</w>
k ly</w>
in ation</w>
b order</w>
am p
all e
accord ing</w>
D ec
1 1</w>
va al
uus i</w>
u res</w>
tr ue</w>
tie tää</w>
teho k
pro per
os ten</w>
o k</w>
maahan muut
l ec
k ään
ill egal</w>
ihmis oikeus
de f
child ren</w>
aih e</w>
add ition</w>
tan a</w>
min kä</w>
kat so
fund ing</w>
coordin ation</w>
M o
yks ittä
ver o
v in</w>
te m
sustain able</w>
mahdollis uus</w>
m et
lu om
kysymy kseen</w>
kysym ystä</w>
hi m</w>
es taan</w>
ehdo kas
e tään</w>
G u
y ers</w>
tell aan</w>
sään tely
respon se</w>
ol i
no in</w>
ma kes</w>
lainsäädä nnön</w>
it ur
ins te
huom au
euro a</w>
develop ing</w>
ci r
an i
vält tämät
väl it
vä hän</w>
tic s</w>
teho kka
prov ed</w>
need ed</w>
ki ire
halu a</w>
dra w</w>
contin u
al ka
a maan</w>
4 0</w>
yhte inen</w>
te kee</w>
talousarvi on</w>
sub si
so tila
ryhmä ni</w>
refu ge
lainsäädän tö
ks esta</w>
inves tment</w>
inste ad</w>
gi an</w>
establis hed</w>
ens isi
contribu tion</w>
con tain
asia kirjo
yksi ä</w>
ta maan</w>
sa tis
s ään</w>
ri a</w>
per io
p lo
lu ku
ka uden</w>
huol es
foll ow</w>
f f</w>
es iin
energi a
anal y
ta c
radi o
prov isions</w>
pi ir
periaat te
ke don
järjes tö
infras truc
i j
edis tää</w>
advan ta
V enä
y ll
vam ma
v y
til an
ra ised</w>
pri orities</w>
perio d</w>
nä hd
ki in
as sa
adop t</w>
add res
PV C</w>
D i
tarv itta
ro ad
requi red</w>
lu m</w>
kuu n</w>
k ää
ik ä
ik ka
en te
docu ment</w>
O LA
valvon ta
tehd ään</w>
pyyd än</w>
pa an</w>
na ture</w>
ll ing</w>
em is
carri ed</w>
asi at</w>
as y
am oun
B u
äl i</w>
va i</w>
tal k</w>
ta minen</w>
sa at
pyy n
pros es
prac tice</w>
polit ic
neuvos to
jo int</w>
enn a</w>
U K</w>
sa man
regula tions</w>
pä ä</w>
ol ette</w>
obli g
mik äli</w>
m el
fa ir</w>
ent istä</w>
de termin
cl ose</w>
as soci
G er
vi h
tilann etta</w>
taud in</w>
sta ge</w>
lähesty mis
kehity ksen</w>
kansalais et</w>
hall inno
govern ments</w>
c ost</w>
al e</w>
K ore
teollis uuden</w>
sen se</w>
o ve</w>
liber alisation</w>
käyt tä
joh taa</w>
jo ten</w>
isi lla</w>
hon ourable</w>
guarante e</w>
cand id
alue iden</w>
a im
Minis ter</w>
vi ously</w>
valio kunnassa</w>
tarv itsemme</w>
ne ksi</w>
loc al</w>
ke in</w>
it tu</w>
in tia</w>
ide a</w>
halu aa</w>
ell isen</w>
cir c
ab ove</w>
R us
Espan jan</w>
Con vention</w>
vois imme</w>
viranom aisten</w>
vasto in</w>
toim ien</w>
tarkoituks ena</w>
siir ty
sell ais
sa attaa</w>
rau han
la in
ing ly</w>
gu id
fur ther
doub t</w>
activ ities</w>
a alis
ura l</w>
pur su
na tion
kas vu
j ar
ik ö</w>
connec tion</w>
con sis
aj an
0 3
te ty
sh ip
pyr itään</w>
kaik en</w>
atte mp
ator s</w>
asy lum</w>
S pan
ä kin</w>
välttämä töntä</w>
rec ently</w>
prepar ed</w>
pre vious</w>
pre vention</w>
oll eet</w>
oike astaan</w>
nim en
miel essä</w>
men esty
li ed</w>
l ing</w>
hel d</w>
emp has
ar ound</w>
aiko o</w>
EU :
v uuden</w>
tärke ä
tur vapa
til in
stan ding</w>
sta bility</w>
priva te</w>
od y</w>
lu et
ill aan</w>
gh tly</w>
ai m</w>
Swed en</w>
Span ish</w>
Prod i</w>
yhteis kunn
mis estä</w>
memb er</w>
justi ce</w>
ite m</w>
f ron
ex tent</w>
ed es</w>
con struc
S um
yt tä
vää r
tilan teen</w>
suhta ud
stand ards</w>
ra il</w>
quic kly</w>
pö ytä
proced ures</w>
onn ettom
on ni
l ou
kaik ille</w>
ihmis et</w>
further more</w>
agricul ture</w>
Nizz an</w>
199 8</w>
varmis taa</w>
va cc
työntekijö iden</w>
oikeud en</w>
nou da
n or</w>
mis essa</w>
mahdollisuu ksia</w>
entra l</w>
wa ter</w>
ul kom
to de
ti ä</w>
tarkas tel
spe ec
seem s</w>
ra ja
nam ely</w>
is uu
il s</w>
basi c</w>
ase tuksen</w>
F ren
A T
toimi elinten</w>
presid ent
minu a</w>
mi eh
l er</w>
johd on
jo bs</w>
hyödy n
gen u
fi ght</w>
e il
b ody</w>
Fren ch</w>
C ar
1 3</w>
tu n</w>
signific ant</w>
risti ri
promot e</w>
o p</w>
kan taa</w>
inclu ded</w>
har mon
b ian</w>
WT O</w>
F R</w>
ys ten</w>
un c
ta lly</w>
sor kka
require ments</w>
ilo inen</w>
fo ot</w>
d ang
S er
Irlann in</w>
val mi
u o
organis ation</w>
m i</w>
jo lloin</w>
it ti</w>
fer ens
em paa</w>
com pe
c en
bud getary</w>
E C
v uutta</w>
u no
tieto ja</w>
tarko ittaa</w>
suu -</w>
sell aisen</w>
re main
presid ency</w>
mat kus
lait tom
ko a</w>
kiit än</w>
ka s</w>
ita l</w>
g s</w>
ex per
edell yty
dem on
busin ess</w>
ar gu
Sum mit</w>
Ma kedon
1 2
to dis
sano en</w>
ro ko
po ten
maailman laaju
kon ferens
hall inn
h uu
dem an
ci es</w>
c ho
ar ri
ad equ
ys ti</w>
wee k</w>
nyky ään</w>
minister i</w>
kos kaan</w>
kohd istu
kal ta
is tan</w>
ihmis iä</w>
esityslista lla</w>
discus s</w>
cul tural</w>
c ing</w>
as te</w>
am inen</w>
alle kirjo
S ec
B us
A m
1 4</w>
ten kään</w>
sell aisia</w>
sa ying</w>
poliitt inen</w>
n ers</w>
is ely</w>
exis ting</w>
decid ed</w>
ac tions</w>
Tukhol man</w>
S u
tas k</w>
tarkistu kset</w>
read ing</w>
muka ista</w>
jäsen ten</w>
jat kaa</w>
istu nn
er i
ehdo tta
discus sed</w>
asio issa</w>
Is ra
var a
tämis estä</w>
ti mme</w>
tekem ään</w>
rele van
receiv ed</w>
promis e</w>
pen sa
par antaa</w>
ol um
mu l
mu assa</w>
inte gra
ic es</w>
demon stra
consequ ences</w>
Rans kan</w>
yhd en</w>
vah in
v ision</w>
teh ty</w>
succ ess</w>
puitte issa</w>
ma ase
kehitys tä</w>
implem ented</w>
er o
em er
dis charge</w>
comple tely</w>
absolu tely</w>
Re public</w>
vaihe essa</w>
us es</w>
ty ö</w>
ta x</w>
seuraa vana</w>
ni a</w>
llis ten</w>
ll ed</w>
lis ää</w>
la p
is istä</w>
em oc
el s</w>
conf idence</w>
c hall
c are
vä t
tiet ysti</w>
te tta</w>
sä h
se ur
ryh mä</w>
representa tives</w>
le a
ity ksen</w>
i ra
huom enna</w>
expres s</w>
enti fic</w>
en emmis
ell inen</w>
P e
yhteis kun
tu ne
tr as
to ista</w>
suunta vi
pu ite
pa y</w>
mon ia</w>
ma alis
lis ään
lis t</w>
kaik issa</w>
establis h</w>
es ter
effec ts</w>
ear li
bec om
Bri tan
to i</w>
terve yd
tarkistu sta</w>
r o</w>
ne i
mu r
itor ing</w>
im medi
cor rec
as ure</w>
N e
spe ak
reg ards</w>
pää stä</w>
po wers</w>
o ffici
mon im
mod er
meth od</w>
m outh</w>
läh et
käsitel tävä
ko kem
k ko</w>
inn in</w>
ic y</w>
humanita rian</w>
hu ge</w>
ed er
devel op</w>
d ru
d es</w>
com par
add ress</w>
R egulation</w>
P oh
O s</w>
L am
ven ess</w>
ter r
pyr ki
le v
jou kko
is o
effor t</w>
d ri
ac ross</w>
200 4</w>
yhden mukais
val ta</w>
tu ho
tu en</w>
su ku
r un
kulttu uri
ka h
järjestelmä ä</w>
i o</w>
foc us</w>
e ksi
com mer
asia kirj
Pol icy</w>
Mac a
F rance</w>
yt tävä</w>
suur in</w>
sh ar
s us
provid ed</w>
prosess in</w>
prec isely</w>
itet tu</w>
i ted</w>
eurooppal aisen</w>
direktii vi
asio ista</w>
Välimer en</w>
P er
Lissabon in</w>
täytän töön</w>
tilante esta</w>
talous arvio
ta ar
sh ow
selke ästi</w>
poin ted</w>
p ic
onni tella</w>
nä ihin</w>
he ad</w>
f io
al ter
L a
G M
yhd y
yh ti
use ita</w>
tu al</w>
terro ris
ta h
sy istä</w>
res ol
p een</w>
järjes tely
jo b</w>
is taan</w>
impl ement</w>
f ell
direc tly</w>
assis tance</w>
asian tun
a ar
N G
G ener
. 00</w>
työ järjesty
ti in
ta pa</w>
re main</w>
prof es
lab our</w>
id enkin</w>
halu avat</w>
expres sed</w>
ed on
cri teri
car ry</w>
alter na
alis ed</w>
al most</w>
vi itta
u b
työllisy ys
to ok</w>
tavoitte ena</w>
tasa paino
reg ime</w>
reac hed</w>
myö h
maa talouden</w>
he itä</w>
fell ow</w>
exc lu
ed us
direc tives</w>
c op
aks eni</w>
ais esta</w>
D emoc
varo ja</w>
ty vät</w>
terr itor
teen päin</w>
solid arity</w>
saan ut</w>
par ann
lö y
jou lu
is t</w>
increas ed</w>
e val
e teenpäin</w>
conclu sion</w>
com munity</w>
colleag ues</w>
alo illa</w>
Mar ch</w>
ttu a</w>
ther n</w>
th us</w>
tekni ik
tan i</w>
suor aan</w>
speci fic
sec u
rou ght</w>
ref lec
pa tion</w>
ko on</w>
kir ja</w>
kiinn os
ki ell
ke ep</w>
k u</w>
humanita ar
h es
b ri
ator y</w>
S aks
väh emmän</w>
ur s
tarko itus</w>
pre hen
neuvos tossa</w>
liitty viä</w>
in ti</w>
hol d</w>
consider ed</w>
ten ce</w>
t tu</w>
sta tes</w>
sel s</w>
pend ent</w>
parlamen taar
p idän</w>
organis ed</w>
myö nnet
luu l
koske vien</w>
koske vasta</w>
kann atta
ik o</w>
ihmis oikeuksien</w>
gro und</w>
budjet ti
Mac edon
1 4
y n
tämä llä</w>
tiedon ann
tic ally</w>
relevan t</w>
päätöslausel ma
poliitt isen</w>
pohj alta</w>
pa ho
ol ivat</w>
myönte isesti</w>
li ve</w>
ka a
joh to
j ana</w>
itor s</w>
it usta</w>
en si</w>
ec e</w>
com pensa
candid ate</w>
3 ;</w>
1 ;</w>
&#9 3;</w>
&#9 1;</w>
w ar
val ue</w>
vahvis taa</w>
tömä sti</w>
tel l</w>
ta kes</w>
ra il
protec t</w>
opportun ities</w>
nimen omaan</w>
mon itoring</w>
kos sa</w>
jatku vasti</w>
in o</w>
im um</w>
im ate</w>
im aan</w>
id ät</w>
h ard</w>
ec han
cl ari
c am
b rought</w>
as kel
N os</w>
Gu ine
yhte istä</w>
vä ki
tieto a</w>
teollis uus
sugg es
res pec
re over</w>
puhu a</w>
mo reover</w>
men tion</w>
itys tä</w>
increas ing</w>
inc or
implem enting</w>
hyväksy i</w>
f our</w>
en la
diffic ul
Turk ish</w>
Portug al
200 3</w>
1 8</w>
x i
w id
v eto
u man</w>
työ n</w>
tuks esta</w>
teh neet</w>
te ke
s pec
pro ject</w>
myö tä</w>
muu ten</w>
mielip ite
läh es</w>
ehdottom asti</w>
dec lar
de l</w>
con fir
auth or
as su
arvois at</w>
Dec ember</w>
un acceptable</w>
täv issä</w>
terve ys
teh tä
succ ess
sa kin</w>
s ter
refuge es</w>
ol in</w>
järjes töjen</w>
he ar
gh ted</w>
earli er</w>
e ffici
Br it
viljelijö iden</w>
vih re
vel s</w>
uk tu
tr uktu
te emme</w>
ta x
saa vat</w>
ru le</w>
rela ting</w>
kyse essä</w>
ks estä</w>
in s</w>
i vät</w>
he ik
ha va
ex ternal</w>
ex pect</w>
eur on</w>
as to
S a
Britan ni
we ap
und s</w>
than ks</w>
th y</w>
ten sa</w>
te ra
tal king</w>
su fficient</w>
s ti
s sa</w>
s ala
refer red</w>
ord ers</w>
o ista</w>
käytännö ssä</w>
kulutta jien</w>
kor ja
ker taa</w>
kas v
is es</w>
infrastruc ture</w>
fi ve</w>
c tions</w>
Gener al</w>
C A
uu ta</w>
urg ent</w>
ul ot
tuomioistuim en</w>
toiv omme</w>
tilante essa</w>
me et</w>
läh tö
lin es</w>
in ta</w>
fac e</w>
es ten</w>
en able</w>
emp ia</w>
dra ft</w>
ag rap
O r
ät te</w>
vuos ina</w>
ty y
ti vat</w>
reg re
ple ased</w>
parlia mentary</w>
ni issä</w>
net work</w>
maks u
m echan
le vels</w>
le ft</w>
kansallis ten</w>
i ri
high ly</w>
elin es</w>
direc t</w>
alais ten</w>
affec ted</w>
a kaan</w>
G en
w ide</w>
vo ting</w>
vapa uden</w>
va i
tämis en</w>
tä s
tuot teiden</w>
todell is
tar peen</w>
t os
str ong</w>
re ach</w>
puolu e
osallis tua</w>
lop ul
kansainvälis en</w>
farm ing</w>
develop ed</w>
d om
consider able</w>
conclu sions</w>
circ um
ap proved</w>
T ra
ugosla vi
si vi
päätö ksen</w>
muistu ttaa</w>
kä ä</w>
koh tia</w>
ka tta
ka ista</w>
infras truktu
in vo
f ound</w>
equ al</w>
dem and</w>
at h</w>
am per
al aa</w>
ai emmin</w>
T amper
Mo ro
J usti
E C</w>
C ha
Brit ish</w>
. e
äänesty s</w>
w is
välis en</w>
vas taa</w>
tri al</w>
sta ff</w>
päätöslausel man</w>
ner ship</w>
ne ver
luotta mu
li it
käy tetään</w>
kos kem
koro sta
ki inti
instru ments</w>
i ght</w>
ex pec
del eg
com prehen
c el
acc id
Ruot si</w>
Justi ce</w>
Fis ch
Di rec
vuos i</w>
voima kkaasti</w>
v ed
tuo tann
sään töjä</w>
sopim usta</w>
re li
ob viously</w>
nä yttää</w>
ni ille</w>
m ys
le ar
käy tön</w>
h il
h a</w>
di g
con tent</w>
ansi osta</w>
a way</w>
Yhdys vall
v en</w>
täll ainen</w>
tra d
so ker
selvä ksi</w>
pyr kim
never theless</w>
net works</w>
mo del</w>
mis sään</w>
ku s</w>
kom promis
kohd an</w>
henkilö s
er e
dis crimin
circum stan
am min</w>
al a</w>
S e
Af ric
1 6</w>
yhte en</w>
ver s
v isi
tu lis
ti g
te ta</w>
suu ria</w>
st ress</w>
sh ow</w>
ser vice</w>
sell aisten</w>
sci entific</w>
op im
nä issä</w>
no te</w>
neuvosto lle</w>
me at</w>
k is
en i
el tä</w>
c ro
Pro c
Mar o
K iin
u ksiin</w>
tied än</w>
te mme</w>
säh kö
sell aista</w>
päätö ksiä</w>
pyy tää</w>
noud atta
määri tel
mar k</w>
koske vassa</w>
keskustel ussa</w>
ite ttava</w>
hä ne
el f</w>
assess ment</w>
anne taan</w>
adequ ate</w>
J ugoslavi
tras bour
toimin taa</w>
tasa pain
ta van</w>
pu l
poliitt ista</w>
lo w</w>
len to
i .e
i.e .</w>
guid elines</w>
gran ts</w>
g er
d in</w>
criteri a</w>
circumstan ces</w>
c ause</w>
bal an
S trasbour
K ansa
yr ittä
yhteistyö n</w>
vasta ta</w>
turvallis uuden</w>
tu ke
tiedo tus
määr in</w>
mit ted</w>
minis teri
kno wn</w>
ha as
glob al</w>
direc tion</w>
com promise</w>
c ks</w>
an u
am ong</w>
val taa</w>
tele e</w>
sy rj
sta ted</w>
ri ghtly</w>
rela ted</w>
re ality</w>
puu n</w>
president ti</w>
ponnis telu
me istä</w>
lu oda</w>
kä y</w>
jat ka
j aan</w>
inte gration</w>
inn ing</w>
incor por
het i</w>
ex ac
consider ation</w>
b or
appl ication</w>
alku perä
al ong</w>
ät tä</w>
än ä</w>
yhteis kunnan</w>
toivo tta
specific ally</w>
saad aan</w>
rang ais
pr ice</w>
os an</w>
lisä tä</w>
kaup an</w>
dy na
b y
aine iden</w>
6 0</w>
ympäristö n</w>
weap ons</w>
w ise</w>
ti uk
tarpe ell
sit ting</w>
sil tä</w>
res t</w>
ongel mat</w>
la des
keskustel uun</w>
im en
hin d</w>
esitteli jän</w>
edell yttää</w>
be hind</w>
ang lades
ad ing</w>
a king</w>
Ukra in
Itali an</w>
D ev
2 5</w>
wh ose</w>
vaike a</w>
ud e</w>
tura lly</w>
tulis i</w>
tapa uksissa</w>
sib ilities</w>
ser i
s pen
ratkais em
pro per</w>
or y</w>
mi la
me asure</w>
ma s</w>
läh tien</w>
käynn is
kokou ksessa</w>
kiinti ö
kaik kein</w>
julk is
go es</w>
ex plo
ex ic
er in</w>
ensisi j
el op
M exic
0 8</w>
terve yden</w>
suun taan</w>
sup pl
sc ho
re duce</w>
ra has
päätö s</w>
par agrap
paik allis
pa in</w>
p .
ole vien</w>
mys elf</w>
kulttu ur
ks issa</w>
issa an</w>
i ans</w>
encoura ge</w>
discus sing</w>
dis ab
d y</w>
ar ily</w>
anta maan</w>
O M</w>
Dev elop
7 0</w>
us i</w>
täyd en
t ting</w>
set ting</w>
re a
puheen vuoro
pla ced</w>
over all</w>
oikeu tta</w>
no on</w>
mp i</w>
ll u
koh ti</w>
anu ary</w>
amoun t</w>
Scheng en</w>
J anuary</w>
w ar</w>
valtu us
torj u
to isen</w>
res olu
ra por
partici pation</w>
ni in
mu kana</w>
ma hd
ma assa</w>
la u
kahd en</w>
et tiin</w>
con dem
a tu
S V</w>
C ol
B anglades
19 8
vo it
vic ti
tr ying</w>
t onn
saan eet</w>
op e</w>
man ner</w>
mahdollis uuden</w>
em min
e ed
do m</w>
direktiiv i</w>
da ys</w>
b el
Poh jo
varo jen</w>
vapa a
toimenpite itä</w>
tarkistu ksen</w>
sopim ukseen</w>
sec tors</w>
s po
re view</w>
päät tynyt</w>
propos e</w>
or m
ohjel ma</w>
nuor ten</w>
na turally</w>
k r
jo idenkin</w>
it uksen</w>
experi ence</w>
emmin kin</w>
deal ing</w>
crimin al</w>
ann ut</w>
all inen</w>
N AT
K re
ver kko
u tta</w>
to tal</w>
te ur
t to
sur ing</w>
sc ope</w>
rec ei
po ver
o v
ne g
lä s
llis et</w>
koh taa</w>
kes ki
k ki</w>
ita n</w>
inves tig
fam ily</w>
e va</w>
e ks
cap ac
beg in</w>
any thing</w>
aj at
add itional</w>
Koso vo</w>
yrity kset</w>
uks ena</w>
trans f
some times</w>
si z
re forms</w>
perustamis sopimuksen</w>
otta maan</w>
on ut</w>
o l</w>
mieles tä</w>
markkin at</w>
lo t</w>
käyd ä</w>
kaik illa</w>
hel po
et tävä</w>
edusta ja</w>
com ments</w>
administra tive</w>
Develop ment</w>
vi era
v uus</w>
tus ti</w>
tilin tarkastus
sy m
sug ar</w>
ro h
ris h</w>
ri t</w>
rau d</w>
rati fio
politiik kaan</w>
orig in
op p
ol s</w>
luonn on
le vi
laati ma</w>
jäl j
is tan
e tel
conc ep
compet itive</w>
b orders</w>
ad d</w>
Yhdisty ne
L u
B ud
Am ster
utta va</w>
tod en
ti i
tasa vallan</w>
ta mm
tamm ik
speec h</w>
sij aan</w>
ris ks</w>
re jec
pä in
pr im
parha illaan</w>
n en</w>
mi hin</w>
me an
materi al</w>
mahdollis uutta</w>
la ter</w>
ku t</w>
kilpailu kyky
inter ven
inter mod
fle xi
esitteli jää</w>
eg u
e ed</w>
dis tribu
ap er</w>
ann e</w>
alo ittaa</w>
S pain</w>
R es
M eksi
F in
2 4</w>
uu sien</w>
to ihin</w>
tet tua</w>
stand ar
sta tus</w>
sa atta
pur pose</w>
ongel man</w>
nor ma
issa kin</w>
hyv invo
giv ing</w>
for ces</w>
ex pla
et e</w>
commer cial</w>
c ot
beg inning</w>
ar ms</w>
app lies</w>
a tional</w>
B os
vi lla</w>
uu si
tämis een</w>
ty pe</w>
tode ta</w>
tetta isiin</w>
teki jä
tavoitte et</w>
sosiaal i
s ha
s ession</w>
proper ly</w>
practic al</w>
ol isivat</w>
nä h
n ro</w>
ma at</w>
lä he
ko ke
huoles tu
f ri
es tiin
em me
elintarv ike
ei vät
e u
e as
di a</w>
con tr
bre ak</w>
apu a</w>
Sw ob
Pal estin
Con ference</w>
A ud
yd estä</w>
vi ra
tan ts</w>
sell ainen</w>
s ty
päätö kseen</w>
päät tää</w>
parlament tia</w>
na tural</w>
mä t</w>
muka inen</w>
loo king</w>
kor kea</w>
kau an</w>
jäsen en</w>
i ons</w>
ess ään</w>
en suring</w>
e th
com ment</w>
alo itta
y er</w>
vastu ussa</w>
valv onn
uud is
ulot tu
säil yt
san ctions</w>
saf egu
per he
palvelu jen</w>
on i</w>
oikeus perus
ob ser
o issa</w>
merk itys</w>
llis tä</w>
leg it
kun tien</w>
ks emme</w>
ko ko
ki er
inter pre
improv ing</w>
ho ito
fore ign</w>
e ita</w>
dis t
cre ating</w>
clos ely</w>
c al
auth ority</w>
accord ance</w>
Sol ana</w>
I rish</w>
vie ws</w>
vi elä
varsin kin</w>
työ t
työ stä</w>
toimi i</w>
tavo ite</w>
ta sa</w>
sano taan</w>
ryh tyä</w>
päätöks ente
hallit usten</w>
h ment</w>
g in</w>
enti re</w>
critic ism</w>
ammat ti
ag es</w>
P at
Minis ters</w>
Ch ina</w>
Americ an</w>
un anim
toim itetaan</w>
sel vi
sch em
requ ire</w>
re h
pä te
pres sure</w>
po llu
par empi</w>
o on</w>
ni illä</w>
n s</w>
merk itystä</w>
menettely n</w>
kö yh
kau pun
jäsenvaltio ita</w>
jot kut</w>
he ard</w>
h ön</w>
ch ec
capac ity</w>
att le</w>
ann ual</w>
aks emme</w>
yle isesti</w>
tre at
to co
toco l</w>
te dly</w>
suppor ted</w>
recei ve</w>
rauta tie
po or</w>
p il
p ac
näkö kul
kolleg ani</w>
kau pa
jou sta
i eh
f unc
ev ent</w>
asiantun ti
alue ita</w>
N ations</w>
G e
Ag ricul
w on
tra ffic
tois een</w>
suuntavi ivo
pover ty</w>
poten tial</w>
par issa</w>
on d</w>
o iden</w>
m is</w>
la at
ku olem
kaik ista</w>
jud ic
ite tta</w>
ili ation</w>
happ en</w>
elä k
el in</w>
da ma
as ke
alu ksi</w>
accep ted</w>
Yhdysval tojen</w>
OLA F</w>
K olum
Af rik
w ing</w>
vi es
vaikutu ksia</w>
union iin</w>
t tom
sop i
sen s
san on</w>
res er
poliitt isten</w>
oikeudell isten</w>
maase ud
lainsäädän töä</w>
la ista</w>
koske vaan</w>
keskus tella</w>
inno va
ex er
emm at</w>
elä mä
ed u
deal t</w>
cover ed</w>
consul tation</w>
bo ard</w>
benef its</w>
aske l</w>
ann oun
ann a</w>
H er
Ge or
yksityis kohta
välis tä</w>
voim assa</w>
val mis</w>
va l</w>
us sels</w>
täll aista</w>
tutkim uksen</w>
tull ut</w>
te g
sosiaal itur
s al
rik os
re ply</w>
pr ices</w>
par ty</w>
on a</w>
ole va</w>
ol is
neuvos toa</w>
luonno llisesti</w>
li ves</w>
kymmen en</w>
ko ti
kann an</w>
h ome</w>
genu ine</w>
f raud</w>
ensimmä isen</w>
ell ing</w>
effici ency</w>
ec h
develop ments</w>
demokrati an</w>
dec ide</w>
con duc
as etta
aino a</w>
a ksi</w>
Br ussels</w>
. .
ymmär tää</w>
var sin</w>
tu kee</w>
s son</w>
puolu een</w>
pos sibility</w>
pen sion</w>
out side</w>
olog ical</w>
muu ttaa</w>
mat ka
käyt töä</w>
komite an</w>
ki lle</w>
k än</w>
k ous</w>
ic ally</w>
ffer ing</w>
ester day</w>
establis hing</w>
e ikö</w>
asem assa</w>
aihe uttaa</w>
Br ys
9 0</w>
199 7</w>
yhti ö
y esterday</w>
väl inen</w>
viranom aiset</w>
valtio t</w>
uu t
ur ge</w>
tied ätte</w>
teur as
taloudell ista</w>
ste ps</w>
recommend ation</w>
pro duce</w>
po is</w>
otta en</w>
ol ta</w>
off er</w>
men d</w>
luet tel
lan gu
kesk itty
keh ittää</w>
is e
inf lu
her ät
en ter
elintarv ikke
discus sions</w>
deman ds</w>
co hes
c ross</w>
P ak
Macedon ia</w>
B la
Aud itors</w>
Amster d
y es</w>
wor d</w>
wh om</w>
w aste</w>
vir ka
vi estin
utu u</w>
to tta</w>
tas tro
tapah tunut</w>
spe aking</w>
sa maan</w>
re t
prosess i</w>
pid ät
muu ttu
menettely ä</w>
kustann ukset</w>
ka p
julk isen</w>
it ude</w>
isi ksi</w>
introduc ed</w>
institu tional</w>
il mi</w>
hyö tyä</w>
huol eh
etu ja</w>
esite tään</w>
c od
avoim uutta</w>
aika välillä</w>
aihe esta</w>
Ukra ine</w>
victi ms</w>
v inc
täll ais
tyytyvä inen</w>
tun te
toimin ta</w>
tark ka
sitou mu
si mila
sa amme</w>
provid es</w>
pl ann
part nership</w>
painopis te
on ally</w>
mä llä</w>
merkittä vä</w>
main tain
le hd
käyt töö
ko vin</w>
jäsen valtion</w>
improv ement</w>
il ita
g en</w>
en em
eivät kä</w>
con vinc
compl ete</w>
commit ted</w>
actu al</w>
a ir</w>
Venä jän</w>
P o
B an
2 3</w>
viol ence</w>
ver ta
val ues</w>
tu o</w>
ti eli
success ful</w>
struc tural</w>
sc ale</w>
saavu ttaa</w>
reas on
ra ise</w>
profes sion
pl ans</w>
o ta
m .</w>
lyhy esti</w>
kuu lem
ker toa</w>
effec tively</w>
e fficient</w>
alu e</w>
al one</w>
Pat ten</w>
Inter national</w>
Al ban
vuo teen</w>
vi tal</w>
valmis telu
v istä</w>
u ksien</w>
tavoitte ita</w>
sään töjen</w>
str ic
sig ned</w>
seri ously</w>
san otta
ra haa</w>
prob ably</w>
pro por
pre ad</w>
our s</w>
myöh emmin</w>
mis sa</w>
maail massa</w>
l et
kann attaa</w>
f all
eurooppal ais
ehdotuks esta</w>
c ally</w>
av us
ac qu
a mista</w>
L at
K i
A gre
200 6</w>
vaka vasti</w>
tu ki
treat ment</w>
te li
tark asti</w>
säännö t</w>
si x</w>
re mind</w>
pid etään</w>
perus tuu</w>
pa id</w>
ole vat</w>
mu is
lan ds</w>
käyt tö
kunnio itta
koskem attom
kalas ta
it telem
g et
f al
e ja</w>
dru gs</w>
cohes ion</w>
cam pa
c la
becom ing</w>
WT O
Jugoslavi an</w>
G ra
En viron
E T
Col om
äär immä
yt tävät</w>
vakuu t
vaati i</w>
vaad itaan</w>
ur he
tu lla</w>
th en
ratkais u
qu ali
pi ä</w>
na me</w>
muka isia</w>
käyttöö no
he ar</w>
emphas ise</w>
b road</w>
addres sed</w>
Ger many</w>
Bel gian</w>
uudell een
ta son</w>
syn ty
sopim usten</w>
se par
satis fac
sa ma</w>
ryh ty
riippu mattom
resolu tions</w>
ref er</w>
produc ed</w>
per f
par ts</w>
pac ka
oper ate</w>
oikeud et</w>
lim it</w>
ky v
kansala isille</w>
jos kus</w>
j us
isi vät</w>
is issä</w>
fa il
exac tly</w>
e arly</w>
balan ced</w>
as pect</w>
app lied</w>
all ista</w>
activ ity</w>
P s</w>
Fisch ler</w>
Bar cel
Amend ments</w>
7 1</w>
viik olla</w>
vastu u</w>
ur ani
urani um</w>
tö miä</w>
turvallis uutta</w>
tied ä</w>
tark is
sor t</w>
simila r</w>
r ä
peri aa
p i</w>
lim ited</w>
li ving</w>
kuningas kunnan</w>
ik in</w>
id em
for mer</w>
ehdo ttaa</w>
dra wn</w>
cre ated</w>
compensa tion</w>
busin esses</w>
aih etta</w>
Y ugosla
Pro gra
Gre ece</w>
Americ a</w>
Agricul ture</w>
velvo itte
vacc ination</w>
tuks ista</w>
teho kkaasti</w>
te eseen</w>
si an</w>
prov ision</w>
pers ons</w>
part ners</w>
paragrap h</w>
p is
maahanmuut to
kysymy ksiin</w>
kysymy kset</w>
kokou ksen</w>
kan ta</w>
id aan</w>
exis t</w>
e asi
aset taa</w>
all oc
all isia</w>
alis t</w>
achiev ing</w>
W or
H uman</w>
y ond</w>
tärke im
sitou tu
sisäll y
remain s</w>
ratkais u</w>
pre ci
o ja</w>
mil jar
medi um</w>
main ly</w>
main ita</w>
m olem
kunni an
ko kous</w>
k ka</w>
itse vat</w>
it ure</w>
infor med</w>
in sa</w>
improv ed</w>
g er</w>
esitteli jä
en cies</w>
dis as
concep t</w>
commit ments</w>
be yond</w>
avo id</w>
acc ession</w>
Res earch</w>
Pe ople</w>
E ast</w>
C har
yl ittä
vi ll
tetu t</w>
re te</w>
politiik asta</w>
pik emminkin</w>
pend iture</w>
otta nut</w>
om s</w>
m essa
kö yhy
ita ge</w>
huomatta vasti</w>
ho id
ex penditure</w>
en sin</w>
des ig
d le</w>
cre ation</w>
compet iti
analy sis</w>
allow ed</w>
aikais emmin</w>
V er
S outh</w>
2 2</w>
199 6</w>
väes tö
viljel y
uno h
te kijö
ta an
recommend ations</w>
rajo itta
qu e</w>
pa ti
p es
os as
ob serva
muuta man</w>
mi esten</w>
markkino ille</w>
lu pa
käsit telem
kuulu vat</w>
kolman sien</w>
inten d</w>
in him
f ish</w>
et in</w>
em en
du ty</w>
difficul ties</w>
c are</w>
buil ding</w>
b road
b ill
av usta
aloitte en</w>
E L
Brys sel
.. .</w>
wan ted</w>
vasta an
valvon taa</w>
ud et</w>
te sta
te istä</w>
t te</w>
t ments</w>
s ääd
requi res</w>
rat kaista</w>
ra jat</w>
pres s</w>
parlia ments</w>
ot on</w>
kiinn ittää</w>
kanna tan</w>
jo takin</w>
ja ka
issa mme</w>
ing dom</w>
in ary</w>
il me
hy l
f all</w>
esitet ty</w>
en siksi</w>
call s</w>
at on</w>
alterna tive</w>
administra tion</w>
Progra mme</w>
Moro cc
F re
E I
D e
1 5
1 .</w>
. 30</w>
yh tä
toim inn
ti iv
te ja</w>
tapa a</w>
talous -</w>
t tiin</w>
sosi aalis
saa tava</w>
sa astu
ri itä</w>
re ad</w>
puheenvuor on</w>
po hd
per inte
per in
os u
oblig ations</w>
niin pä</w>
miel en
ma ksi</w>
liik enn
ksi lla</w>
k tor
jäsen iä</w>
is elle</w>
inter vention</w>
ins tance</w>
immä is
hän tä</w>
fron ti
ex plan
es tää</w>
el se</w>
crit ical</w>
T h
P ub
Makedon ian</w>
Kiin an</w>
K ingdom</w>
B ö
Agre ement</w>
1 7</w>
vo isivat</w>
u vos
tic al</w>
suo j
sisä llä</w>
saf e</w>
re ference</w>
no ike
na ud
muod os
miel ell
mahdollis uudet</w>
lää kke
lisään ty
l s</w>
kri isin</w>
kiito s</w>
is issa</w>
introduc tion</w>
immi grants</w>
hyvä ä</w>
esite ty
elec tions</w>
conc rete</w>
competiti veness</w>
cl as
cap ital</w>
Pub lic</w>
NAT O</w>
Balkan s</w>
tarv itse</w>
suur ta</w>
sur pris
suppor ting</w>
recogn ition</w>
produc t</w>
pl om
os ittain</w>
mu ihin</w>
mor ning</w>
mietin töön</w>
me kin</w>
lou kka
kiire ell
ki laus
jul kilaus
istunn ossa</w>
indus trial</w>
emb ly</w>
em aan</w>
direktii viä</w>
deta iled</w>
d en
c ut</w>
bo dies</w>
bac k
attemp t</w>
ai omme</w>
Rus sia</w>
Portug al</w>
Morocc o</w>
Ira q</w>
E l</w>
yhteen kuulu
x emb
vir as
velvollis uu
van h
toden näkö
tilante eseen</w>
tieto jen</w>
tekni ikan</w>
tar gets</w>
sy y</w>
sa ira
s pi
ru ary</w>
pu tting</w>
os aa</w>
om a</w>
oh ja
noud attaa</w>
mi lle</w>
markkino illa</w>
ku m
koulu tus
keh it
its ell
it tiin</w>
ho ita
eurooppal aista</w>
etu jen</w>
en orm
eb ruary</w>
di plom
comprehen sive</w>
co her
asio ihin</w>
U S</w>
P aper</w>
F ebruary</w>
CO M</w>
C a
yks et</w>
wan ts</w>
vat ko</w>
utu a</w>
use ful</w>
ty p
to tally</w>
tekijä noike
taloudell isia</w>
suu res
sovel taa</w>
sorkka tau
pitä nyt</w>
mis elle</w>
main tain</w>
maalis kuuta</w>
käy tän
järjes täyty
eurooppal aisten</w>
erila isia</w>
eläk elä
convinc ed</w>
c he
a isille</w>
T ans
So cial</w>
E tel
y ö
ver kos
tu un</w>
tiedon an
teke vät</w>
tehok kuu
sa ys</w>
raken ne
puhu mme</w>
pal autta
oc c
o od</w>
ne tään</w>
myönte isenä</w>
mik ään</w>
meth ods</w>
ma ita</w>
lan kom
happen ed</w>
for es
fisher men</w>
emme kä</w>
emis sions</w>
bio technology</w>
ar rang
ad ded</w>
Yhdisty neen</w>
K ar
E ner
A lankom
ä ssä</w>
wee ks</w>
w ha
vuo si
val tion
työllisy yden</w>
tuotann on</w>
tra g
tra ff
traff ic</w>
toim ista</w>
to i
ta a
sy r
substan tial</w>
sto p</w>
solu tions</w>
reduc ing</w>
re turn</w>
päätöslauselma es
pres sion</w>
poliitt isia</w>
pitkä llä</w>
perf ec
per son</w>
packa ge</w>
p. m.</w>
one theless</w>
n onetheless</w>
mon ien</w>
lu vu
lu j
la w
l os
jon kin</w>
increas ingly</w>
hel mik
halu taan</w>
hallinn on</w>
gene ett
exer c
de pen
co ver</w>
char ac
be ar</w>
accid ents</w>
Mexic o</w>
ME Ps</w>
J un
väline itä</w>
vä hä
uu tta
ura an
uks ella</w>
tol d</w>
ti t</w>
th ought</w>
sij asta</w>
show s</w>
ryh mien</w>
rela tion
r ural</w>
r un</w>
oike a</w>
määrä raho
matkus ta
luul en</w>
ll isiä</w>
lainsäädä nnö
kunnian him
keino ja</w>
is ella</w>
hu n</w>
govern mental</w>
g ia</w>
fin e</w>
con trac
con tac
colleag ue</w>
ch ed</w>
ap pla
advanta ge</w>
ad ap
a id
Lu xemb
H el
Etel ä</w>
B yr
yksinkerta isesti</w>
välit tömästi</w>
v ol
un employment</w>
työt tömy
tut ki
tarkas tella</w>
tarjo aa</w>
t lan
säil y
sano in</w>
s tään</w>
ru o
r ing</w>
päätö kset</w>
päin vastoin</w>
pi d</w>
p lu
ole via</w>
määr än</w>
lain kaan</w>
k y</w>
jot kin</w>
iti ous</w>
häne lle</w>
he ille</w>
han k
giv es</w>
ff s</w>
ev ents</w>
establis hment</w>
des cri
deb ates</w>
curr ency</w>
alais et</w>
Q u
L egal</w>
C o
Ag enda</w>
voim aan</w>
vers ity</w>
valti ossa</w>
täv y
tä nne</w>
tuomioistu in</w>
tu t</w>
th ou
sisäll yt
respon sibilities</w>
pää tel
päivä nä</w>
olem aan</w>
nä illä</w>
mis sion</w>
mahdollis esti</w>
m usta</w>
la ito
koske vista</w>
kol men</w>
kaikki in</w>
ituks et</w>
her itage</w>
fac ilita
ev idence</w>
es tään</w>
es sani</w>
emer g
b ed</w>
asem a</w>
as king</w>
anal ys
S add
Environ ment</w>
Ch ech
3 7</w>
un able</w>
ty yd
tule vat</w>
solid aar
repe at</w>
pääs tö
politiik assa</w>
pit kän</w>
periaa tetta</w>
ore ign</w>
o tettu</w>
nyky istä</w>
noud at
nel jä
monim ut
mon op
med ia</w>
maa talou
m itta
lop puun</w>
ke hy
justi fied</w>
judic ial</w>
ittel en</w>
im munity</w>
iken teen</w>
ed el
contr ary</w>
con om
comb at</w>
call ing</w>
appe ar</w>
alue elle</w>
Nor th</w>
I I</w>
F oreign</w>
E conom
Bu ll
8 0</w>
2 7</w>
1 00</w>
ys tävä
wor th</w>
va lla</w>
tärke änä</w>
turvapa ikka
tuotan to
tulo ksia</w>
traffic king</w>
tr e</w>
tet tuja</w>
territor y</w>
tan sa</w>
taloudell inen</w>
ta kais
s ound</w>
regula tory</w>
r end
qu an
pit kään</w>
pi iri
periaat teen</w>
ohjel mien</w>
od ottaa</w>
nähd ä</w>
n aiset</w>
mä t
messa ge</w>
ma ihin</w>
liiken teen</w>
kysymyks istä</w>
ku kaan</w>
ken ties</w>
jo ll
is ms</w>
ilmo ittaa</w>
hy viä</w>
fac tors</w>
eurooppal ainen</w>
dra f
de ple
ap preci
amb itious</w>
aloitte ita</w>
alis ts</w>
a iden</w>
En g
E x
Al ger
A ss
1 9</w>
yhteis ö</w>
wr ong</w>
wor ked</w>
väl in</w>
var ma</w>
vahin go
unoh taa</w>
t ti
syr jä
sup ply</w>
suo ja
rik o
qu ota
quota s</w>
päätös ten</w>
puhu taan</w>
perus tus
pers onal</w>
nyky isen</w>
n os
m ber</w>
liik ke
käsittel yssä</w>
kiel te
jä r
en in</w>
emp ha
contribu te</w>
coll ec
alo ite</w>
U N
So ci
R ules</w>
Kore an</w>
K inno
Guine a</w>
C entral</w>
Bull man
4 5</w>
vakuut tunut</w>
u ations</w>
trag ed
toivotta vasti</w>
thir dly</w>
tes ting</w>
telu a</w>
taloudell isen</w>
ta ata</w>
streng then</w>
seura uksia</w>
profession al</w>
pid ämme</w>
pen al
ol enn
nyky inen</w>
mon th</w>
mon i
mi llä</w>
maaseud un</w>
lea ve</w>
koulu tuksen</w>
kk ää
jo issakin</w>
jo in</w>
histor i
henkilö iden</w>
et ä</w>
des er
cro ps</w>
contribu tions</w>
con ference</w>
clos er</w>
c y
appl ic
a head</w>
Yhdisty neiden</w>
Afric a</w>
tä lle</w>
tu oda</w>
tu ki</w>
tavoitte en</w>
so d
ru p
ris ty
riittä västi</w>
respon d</w>
recogn ise</w>
r ans
pri or
ot ti</w>
ohjel maa</w>
muuta mia</w>
mo di
m ol
lead ing</w>
kuu ll
kolman neksi</w>
ket tä
kansala isia</w>
kanna tamme</w>
ja lla</w>
is ellä</w>
invol ving</w>
instru ment</w>
immedi ately</w>
han sa</w>
gran ted</w>
for ced</w>
ex port</w>
enti rely</w>
end or
en ge</w>
en ds</w>
deple ted</w>
chall enge</w>
b in
asem an</w>
arvio ida</w>
any one</w>
Pohjo is</w>
He alth</w>
Ener gy</w>
Ban k</w>
2 8</w>
ó n</w>
äänes tin</w>
ä stä</w>
yll ä
vuo sien</w>
ur s</w>
under standing</w>
tä vien</w>
tulevais uuden</w>
trans por
to ki</w>
thin king</w>
tavoitte iden</w>
ta po
sub mitted</w>
su rely</w>
str ong
see m</w>
s issa</w>
rau han</w>
ra pid</w>
perus tel
out come</w>
muuta ma</w>
mel ko</w>
la ws</w>
la tion</w>
kö yhdy
ky ken
kulje tus
kiito ksia</w>
jät tää</w>
inten ded</w>
i el
high er</w>
get ting</w>
el l</w>
ca me</w>
ann ettava</w>
a vi
Wor ld</w>
S i
S ep
2 6</w>
ö l
äs kettä
valio kunn
tu ksiin</w>
todell ista</w>
tiet y
th o
t osin</w>
spi rit</w>
speak ers</w>
sens itive</w>
ris e</w>
riittä vän</w>
re member</w>
ra ts</w>
pub lis
p o</w>
onnettom uu
maks aa</w>
lau gh
ku r
kehity s</w>
kann us
ka ud
ka m
jäsenvaltio ille</w>
inde pendent</w>
ilma ista</w>
high li
fe ed
er ää
en ter</w>
elä kke
ehdotuks et</w>
dama ge</w>
consis tent</w>
chan ged</w>
ati c</w>
Turk ki</w>
M an
Euroop paa</w>
Char ter</w>
yksimiel isy
wh il
whil st</w>
vaatimu ksia</w>
un less</w>
thre at</w>
t it
state ments</w>
sion ers</w>
si v
saat u</w>
rikollis uuden</w>
op ti
op en
ongel mien</w>
min kään
lim its</w>
let ter</w>
käy n
kysy ä</w>
kol m
infor m</w>
ful fi
er ous</w>
enorm ous</w>
ed ure</w>
da ta</w>
contain s</w>
be ef</w>
atu zz
arvo a</w>
Proc edure</w>
F atuzz
Econom ic</w>
D R</w>
äär ä
väl in
voima kka
tämät tä</w>
tr ust</w>
tho rou
tetu n</w>
terveyd en
tera l</w>
ta ho
ta hansa</w>
suunnitel ma</w>
subsi di
su per
strategi c</w>
sopim uksessa</w>
san ne</w>
reli gi
provid ing</w>
partici p
oper ations</w>
odo tamme</w>
o ther
nu mer
määr ää</w>
mu ista</w>
mu issa</w>
m ing</w>
lu op
kys een
ks essä</w>
koko on
joh tuu</w>
intro duce</w>
influ ence</w>
ilma is
huippukokou ksen</w>
flo or</w>
f as
conc entra
con tra
beli ev
b ly</w>
Sadd am</w>
PV C
P :n</w>
Li ber
L e
H ar
Gre en</w>
14 08</w>
väes tön</w>
uud en
tu k
tarkistu s</w>
suo si
stu dy</w>
si t</w>
ship s</w>
representa tive</w>
pos es</w>
politiik ka
other wise</w>
or d</w>
ong st</w>
lopul ta</w>
la aja
it or</w>
initi al</w>
ilmo itta
hil jat
h om
e ing</w>
deta il</w>
dang erous</w>
d ings</w>
d ers</w>
cul ture</w>
cre d
con su
ch es</w>
b lo
at s</w>
ase tuks
am ongst</w>
al ussa</w>
Tra de</w>
äärimmä isen</w>
yle ensä</w>
yhtenä is
vi ita
va ali
ur o</w>
täll aisen</w>
tr a</w>
toim itta
todell inen</w>
tie tenkään</w>
ti vät</w>
sp ent</w>
sisäl tyy</w>
sij ais
see king</w>
regre t</w>
radio aktiiv
pää sy
produc ers</w>
osa ksi</w>
om aa</w>
o jen</w>
ne ll
ne ita</w>
naud an
nation als</w>
mo ving</w>
mm in</w>
liitty vien</w>
käyt tö</w>
kunnianhim o
konkreett isia</w>
kohd at</w>
ka tastro
k assa</w>
in ä
huu me
glob alisation</w>
g ers</w>
f in</w>
eval uation</w>
een kin</w>
e iden</w>
d or
b il
att itude</w>
an no
alais en</w>
a part</w>
a isiin</w>
Portu gu
Maro kon</w>
M c
C osta</w>
B ur
2 0
äänes tää</w>
vastuu ta</w>
tu vat</w>
ten a</w>
te ista</w>
t ti</w>
suur im
sum mit</w>
sto cks</w>
sopim uksia</w>
simp le</w>
see k</w>
s ou
rejec ted</w>
rapporte urs</w>
polic e</w>
out break</w>
on in</w>
man date</w>
kuu kauden</w>
kuningas kunnassa</w>
kun ta</w>
kun no
kri te
keskustel emme</w>
keske inen</w>
kes ä
kes ken</w>
kansallis et</w>
ing ing</w>
inc id
id dle</w>
esittä nyt</w>
emerg ency</w>
elec ted</w>
desig ned</w>
deleg ation</w>
correc t</w>
compan y</w>
as h
am an
alu etta</w>
ab or
Yhdistyne essä</w>
Portugu ese</w>
Kansa kuntien</w>
Ita ly</w>
Ira kin</w>
D en
A C
2 01
ä h
yleis sopimuksen</w>
wh ere
var ain
us kom
tur ing</w>
to re
ti me
tet tujen</w>
säännö s
su s</w>
si vu
se a</w>
s ent</w>
ryhmä mme</w>
repres ent</w>
relation ship</w>
reason able</w>
puhem ieh
pre z</w>
pa per</w>
pa ll
or s</w>
ongel maa</w>
ol enna
o ita</w>
neuvottelu t</w>
neuvottelu jen</w>
m et</w>
li ha
kul j
ita mme</w>
indic ators</w>
ic ated</w>
hol ding</w>
happ y</w>
gran t</w>
go al</w>
esit tämään</w>
epä onnistu
ep ing</w>
deli ghted</w>
Sec urity</w>
De prez</w>
Ber l
yhteis ymmärr
wa it</w>
vo inut</w>
uud elle</w>
tä yt
tä ltä</w>
tied on</w>
tapa us</w>
tan ne</w>
sta tis
ss ään</w>
sov ittelu
sosiaal isen</w>
sen d</w>
ran ge</w>
r ying</w>
par em
olo gi
nei ther</w>
met sä
ma ista</w>
laati a</w>
käytet tävissä</w>
kansainväl inen</w>
järjestel mien</w>
jäl ke
jo tain</w>
is in
ir man</w>
il un</w>
high light</w>
fac tor</w>
ess ämme</w>
def ence</w>
cre di
construc tion</w>
ck le</w>
arrang ements</w>
adop tion</w>
Tukhol massa</w>
Portugal in</w>
Meksi kon</w>
J ap
Colom bia</w>
yrity ksiä</w>
yhteisö jen</w>
ve h
tä hd
tote utu
tion ary</w>
tem por
tamis essa</w>
taloudell isten</w>
ta ka
t ter</w>
str ö
sion oso
sel vä</w>
sa ttu
ro und</w>
res urs
ra tes</w>
r yhd
proses sia</w>
pos t</w>
pos itions</w>
pidet tävä</w>
ov ember</w>
om ien</w>
neuvottelu ja</w>
mon issa</w>
maatalous politiikan</w>
levi ä
lead ers</w>
komissi ossa</w>
kokon aan</w>
koh te
ko vasti</w>
ki ä</w>
kan so
joutu vat</w>
is uuden</w>
interes ted</w>
inten tion</w>
huol en
huippukokou ksessa</w>
g n
fronti er</w>
f ying</w>
emen tary</w>
el ements</w>
eil en</w>
ehdotuks essa</w>
dra ma
defin ition</w>
conclu de</w>
c ement</w>
ar kk
aiko ina</w>
P S
N ovember</w>
Amer ikan</w>
A us
ä kseni</w>
y ksen</w>
w er
ver rat
va at
tol er
tois sijais
tet tyä</w>
ta ckle</w>
struc ture</w>
spen ding</w>
sisäl tää</w>
ra vin
pas sen
our ce</w>
otta vat</w>
os ti</w>
ob tain</w>
m usten</w>
lö yd
ll i
käytä nnön</w>
kri isi</w>
ko ihin</w>
k kä
is ena</w>
in in</w>
il e
ide as</w>
henkilö kohta
hallin to
go ods</w>
for get</w>
f are</w>
exten d</w>
eas y</w>
d us
carri ers</w>
ca used</w>
c al</w>
bi g</w>
appe ars</w>
adop ting</w>
ad s</w>
Yhdysval tain</w>
V ar
M ay</w>
M aa
Jun e</w>
Euroop paan</w>
Britanni an</w>
Balkan in</w>
Ass embly</w>
3 3</w>
199 5</w>
ympäristö ä</w>
vastu un</w>
vaiku tukset</w>
vaike aa</w>
tä viä</w>
tä isi</w>
transf er</w>
suo sionoso
sib ly</w>
se ktor
sanotta va</w>
s laugh
ren e
päät ty
pa y
o gra
muuto ksia</w>
main itsem
ma x
la id</w>
kol mas</w>
kehitys yhteistyö
is im
hiljat tain</w>
fi gu
fal us
enn alta</w>
em ättä</w>
bill ion</w>
ati es</w>
ar ing</w>
al kaa</w>
a ffairs</w>
WTO :n</w>
Swob oda</w>
Lam falus
G ö
EL DR</w>
: tä</w>
3 5</w>
vis it</w>
verrat tuna</w>
ver s</w>
vapau tta</w>
toimi valta
to p
ter ing</w>
sää s
strategi an</w>
sto ck</w>
spe ed</w>
ro kra
päätö stä</w>
päiv ä</w>
pid ä
pi in</w>
perustus la
pa per
on ers</w>
offici al</w>
ne itä</w>
na u
muo to
mar ras
läs nä</w>
käytö ssä</w>
kom men
koh tu
ker ro
jat kos
jat ket
inte ll
inn än</w>
inn e</w>
in aan</w>
ik aa</w>
hä tä
ffer ed</w>
fail ure</w>
ex change</w>
er ik
de fic
con sen
cl imate</w>
ca uses</w>
c entral</w>
bur den</w>
at tu</w>
ag o
Yhdysvall at</w>
Den mark</w>
C y
A ra
y ri
väh in
vapaa eh
van sa</w>
täys istunnossa</w>
tra vel</w>
tou ko
tilais uus</w>
suhtaud u
subsidi arity</w>
seura uksena</w>
set sen
reduc ed</w>
r ann
puolus tus
plan ts</w>
perus ta
p t</w>
ob vious</w>
o ffice</w>
mu tual</w>
m al
ku va
kaup paa</w>
järjes tön</w>
jatkos sakin</w>
inclu des</w>
hyö d
figu res</w>
esimer kki</w>
d ro
conc iliation</w>
by rokra
bur g</w>
ap par
Palestin ian</w>
P a
K y
In dus
F ra
F I
5 5</w>
viime inen</w>
valvon ta</w>
valmis ta
v is</w>
ul tima
tu h
tru ly</w>
tri ed</w>
thre a
ta ri
suunnitel man</w>
su ffering</w>
sit uations</w>
se et</w>
raho itta
päätöslausel massa</w>
politiik kojen</w>
poliitt iset</w>
pla yers</w>
pan o
pa ket
os uus</w>
op ening</w>
on eet</w>
ol isin</w>
menet tel
meet ings</w>
le h
la inen</w>
kuu n
kes tävän</w>
ke ja</w>
kas vien</w>
k käy
jäsen tä</w>
is hed</w>
ind ik
indik aat
in es</w>
hä v
gro unds</w>
de ath</w>
contro ls</w>
c oura
appla use</w>
affec t</w>
N S</w>
Koso von</w>
Fatuzz o</w>
EU: ssa</w>
Democ rats</w>
Bri tain</w>
vasta us</w>
vaati a</w>
typ es</w>
tu on</w>
tel ec
te red</w>
tal ks</w>
suur en</w>
sup ports</w>
suhte essa</w>
sh own</w>
s ett
ristiri id
ri en</w>
re ago
päiv än</w>
promot ing</w>
ple ase</w>
on es</w>
olog y</w>
occ asi
min imum</w>
miljoon an</w>
luo vu
laa ja</w>
käyttööno t
kri itt
kiinn i</w>
is uus</w>
im possible</w>
ette ivät</w>
et ty</w>
erä s</w>
enter pris
ef ly</w>
edusta jat</w>
del ay</w>
de ksi</w>
cho ice</w>
chan ce</w>
c y</w>
c lu
c attle</w>
be ings</w>
avu n</w>
au tom
asia kirjan</w>
aim s</w>
T setsen
M er
EC H
Cha mber</w>
Byr ne</w>
BS E
1 7
äskettä in</w>
yr it
yhteis työ</w>
wi lling</w>
vi ed
tr on
toimi vat</w>
tes ts</w>
tarko ite
tar jota</w>
sy ö
sovell etaan</w>
selke ä</w>
saata isiin</w>
recogn ised</w>
ra han
päät tävä
periaatte essa</w>
pel k
par as</w>
origin al</w>
one u
on te
om ais
ol es
oikeu teen</w>
mi c</w>
lä pi</w>
luon te
k asta</w>
jul kais
isy yttä</w>
interes ting</w>
il ies</w>
gi c</w>
geneett isesti</w>
finan cing</w>
fam ilies</w>
esit ti</w>
epäil emättä</w>
eläin lää
ehkä isem
distribu tion</w>
differ ences</w>
defin ed</w>
de gre
consen sus</w>
con stan
cl es</w>
c ent</w>
allis en</w>
allekirjo itta
aktiiv isesti</w>
a mis
Indus try</w>
. 5</w>
väl ine</w>
vuod esta</w>
vir he
viestin tä
v ina</w>
uh re
tu ken
toim i</w>
te tusti</w>
sijo itta
ser ies</w>
se hdo
schem e</w>
saa maan</w>
s port</w>
restric tions</w>
protec ting</w>
prosent in</w>
osoitta vat</w>
osapuol ten</w>
nei gh
negoti ating</w>
me ko</w>
läh te
kulu ttua</w>
kansallis en</w>
k id
it usten</w>
is t
invol vement</w>
il ta
ik ka</w>
hyv än</w>
huom i
hallit us
h und
ga ve</w>
ex emp
esiin ty
discrimin ation</w>
del a
consider ing</w>
ar v
ajan kohta
ag ed</w>
W h
Saks an</w>
Kinno ck</w>
A c
valvo a</w>
ulkopuol elle</w>
toimenpite et</w>
tied ot</w>
thou san
thousan ds</w>
ther lands</w>
telu n</w>
technolog ies</w>
te ful</w>
te et
ta hd
suure m
stand ard</w>
road s</w>
re mar
pitkä lle</w>
pas sed</w>
om asta</w>
näkökul masta</w>
na isia</w>
mon itor</w>
mo ot
lä hi
lä hen
lab elling</w>
kulj etta
kki ä</w>
kilpail un</w>
kan sa</w>
jo ko</w>
it ten</w>
is uutta</w>
is ts</w>
im posed</w>
happen ing</w>
f oun
en jo
emplo ye
empha sis</w>
des tro
d imen
con ven
comple x</w>
care fully</w>
a misen</w>
a ate</w>
V an</w>
Po et
Ne therlands</w>
yrity ksille</w>
ver se</w>
vastuu vapauden</w>
val u
vaatimu kset</w>
us kon
tä h
tut kia</w>
tun ne
tre ated</w>
suosionoso ituksia</w>
stu ffs</w>
strong ly</w>
sto od</w>
sol ve</w>
sano isin</w>
reques ts</w>
rele ase</w>
ratkais e
rakenn us
rail ways</w>
ra ja</w>
puuttu a</w>
peruste ell
perus oikeus
op posed</w>
moder n</w>
mene e</w>
mahd ot
la isia</w>
kysymyks estä</w>
kysymyks essä</w>
ks ell
kohd assa</w>
kasva tta
kan is
itet tiin</w>
integra ted</w>
impl ications</w>
h ence</w>
ff er</w>
fa iled</w>
ev ening</w>
er ship</w>
er r
comp ly</w>
charac ter
au tu
ase iden</w>
an toi</w>
aim ed</w>
NG Os</w>
C NS</w>
Banglades h</w>
Alban ian</w>
2 1</w>
yl im
ydin voim
veh ic
us ers</w>
työjärjesty ksen</w>
tila pä
tiet tyjä</w>
tempor ary</w>
tarpe eksi</w>
ta asti</w>
suojel un</w>
str ik
star ted</w>
sosi alis
some what</w>
resol ve</w>
res truc
require ment</w>
re hu
rail way</w>
pre ven
poh jo
peri aate</w>
pa ten
op position</w>
n es
myö tä
mu la
mp tion</w>
maahan muutta
liber aal
las tly</w>
käytö stä</w>
järjestö t</w>
ins pec
im pression</w>
hyödyn tää</w>
hi ten</w>
ensimmä iseksi</w>
ei ght</w>
dimen sion</w>
br inging</w>
at te</w>
ar m</w>
am erik
aj oneu
af ter
U S
K or
I S
GM Os</w>
CO D</w>
A s
4 2</w>
yhden ty
wel com
welcom ed</w>
vä stä</w>
var at</w>
v issä</w>
ur in</w>
tul k
todennäkö isesti</w>
ter inary</w>
teollis uus</w>
te ki</w>
tau lu
tapa uksia</w>
takais in</w>
su h
siz ed</w>
sisäl ty
sil ti</w>
siir r
sall ikaa</w>
ro ol
rene w
reac hing</w>
r ime</w>
päätöslausel ma</w>
puol usta
pres ence</w>
pollu tion</w>
piiri in</w>
pers pec
määri tell
la un
käsiteltävä nä</w>
kulutta ja
kulu essa</w>
kr itiik
komite a</w>
ko tima
kes ken
ke eping</w>
j ur
iv er</w>
ista minen</w>
f our
f eder
ex pen
essa mme</w>
es i
equ ally</w>
degre e</w>
continu ed</w>
con ver
con vention</w>
bu rea
b arri
as te
ac ts</w>
V al
Se a</w>
PS E</w>
H au
3 00</w>
yksi kö
yksi kk
yhteistyö ssä</w>
vää rin
vä hiten</w>
vol un
vasta uks
u fac
to isi
til as
tel u</w>
te bor
taloudell iset</w>
suku pol
se ka
sa isi</w>
res tor
reques ted</w>
prec au
poli it
pan kin</w>
op pos
on sa</w>
ol itiik
oc cu
määrä yksiä</w>
mietinnö stään</w>
mer ely</w>
man ufac
koske viin</w>
ki in</w>
keske yt
kansainvälis ten</w>
j en
hy lä
huol ehd
harmon isation</w>
gra teful</w>
f und</w>
expec ted</w>
ent isen</w>
ensimmä isessä</w>
elä ke
ei ll
edell ä</w>
declar ation</w>
commun ities</w>
ci vil
arti k
an tanut</w>
alue ille</w>
alo jen</w>
R oth</w>
Nizz assa</w>
Mar ket</w>
K OM</w>
Gö tebor
Direc tive</w>
yo to</w>
ymmär ret
yksinkerta is
wis hes</w>
wel fare</w>
vall an
vaikutu s</w>
ty yn</w>
tuot teita</w>
to isessa</w>
teki jä</w>
te illä</w>
talou s</w>
sy nn
su rance</w>
seuraa van</w>
sa ta
rah a</w>
radio active</w>
r at</w>
puuttu u</w>
pres er
or gan
ongel mista</w>
nä yt
ny a</w>
mä ä</w>
mit kä</w>
min äkin</w>
mechan isms</w>
manag ed</w>
kysym ysten</w>
komissi olla</w>
kaikki alla</w>
joulu kuussa</w>
jou du
in tä</w>
h ti
gh ting</w>
erinom aisesta</w>
ehdotuks een</w>
ed essä</w>
de ad
congratu la
cod ec
chall eng
b ar
asi de</w>
asem aa</w>
anta vat</w>
Qu es
P os
O c
K yoto</w>
D A</w>
Bel gi
yks een</w>
yhteistyö stä</w>
vä än</w>
velvollis uus</w>
valvonn an</w>
valmi ita</w>
us ko</w>
tune ita</w>
tulo kset</w>
tulevais uutta</w>
transpar ent</w>
toimen pid
then burg</w>
t ty</w>
substan ces</w>
sou thern</w>
scho ols</w>
reg is
reduc tion</w>
realis e</w>
rajo ja</w>
prec ed
om mun
oike assa</w>
o x
muka isen</w>
mer kille</w>
max imum</w>
ma lle</w>
llis een</w>
kertom uksen</w>
kap pal
kah ta</w>
joka inen</w>
it ä
institu tion</w>
inhim i
ik ään</w>
i va
hyväksyt tiin</w>
hi ll
for th
fac ts</w>
expla in</w>
elintarvikke iden</w>
el ement</w>
ehdo tetaan</w>
disab ilities</w>
de tään</w>
cot ton</w>
contin ues</w>
codec ision</w>
ca teg
c le</w>
associ ation</w>
ar ies</w>
Strasbour g</w>
Pro tocol</w>
Or ganis
Go thenburg</w>
G al
Con sum
Chech nya</w>
C or
201 0</w>
väh emmis
vastu un
vamma isten</w>
tämän päivä
turvallis uuteen</w>
ti va
telec ommun
ta tions</w>
suur ten</w>
speak er</w>
re p
raho ituks
puhu n</w>
practic es</w>
pi ll
pal kki
p k</w>
op enn
openn ess</w>
om aks
oblig ation</w>
moot tor
mon ta</w>
man a</w>
lin ked</w>
lik ely</w>
liit to
l ess
kää mme</w>
kasvu n</w>
jäsen valtiossa</w>
investo in
inves tments</w>
ine uvos
im ag
ik an
fac ed</w>
et c</w>
esit tämä
ensimmä istä</w>
dist inc
di versity</w>
conflic ts</w>
bio tekniik
bin ding</w>
basi cally</w>
b ab
ar vo</w>
appe al</w>
announ ced</w>
al thy</w>
Tamper e</w>
Mer cos
In don
E M
Consum er</w>
CA P</w>
6 3</w>
1 0
yksimiel isesti</w>
won der</w>
van kil
val ku
tärke in</w>
to p</w>
to istu
ten ed</w>
t tävä</w>
suku puol
suh teen</w>
struc tures</w>
sov itta
saa kka</w>
repres ents</w>
pro secu
pris oners</w>
pos t
pers onally</w>
pain os
om al
la under
kuu ka
kustann uksia</w>
kiin ni
j un
immedi ate</w>
ihmis oikeuksia</w>
i um</w>
hal un
grea test</w>
es tima
em ään</w>
em inen</w>
edisty stä</w>
coun ter
conduc t</w>
comb ating</w>
clari fy</w>
campa ign</w>
buil d</w>
at tava</w>
al ha
ad vis
Yugosla via</w>
P rime</w>
199 1</w>
ä m
yhtä lä
vuos ittain</w>
vuo ros
viljeli jät</w>
val taan</w>
vah v
va ksi</w>
union ia</w>
työnte ki
tu han
toteu tetaan</w>
toimin taan</w>
telem aan</w>
tehtävä nä</w>
te iltä</w>
spec ies</w>
sivi ili
sid es</w>
rajo jen</w>
pöytä kirjan</w>
puol ella</w>
prote in</w>
pres enta
pol tto
per c
p us
or i
on ne
om ia</w>
om a
oll aan</w>
mill oin</w>
me kanis
lö yty
lehd is
käsittely ä</w>
ku ka</w>
johdon mukais
itte es</w>
it ime</w>
ing u
hyväksy tään</w>
hi en
hen g
guarante ed</w>
forth coming</w>
follow ed</w>
fe ar</w>
excep tions</w>
esiin tyy</w>
en kä</w>
employe es</w>
deb t</w>
b a</w>
as ta
as sosi
am in</w>
alue et</w>
ac y</w>
K au
Ir lan
Intern etin</w>
G U
F or
12 .00</w>
yr ittää</w>
vähen tää</w>
vois in</w>
vi id
ves to
vesto ck</w>
vasta usta</w>
täy si
tärke än</w>
turvallis uus</w>
to isia</w>
to ber</w>
ten ing</w>
te re
strateg ia</w>
sig n</w>
s titu
s pread</w>
s li
raken ta
ra d
r id
pla yed</w>
pakol ais
paik alla</w>
orig in</w>
oles kel
myönte inen</w>
muod osta
mielen kiin
med ic
me ja</w>
me idät</w>
materi als</w>
markk ina</w>
lää ke
li vestock</w>
kustann usten</w>
komissi olta</w>
ko t</w>
kesk isuu
kansan terveyden</w>
kans an</w>
ka amme</w>
im es</w>
helmik uuta</w>
guarante es</w>
grow ing</w>
flexi bility</w>
fi f
exper ts</w>
exerc ise</w>
exc es
eurooppal aiset</w>
enem pää</w>
elec tron
eh rend
e fully</w>
cos me
chan ging</w>
ca pa
b la
b ad</w>
as sure</w>
ar k
aihe utu
Y :n</w>
Oc tober</w>
H i
GU E</w>
B ehrend
3 2</w>
1 1
, 5</w>
äs ken</w>
ympäristö ön</w>
w in
vi ta
vaike uksia</w>
use im
us tra
us se
tö ihin</w>
täll aisia</w>
työsken tele
työ n
tuot te
tul i</w>
tta vat</w>
tell ut</w>
tarjo a
tammik uuta</w>
säil yttää</w>
sivi il
shor t
sa mme</w>
sa i</w>
politic ians</w>
perfec tly</w>
p om
osu hte
opti mis
ol osuhte
ohjel massa</w>
ob sta
nyky isin</w>
neg ative</w>
myönte istä</w>
mo ved</w>
liitty vän</w>
liitty vistä</w>
le e</w>
launder ing</w>
laad un</w>
kuu lla</w>
ks elle</w>
kno ws</w>
kas vi
k yt
jäll een
julk isten</w>
ite ll
inten ds</w>
impor ts</w>
il os
het k
he iken
hankke ita</w>
go als</w>
gener ally</w>
expres sion</w>
equ ip
equ ality</w>
elec tion</w>
d oll
continu ing</w>
consu mption</w>
consider ations</w>
citiz en</w>
burea uc
b ers</w>
arkk ino
ar ed</w>
alka en</w>
a h
W all
Ukrain an</w>
Re gi
Pos sel
Pal estiin
OLA F
Ky pro
J o
Ch risti
z one</w>
vi ivä
ver si
vapa us</w>
vall itsee</w>
tämän hetk
tois ta
ti lo
tety n</w>
strö m</w>
stan ds</w>
si hte
ser ve</w>
sanot tuna</w>
ris ke
re action</w>
puut teell
puol estaan</w>
proc eed
pen sions</w>
p anna</w>
oper ators</w>
ol isimme</w>
occasi ons</w>
numer ous</w>
mun a</w>
monop ol
minister ineuvos
menet tely</w>
markkino ita</w>
löy tää</w>
lä mp
lu v
las ten</w>
l ta</w>
koulu tusta</w>
kos me
koh tana</w>
keskustelu ja</w>
kes tävä
kau pan
j alka
its estään</w>
invol ve</w>
in vi
in come</w>
in ais
go t</w>
ehdokas valtioiden</w>
dis pu
des ire</w>
contra dic
b ra
ati for
ann ettu</w>
an kar
aj ien</w>
ad vo
aa muna</w>
Scheng enin</w>
Rus sian</w>
Re presenta
Organis ation</w>
M ir
Ki oton</w>
K atifor
Intern al</w>
H usse
Gen eva</w>
FI F
D an
Bus h</w>
B as
öl j
wr itten</w>
vis a</w>
valtio issa</w>
vaikutta vat</w>
uud essaan</w>
ty h
toim is
todell akaan</w>
tieto inen</w>
tied otta
ti u
telecommun ications</w>
sy yttä
su hd
strategi aa</w>
seura ta</w>
ri it
resol ved</w>
rahan pes
rah at</w>
pää osas
propos ing</w>
proper ty</w>
pr us</w>
pois taa</w>
pit o
oikeu tetusti</w>
nel jä</w>
neigh bour
monim uo
m us
lo ka
liik aa</w>
langu age</w>
l ost</w>
ks istä</w>
kam pan
kalas tuksen</w>
jud g
joka isen</w>
j emme</w>
ita tion</w>
ita ble</w>
it u</w>
is tään</w>
improv ements</w>
han d
haluais imme</w>
fre ight</w>
exam ine</w>
enterpris es</w>
eni ten</w>
en de
ende av
em mä
el imin
e ful</w>
compe tence</w>
comp li
avoim uuden</w>
avoim esti</w>
associ ated</w>
ase tus</w>
ar ia</w>
am paa</w>
al usten</w>
a ver
M iddle</w>
I V</w>
G ar
Cy prus</w>
z io</w>
wi ll
vuoropuhel un</w>
veto om
val in
v i</w>
ultima tely</w>
tur ning</w>
tod istu
st res
sit o
si iv
seura a</w>
run sa
ro oli</w>
restruc turing</w>
re ite
propos es</w>
pl en
par tly</w>
om en
oll inen</w>
no jalla</w>
ne llä</w>
modi fied</w>
mi e
merkittä västi</w>
liitty vä</w>
lainsäädän tö</w>
la test</w>
käyd ään</w>
kyseen alais
ker ta</w>
kehittä misen</w>
joukko jen</w>
ja ks
infrastruktu uri
in tiin</w>
i ten</w>
hyväksyt ty</w>
exam ples</w>
ex tra</w>
ep idem
en han
eläim iä</w>
differ ence</w>
des truc
contain ed</w>
construc tive</w>
comm ittees</w>
c o</w>
b om
asian mukaisesti</w>
as sani</w>
ar von</w>
ap poin
all aan</w>
aika välin</w>
S al
P la
O omen</w>
NG L</w>
Kore a</w>
K es
Fre ed
Fis her
A L
vasta uksen</w>
va llis
un n
u ly</w>
tekn isiä</w>
tau ti
sus pen
subsi dies</w>
star ting</w>
san onut</w>
s ki</w>
ro und
ristiriid assa</w>
re ject</w>
pää ministeri</w>
proc esses</w>
perä isin</w>
osallistu mista</w>
op a
om ista
om alla</w>
oikeuden mukais
offici als</w>
n ation</w>
mor ator
merk in
men ding</w>
maintain ing</w>
ly ö
li han</w>
käsittely n</w>
kuolem an
kehity kseen</w>
kasvu a</w>
jo ille</w>
it tu
il tana</w>
i pu
hyväks yty
huolen aihe
h id
f el
ex ports</w>
ess ing</w>
en ab
electron ic</w>
e kin</w>
dis pos
direktiiv e
cour t</w>
contac t</w>
compe tent</w>
compar ed</w>
bri efly</w>
b it</w>
an ti</w>
amp ;</w>
advanta ges</w>
Y R
T he</w>
P ur
Fra mework</w>
F YR
Com mun
Amsterd am</w>
& amp;</w>
än kin</w>
ympäristö asioiden</w>
x im
vuoropuhel ua</w>
vaka va</w>
uud estaan</w>
usko tta
työ hön</w>
tutkim usta</w>
tulevais uudesta</w>
tu tus
tu oll
toista iseksi</w>
tilais uutta</w>
tiedonann on</w>
te in</w>
tasa puol
sääd ö
sä kin</w>
suures ti</w>
suhte ellisen</w>
siir tol
separ ate</w>
sec ure</w>
s em
ris ki
quan t
pet o
perus taa</w>
ole vaa</w>
ni ght</w>
n it
legit imate</w>
kolman nen</w>
kol og
kohd ista</w>
ittä mistä</w>
isy yden</w>
i taa</w>
he idät</w>
hallit ukset</w>
h ou
feed ing
er o</w>
elä män</w>
e ten
dyna mic</w>
bri ef</w>
assis tants</w>
asiakirjo ja</w>
and zio</w>
al aan</w>
a miseksi</w>
Var el
V itor
Sal va
R andzio</w>
Kre ikan</w>
K al
I son</w>
Fisher ies</w>
ymmärr än</w>
wa iting</w>
välttämä tön</w>
väline iden</w>
vastuu llis
vakuu ttaa</w>
use at</w>
työpaik koja</w>
tur s
tu emme</w>
tor sta
tonn es</w>
toissijais uus
tehokkuu tta</w>
suojel ua</w>
streng th
selv ittää</w>
sel ec
sec re
se itsem
saa pu
roh ke
ra ha
peruste ellisesti</w>
perspec tive</w>
per for
pen sioners</w>
particip ate</w>
one tary</w>
oikeus -</w>
neuvottelu issa</w>
muod ossa</w>
mul ti
min e</w>
mielell äni</w>
mas s</w>
maa ta</w>
kyv yn</w>
kaud ella</w>
jo ku</w>
it tämään</w>
ista maan</w>
indus tries</w>
ilme isesti</w>
his tory</w>
han kal
ga in</w>
g ol
fam ili
f ran
exten ded</w>
exis tence</w>
eurooppal aisia</w>
ell ei</w>
ec u
e ir
de ep
c ou
ann etta
amp i</w>
am ma
alu n</w>
ala inen</w>
ajoneu vo
aine ita</w>
ad jus
acti vely</w>
L an
Hi gh</w>
E uro</w>
D u
D ani
199 0</w>
yhd yn</w>
wor k
vi hdo
vaad imme</w>
ulkopuol ella</w>
tu kien</w>
tr ansa
tilintarkastus tuomioistuimen</w>
tiet tyjen</w>
ter n</w>
tell eet</w>
teks tin</w>
tarko itan</w>
t ista</w>
syn tyy</w>
suhtaud un</w>
sosiaal ista</w>
si vely</w>
sa man</w>
s cru
repres ented</w>
pursu e</w>
ph ase</w>
pan e
om assa</w>
ohjel masta</w>
merkittä viä</w>
man age</w>
lo wer</w>
laaj asti</w>
käs ittä
kysymyks issä</w>
kys el
kuul u</w>
kulutta jat</w>
kul ku
ksi kin</w>
ken ut</w>
kasv u</w>
kas vaa</w>
j our
istun to
il u</w>
help ing</w>
ge en
finan ce</w>
edusta jien</w>
edell eenkin</w>
disab led</w>
de pendent</w>
d in
consequ ently</w>
b ase</w>
assu me</w>
as tr
arm ed</w>
appro val</w>
alo itetta</w>
allis esti</w>
al usta</w>
a void
Ru ij
M us
L äh
vasta avat</w>
var i
usko akseni</w>
urs day</w>
under taken</w>
tyy pp
tut k
tele vat</w>
tekem istä</w>
tarv etta</w>
sta y</w>
soker i
sod an</w>
se ja</w>
sanot tu</w>
sa w</w>
sa in</w>
rin na
pys ty</w>
propor tion</w>
pri l</w>
pos sibly</w>
par anta
om at</w>
muu nnet
maailmanlaaju istu
ll een</w>
laus e
larg ely</w>
jat kossa</w>
itur vallis
ir y</w>
ihmis tä</w>
g in
fac ing</w>
ette mme</w>
et si
esit än</w>
ent it
enemmis tö
encoura ging</w>
edusta ja
ed ut</w>
e vi
dang er</w>
commun ications</w>
cen tre</w>
asia kirja</w>
arvio inti
ann an</w>
after noon</w>
aan kin</w>
Th ursday</w>
M onetary</w>
Kolum bian</w>
Isra el</w>
Euroop asta</w>
Dani el
C res
Bar ón</w>
A pril</w>
wor se</w>
volun tary</w>
vi enti
tämis essä</w>
tulo s</w>
tu on
tu kia</w>
toimenpite iden</w>
toim imaan</w>
toim een
to t</w>
time table</w>
til ä
there by</w>
ta vall
suoj ella</w>
sija itse
siirty mä
sen sible</w>
s inc
reflec t</w>
rakenn era
quali fied</w>
py ö
poliit ik
per man
pay ments</w>
pako t
pa kko</w>
opin ions</w>
ongel miin</w>
od aan</w>
näkö kohtia</w>
menesty ks
mahdo llinen</w>
ma ille</w>
legit im
lausun non</w>
konflik tin
kesken ään</w>
kauppa -</w>
ittä vä</w>
il mas
ik kaa</w>
hankke iden</w>
fir m</w>
ent ity</w>
enna ko
endor se</w>
ell ed</w>
edisty s
determin ation</w>
cus tom
con solid
compli ance</w>
clas si
br ings</w>
b aan
aver age</w>
asian om
asiakirjo jen</w>
ar ise</w>
ar ch
af for
Ver ts</w>
O n</w>
F O
C am
5 1</w>
2 3
än sä</w>
yhteis päätös
w ood</w>
väär in</w>
vä ssä</w>
vä lia
vuod essa</w>
vat kin</w>
vapau teen</w>
vall itse
v ity</w>
us -</w>
under stood</w>
traged y</w>
teks t
tau ti</w>
tarkoituks en
tark emmin</w>
tain ed</w>
suure t</w>
suhte et</w>
sisäll yttää</w>
saan en</w>
s tor
rela tes</w>
re vis
ratkaisu ja</w>
qu ar
py ys
puheenjohtaja valtion</w>
protec ted</w>
produc ing</w>
po or
plann ing</w>
pi eni</w>
perus telu
o ihin</w>
norma l</w>
mu ille</w>
mis essä</w>
mer iturvallis
mar itime</w>
lin k</w>
liikenn em
laa tua</w>
la itte
kulje tusten</w>
ko os
kilpailu a</w>
ke in
kansa llisia</w>
kaik esta</w>
järke vää</w>
ita va</w>
invol ves</w>
inn ut</w>
indic ated</w>
het ki</w>
henkilö itä</w>
fron t</w>
fe ed</w>
facilita te</w>
f la
er ing</w>
eläim et</w>
dise ases</w>
di c</w>
deta ils</w>
destruc tion</w>
demokrati aa</w>
deli ber
conclu ded</w>
co d</w>
cla im
aw ar
avoim uus</w>
ark alu
al baan
a ma
Representa tive</w>
Presid ents</w>
O :
Ni el
Läh i</w>
H ol
Bryssel issä</w>
AL E</w>
2 00</w>
viljelijö ille</w>
vapau ksien</w>
va u
täyd ell
tävä ksi</w>
täll aiset</w>
ty neet</w>
tur ned</w>
torjun n
tieto isia</w>
tel emme</w>
tax ation</w>
tar ve</w>
t osta</w>
syste ma
sub sequ
satisfac tory</w>
saavutta miseksi</w>
ris m</w>
re por
ra ft</w>
puu vill
promis ed</w>
prim arily</w>
poh tia</w>
pas s</w>
paran tamiseksi</w>
oike uksista</w>
o u</w>
n tä</w>
my r
morator ium</w>
mol emmat</w>
moder n
min im
lämp im
lo g
li ability</w>
l ose</w>
koros tetaan</w>
kon e
kin tä
ki is
ke pt</w>
ke ino</w>
järjestel mään</w>
järjestel miä</w>
jo kin</w>
j assa</w>
il mi
hyväksy mään</w>
huom ion</w>
hallitus ten
gi ble</w>
g la
experi enc
etu sija
esittä neet</w>
es in</w>
disas ter</w>
d re
appro ve</w>
aik om
ad vice</w>
a jo
Ser bia</w>
Ger man</w>
Christi an</w>
3 1</w>
yhteen sovitta
yhte isestä</w>
x ed</w>
vält tää</w>
väli lle</w>
vie w
var muu
valu able</w>
val uu
ulkom aan
ula tions</w>
täytäntöönpan o
tulo ks
tu te</w>
tr ans</w>
tor al</w>
toiv e
toimenpite isiin</w>
tion ing</w>
thorou gh</w>
te x
tarko ita</w>
sym pa
suure mpi</w>
strength ening</w>
strateg ies</w>
se where</w>
se ven</w>
s yd
s tre
s ki
riippu matta</w>
re kis
rakenne uudistu
r ich</w>
pyyd ämme</w>
precau tionary</w>
prec ise</w>
politic s</w>
pe ac
pal estiin
observa tion</w>
o tamme</w>
nä y
monimuo tois
mo bility</w>
mil k</w>
mi tenkään</w>
merk ityks
mall ia</w>
loppu jen</w>
lo w
ll isiin</w>
l yh
kä teen</w>
kuu kau
koske vissa</w>
konflik tien</w>
kka ita</w>
kka a</w>
jäsen valtio</w>
ises tään</w>
investo inte
individ u
in adequate</w>
im bab
i red</w>
hu hti
henkilös tö
he ad
han ds</w>
fo ot
fel t</w>
feeding stuffs</w>
et tely
es tic</w>
er ro
ent isestään</w>
ensisi ja
en immäis
eläin koke
el sewhere</w>
edusta j
dis ci
disci pl
dec isi
cop y
coher ent</w>
certain ty</w>
c au
be ha
back ground</w>
ava in
artik la
appro xim
allis ten</w>
aja tus</w>
a misesta</w>
W i
Tre aties</w>
Tamper een</w>
Poet tering</w>
M os
M al
K T</w>
Indon es
F l
Ex ternal</w>
E Y:n</w>
Bullman n</w>
Afrik an</w>
5 00</w>
2 9</w>
välttämät tä</w>
väline et</w>
välia ik
vies t
vielä kin</w>
vehic les</w>
v ements</w>
unanim ously</w>
u ussa</w>
täytäntöönpan oa</w>
työntekijö itä</w>
tutkimus -</w>
tuoll oin</w>
til asto
tii vi
tel tava</w>
tel i</w>
suhte ita</w>
stric t</w>
sopim uksesta</w>
sisäll ö
safegu ard</w>
s y</w>
s ource</w>
ristiri ita
ratkais un</w>
ratkais ua</w>
pitä vät</w>
pit i</w>
per inn
passen gers</w>
parlamenti lla</w>
parlamentaar isen</w>
parlament tien</w>
palvelu ja</w>
over come</w>
organis aati
oper ating</w>
ol der</w>
nä ille</w>
nope an</w>
no tes</w>
mo vements</w>
mechan ism</w>
man sa</w>
mahdot onta</w>
mahdollis taa</w>
maan viljelijöiden</w>
m pää</w>
lu ot
lop et
ll s</w>
lear ning</w>
la illa</w>
kokonais valta
keske y
kertom uksessa</w>
keho tan</w>
kehittä mistä</w>
kahd eks
j iä</w>
itsell een</w>
istun to</w>
is emmin</w>
im pose</w>
identi fied</w>
hyvä stä</w>
help po
he althy</w>
funda men
flexi ble</w>
exces sive</w>
eval u
ensi ksikin</w>
ehdo tusten</w>
dra wing</w>
dispos al</w>
dis tor
determin ed</w>
copy right</w>
confir med</w>
confir m</w>
bo o
assosi aati
ase tetaan</w>
appl ying</w>
amp ia</w>
amerik k
alis e</w>
ab s
a ff
Palestiin an</w>
199 4</w>
yle isen</w>
vä itte
ver sion</w>
vastus ta
valtio ita</w>
vakuu ttu
vaka uden</w>
vaiku tus
uu ksia</w>
uskom me</w>
tää ltä</w>
täs mä
työ voim
tur y</w>
tukem aan</w>
toteu tetta
toimielim et</w>
toim ik
tehtä viä</w>
te tä</w>
tarv itsee</w>
su ffici
stu dies</w>
siir tää</w>
shar ed</w>
sell aiset</w>
see ing</w>
se x
s ista</w>
rik kom
res um
rakennera has
pur ka
pros per
prior ite
poliitt isesti</w>
pend ence</w>
parlament tiin</w>
os opim
oc ca
occa sion</w>
o vatko</w>
o il</w>
n ais
minkään laista</w>
me iltä</w>
market ing</w>
ma l</w>
liitty vää</w>
käy nyt</w>
ks in
kk inä</w>
keskus tellaan</w>
kat som
j al
its isi</w>
istunn on</w>
inn ista</w>
in surance</w>
in ely</w>
hop efully</w>
happen s</w>
genu inely</w>
fre qu
fer red</w>
fa ir
f arms</w>
coura ge</w>
con tain</w>
com pati
cen tury</w>
b ann
ase ita</w>
appreci ate</w>
ans wers</w>
ala isia</w>
aikais esti</w>
ac knowledge</w>
a voin</w>
W og
Pak istan</w>
OLAF in</w>
M ong
M in
J uly</w>
I C
F unds</w>
F eder
ECH O</w>
E mp
CO S</w>
Bos nia</w>
Barcel ona</w>
1 8
yhte isessä</w>
wha te
whate ver</w>
viis u
vastaan otta
uud ella</w>
tu ista</w>
todellis uudessa</w>
ti ally</w>
tel en</w>
te ne
te i</w>
tac kl
ta van
sym b
sy ys
suojel u</w>
sosiaalitur va
sosiaal inen</w>
sijo itus
sig n
religi ous</w>
refer ring</w>
re move</w>
rauta tieli
pyy tänyt</w>
puheen vuoros
plann ed</w>
pal au
pakol aisten</w>
p pa
or al</w>
ongel mana</w>
n in</w>
minu tes</w>
mietin tön
maan i</w>
lop ussa</w>
liitty mistä</w>
käsiteltävä ksi</w>
kysymyks eni</w>
kansainvälis tä</w>
kah teen</w>
joulu kuuta</w>
its enä
in t
immä t</w>
ill ani</w>
ihmis en</w>
hä pe
hä mmä
hyväksy nyt</w>
ho itaa</w>
he ij
hank keen</w>
h inno
gra du
g one</w>
famili ar</w>
equip ment</w>
ent y</w>
ensisij aisesti</w>
ed etä</w>
e y
at trac
assis t</w>
argu ment</w>
ar z
an ti
a in</w>
Z imbab
Ru le</w>
R ural</w>
Lat in</w>
F er
E co
C itiz
Barcel on
Af gh
6 .</w>
4 3</w>
200 5</w>
2 2
01 7
ympäristö n
ylim äärä
yle isten</w>
väl isestä</w>
vi isi</w>
valtuus kunnan</w>
vaiku tusta</w>
tö itä</w>
työsken tely
ty ihin</w>
tu ina</w>
tra ck</w>
toimin ut</w>
to tu
terve yttä</w>
tele vision</w>
tek op
teho kk
taan ko</w>
sur round
statis tics</w>
si vat</w>
sall ia</w>
ru ot
reser va
re infor
raken teell
qu i
pöytä kirj
puh ke
puh een</w>
proc eed</w>
pos ti</w>
perus tamista</w>
p sy
osapuol et</w>
om an
nä mme</w>
nuor ia</w>
määr ät
myön tää</w>
muu n
minis ter</w>
lopul takin</w>
lo yment</w>
li i
laittom an</w>
laajentu misen</w>
l än
kokonais uudessaan</w>
kohtu u
kiel täyty
kes ku
kaup pa</w>
kar jan
kalastus politiikan</w>
kaikki aan</w>
julkilaus um
jon kin
iken ne
ic ate</w>
huolestu tta
he inä
gre at
g issa</w>
ex pl
ex p
enemmis tö</w>
emis sion</w>
dom estic</w>
deb ating</w>
char ges</w>
challeng es</w>
cal c
c at
asian aja
ar me
am bi
ad e</w>
a amme</w>
Varel a</w>
T rans
S and
P l
P i
Nor dic</w>
Maa ilman</w>
Irlann issa</w>
Emp loyment</w>
D S</w>
C F
Alger ian</w>
A tlan
5 6</w>
4 8</w>
199 3</w>
00 6
yhteistyö hön</w>
vuo sia</w>
viivä sty
varmis tettava</w>
vapa ata</w>
vapa asti</w>
vapa a</w>
valtio ta</w>
vaati vat</w>
uraan ia</w>
union ille</w>
ulkop olitiik
ulkom inis
tö män</w>
työ llis
tun tu
tule vien</w>
tuks essa</w>
tor ate</w>
tol a
toiminn asta</w>
tie tävät</w>
tehtävä ä</w>
tavoitte ista</w>
tasapain o</w>
tas ks</w>
tar get</w>
tapa hd
tapa an</w>
ta so</w>
sääntely n</w>
sy itä</w>
seura ukset</w>
scho ol</w>
sa ar
riippu va
re min
raho itusta</w>
pyy tä
puheenvuor oni</w>
prosess issa</w>
proses siin</w>
plen ary</w>
periaat teita</w>
periaat teiden</w>
pan a</w>
ot tom
os p
men ne
mat on</w>
man d
käsittele e</w>
käsittel emme</w>
ky l
koskemattom uuden</w>
konfliktin es
kohd asta</w>
keho ttaa</w>
kehity ksestä</w>
jäsen ille</w>
jou tuu</w>
jalka pall
ja u
j ääd
it tujen</w>
isi llä</w>
inf ec
imp ia</w>
ilmo ittanut</w>
ill een</w>
id entity</w>
huom auttaa</w>
hop es</w>
ha kem
ha b
great ly</w>
fulfi l</w>
fi ghting</w>
etu käteen</w>
et tis
entit led</w>
en try</w>
emb ow
emb ar
em iseksi</w>
ehdo t</w>
direktii viin</w>
di an</w>
de plo
car rying</w>
c a</w>
believ es</w>
arz embow
artikl assa</w>
argu ments</w>
all er
aika taulu
S ME
SME s</w>
R o
Possel t</w>
N ev
J arzembow
Isra elin</w>
GM O:
5 7</w>
äänes tä
ä llä</w>
yks issä</w>
vu us
voit u</w>
viik on</w>
ver on
vapautta misen</w>
val ko
vacc in
us in</w>
und oub
undoub tedly</w>
u tunut</w>
tämä stä</w>
täh tää
tutkim us</w>
tunn usta
tun ate</w>
tu le</w>
ttu jen</w>
tote si</w>
tois taa</w>
tois inaan</w>
teks ti</w>
teho kas</w>
ta ul
spo ke</w>
simp li
si mme</w>
seuraa vat</w>
sa mat</w>
runsa asti</w>
ro om</w>
respec ted</w>
ra pid
päätöslausel maa</w>
pyr imme</w>
puheenjohta jana</w>
pre mi
pa hen
p onnistu
olo issa</w>
o ffered</w>
nähd en</w>
necess arily</w>
määrä ykset</w>
mä ssä</w>
muod ostaa</w>
mu t
mu illa</w>
monimut ka
min ority</w>
miljar dia</w>
men nä</w>
mar gin
mahdollisuu ksien</w>
lin ed</w>
la keja</w>
l ying</w>
käyt tävät</w>
käynn issä</w>
kala talous
järjestelmä stä</w>
järjes tää</w>
johd osta</w>
it täminen</w>
ilu a</w>
hyö kkäy
hear t</w>
hall into</w>
fa il</w>
f ast</w>
excep tion</w>
ehdottom an</w>
easi er</w>
demokraatt isen</w>
defin e</w>
com pla
care ful</w>
c eil
arkalu onte
allow ing</w>
ala lle</w>
al in</w>
aj at</w>
aika taul
a ud
Wog a
Ser bian</w>
Sec re
L I
I P
H ome</w>
Götebor gin</w>
Fin an
D ef
Cres po</w>
Cha irman</w>
B ol
Amsterd amin</w>
yli pää
yksikk ö
yhte isiä</w>
yhd isty
yh tään</w>
x th</w>
wa ters</w>
vied ä</w>
vi our</w>
vi it
ver ran</w>
van g
use iden</w>
ur ities</w>
und a
ud u
u ne
tru th</w>
tra gic</w>
toteutta mista</w>
torj ua</w>
tic les</w>
ti veness</w>
te ihin</w>
te e</w>
suspen ded</w>
succ eed</w>
sub jects</w>
sit te</w>
short com
shortcom ings</w>
seur anta
seik ka</w>
satis fied</w>
saman aikaisesti</w>
s mo
rec ord</w>
rann ik
pää asiassa</w>
pyy nnön</w>
pyy nnö
puu tu
pu la
prosent tiin</w>
priva tis
pla ces</w>
pien en
par empaa</w>
otta matta</w>
opp im
onn e</w>
om et
ohjel mia</w>
nu ore
n ity</w>
määrä ysten</w>
määri ä</w>
myönte isiä</w>
mill ään</w>
mi in
mi gration</w>
lä hd
lo ading</w>
liber al</w>
li itte
l eng
kos ke</w>
ko t
kiit ollinen</w>
ka ttaa</w>
ka asu
issu ed</w>
introduc ing</w>
i assa</w>
hyö ty
hyväksy y</w>
hyväks ym
huoleh ti
huol issaan</w>
high est</w>
h inn
gran ting</w>
func tion</w>
fu sion</w>
fe el
f arm</w>
enna kko
en tr
ell i</w>
ed ing</w>
easi ly</w>
direktiiv issä</w>
demonstra ted</w>
dela ys</w>
cour ts</w>
cosme tics</w>
contro lled</w>
ch em
c as
br it
becom es</w>
b ila
b ig
an tu
alis m</w>
aiheutta vat</w>
adap t</w>
absolu te</w>
a z
Lat in
Ira q
He ads</w>
Gre ens</w>
FYR OM</w>
F unda
F und</w>
Eco fin</w>
Citiz ens</w>
A I
7 5</w>
3 9</w>
yhte yttä</w>
vähin tään</w>
verkko jen</w>
var aa</w>
uks elle</w>
työ ssä</w>
trad ition</w>
tol ta</w>
tois tan</w>
tois enla
th ly</w>
tet täisiin</w>
ta kaa</w>
selv ittä
sala kulje
sa si
s mall
ryhmä t</w>
re a</w>
rapid ly</w>
pää ll
prof its</w>
prepar ing</w>
pite mmä
pien ten</w>
perustamis esta</w>
perman ent</w>
penal ties</w>
pa h
p ing</w>
num bers</w>
nim issä</w>
ni c</w>
määri tellä</w>
muuto s</w>
muu ton</w>
muu alla</w>
min ut</w>
merkittä vää</w>
med ical</w>
me al</w>
markkina järjestely
maahan muuton</w>
luop u
llis essa</w>
langu ages</w>
la tter</w>
käsittely yn</w>
kuu kautta</w>
ks ella</w>
kri isin
kolleg amme</w>
koh tiin</w>
keskitty ä</w>
järjes tö</w>
jul istu
i jan</w>
highli ghted</w>
henkilö t</w>
g as</w>
fac ilities</w>
ex ecu
esittelijä nä</w>
ell ista</w>
edusta jia</w>
e k</w>
descri bed</w>
d t</w>
credi bility</w>
constitu tion</w>
consis ten
cond ition</w>
beha viour</w>
atta ck</w>
ap pointed</w>
alterna tives</w>
affec ts</w>
a van</w>
Trans port</w>
T si
Re port</w>
Pl an</w>
O l
N ic
N L</w>
Mir and
Maca u</w>
Luxemb our
La e
Funda mental</w>
F ran
Af ganis
ä kseen</w>
yle istä</w>
yks is
yhteis vastuullis
w ent</w>
voita va</w>
viim eksi</w>
var ha
vapautta mista</w>
vapa an</w>
uu tensa</w>
union illa</w>
uni on</w>
työpaik kojen</w>
työllisy yttä</w>
tuotan toa</w>
todell isen</w>
terroris m</w>
teollisuus -</w>
tehok asta</w>
teen harjoitta
technolog ical</w>
tavo itetta</w>
tarkistu sten</w>
tarkistu ksista</w>
tapo ja</w>
talousarvio on</w>
ta k
ta isiin</w>
syy t</w>
sup posed</w>
suhtaudu mme</w>
sugges ted</w>
sugg est</w>
su ffer</w>
sovell etta
sovel tamis
sorkka taudin</w>
sopim ukset</w>
so tilas
slaugh ter</w>
sisä markkinoiden</w>
saatta vat</w>
saata villa</w>
respec tive</w>
re ti
r yhdy
qu al
pys ä
pyrki i</w>
pris ons</w>
pp ed</w>
pit ää
pi c</w>
pain ottaa</w>
paik an</w>
p ath</w>
os ana</w>
ongel ma
odo tan</w>
nor thern</w>
my yn
mu itakin</w>
mot or
minis ters</w>
mi lla</w>
mer i
main itsi</w>
maa han</w>
kul jet
kes tävää</w>
kanso jen</w>
