#version: 0.2
i s
t h
t e
i n
t a
i t
a n
e n
e n</w>
th e</w>
o n</w>
i n</w>
a l
t i
e s
a n</w>
o n
a r
e r
l l
s i
r o
t u
t ä
a t</w>
t a</w>
r e
o u
t o</w>
o r
o f</w>
o m
a s
o s
o l
e t
e l
j a</w>
i s</w>
u s
k s
t ä</w>
an d</w>
e m
i k
i m
in g</w>
i d
t o
e s</w>
r a
l a
o p
m a
s a</w>
j o
k a
u u
i l
e d</w>
m is
i c
ä n</w>
m en
th at</w>
e r</w>
h a
ti on</w>
v a
m e</w>
k u
v o
v ä
v i
k e
al l
v e</w>
e c
u ro
a l</w>
w h
p ro
t y
s a
s u
o r</w>
e t</w>
E uro
n e
r es
p u
n o
et tä</w>
ä ä
n i
l i
a t
m i
r i
d e
k o
j ä
w e</w>
te n</w>
t i</w>
e en</w>
h d
p os
f or</w>
a c
te l
m u
th is</w>
c on
a s</w>
i t</w>
v al
p ar
t ta
y s
t s</w>
l e
@ -
@- @</w>
is i
p a
p e
ks i</w>
k i
l e</w>
en t</w>
k a</w>
b e</w>
l y</w>
v at</w>
y h
k ä
is ta</w>
ll a</w>
s e
s ä</w>
si on</w>
m e
p or
id en</w>
ll e</w>
ar e</w>
in en</w>
k an
it i
t ö
it ä</w>
ta r
l d</w>
ti on
p er
c om
no t</w>
te r
d i
m y
tä m
k in</w>
u n
ha ve</w>
u t</w>
c e</w>
ou ld</w>
u o
v er
men t</w>
a is
te d</w>
e d
c i
i h
ou n
ll ä</w>
u r
a d
w it
k si
C om
wit h</w>
ic h</w>
p ol
ll is
wh ich</w>
t r
te n
u l
ta an</w>
f or
k om
s e</w>
t ta</w>
h u
Euro op
it y</w>
a si
a g
n ä
h y
l u
jä s
v as
h o
ta n
ta a</w>
a tion</w>
& a
&a pos
e x
al u
m me</w>
h e
a b
er e</w>
b y</w>
to im
v a</w>
Euro pe
my ö
il l</w>
e i</w>
n n
th e
s o
Europe an</w>
t e</w>
a an</w>
w ill</w>
s o</w>
hd o
kom is
s h
k os
yh te
g h
is es
is sa</w>
Euroop an</w>
Com mis
it tä
ik e
l is
i r
p o
ou r</w>
tion s</w>
u ks
ha s</w>
q u
al l</w>
is tu
m ä
p ää
it a</w>
f f
e v
y t
as sa</w>
m in
M r</w>
w or
i v
it te
l o
j en</w>
n a
tu r
d en</w>
kan s
th er</w>
us t</w>
res id
n y
la men
em me</w>
o ike
vo is
par lamen
0 0
v ar
u s</w>
i es</w>
ty ö
i te
vä t</w>
por t</w>
es ta</w>
r is
k es
jäs en
er s</w>
ka ik
a p
is i</w>
Commis sion</w>
ou t</w>
myö s</w>
is tä</w>
m an
it y
t ra
c h
a m
em b
parlamen t
p ä
s el
is en</w>
in s
P resid
i o
v el
o vat</w>
ol e</w>
i lle</w>
ä än</w>
w ould</w>
re c
r j
m an</w>
val ti
b e
at e</w>
in n
2 00
en t
h alu
g o
u ni
te s</w>
ta l
vois a</w>
tu s
ti ve</w>
al so</w>
c oun
p al
per us
v uo
ne u
es sa</w>
d u
ises ti</w>
a r</w>
m o
te r</w>
i a</w>
k ys
mi el
on e</w>
tä ä</w>
yhte is
id än</w>
b ut</w>
Presid ent</w>
e hdo
h em
sh ould</w>
k uu
s it
komis sion</w>
f ro
a j
ny t</w>
v u
fro m</w>
m ust</w>
U ni
kos ke
d s</w>
d is
s en</w>
v ä</w>
b le</w>
re g
c h</w>
d a
ar voisa</w>
it ta
p l
a a</w>
ks en</w>
k e</w>
li a
isi a</w>
all a</w>
ksi a</w>
t ri
&apos ;</w>
o ll
&apos ;
p ec
uni on
v os
all y</w>
t ing</w>
m uu
s uu
y o
b een</w>
P ar
ö n</w>
d o
valti o
m on
&apos; s</w>
s sä</w>
an n
h ta
th ere</w>
p it
u d
yo u</w>
tal ou
S ta
s ta
on s</w>
s tä</w>
m or
pu ol
s an
es s</w>
m ar
g e</w>
k ä</w>
tar k
a ik
te t
de ll
s y
d e</w>
jo ka</w>
jo t
ka an</w>
täm ä</w>
pu hem
e ksi</w>
u tta
m er
ää n
as ta</w>
it s</w>
l ik
ma an</w>
p res
Par lia
es s
ou r
M emb
i r</w>
neu vos
ti l
tä än</w>
kes k
us e</w>
jä rj
en n
k y
Parlia ment</w>
p an
uo t
t h</w>
puhem ies</w>
kä y
h i
mor e</w>
es e</w>
järj es
t or
Uni on</w>
d er</w>
c an</w>
f i
ver y</w>
d em
C oun
f in
a ti
es sä</w>
gh t</w>
jot ka</w>
ci l</w>
is uu
con c
Coun cil</w>
w a
i ta
k ing</w>
th ese</w>
d o</w>
in o
in g
w as</w>
f u
ä n
u p</w>
pro pos
t y</w>
hy vä
ti c
em ent</w>
isi in</w>
p i
r ke
c o
t om
wh at</w>
in c
the y</w>
komis si
ih in</w>
on n
si itä</w>
men ts</w>
me idän</w>
jäs en</w>
ten kin</w>
hu om
ä ä</w>
v e
m ää
s op
j a
q uot
quot ;</w>
& quot;</w>
ta mis
tu n
ka u
d ing</w>
lik e</w>
vi r
mi et
no w</w>
g ra
tion al</w>
Sta tes</w>
mu tta</w>
s ec
l ä
re port</w>
t on</w>
i f</w>
e i
ac c
o ther</w>
tel u
parlament in</w>
y y
g i
vä l
v all
the ir</w>
ma hdo
it u
te en</w>
y r
en ce</w>
tä vä</w>
tä rke
g u
ma a
k i</w>
th er
kys y
ta pa
ne et</w>
k o</w>
Memb er</w>
for e</w>
os sa</w>
p e</w>
s is
ku i
en c
s om
d er
vo im
p re
ou s</w>
ic al</w>
t u</w>
s itä</w>
täm än</w>
a u
v an</w>
tta va</w>
ab le</w>
kesk us
b ec
pu he
ku n
te h
an s
on g
h an
ke h
su p
iti ik
tä n
ku in</w>
va ik
el i
sop im
tri es</w>
wor k</w>
m y</w>
pol ic
i lla</w>
f ac
hyvä ks
it ty
is ten</w>
ta i</w>
jäsen valtio
im por
ol isi</w>
h all
jo hta
ci al</w>
se kä</w>
coun tries</w>
Euro pe</w>
g h</w>
j ec
puhe en
k er
ti in</w>
pro v
a tions</w>
i d</w>
al ais
u la
ku nn
h än</w>
ta va</w>
tur e</w>
pää tö
sa a
o c
mää r
du c
y e
impor tan
oike u
a m</w>
toim i
os e</w>
ll e
iti on</w>
pol itiik
d ec
v es</w>
llis uu
ma t
in a</w>
w i
tr u
k em
mu ka
su r
o b
al is
s er
ab out</w>
p la
f ir
ku n</w>
is su
vas ta
union in</w>
s tan
n e</w>
h en
as ti</w>
y m
tu ks
j ä</w>
ar d</w>
to is
b et
us ta</w>
ag re
it t
e p
wh o</w>
k en
kä yt
p en
ff ic
s t</w>
m p
lis ä
ta vo
o h
as t</w>
E U</w>
po in
kui tenkin</w>
kysy my
n o</w>
ih mis
jo s</w>
on ly</w>
m än</w>
com m
in te
mu n
op le</w>
is sä</w>
ti et
komissi o</w>
re s</w>
al o
an t</w>
le g
m inen</w>
al ta</w>
san o
to te
j el
a use</w>
o w
si on
m s</w>
er ity
ho w
iti es</w>
: n</w>
u ra
tta a</w>
e ll
ev er</w>
re as
in ter
j on
y hd
l op
h e</w>
vi en</w>
kans sa</w>
i en</w>
m in</w>
ti me</w>
e lla</w>
tä y
t in
wi th
ku ten</w>
na tional</w>
es ti</w>
hy v
ag a
em p
v en
r yh
sis ä
pe ople</w>
us ta
ne ed</w>
pro c
k k
pol i
w el
ther e
vo id
b o
de vel
il ity</w>
tu le
i on</w>
uks en</w>
ko h
men d
e h
y ks
qu es
en er
ol en</w>
ti ed
vo i</w>
tr y</w>
ik ä</w>
p r
ol emme</w>
la aj
li itty
it ys
ne w</w>
e ve</w>
k il
ar y</w>
c le
polic y</w>
E U
u n</w>
puheen johta
d es
v an
i c</w>
k on
bec ause</w>
t tu
te taan</w>
e uro
g ro
g re
k ka
h ar
l em
k s</w>
e w</w>
there fore</w>
h el
v er</w>
s t
miel es
kos ka</w>
va pa
importan t</w>
wa y</w>
ta ke</w>
os ta</w>
o d</w>
kan n
ol u
da y</w>
tä vä
ittä ä</w>
i p
va a</w>
talou s
k ti
en ts</w>
järjes tel
l ar
pol it
alu e
ma in
hyväks y
neuvos ton</w>
m a</w>
gh ts</w>
on om
tu o
ti a</w>
ta l</w>
u tu
p on
tä ssä</w>
tark istu
mer k
conc er
devel op
su ch</w>
su b
r an
en a</w>
os t</w>
miet inn
it s
op er
wh en</w>
ka is
pro s
ar e
n u
in v
how ever</w>
is et</w>
Commis sion
si ble</w>
an s</w>
itte e</w>
is h</w>
ar vi
di rec
ittä in</w>
p ri
th ose</w>
m ä</w>
vi a</w>
ma ke</w>
a ih
j o</w>
in to</w>
al s</w>
en s
in e
ni in</w>
ra t
jon ka</w>
ol i</w>
th ing</w>
enc y</w>
as e
ään es
a al
pro b
hyv in</w>
el y</w>
ong el
k ou
poli itt
s tra
ks een</w>
ec onom
b eli
mis ta</w>
f a
va in</w>
on g</w>
j ou
de b
pit ä
el ä
som e</w>
p id
kaik ki
be ing</w>
tar ko
c an
f er
os o
sup port</w>
an y</w>
te ttava</w>
Commission er</w>
a d</w>
y s</w>
k ö
at ta
pec i
w een</w>
val io
se ura
bet ween</w>
si llä</w>
tä mis
asi o
y d
en ti
k ra
im me</w>
i llä</w>
t ro
k ol
c r
v is
ti e
ol e
m b
par tic
ks et</w>
f un
o lla</w>
s ti</w>
va an</w>
halu an</w>
o g
i g
res pon
b ility</w>
e dell
ver n
u us
vas ti</w>
k as
man y</w>
la us
k al
kaik ki</w>
e pä
ll a
g an
ar s</w>
com p
polit ical</w>
ma de</w>
fir st</w>
vä lis
ed is
the m</w>
tar v
lä h
b u
as e</w>
täm ä
g e
ter ro
ar ly</w>
pu b
huom io
im e</w>
ka a</w>
th an</w>
propos al</w>
w ere</w>
j at
tr ans
beli eve</w>
l in
se e</w>
as u
et te
ff ec
it taa</w>
isi ä</w>
re ad
1 9
tä tä</w>
el ä</w>
com e</w>
an ce</w>
vi elä</w>
ei vät</w>
a ted</w>
ää d
tel y</w>
i an</w>
per i
p le</w>
an a</w>
d ed</w>
ta in</w>
re la
a mme</w>
tän i</w>
t w
tur vall
va h
li c</w>
mis en</w>
mar kk
r ik
kans alais
c es</w>
ma a</w>
sur e</w>
C on
kunn an</w>
us e
ko hd
ra ho
k en</w>
ro u
m il
or der</w>
is e</w>
te hd
sa y</w>
de llis
m ost</w>
t ly</w>
su o
m itä</w>
b ud
g et</w>
an te
tavo itte
y le
x t</w>
ku l
Y hd
jo tta</w>
ta n</w>
re d</w>
f ic
c l
halu ais
j ul
ri ghts</w>
pro duc
concer n
nä in</w>
toim in
nn ö
ra c
terro ris
hu ol
e lle</w>
aih e
suu r
k or
in ä</w>
mieles täni</w>
n te
ar ds</w>
itte li
re kti
Com m
es tä</w>
si ih
v ic
siih en</w>
j ossa</w>
el in
p a</w>
kä än</w>
ap pro
im er
ni iden</w>
us sa</w>
di rekti
so si
ur e</w>
tar y</w>
void aan</w>
isi on</w>
euro op
er ittäin</w>
määr ä
a mend
issu e</w>
poin t</w>
ho w</w>
suu n
ys te
c re
ais ten</w>
it e</w>
deb ate</w>
e f
ing s</w>
euroop pal
ins t</w>
or d
es itteli
aga inst</w>
fac t</w>
pub lic</w>
all e</w>
l uo
tu t
ev en</w>
ac h</w>
hall it
k im
ti c</w>
i ll
jä l
i vat</w>
o kra
o ver</w>
j ust</w>
un der
en si
oh jel
keskus tel
h al
tiet o
c er
jo ita</w>
uu d
tu ksen</w>
ke a</w>
s in
Comm ittee</w>
kä sit
y ing</w>
tru c
ny ky
lisä ksi</w>
tä stä</w>
si a</w>
tel y
s tr
cle ar</w>
u ation</w>
mun ity</w>
an ta
ra p
ta b
ad op
s yste
u p
utta a</w>
rat kais
ro s
th in
maa il
yhteis työ
mi en</w>
ko lle
l an
ff er
oike us
con si
e llis
vuo ksi</w>
stra te
f e
d ra
haluais in</w>
en em
kan sa
ra l</w>
t ö</w>
ym pä
tw o</w>
en i</w>
p yy
i in</w>
in for
min is
men tal</w>
h tu
v ing</w>
do es</w>
en ta
mb er</w>
pos sible</w>
th an
ke en</w>
vi ew</w>
par t</w>
u h
it o
pro te
g iv
ha d</w>
econom ic</w>
op e</w>
ri ght</w>
li ik
h ere</w>
wel l</w>
EU :n</w>
h er
ksi ä</w>
p yr
tu s</w>
wh ere</w>
mu kaan</w>
ye ars</w>
ins ääd
di es</w>
ksi in</w>
mahdo llisuu
en s</w>
th ou
va ati
kä si
t te
is la
y ty
ques tion</w>
dem okra
erity isesti</w>
tä llä</w>
c our
es t</w>
to de
ta mme</w>
parlament ti</w>
te ll
en g
ä mme</w>
pal j
I n
ta in
o tta
iti z
to jen</w>
gan is
c us
read y</w>
fu ture</w>
go vern
ympä ris
al a
w ant</w>
to a</w>
jo ta</w>
h än
mietinn ö
la insääd
ksi en</w>
es imer
ent ly</w>
sa id</w>
en d</w>
inc lu
s peci
miet in
ke t</w>
n ec
m mä
ins t
coun try</w>
tö ä</w>
f o
et y</w>
to iv
tus ta</w>
th en</w>
to o</w>
hy ö
vuo den</w>
200 1</w>
arvi o
tä ys
pu hu
vi ä</w>
so cial</w>
f re
e ikä</w>
us ten</w>
ti en</w>
ha p
enn en</w>
im pl
con tin
sit uation</w>
to day</w>
c ur
vas tu
mis tä</w>
m alla</w>
e ffec
c ould</w>
can not</w>
inc reas
val mis
develop ment</w>
r s</w>
is een</w>
prov id
sa me</w>
n ä</w>
kansa in
hu man</w>
u e</w>
a f
T ur
uu den</w>
pa ik
n im
vir on
men et
c itiz
m it
me asu
tä hän</w>
mi a</w>
ki rj
olu tion</w>
ye ar</w>
tö ön</w>
yhteis ön</w>
mu ch</w>
thin k</w>
tark as
pec t</w>
in d
ch an
ette i</w>
tu om
jäsenvaltio iden</w>
v än</w>
M rs</w>
s ää
oper ation</w>
si ksi</w>
ol em
a i
ul t</w>
or ity</w>
palj on</w>
s pe
al ready</w>
at ing</w>
measu res</w>
leg isla
ta ken</w>
jo iden</w>
til l</w>
h ä
A r
sel vä
res s</w>
ter s</w>
acc ep
dem oc
s till</w>
with in</w>
vaik ka</w>
t re
prote c
ys tä</w>
m at</w>
su m
ula r</w>
por te
va ih
ou se</w>
inst itu
f ur
miel tä</w>
w n</w>
pos ition</w>
inte res
fin an
päätö s
b asi
ac hi
ais en</w>
i ous</w>
n ou
mar ket</w>
pitä isi</w>
k et
rap porte
fu l</w>
nä mä</w>
cur r
a at
jec t</w>
tö n</w>
tu ral</w>
y our</w>
neu vo
ex c
p ys
bo th</w>
huomio on</w>
as s
ti la
Com munity</w>
th rou
h is</w>
ip pu
ku lu
oll ut</w>
dis cus
ensi mmä
i la
19 9
mahdo llis
s ä
os all
wh y</w>
vo te</w>
sosi aal
puol esta</w>
w e
kans all
go od</w>
pla ce</w>
u r</w>
kuu lu
j uu
for m</w>
ite t
tärke ää</w>
pro gra
täm ään</w>
cour se</w>
lop u
ko kou
al ity</w>
som e
p uu
h et
di ffer
e l</w>
r ic
h ope</w>
kau p
k now</w>
sec on
is in</w>
l ast</w>
hen kil
tapa htu
to r</w>
un der</w>
ti ves</w>
saa vu
ll y</w>
seura a
200 2</w>
t in</w>
u a</w>
wor ld</w>
s ol
comm on</w>
it uks
mu o
jo h
ad d
c ase</w>
on al</w>
k ke
asi assa</w>
h te
va ka
ti es</w>
b er
citiz ens</w>
ra u
it se</w>
a ino
c a
uu tta</w>
ni itä</w>
neuvos to</w>
keskus telu
r i</w>
an taa</w>
g y</w>
pää t
reg ula
t is
perus te
direc tive</w>
en viron
sa an</w>
emp lo
H ouse</w>
y l
o w</w>
j ien</w>
tu nn
ve l</w>
agre ement</w>
Yhd ys
tu lo
v ed</w>
jäl keen</w>
ur ity</w>
j at</w>
tehd ä</w>
ow n</w>
ma tion</w>
ex am
b r
osall istu
partic ular</w>
pr in
markk ino
ven tion</w>
ty ä</w>
th re
tut kim
ter ve
g ener
ob jec
em min</w>
inter national</w>
than k</w>
u ksia</w>
proc ess</w>
a ir
I s
mis een</w>
n al</w>
direkti iv
si g
be fore</w>
e ar
te ho
yt tää</w>
em ents</w>
ki el
so ci
asi an
prin ci
p el
laaj en
qu i
v il
j an</w>
co operation</w>
va isuu
as taan</w>
politiik an</w>
var o
ma y</w>
käsit tel
ehdo tuks
lar g
in a
d ly</w>
ser vic
si inä</w>
Uni ted</w>
täys in</w>
mä r
vas ta</w>
rapporte ur</w>
nu mber</w>
ty y</w>
tri bu
es it
henkil ö
pu t</w>
c u
with out</w>
mi ll
ä t
onn a</w>
e llä</w>
m ikä</w>
et ta</w>
pro mis
m assa</w>
vu onna</w>
or ganis
syste m</w>
var mis
sa ad
k ed</w>
te tään</w>
ym mär
k in
200 3</w>
te ri
uks essa</w>
pal vel
g ent
me ans</w>
nec ess
ko ko</w>
j ö
d y
ne ed
ac tion</w>
au th
hy vät</w>
giv en</w>
amend ments</w>
tet tu</w>
kys e
s et</w>
st itu
pa a</w>
inv ol
tu a</w>
g en
y ksi
ann e</w>
issu es</w>
us ed</w>
es een</w>
tun ut</w>
s en
iti ons</w>
Euroop pa</w>
si ons</w>
vah vis
c c
s te
a ks
hän en</w>
I ra
to dell
pit ää</w>
thou gh</w>
gre at</w>
it se
exam ple</w>
mis eksi</w>
as ed</w>
tä ä
i ä</w>
P ro
om en</w>
A f
en sure</w>
yhte yd
vä li
gent lem
te kem
o in</w>
ka t
d a</w>
at t
jäsen et</w>
in iti
re pres
vi ime</w>
infor mation</w>
si is</w>
s ed</w>
r as
keh itys
gentlem en</w>
tä vät</w>
asi a</w>
le vel</w>
c k</w>
dec ision</w>
are a</w>
sel f</w>
la dies</w>
f oll
ffic i
sopim uksen</w>
pa il
vas taan</w>
te k
f ar</w>
iv an</w>
in no
inv es
mi ten</w>
äänes ty
sh i
neuvo t
ac t</w>
si ir
val v
ul es</w>
tamis ta</w>
i vo
s truc
a vu
hal f</w>
in e</w>
isi lle</w>
reg ard</w>
la ati
k l
finan cial</w>
sit ten</w>
voim me</w>
ed usta
nä kö
op e
impl em
ra ken
turvall isuu
prob lem
im in
tule vaisuu
gi ve</w>
ma ks
et ta
toim ia</w>
as em
i vä
ma iden</w>
u t
a k
mä än</w>
al th</w>
or ities</w>
laus el
lo o
m es</w>
puheenjohta ja
s ään
päätös lausel
om e</w>
h ed</w>
y ment</w>
le m</w>
kil pail
ic e</w>
esimer ki
is ta
prob lem</w>
yhteyd essä</w>
val ta
e et</w>
y n</w>
ympäris tö
juu ri</w>
es tab
estab lis
a va
u m</w>
pros ent
ol og
in de
sin ce</w>
ed u
sa a</w>
ki r
puheenjohta ja</w>
f ra
sa f
tor j
w er</w>
onn istu
myö nte
er i</w>
throu gh</w>
jul k
el ec
wh e
h as
ou ra
kä s
necess ary</w>
problem s</w>
raho it
esimerki ksi</w>
us ti
kys e</w>
va ike
e tu
propos als</w>
consi der
con f
si en</w>
f t</w>
pu r
kolle g
ises ta</w>
ta sa
kun ni
i l</w>
nä iden</w>
me illä</w>
reg i
iti ve</w>
ra jo
l ong</w>
fi c</w>
valio kunnan</w>
Memb ers</w>
l ed</w>
aga in</w>
per s
con tro
il ma
c ar
a a
ais et</w>
whe ther</w>
in f
an om
mat ter</w>
0 0</w>
por tun
kansain välis
ta ble</w>
m emb
ar vo
muka isesti</w>
te lla</w>
comp et
te xt</w>
merk ittä
go ti
la w</w>
to ja</w>
edell een</w>
ta s
ex pres
f is
ul arly</w>
yt tä</w>
pää s
it or
is ed</w>
tan ut</w>
af ter</w>
ne goti
leg al</w>
t on
g es</w>
is eksi</w>
shi p</w>
in ten
d en
kaikki en</w>
aj a
isi ons</w>
a ivan</w>
basi s</w>
sec urity</w>
s in</w>
peri aat
conc lu
se ll
w omen</w>
is ty
h ing</w>
asi a
r u
ag e</w>
fur ther</w>
d one</w>
su hte
si bility</w>
o m</w>
he idän</w>
ap p
koske van</w>
wa ys</w>
en larg
op portun
re qui
c ed</w>
sää nnö
enem män</w>
c oll
y ksi</w>
käy tä
R e
o f
adop ted</w>
por ts</w>
ki a</w>
s i</w>
suun ni
op in
n ut</w>
laajen tu
l ess</w>
are as</w>
mi t</w>
c all
partic ularly</w>
kal as
s c
ou t
täm me</w>
vir anom
di ffic
jo illa</w>
l as
ou s
tu l
en ä</w>
uks et</w>
me work</w>
nä än</w>
cer tain</w>
e e</w>
Is ra
bud get</w>
väl t
til ante
th ir
ne xt</w>
lainsääd än
M ar
ac coun
al alla</w>
ac e</w>
val tion</w>
p rac
sisä l
fu lly</w>
keh ity
fa v
il e</w>
o t</w>
täy tän
200 0</w>
res pect</w>
vi im
ki inn
h ol
e qu
p resid
sel ke
sy y
esitteli jä</w>
ises sä</w>
pro g
mietinn ön</w>
lopu ksi</w>
ol ev
ke y</w>
ver y
vi in</w>
asio iden</w>
llis esti</w>
d essa</w>
m ely</w>
yr ity
oun d</w>
aik ana</w>
pres ent</w>
g a
legisla tion</w>
b ac
go ing</w>
k no
fi ed</w>
os a
G ro
m asta</w>
w ish</w>
h in
pa in
union i</w>
u al</w>
h is
o do
con tribu
menet tely
el i</w>
su or
ten t</w>
differ ent</w>
toim en
e very
su cc
mis esta</w>
id e
tä nään</w>
re f
d el
m ik
avu lla</w>
ind us
aik a
p ite
komissi o
jo lla</w>
a id</w>
es ty
il i
r ules</w>
ic ation</w>
en ted</w>
k ko
po h
so vel
con d
w ard</w>
kou lu
In ter
et tava</w>
aino astaan</w>
r an</w>
kann alta</w>
ryh mä
tö ö
si mp
kes ke
ter ms</w>
si j
ef for
servic es</w>
l et</w>
is sa
it tel
comm it
te ch
gro up</w>
koske e</w>
perus tu
yle is
ol tava</w>
ro le</w>
vuo ro
ric ul
toiv on</w>
tar pe
en sa</w>
gu ar
agre e</w>
g o</w>
his tor
res olution</w>
oike ud
sel ves</w>
il man</w>
gre a
o ttaa</w>
some thing</w>
j än</w>
isi vat</w>
tet tävä</w>
o t
mit ään</w>
suunni tel
ises sa</w>
si ve</w>
uu s</w>
ma king</w>
progra mme</w>
fer ence</w>
w ards</w>
toimin ta
T re
tus la
stan d
ll oin</w>
fra mework</w>
cl os
u es</w>
concern ed</w>
as k</w>
te o
air s</w>
ff airs</w>
o ver
I ta
protec tion</w>
k ri
kysymy s</w>
be half</w>
Yhdys val
os alta</w>
ko hta
gra tion</w>
ite tta
koske vat</w>
pä ivä
ex is
ma an
suo jel
hy vä</w>
C h
kuu ta</w>
s tar
n ope
emplo yment</w>
tö jen</w>
ar ti
id e</w>
foll ow
w s</w>
its em
uud istu
en muka
thre e</w>
prog ress</w>
vo ivat</w>
me di
enlarg ement</w>
tor s</w>
a vat</w>
tech n
Sta te</w>
to ge
min u
he alth</w>
sub ject</w>
va ar
al an</w>
os a</w>
com pan
200 4</w>
ta v
si l
ll ista</w>
saf ety</w>
en ä
wor king</w>
jo issa</w>
asi asta</w>
ma in</w>
pro mo
a ina</w>
at taa</w>
f ew</w>
a voim
talou dellis
valti o</w>
lu on
opin ion</w>
di v
ten kaan</w>
nn ön</w>
secon d</w>
vu os
te tta
a w
mietinnö ssä</w>
hi gh
oikeu ksien</w>
contin ue</w>
kui tenkaan</w>
neuvot telu
hyö dy
wh ole</w>
is uus
B ar
sa maa</w>
an sa
jo on
an other</w>
qu ite</w>
sec tor</w>
bet ter</w>
sh all</w>
A mer
es sion</w>
c or
at y</w>
palvel u
propos ed</w>
il ta</w>
puol u
enc es</w>
mil joon
ki ittää</w>
teh tävä</w>
min un</w>
M ad
Gro up</w>
tu ksia</w>
su l
ä l
for ward</w>
B r
tuom io
väli llä</w>
to ivo
g ed</w>
do wn</w>
sit ou
institu tions</w>
se e
te itä</w>
kun ta</w>
in is
tä ll
toimen pite
t tö
mi ä</w>
tule e</w>
ur ing</w>
al i
n ing</w>
tä lla
hyväksy ä</w>
tapa uksessa</w>
im mä
tärke ä</w>
f ul
l im
ko ros
ty nyt</w>
ous ly</w>
G o
sano a</w>
vapa u
kulu tta
periaat te
pi en
fun da
rac y</w>
ed ure</w>
at ten
perus tusla
res ult</w>
l ö
mää ri
m as
d y</w>
toge ther</w>
ll een</w>
achi ev
ta is
lin e</w>
kansalais ten</w>
va kuu
b i
an im
ik ke
ig n</w>
vaik u
fav our</w>
me ille</w>
kaikki a</w>
chan ge</w>
itta va</w>
e very</w>
cle arly</w>
ar m
yks ity
P al
vel y</w>
saad a</w>
s or
tet tiin</w>
uu n</w>
se lla
pre par
Con vention</w>
su hta
appro ach</w>
vo ita
täm inen</w>
princi ple</w>
k on</w>
et t
wel come</w>
speci fic</w>
ear ch</w>
a tive</w>
1 0</w>
enta tion</w>
ta so
kan na
s to
di d</w>
k es</w>
lo b
sa malla</w>
muu ta
b en
l ic
talous arvi
ri ippu
uu dell
viim e
ne en</w>
com mun
vä ä
an sa</w>
ki jö
ra tic</w>
is yy
k op
our ces</w>
curr ent</w>
ag ricul
ra ther</w>
guar ante
li ber
jat ku
ffic e</w>
a v
vaati mu
p le
on ce</w>
nou d
ap pe
työ nte
de fin
valv on
oll en</w>
l and</w>
pa ino
d ic
es ittä
et te</w>
ka ksi</w>
työ s
halu amme</w>
asi aa</w>
k us
es ti
muo d
Presid ency</w>
pen d
me et
s ta</w>
d esta</w>
stan d</w>
kysymy ks
to wards</w>
sta te</w>
to inen</w>
nä itä</w>
d uring</w>
c ri
aik aan</w>
cer tain
järjestel mä
ta king</w>
gener al</w>
a kin</w>
vas sa</w>
tode lla</w>
im prov
enti al</w>
fre ed
mietin tö</w>
man ag
im man</w>
yks in
ises tä</w>
vel vo
ks essa</w>
kir jo
b ased</w>
ku in
tarko ituks
sa an
il y</w>
fi el
ac ti
parlament issa</w>
need s</w>
ty yty
vastu u
kans ala
s m
it see</w>
työ llis
kol man
t tom
jäsenvaltio t</w>
at ta</w>
sisä ll
tote utta
il mo
aj an</w>
mill ion</w>
myö n
kuin ka</w>
appro pri
trans port</w>
tu kea</w>
kans an
eurooppal a
a ine
t ol
n ed</w>
sol id
grea ter</w>
c ul
g g
se qu
Tre aty</w>
tra de</w>
het ke
j usti
valmis telu
A ffairs</w>
regula tion</w>
an ne
u du
y ys
y et</w>
kaik kea</w>
tää llä</w>
so v
it self</w>
el im
hel p</w>
vas tus
edis ty
tä nyt</w>
as es</w>
n or
asi an</w>
prosent tia</w>
ko kon
tar jo
vä hen
es ittää</w>
en sä</w>
alo itte
N o</w>
G re
respon sibility</w>
ka hd
00 0</w>
si ten</w>
cond itions</w>
tuo tte
tuomio istu
n on</w>
e ach</w>
c ap
ris ti
la a
et s</w>
fin ally</w>
ha ving</w>
ord in
importan ce</w>
voim a
li f
kunni o
con sum
yh tä</w>
bec ome</w>
turvall isuus
teh tävä
si de</w>
maa han
comm ittee</w>
le ast</w>
in tro
accoun t</w>
wh ile</w>
valtio iden</w>
käsi tel
it te</w>
vält tämä
strate gi
yh ä</w>
mon e
opportun ity</w>
til anne</w>
k an</w>
thir d</w>
rec og
im p
recog n
ke e</w>
ac tu
inde ed</w>
k ers</w>
demokra ti
kolleg at</w>
de al</w>
re ally</w>
es peci
su os
al though</w>
rahoit us
inclu ding</w>
pid et
mu iden</w>
ni istä</w>
pe ace</w>
ex tre
val itetta
muu t
gu e</w>
ku ussa</w>
auth orities</w>
hetke llä</w>
Yhd isty
aik o
especi ally</w>
yhteis ö
tie tenkin</w>
käyt tää</w>
te ille</w>
Ita li
environ mental</w>
terroris m</w>
g al</w>
poin ts</w>
1 5</w>
d ou
muu to
vi ol
b al
sä il
r en
al ways</w>
jo hd
in ti
increas e</w>
p er</w>
Ar voisa</w>
it us</w>
du ce</w>
lo c
kul ttu
suu re
var a
sopim uks
par t
teho kka
par lia
con stitu
M a
j e
fin d</w>
democ racy</w>
provid e</w>
op a</w>
mi in</w>
g lob
e ur
direkti i
m en</w>
ap pl
Mad am</w>
ul kop
tämis tä</w>
nä kem
j opa</w>
pros ess
k enn
hyväks yt
et tom
ag en
p rec
la te</w>
toim inn
direktiiv in</w>
en kin</w>
A mend
negoti ations</w>
k el
lainsääd ä
ehdo tuksen</w>
div id
töö n
ryh män</w>
at or
ser ious</w>
Euroop assa</w>
an i</w>
wor ds</w>
tö jä</w>
la ad
c all</w>
re form</w>
koske va</w>
n er
void a</w>
vasta a
o tetaan</w>
te ks
en ää</w>
com b
tote u
ter m</w>
y t</w>
an g
yr itys
res ources</w>
minis ter
sh or
democ ratic</w>
tr ic
S ch
tyyty vä
val tu
produc ts</w>
res earch</w>
pyy d
EU R</w>
ma tta</w>
k ar
li ian</w>
th ings</w>
väl ine
govern ment</w>
B el
vi ik
j et
contro l</w>
olev an</w>
suun ta
politiik kaa</w>
ite taan</w>
diffic ult</w>
cr imin
comp le
m ed</w>
achi eve</w>
par ha
spe a
es tin
yhd essä</w>
ke ho
talou den</w>
var ious</w>
on e
polic ies</w>
parlamen ti
M inis
os ta
maail man
de f
b us
V enä
va al
jo ista</w>
pä iv
ch ar
re ac
var ten</w>
ri ittä
hu ippu
arti kl
all ow</w>
ki it
hi gh</w>
tav alla</w>
in nä
mahdollis imman</w>
kunn assa</w>
ur g
oso itta
tä vän</w>
par ti
om me</w>
funda mental</w>
s usta
can d
acc ess</w>
tan ce</w>
lar ge</w>
R i
pec ts</w>
e tel
amend ment</w>
ll inen</w>
jo in
bac k</w>
kö yh
concern s</w>
indus try</w>
hu man
ex ten
le ad
l es</w>
reas on</w>
perus tamis
gro w
h an</w>
yh ten
im mi
h and</w>
laaj u
tuo tan
un d</w>
sel v
käyt töön</w>
interes ts</w>
s olu
fic ation</w>
töön pan
2 0</w>
os in</w>
h er</w>
ma jo
täytän töönpan
po is
fiel d</w>
om aan</w>
Go vern
vo ted</w>
talou dell
h on
follow ing</w>
A 5</w>
freed om</w>
ker ran</w>
r e</w>
tek n
ener gi
ess ential</w>
v es
re duc
proc edure</w>
ä t</w>
majo r</w>
tic le</w>
Amer ic
we e
dec isions</w>
regi ons</w>
pos itive</w>
ro ad</w>
vä ä</w>
susta in
l yh
re al</w>
en tra
aik ais
ku mp
keskustel u</w>
o th
yhte isen</w>
peruste ella</w>
invol ved</w>
e ag
atten tion</w>
acti v
p ris
loo k</w>
demokra att
s tu
muu tta
et o
jä ä</w>
ma j
soci ety</w>
mat tom
re fer
ben ef
sm all</w>
ir e</w>
res ul
jä t
r in
j osta</w>
objec tives</w>
v ista</w>
on ko</w>
so ve
es itet
aw are</w>
t ou
s ing</w>
tamis eksi</w>
str eng
gra tu
puol us
mon et</w>
strate gy</w>
certain ly</w>
qu ality</w>
per ä
3 0</w>
vuo tta</w>
con gratu
te tu
re ign</w>
implem entation</w>
accep t</w>
min d</w>
ra kenn
tä v
keh ittä
be g
a tes</w>
con sequ
sy n
5 0</w>
th s</w>
m men
es ite
cr it
tö n
compet ition</w>
consi der</w>
ks ista</w>
ful l</w>
yhteistyö tä</w>
ks eni</w>
todell akin</w>
kus tan
bu il
vä sti</w>
g ing</w>
O ffice</w>
hall in
tunn us
concer n</w>
k ki
järjes ty
op en</w>
w an
maj ority</w>
maa talous
th em
effec tive</w>
compan ies</w>
ab ility</w>
ää r
se ik
inter nal</w>
ens innä
mone y</w>
kau tta</w>
effor ts</w>
mi ksi</w>
P or
tavo in</w>
environ ment</w>
alis ation</w>
vo in</w>
us ko
työnte kijö
objec tive</w>
for ce</w>
ch il
an al
y yttä</w>
to on</w>
ehdo tus</w>
ys sä</w>
A l
2 0
n aisten</w>
pl es</w>
ki ito
mahdo llista</w>
tur va
ni fic
cr u
re ques
en ing</w>
pu hel
Govern ment</w>
ta tion</w>
S u
voita isiin</w>
s s
oikeu ksia</w>
ros s</w>
tun a</w>
its i</w>
emp i</w>
an si
uudell een</w>
pro f
tar vi
on in</w>
extre mely</w>
initi ative</w>
is m</w>
en te
jä lleen</w>
van a</w>
im atta</w>
ste p</w>
p op
tion ed</w>
interes t</w>
coll eag
päätö ks
läh esty
kump pan
he ik
b our
l en
järjestel män</w>
m all
pro ve</w>
er ila
simp ly</w>
o a</w>
f le
rec ent</w>
selvä sti</w>
com pl
dou b
union issa</w>
i ksi</w>
sta te
L i
for ms</w>
R us
ar ity</w>
joh on</w>
fre e</w>
ker tom
asio ita</w>
ins tru
ensinnä kin</w>
mi ght</w>
call ed</w>
sig nific
trans par
om a
aihe utta
w ar</w>
tarvi taan</w>
yksity is
bus in
r y</w>
kuu n</w>
j aa</w>
alo gue</w>
ke ino
hel p
o s</w>
pit kä
vois i</w>
yksin ker
elin tarv
ener gy</w>
b an
conf lic
tur n</w>
s olution</w>
in divid
com promis
oike us</w>
fo od</w>
saavu tta
min usta</w>
täm än
ti mes</w>
alu een</w>
har jo
kilpail u
j ud
käy nn
sub stan
Tur key</w>
lop pu
to d
te llä</w>
kor va
ag o</w>
ky mmen
Ar ticle</w>
vall an</w>
olem assa</w>
n et
ita kin</w>
san i</w>
es itys
uks ista</w>
j ää
c os
yhten ä
es iin</w>
1 2</w>
parti ci
ä sti</w>
mil i
pre v
tois in</w>
prac tic
huol imatta</w>
f am
b an</w>
fis her
el ess</w>
P ol
sa mo
meet ing</w>
reg ar
pos e</w>
do cu
f y</w>
ro w</w>
2 5</w>
com es</w>
puheenjohtaja valtio</w>
C our
toimi elin
is ation</w>
mu istu
b il
oth ers</w>
econom y</w>
br ing</w>
si lle</w>
use in</w>
kor ke
up on</w>
s how
iti onal</w>
of ten</w>
i in
gro up
ne iden</w>
d ate</w>
develop ing</w>
a ffec
jou tu
bud jet
tarkas tel
di alogue</w>
kä r
agre ements</w>
id a</w>
Por tu
li ght</w>
h im
appropri ate</w>
ong er</w>
all ow
s ten</w>
men tioned</w>
l ann
m el
po wer</w>
uu sia</w>
markkino iden</w>
huom atta
Yhdysval tojen</w>
tet ty</w>
maail man</w>
b est</w>
ava ila
hap s</w>
minis tra
ra ti
per haps</w>
ko jen</w>
han kke
u ri
työs ken
osa puol
tois eksi</w>
s ing
per io
ar vos
wor kers</w>
er a
as te
respon sible</w>
lis ää
s p
cand id
c ris
ongel mia</w>
kno w
E s
sup por
n i</w>
intro duc
la it
ik an</w>
tet tu
vu or
to si
ent ing</w>
ka h
aik aa</w>
Cour t</w>
pos ed</w>
suur i</w>
ko ja</w>
p ik
an y
vä hem
m i</w>
fe el</w>
f arm
il o
vuoro puhel
l ää
huippu kokou
työ tä</w>
luon no
fi ght</w>
ll ing</w>
il tä</w>
com ing</w>
1 1</w>
progra m
men n
C O
yhte en
s all
kansain väl
vi lle</w>
ques tions</w>
it ään</w>
tied on
fun ds</w>
elä in
ver s
ffici ent</w>
ko ro
koh taan</w>
p ö
Y K
toimi in</w>
rela tions</w>
vaih e
valitetta vasti</w>
memb ers</w>
ulkop u
group s</w>
e tenkin</w>
lif e</w>
isuu den</w>
star t</w>
ran g
nn et
fa il
accep table</w>
ymmär r
yksi miel
ä s
em aan</w>
tor y</w>
si lloin</w>
o ff
do ing</w>
ttu a</w>
komissio ta</w>
mi eh
sy ystä</w>
määr ä</w>
ris k</w>
W T
a ta</w>
g ation</w>
erity isen</w>
yl i</w>
kat so
a utta
ad van
d es</w>
re com
agricul tural</w>
käytä nnö
nim ittäin</w>
koros taa</w>
is ista</w>
el in</w>
me itä</w>
concern ing</w>
us kon</w>
enc oura
tävä ä</w>
epä il
a pu
op is
ity ks
m om
lähesty mis
actu ally</w>
n el
them selves</w>
o tettava</w>
dra ft</w>
at te
llis en</w>
ku t
th eless</w>
re alis
pys ty
app li
teo llisuu
kokon ais
I r
yy den</w>
A n
under stand</w>
torj un
en ne
kalas tus
selvä ä</w>
D i
j ia</w>
repres enta
f oc
l tä</w>
y ed</w>
strate g
erity is
b ur
kti iv
emb er</w>
ehdo kas
c ation</w>
tämis eksi</w>
tus ten</w>
secon dly</w>
hap pen
availa ble</w>
un for
huomio ta</w>
enn e</w>
S o
le d
nä istä</w>
rik o
se ver
vaih to
nn e</w>
mat ters</w>
curr ently</w>
ad ministra
eh kä
know led
h es</w>
t tä</w>
re ports</w>
tamis en</w>
B er
ol o
t ment</w>
in kin</w>
yritys ten</w>
g ran
jec ts</w>
human ita
d r
isuu tta</w>
Ira q</w>
co ordin
us ing</w>
tel e
om an</w>
reg ion</w>
par ties</w>
Itali an</w>
menn essä</w>
liitty vät</w>
oikeu dellis
on kin</w>
il u
enem mis
vi e
sta tes</w>
Tur k
alue ella</w>
d on
manag ement</w>
kau den</w>
toimi elim
Ri ghts</w>
re ly</w>
fer ens
id ence</w>
produc tion</w>
mu l
ent istä</w>
ens isi
de al
acc ession</w>
po ikke
om ais
dem on
a kseen</w>
a uttaa</w>
pid ä</w>
mis sä</w>
asian muka
mon ths</w>
käy tö
Es pan
pit e</w>
ver o
ar v
ma issa</w>
alue iden</w>
tuomioistu im
laus un
tä neet</w>
kom promis
199 9</w>
ci es</w>
en d
valio kunta</w>
vir as
kon ferens
mu ita</w>
ou th</w>
all e
parlamenti lle</w>
demon stra
b re
et tu</w>
cre ate</w>
koske via</w>
w r
con text</w>
s ci
ex peri
vaik uttaa</w>
tied ämme</w>
c ases</w>
me th
tu ll
par an
it tu</w>
ti u
ongel ma</w>
ensimmä inen</w>
e en
sing le</w>
tra c
v ement</w>
täy tyy</w>
vi l</w>
s on</w>
oso ittaa</w>
huom au
pop ula
ohjel man</w>
esti in
fir st
ik o
Amend ment</w>
tu na
liitty y</w>
grow th</w>
pi en</w>
vi ous</w>
fin al</w>
first ly</w>
tuna tely</w>
stand ards</w>
mo ve</w>
la ck</w>
i lle
a vo
ar vois
myö s
la tion</w>
reas ons</w>
ki en</w>
p s</w>
jäsen ten</w>
de lle</w>
sustain able</w>
liik ku
ob li
compromis e</w>
pa ko
program mes</w>
is em
no thing</w>
k re
reg ards</w>
achiev ed</w>
techn olog
at tom
pu n
im prove</w>
e p</w>
ta c
t ossa</w>
i al</w>
edu cation</w>
ei lla</w>
Pal estin
t tu</w>
kun ing
govern ments</w>
es sa
ri ed</w>
jä rke
ity s</w>
ab o
Con stitu
vaik utu
var m
po w
ne i
talous arvio
ti ce</w>
syste ms</w>
kan a</w>
tois a
is tan</w>
en na
mahdollisuu s</w>
C o
E n
tarkistu ksia</w>
pel käs
e iv
de ta
tamis een</w>
re le
am oun
yh ti
tamis esta</w>
su gg
terve y
itt le</w>
du e</w>
ehdo tuksia</w>
er o
Yhdys vall
tarkoituks ena</w>
mietin töä</w>
pelkäs tään</w>
kysy m
l ittle</w>
ihmis ten</w>
vä es
l onger</w>
G er
tarv itta
requi re
in ing</w>
resul ts</w>
regi onal</w>
nä ky
myös kään</w>
taso lla</w>
d i</w>
tän ä</w>
ään ty
ti al</w>
pri va
abo ve</w>
R ans
syy tä</w>
mili tary</w>
ess es</w>
ty jen</w>
or row</w>
s een</w>
al ku
si in</w>
ol i
ehdo tusta</w>
er in
jo itakin</w>
ten ce</w>
mar ket
ine et</w>
S ec
organis ations</w>
te idän</w>
esitys lis
varm asti</w>
is ing</w>
sub si
tom orrow</w>
nou da
miel ip
jäsenvaltio issa</w>
is enä</w>
com pe
S w
me an</w>
jo ihin</w>
ge tary</w>
ta maan</w>
kuning as
dr en</w>
b on</w>
suu nn
kal a
itta in</w>
perio d</w>
mieles tämme</w>
legisla tive</w>
p h
p et
miljoon aa</w>
la i
ti vely</w>
toisa alta</w>
con struc
p ast</w>
v issa</w>
pys y
rela tion</w>
mom ent</w>
et ting</w>
tied o
as sis
tavoitte ena</w>
muu n</w>
its emme</w>
n ess</w>
g en</w>
princi ples</w>
p i</w>
kustan n
D em
tulevaisuu dessa</w>
or ig
prev ent</w>
edell yty
pl an</w>
need ed</w>
i re
a im
la p
g ets</w>
kuulu u</w>
kin d</w>
hap p
EU :
candid ate</w>
kal ta
torj u
ol is
pri ority</w>
exc ell
keskustelu n</w>
si s</w>
tuks et</w>
c el
ul ko
sopim us</w>
presid ent
as et
congratu late</w>
ter nal</w>
o ds</w>
tru e</w>
B al
koske vaa</w>
ch all
ou gh</w>
ni ihin</w>
u b
chil dren</w>
M E
rau han
tell ään</w>
l ec
as pects</w>
agre ed</w>
tu kem
1 .</w>
uus i</w>
n sä</w>
L a
lu ku
isuu s</w>
cris is</w>
i z
p as
en ough</w>
agen da</w>
a ina
U N</w>
tab led</w>
b our</w>
var sin
le ad</w>
YK :n</w>
itu ksia</w>
d ang
ter min
jo ka
ihmis oikeus
paik all
nä hd
join t</w>
as te</w>
isi lla</w>
commun ication</w>
Dem oc
yt tävä</w>
tuo tta
hi m</w>
con sul
ma kes</w>
sa man
it ing</w>
ks esta</w>
yhd enmuka
halu a</w>
un ti
k ö</w>
järjestel mä</w>
M e
aik a</w>
L is
commit ment</w>
terroris min</w>
kansalais et</w>
kansainvälis en</w>
ab ly</w>
polit ic
euro a</w>
kuu l
asi aan</w>
vä ki
i vät</w>
eh kä</w>
kolle go
tie te
nu or
fur ther
tu u</w>
puheen vuor
kom ite
koske vien</w>
tu ho
teh nyt</w>
sa at
fun ding</w>
a tely</w>
prov ed</w>
os taa</w>
työ paik
p ly</w>
es ter
a ati
pla y</w>
muu t</w>
ide a</w>
D ec
te s
velvo llisuu
loc al</w>
acc or
unti l</w>
tä isiin</w>
l ou
pö y
inf ras
individ ual</w>
op im
l ing</w>
cri teri
kut su
budjet ti
ta pa</w>
val mi
app ly</w>
uud esta</w>
c ho
nope asti</w>
kirj an</w>
bo dy</w>
res tric
ä kin</w>
w ar
artikl an</w>
yhd is
c ing</w>
H e
regar ding</w>
pros es
Bel gi
gu id
te st</w>
pyr ki
oike in</w>
kysymy ksiä</w>
further more</w>
to o
my y
a maan</w>
lyh y
te iden</w>
effec t</w>
p ass
maailman laaju
jä t</w>
ass ess
lainsäädä nnön</w>
istu n
B 5</w>
re main
edis tää</w>
tön tä</w>
sa attaa</w>
er i
kiit än</w>
for m
x i
teho k
provid ed</w>
mis estä</w>
ol d</w>
men tary</w>
luo tta
cru cial</w>
our selves</w>
unfor tunately</w>
välis en</w>
des pite</w>
kaik ille</w>
every one</w>
et tel
L issa
toimielin ten</w>
ci vil</w>
va ad
re li
tode ta</w>
ha a</w>
Lis bon</w>
mu r
min kä</w>
contin u
guarante e</w>
dec id
kka asti</w>
excell ent</w>
pi an</w>
Lissa b
a ar
vah in
discus sion</w>
rec eiv
of f</w>
keskustelu a</w>
lainsäädän tö
ty jä</w>
lu om
B ud
ob ser
enn a</w>
stan ding</w>
le a
hel d</w>
promo te</w>
de lla</w>
tö mä
el ta</w>
pa itsi</w>
Par ty</w>
in ut</w>
ci r
r on
tell aan</w>
pä ä</w>
ki in
jo ten</w>
pa an</w>
keh itty
pyr itään</w>
prac tice</w>
turvallisuu den</w>
k ää
ol ivat</w>
kon f
e te
hallit uksen</w>
fis hing</w>
tu res</w>
poh j
pres ented</w>
conflic t</w>
oura ble</w>
n er</w>
kehity ksen</w>
te ki
sa tis
in kaan</w>
emp has
b s</w>
Venä jän</w>
jäsen en</w>
suhta utu
se em
re main</w>
j ar
activ ities</w>
es saan</w>
j os
imp act</w>
ko ti
cos ts</w>
bal ance</w>
j ille</w>
sel s</w>
immi gration</w>
kann atta
n or</w>
con nec
väl it
huol es
b order</w>
contribu tion</w>
tarko ittaa</w>
mietinnö stä</w>
ri a</w>
re t</w>
gen u
inves to
chan ges</w>
y ö
toim et</w>
t ti</w>
N or
1 3</w>
politiik ka</w>
ne ver</w>
Tur kin</w>
F ran
dra w</w>
ol ette</w>
sh e</w>
ra h
ab solu
expres s</w>
mon im
sen se</w>
inte gration</w>
signific ant</w>
di a</w>
speci al</w>
sh are</w>
vaihto eh
toimi en</w>
lan gu
kos kaan</w>
konf lik
min ä</w>
varmis taa</w>
vas to
vapa utta
ra te</w>
ai m</w>
inclu de</w>
em an</w>
sever al</w>
myö nnet
jo lloin</w>
hallit us</w>
ul kom
tuks een</w>
len to
pl an
men etel
Minis ter</w>
puolu e
every thing</w>
lö y
samo in</w>
entra l</w>
crit ic
res ol
ihmis oikeuksien</w>
kon kre
a ktiiv
so on</w>
wor ks</w>
ite ttava</w>
mon ia</w>
käy tet
ky ky
adop t</w>
po ver
it tu
ansi osta</w>
yksinker ta
vä h
ing ly</w>
popula tion</w>
th us</w>
memb er</w>
ö l
tu en</w>
pyyd än</w>
kär si
toiminn an</w>
is t</w>
Rus sia</w>
poliitt inen</w>
tämä llä</w>
koh ta</w>
as ked</w>
ryhmä ni</w>
ehdo tta
til ann
c ha
vaik utta
con tain
t lan
ko ord
he ar
ta u
minister i</w>
at h</w>
re pe
e an</w>
kas vu
tarko itus</w>
p p
p ac
Di rec
än i</w>
lin es</w>
transpar ency</w>
eurooppal aisen</w>
ellis esti</w>
b ro
ta sa</w>
it telu
atte mp
sh ar
e il
määri tel
k is
vil j
c ks</w>
kol me</w>
su ku
oikeu den</w>
ksi lle</w>
ta minen</w>
y oun
knowled ge</w>
glob al</w>
acc ord
tyytyvä inen</w>
dem an
da ta</w>
fisher ies</w>
pro jects</w>
car ried</w>
os ten</w>
työ järjesty
nim en
shor t</w>
lis t</w>
sano en</w>
ellis en</w>
ind ic
respon se</w>
muu ta</w>
prov isions</w>
Isra el</w>
fa ir</w>
ei ther</w>
ka s</w>
uu dis
im um</w>
colleag ues</w>
kohd istu
ill aan</w>
har mon
ll ed</w>
add ition</w>
d et</w>
union iin</w>
sa ying</w>
neuvos tossa</w>
sh ip
val vo
techn ical</w>
fi ve</w>
exc lu
sij aan</w>
h es
rau ta
state ment</w>
sta ge</w>
pöy tä
va tion</w>
to ista</w>
pä in</w>
am mat
markk ina
tilann etta</w>
ta as</w>
par emmin</w>
ta vat</w>
pover ty</w>
C 5</w>
hall inn
uu teen</w>
yd in
S ep
valio kunnassa</w>
is taan</w>
hall inno
ati ves</w>
elec tions</w>
presid ency</w>
kun tien</w>
ite m</w>
yhti ö
uu sien</w>
talousarvi on</w>
hi eman</w>
s es</w>
em paa</w>
benef it</w>
na ture</w>
n ers</w>
inde pend
käsitel tävä
val taa</w>
bud getary</w>
varo ja</w>
read ing</w>
Ir lann
valvon ta
ten sa</w>
L e
va m
ord ers</w>
ihmis et</w>
er ä
tärke itä</w>
pi ir
Con ference</w>
accor ding</w>
vaihe essa</w>
tote uttaa</w>
use ita</w>
ed us
te mme</w>
joh taa</w>
v eto
l uu
fo reign</w>
succ ess</w>
kas v
halu aa</w>
de termin
an teen</w>
es ille</w>
edu res</w>
consum ers</w>
ti mme</w>
ko kem
M on
criteri a</w>
it ti</w>
proc edures</w>
h or
minu lla</w>
del e
suhta udu
täytän töön</w>
ri an</w>
ma at</w>
d ers</w>
hu on
con sis
fle xi
te kee</w>
justi ce</w>
yhd en
kaik en</w>
aina kin</w>
pa tion</w>
lis ää</w>
ke in</w>
palvelu jen</w>
ne ksi</w>
ro h
kysymy ksen</w>
al e</w>
noud atta
k ään
val ta</w>
eur o</w>
y ksiä</w>
esityslis ta
anne taan</w>
kas va
tä viä</w>
inte gra
ra has
täy ty
c lar
y li
u no
oll eet</w>
expres sed</w>
v uutta</w>
tas k</w>
h in</w>
Su m
lle et</w>
kulttu uri
spea k</w>
servic e</w>
pro ject</w>
asi at</w>
seem s</w>
ehdo ttom
it tanut</w>
Pol ic
ref lec
market s</w>
diffic ul
neuvos to
tan a</w>
p ä</w>
Sw ed
Ira kin</w>
ul o
tehd ään</w>
ryh mä</w>
requi red</w>
i el
en teen</w>
am ong</w>
tun te
vo ting</w>
val ues</w>
N ations</w>
youn g</w>
y ll
farm ers</w>
c en
ra uh
vilj eli
dis e
in ed</w>
jo htu
d le</w>
am b
Pro di</w>
Polic y</w>
ple ased</w>
edell yttää</w>
tutkim us
no in</w>
t tiin</w>
id enti
ac tions</w>
teh ty</w>
käsi tellä</w>
tarkistu kset</w>
j u
tu n</w>
sy ys
ta kin</w>
ans wer</w>
si jo
K ansa
ru le</w>
al ka
läh et
cl ose</w>
hyödy n
throu gh
tasa paino
ra ised</w>
alo illa</w>
mu assa</w>
p lo
k ly</w>
co ver
toimin taa</w>
va ksi</w>
til anteen</w>
ta kia</w>
basi c</w>
solid arity</w>
öl j
s ään</w>
la bour</w>
ell inen</w>
Sum mit</w>
0 1
oikeud enmuka
g n
pac ka
ta x</w>
ins te
through out</w>
koord ino
reac hed</w>
exis ting</w>
sell ais
kehitys tä</w>
tu ne
res pec
i ted</w>
equ al</w>
K re
v in</w>
bil ities</w>
ais esti</w>
poin ted</w>
vasto in</w>
kan taa</w>
inste ad</w>
pa ho
eurooppal ais
clos ed</w>
200 6</w>
jou kko
E ast</w>
ic ations</w>
h un
tur vapa
spe ec
im ate</w>
o re
huom enna</w>
increas ing</w>
kaup pa
kahd en</w>
he itä</w>
poliitt ista</w>
effor t</w>
d eli
lä he
ed es</w>
sove ll
b el
add res
tapahtu u</w>
siir ty
reques t</w>
na mely</w>
g al
sta bility</w>
a an
tämis estä</w>
tarkistu sta</w>
sa kin</w>
qu ic
poliitt isen</w>
pa y</w>
en la
id ät</w>
establis h</w>
str ong</w>
b io
itor ing</w>
aj an
vää r
inn in</w>
uks issa</w>
tälla inen</w>
komissio lle</w>
as y
R om
F o
po ten
ti vat</w>
pyr kim
S aks
onn ettom
s ch
tarv itsemme</w>
kaik issa</w>
ic es</w>
sopimuks een</w>
pur su
ky llä</w>
jou sta
ille gal</w>
harjo itta
s sa</w>
institu tional</w>
rec ently</w>
in ä
lu m</w>
lu onn
hol d</w>
gh tly</w>
cul tural</w>
busin ess</w>
to b
te mber</w>
Sep tember</w>
ter r
kl o</w>
ki ire
ty ö</w>
mu is
risti ri
cap ac
all inen</w>
Af ric
sugg es
in tia</w>
asio ista</w>
& #
tekem ään</w>
ks emme</w>
ens i</w>
alu eilla</w>
&# 9
doub t</w>
am inen</w>
yks ittä
ensisi j
b ar
ta kes</w>
vic ti
to den
t tävä</w>
määrä raho
d in</w>
puu ttu
mä t</w>
kansall isten</w>
er e
Lissab onin</w>
oikeu tta</w>
men ta
b or
ko ko
i o</w>
4 0</w>
f ri
ta ka
so tila
tek ni
histor i
asy lum</w>
prepar ed</w>
konkre ett
wee k</w>
työllis yys
A g
ity ksen</w>
consum er</w>
alle kirjo
viol ence</w>
ar ound</w>
yhteistyö n</w>
käy d
tark is
viranom aisten</w>
va t
tra ining</w>
on ta</w>
F is
tieto ja</w>
käyt tä
kyse essä</w>
establis hed</w>
puu tte
laus u
ten kään</w>
lisä tä</w>
j ana</w>
työntekijö iden</w>
da m</w>
appl ication</w>
0 2
i ans</w>
ac tive</w>
S pan
ä h
yhte inen</w>
rat ka
dec lar
käynn is
istu nn
ur s
so d
mo re
decid ed</w>
con fir
more over</w>
b orders</w>
wa ter</w>
käsi tellään</w>
ase tuksen</w>
minu lle</w>
us es</w>
consequ ences</w>
a ir</w>
tärke ä
representa tives</w>
pri orities</w>
initi atives</w>
ik ka
ura l</w>
op ol
Constitu tion</w>
uks esta</w>
järjes tö
f our</w>
S e
ita n</w>
äl i</w>
vi ously</w>
v uuden</w>
than ks</w>
ni ille</w>
vä t
men esty
liik enne
cor rec
et tävä</w>
tote si</w>
pre vious</w>
il s</w>
hyvä ksi</w>
suunta vi
m olem
maahan muut
yy n</w>
uks een</w>
ma teri
ker taa</w>
is o
f f</w>
tarkistu ksen</w>
fac e</w>
conclu sion</w>
com munity</w>
J u
puolu een</w>
B us
im aan</w>
lo w</w>
yhd en</w>
e ed
require ments</w>
lainsäädän töä</w>
ta x
succ ess
cel on
advan ta
e f</w>
Bar celon
ita l</w>
mik äli</w>
kul je
ulkopu ol
sa atta
dis as
itet tu</w>
ac ross</w>
rela ting</w>
mon itoring</w>
kysym ystä</w>
ko a</w>
add ress</w>
va a
h uu
ex ternal</w>
direc t</w>
ti ä</w>
käsit tely
ap proved</w>
sano i</w>
käytännö ssä</w>
jat kaa</w>
un ds</w>
de qu
a min
res t</w>
f ell
pu itte
no te</w>
su fficient</w>
he ad</w>
h il
F R</w>
im medi
to isen</w>
ai emmin</w>
pres sure</w>
men tion</w>
har k
Span ish</w>
G u
ver theless</w>
ne vertheless</w>
fun c
L u
terr itor
ven ess</w>
implem ented</w>
as soci
pu ite
me et</w>
dis crimin
liitty viä</w>
P e
u ary</w>
m al
ed er
b ly</w>
L at
tä s
lait tom
ät tä</w>
fell ow</w>
as ure</w>
N a
ät te</w>
seuraa vana</w>
mahdollisuu ksia</w>
Isra elin</w>
president ti</w>
johd on
W or
wh ose</w>
o p</w>
neuvot tel
i taan</w>
P E</w>
merk itsee</w>
inclu ded</w>
tan i</w>
ik ä
as sa
jou lu
tra d
st ro
too k</w>
to i</w>
lis äänty
ke ep</w>
halu avat</w>
kysymy kseen</w>
ta h
prosess in</w>
K y
rou ght</w>
d ri
sopim usta</w>
priva te</w>
hon ourable</w>
foc us</w>
ex amin
da ma
vi is
b ri
WT O</w>
tu al</w>
sosiaal i
mi la
it us
selvä ksi</w>
mis essa</w>
kulttu ur
ex pec
järjestelmä ä</w>
itys tä</w>
mo der
li ve</w>
demokrati an</w>
varo jen</w>
valtio t</w>
o ffici
jo bs</w>
pow ers</w>
U S</w>
re ality</w>
va i</w>
H u
sä h
si ellä</w>
p een</w>
kunnio itta
in ta</w>
Af gh
mielip ite
suur in</w>
saa ta
ris h</w>
onn is
con dem
myönte isesti</w>
re forms</w>
amoun t</w>
selke ästi</w>
päätö kseen</w>
elin es</w>
to ihin</w>
hallit usten</w>
r un
maks u
ku t</w>
ha va
exc ep
direktii vi
se ur
kaup an</w>
kanna tan</w>
experi ence</w>
R uot
g ations</w>
ar gu
s po
devel op</w>
is ely</w>
is ella</w>
tar peen</w>
practic al</w>
yhteis kunn
jäsen valtion</w>
ilo inen</w>
al most</w>
inves tment</w>
valmistelu kunnan</w>
ho ito
1 4</w>
si bilities</w>
ex er
bec om
C y
te tta</w>
cre ation</w>
o ta</w>
id dle</w>
V äl
esitteli jän</w>
con v
sy rj
ra ts</w>
protec t</w>
e u
G al
as tu
V er
Fran ce</w>
parlia mentary</w>
giv ing</w>
comple tely</w>
Väl imer
speci fic
min kin</w>
S E</w>
200 5</w>
tuomioistuim en</w>
tre at
tel l</w>
op en
em is
cir cu
ex tent</w>
assis tance</w>
c are
ag es</w>
Af rik
ann ettava</w>
capac ity</w>
sään töjä</w>
s ti
koh tia</w>
em ään</w>
0 3
tie tää</w>
suor aan</w>
s how</w>
c ause</w>
ti i
receiv ed</w>
m et
te et</w>
dem and</w>
S a
vä hän</w>
tuks esta</w>
Me di
t te</w>
is istä</w>
jatku vasti</w>
yt tä
vel s</w>
to dellis
pro per
increas ed</w>
en ter
de l</w>
eurooppal aisten</w>
äänesty s</w>
val ue</w>
ulo ttu
coordin ation</w>
väl inen</w>
va l</w>
I rish</w>
til as
ta stro
rang ais
or m
foll ow</w>
p idän</w>
kymmen en</w>
ki er
regula tions</w>
to dis
des tä</w>
ul ta</w>
kor ja
le ft</w>
em minkin</w>
uud et</w>
tal king</w>
t os
pää stä</w>
sta ted</w>
g s</w>
mit ted</w>
maail massa</w>
immä is
päiv än</w>
vahvis taa</w>
or y</w>
le ar
et e</w>
aino a</w>
in o</w>
recom men
tr as
Dec ember</w>
sil tä</w>
esityslista lla</w>
et tiin</w>
valv onn
ter ran
tal k</w>
pal estiin
te ke
f ound</w>
c ost</w>
le vels</w>
rik os
perustu u</w>
ko on</w>
S ol
vi h
v ision</w>
teh neet</w>
läh es</w>
def ence</w>
connec tion</w>
ole vien</w>
vuos ina</w>
terran ean</w>
kaik kein</w>
discus sed</w>
alais ten</w>
R o
prec isely</w>
asio issa</w>
ys ten</w>
Medi terranean</w>
w is
circu m
b rought</w>
absolu tely</w>
w aste</w>
työ n</w>
tic ally</w>
pyy n
ku olem
oikeud et</w>
huomatta vasti</w>
th y</w>
tapa a</w>
s al
re ach</w>
nu clear</w>
a way</w>
G ener
luo vu
kuu lem
re ference</w>
ratkais u</w>
pa y
g ar
Espan jan</w>
välttämä töntä</w>
vo it
p ann
direktiiv i</w>
ll isia</w>
direc tion</w>
ra por
c am
merkittä vä</w>
leg it
1 2
tiedo tus
r ann
on ni
mo vement</w>
da ys</w>
alku perä
o ista</w>
päätö s</w>
oc c
co hes
ag rap
E C
impl ement</w>
hin d</w>
be hind</w>
aihe utu
J usti
var sin</w>
ik ö</w>
gu lation</w>
Justi ce</w>
em er
te ty
ec han
bal an
työ stä</w>
ess ään</w>
tömä sti</w>
p il
ma ase
conc ep
saad aan</w>
llis ten</w>
accord ance</w>
s ääd
s ha
is imme</w>
par antaa</w>
nä ihin</w>
jo b</w>
P PE</w>
guid elines</w>
tavoitte et</w>
sopim usten</w>
o v
G en
consider ed</w>
tilante essa</w>
ki lle</w>
kohd alla</w>
hyväksy i</w>
our s</w>
Palestin ian</w>
tic s</w>
ta van</w>
saan ut</w>
koske vasta</w>
e val
sy istä</w>
sc ope</w>
instru ments</w>
Americ an</w>
ner ship</w>
I I</w>
energi a
syn ty
jäsen iä</w>
Direc tive</w>
laajentu misen</w>
O r
te ta</w>
toimenpite itä</w>
mi es
com par
o il</w>
in ti</w>
jat ka
tuotte iden</w>
tel ev
parha illaan</w>
al ong</w>
jat kos
elintarv ike
alu ksi</w>
gro und</w>
sell aisen</w>
quic kly</w>
m echan
ex per
aine iden</w>
myö hem
ll u
tavo ite</w>
parlament tia</w>
emp ia</w>
anim als</w>
kno wn</w>
Rom an
anim al</w>
aih e</w>
iz z
alis ed</w>
un acceptable</w>
re duce</w>
inn ing</w>
N izz
teo llis
im en
f io
vi itta
te ral</w>
b ill
Gener al</w>
opportun ities</w>
1 8</w>
ou ght</w>
m essa
ev ents</w>
w ise</w>
miel essä</w>
kansala isille</w>
specific ally</w>
os an</w>
a alis
ni issä</w>
kohd an</w>
j an
me istä</w>
kesk itty
j aan</w>
ks issa</w>
c are</w>
puhu a</w>
pain opis
del a
yhte istä</w>
streng th
valtu us
keskustel ussa</w>
en päin</w>
la an</w>
1 6</w>
fam ily</w>
N ice</w>
tilante esta</w>
u ksiin</w>
otta en</w>
koh ti</w>
appli ed</w>
al ter
viranom a
treat ment</w>
ma l</w>
lu ettel
vir all
turvallisuu tta</w>
luonno llisesti</w>
tarkas tus
q uo
nä yttää</w>
s ens
minis teri
vuo teen</w>
luo da</w>
i ra
discus sions</w>
d ru
tämis een</w>
sell aisten</w>
a in
us sels</w>
en able</w>
cohes ion</w>
aiko o</w>
puolus tus
käy tetään</w>
kes ki
jo in</w>
pen sa
kokou ksessa</w>
eur on</w>
re jec
ol in</w>
Br ussels</w>
til in
cr ime</w>
victi ms</w>
m ys
id enkin</w>
ri t</w>
ihmis iä</w>
out side</w>
he ard</w>
assess ment</w>
agricul ture</w>
A ra
effec ts</w>
w id
poliitt isten</w>
govern mental</w>
el f</w>
Br ys
täll ais
ther n</w>
koro sta
vähem män</w>
na tion
li it
ha aste
ud e</w>
s us
k ki</w>
saa vat</w>
k u</w>
conclu sions</w>
ator y</w>
ad d</w>
r up
suppor ted</w>
pid e
mil jar
clar i
päät tää</w>
re view</w>
mo del</w>
läh tö
ec e</w>
circum stan
id ent</w>
he ad
v ant</w>
es taan</w>
develop ed</w>
n et</w>
llis et</w>
vi lla</w>
tieto a</w>
i ons</w>
tri al</w>
sitou tu
n s</w>
su per
aj at
alis t</w>
to tta</w>
tieto jen</w>
mat ka
markk in
om in
mieles tä</w>
am min</w>
välis tä</w>
toimin ta</w>
spe ak
or s</w>
osallistu a</w>
in s</w>
J un
u tta</w>
per he
h ard</w>
we ap
on d</w>
is saan</w>
Sec urity</w>
nimen omaan</w>
em me
apu a</w>
pos sibility</w>
pa ti
nä issä</w>
P at
con tr
c k
Wor ld</w>
B an
yhte en</w>
refer red</w>
propos e</w>
de llä</w>
c la
pä te
partici pation</w>
id em
rele vant</w>
S tras
Af ganis
cre ating</w>
Stras bour
Democ rats</w>
ks essä</w>
car ry</w>
circumstan ces</w>
pa kol
U S
vaka us
min ua</w>
ell ista</w>
si ja
miel en
ete enpäin</w>
li es</w>
käy tän
ks estä</w>
Bal kan
Yhdysvall at</w>
res er
koske vassa</w>
t to
sec tors</w>
par anta
h ön</w>
eläin ten</w>
alter na
pää tel
over all</w>
ka tta
instru ment</w>
jäsen tä</w>
en i
a ksi</w>
vi era
hallit us
tä yt
sitou mu
re fu
pr ice</w>
ongel mat</w>
lainsäädä nnö
kul j
ti iv
enti fic</w>
säil yt
spea king</w>
ester day</w>
com ments</w>
pro per</w>
ili ation</w>
discus s</w>
accep ted</w>
wan ted</w>
päätö ksen</w>
tode llisuu
ke l</w>
y esterday</w>
täv issä</w>
ser i
Re gulation</w>
än ä</w>
vie ws</w>
f lo
docu ment</w>
kann attaa</w>
vers ity</w>
add itional</w>
mp i</w>
L äh
w ide</w>
vois imme</w>
säh kö
pr im
consider able</w>
Brys sel
I re
yhteis kunnan</w>
tull ut</w>
remain s</w>
de tään</w>
Belgi an</w>
mys elf</w>
kau pun
ator s</w>
tämis en</w>
p onnis
main it
Ire land</w>
A gre
ver ta
mahdollisuu den</w>
Inter national</w>
is es</w>
ku m
Irlann in</w>
C ha
di taan</w>
Läh i</w>
vas taa</w>
P s</w>
reg ime</w>
6 0</w>
tu lis
puhem i
technolog y</w>
ex pla
N os</w>
M iddle</w>
tu ke
em iseksi</w>
L am
tämä ttä</w>
jot kut</w>
h tunut</w>
tervey den</w>
mis sa</w>
yy s</w>
yle isesti</w>
w ing</w>
is elle</w>
sy r
llis tä</w>
jäl j
el tä</w>
auth ority</w>
te m
pers on
tälla ista</w>
muistu ttaa</w>
liber alisation</w>
genu ine</w>
ei ve</w>
re qu
D E</w>
la ista</w>
ittä vä</w>
for ces</w>
beg in</w>
pä in
nei gh
muod os
vaikutu ksia</w>
onni tella</w>
K ore
as kel</w>
vaike a</w>
te g
avo id</w>
difficul ties</w>
v ed
tas on</w>
sec u
ch ed</w>
äär immä
kes ä
encoura ge</w>
ar ms</w>
par agrap
ni a</w>
R u
tr ying</w>
r yhd
La e
ole vat</w>
neuvosto lle</w>
direc tly</w>
allow ed</w>
in al</w>
e va</w>
ann ual</w>
si x</w>
on i</w>
kri te
crimin al</w>
ympäris tön</w>
ta ul
sa ta
part ners</w>
aks eni</w>
yhden ty
om s</w>
mat k
mo tion</w>
inf lu
ex pect</w>
elä mä
v uus</w>
ex plo
conf idence</w>
vapa a
ei vät
päätöslausel man</w>
po llu
e ja</w>
tavoitte ita</w>
pi ä</w>
e ed</w>
sur ing</w>
poten tial</w>
tulis i</w>
saavu ttaa</w>
kann an</w>
vä hä
loo king</w>
em ättä</w>
compl ete</w>
ik in</w>
in vo
g r
Euroop paa</w>
lo t</w>
kau an</w>
jäsenvaltio ita</w>
tä vien</w>
speec h</w>
järjes töjen</w>
gan i</w>
Ky pro
toiv omme</w>
kä y</w>
ear li
su ffer
saan eet</w>
menettely n</w>
e th
es tää</w>
consider ation</w>
o on</w>
vasta ta</w>
t ting</w>
päätö ksiä</w>
Portu gal
sa fe
prov ision</w>
pers onal</w>
par ty</w>
fac il
buil ding</w>
packa ge</w>
johdon muka
administra tive</w>
us i</w>
tote utu
rela tion
o iden</w>
määr in</w>
gen e
alais et</w>
Pro c
N e
J oh
affec ted</w>
ta m
yrity kset</w>
ri ghtly</w>
deman ds</w>
1 .
sove lle
saa tava</w>
pa in</w>
myö tä</w>
kan ta</w>
y es</w>
riippu mattom
mar k</w>
it ur
a id
rati fio
päivä nä</w>
is ena</w>
hu ge</w>
F ren
päät tynyt</w>
ohjel ma</w>
ship s</w>
Q u
val tion
ni illä</w>
meth od</w>
ev ent</w>
ehkä is
beg inning</w>
yhteis kun
pik emminkin</w>
pa ten
p ic
re turn</w>
po or</w>
ka tastro
d re
vuos i</w>
peri aa
si z
bill ion</w>
es iin
yr ittä
vi elä
hu ole
hel po
terve ys
tan ne</w>
struc tural</w>
pre hen
g in</w>
. .
pl om
perus tel
go es</w>
sään töjen</w>
mu kana</w>
kiinn os
con tent</w>
yksityis kohta
ty vät</w>
tet tua</w>
solid aar
syr jä
Rans kan</w>
viljeli jö
ratkais u
il mi</w>
f oun
e taan</w>
di o
vapau den</w>
ta an
e as
off er</w>
end or
conv inc
mä llä</w>
de ath</w>
1 7</w>
s pec
as etta
con duc
vuo si
käyt töö
hy l
Fren ch</w>
8 0</w>
näkem yks
ens in</w>
Re public</w>
käy tön</w>
U kra
T h
vaka vasti</w>
main ita</w>
comb at</w>
P o
F in
to ta
tied ätte</w>
suu ria</w>
näkö kul
mies ten</w>
is issa</w>
eurooppala ista</w>
P act</w>
tehokka asti</w>
h ment</w>
eurooppala inen</w>
valio kun
ma assa</w>
humanita rian</w>
ehdotuks esta</w>
docu ments</w>
Americ a</w>
sor t</w>
menet tel
myöhem min</w>
main tain
di plom
sa ma</w>
pl ann
noud at
asem a</w>
ud et</w>
puu n</w>
gh ted</w>
elintarv ikke
c tions</w>
pide tään</w>
humanita ar
K oso
to tal</w>
Jun e</w>
E C</w>
il ed</w>
Agre ement</w>
s etting</w>
oikeu dell
käsittel yssä</w>
k ka</w>
er ship</w>
ensimmä isen</w>
dra wn</w>
ar ily</w>
ab or
tied än</w>
r ans
om a</w>
sella isia</w>
messa ge</w>
käytä nnön</w>
voima kkaasti</w>
sta tus</w>
na a
jul ki
tehok kuu
s ty
esite tään</w>
epä onnistu
si an</w>
julki lausu
esitteli jä
ap er</w>
C ar
vara in
suo j
pur pose</w>
l s</w>
jud ic
ys ti</w>
vil jel
ryh mien</w>
b road</w>
te emme</w>
ette ivät</w>
Pat ten</w>
ty pe</w>
ec h
deal ing</w>
ole va</w>
läh tien</w>
poliitt isia</w>
ol isivat</w>
tutkim uksen</w>
tapa htunut</w>
se par
päätöslausel ma
organis ation</w>
commit ments</w>
tu lla</w>
ref er</w>
Afgh an
itse vat</w>
sci entific</w>
la at
m usta</w>
kuulu vat</w>
k ko</w>
implem enting</w>
et tu
dequ ate</w>
coll ec
weap ons</w>
streng then</w>
Ger many</w>
Afghan istan</w>
inten ded</w>
effec tively</w>
com mer
sään tely
nä h
commit ted</w>
ammat ti
l er</w>
käyt töä</w>
any thing</w>
lyhy esti</w>
kansala isia</w>
issa kin</w>
hyö tyä</w>
con trac
V al
reli gi
ll isiä</w>
B ri
pa id</w>
1 3
tiedon ann
tavoitte iden</w>
m ing</w>
ic ally</w>
eivät kä</w>
P oh
satis fac
uks ena</w>
koske vaan</w>
it ude</w>
i ri
alo itta
varsin kin</w>
sto p</w>
sisäll y
re mind</w>
per inte
tärke im
sel vi
c ross</w>
laati ma</w>
ehdotuks et</w>
des ig
sum mit</w>
s ession</w>
co l</w>
rec eive</w>
mis sään</w>
ma ita</w>
käyttöö no
inc or
Br it
to col</w>
tetta isiin</w>
pl ans</w>
dec ide</w>
vaar all
tä ltä</w>
ilma is
a tional</w>
vi tal</w>
lä s
balan ced</w>
ä ty
raken te
m us
kolle gani</w>
histor y</w>
bre a
il men
un anim
terroris t</w>
T ans
ty y
toden näkö
koko on
en suring</w>
aika taul
tu kee</w>
maa talouden</w>
b y
urg ent</w>
neuvottelu jen</w>
koh taa</w>
D ev
äs ket
s pi
ob viously</w>
m is</w>
lu pa
asia kirj
tasa pain
el s</w>
discrimin ation</w>
tu on
polic e</w>
yh tä
neigh bour
L A
u re
provid es</w>
da tions</w>
tapa uksissa</w>
kir ja</w>
respon d</w>
K iin
Ban k</w>
äsket tä
ä ssä</w>
str ic
pa ket
hallinn on</w>
suuntavi ivo
tiet ysti</w>
teollis uus
seri ously</w>
in es</w>
E ur
ik o</w>
huoles tu
exer c
esitteli jää</w>
res olu
pu l
emphas ise</w>
ra ise</w>
kaik illa</w>
main tain</w>
kaikki in</w>
viranom aiset</w>
vaatimu ksia</w>
min imum</w>
k ous</w>
ed el
uu des
sovel tamis
anal y
äänes tää</w>
yhdenmuka is
ka p
establis hing</w>
call s</w>
be y
pyy tää</w>
perustamis sopimuksen</w>
lim it</w>
some times</w>
com prehen
al aa</w>
Ma y</w>
ver kko
ma s</w>
langu age</w>
C har
out come</w>
kaik ista</w>
het i</w>
contribu te</w>
alo ittaa</w>
En viron
wh om</w>
vähem mis
val mis</w>
re mo
tu ken
ol os
o issa</w>
com ment</w>
Ch ina</w>
vir ka
tote an</w>
clos ely</w>
c o</w>
aihe uttaa</w>
Fo reign</w>
toim itetaan</w>
sella ista</w>
par empi</w>
keskus tella</w>
k kä
gran ts</w>
al one</w>
recogn ise</w>
pre vention</w>
me asure</w>
A T
do m</w>
an ti
mis sion</w>
ehdo ttaa</w>
Yhdysval tain</w>
reduc tion</w>
muu ttaa</w>
el op
defin ition</w>
dama ge</w>
com pensa
toim itta
inves ti
So ci
P er
vih re
tou ko
aks emme</w>
merk itystä</w>
henkilö kohta
hallitus ten
ta kais
li ving</w>
kuningas kunnan</w>
kokou ksen</w>
han sa</w>
te dly</w>
taloudellis en</w>
reg ret</w>
periaa tetta</w>
happ en</w>
kan so
ME Ps</w>
v istä</w>
me an
k keen</w>
improv ing</w>
bey ond</w>
Dev elop
lim ited</w>
earli er</w>
cre ated</w>
conc entra
Hu man</w>
A m
kysymy ksiin</w>
b ab
direc tives</w>
.. .</w>
sen su
s ter
op position</w>
ky v
Ch risti
pers pec
hä ne
tur ally</w>
high ly</w>
isi vät</w>
S ad
des cri
toiminta suunnitel
säil y
ku kaan</w>
kilpailu kyky
talous -</w>
isi ksi</w>
jäsenvaltio ille</w>
S pain</w>
yhteisö jen</w>
var ma</w>
refu ge
reas on
provid ing</w>
merk itys</w>
ehdottom asti</w>
Sch eng
0 4
ta ar
prof es
koske vista</w>
ite tta</w>
vahin go
päätöks ente
po is</w>
o d
teollisuu den</w>
parlia ments</w>
mi hin</w>
dis tribu
y n
ne tään</w>
as kel
lu j
ati es</w>
A us
si vi
show n</w>
oper ate</w>
requi res</w>
ra ja
alis ts</w>
1 4
wor d</w>
re t
it tiin</w>
tarkistu s</w>
success ful</w>
r o</w>
it ure</w>
e dellis
v en</w>
sta ff</w>
ris ks</w>
mon ien</w>
medi um</w>
w ha
la ter</w>
sur ance</w>
develop ments</w>
pr us</w>
maa talou
infras truc
adop tion</w>
Cy prus</w>
Brit ish</w>
enter pris
at tava</w>
välttämä ttö
toimi i</w>
periaat teen</w>
mis elle</w>
hän tä</w>
all oc
yd en
l os
J an
sella inen</w>
produc ed</w>
pidet tävä</w>
toivo tta
la id</w>
benef its</w>
sa maan</w>
markkin at</w>
h op
chall eng
cam pa
ti t</w>
sotila all
puheen vuoro
on es</w>
las tly</w>
jo idenkin</w>
T ra
äärimmä isen</w>
ä kseni</w>
tais tel
equ ality</w>
st ress</w>
qu ali
pl en
p ia</w>
Develop ment</w>
ik ka</w>
R ules</w>
Nizz an</w>
in sa</w>
auth or
er in</w>
pohj alta</w>
par em
activ ity</w>
R es
v ol
täy si
stu dy</w>
markkino illa</w>
m et</w>
ta hansa</w>
independ ent</w>
ku s</w>
j alla</w>
contr ary</w>
respon sibilities</w>
pos itions</w>
lan ds</w>
f ish</w>
concep t</w>
tun ti
sosiaal isen</w>
olog ical</w>
ex ac
ratka ista</w>
li ves</w>
kolleg a</w>
dele gation</w>
us kon
rauh an</w>
l y
al a</w>
suku puol
e ffici
7 0</w>
voim assa</w>
ole via</w>
en orm
täy den
sovel taa</w>
sopim uksia</w>
perus ta
olos uh
par ann
cul ture</w>
pla ced</w>
henkilö s
ex pend
consul tation</w>
thou ght</w>
pre ci
char ge</w>
tois een</w>
appe ar</w>
rela ted</w>
luotta mu
esite ty
ur ge</w>
taloudell ista</w>
si mila
r uo
Sad dam</w>
viik olla</w>
terve yden
saa mme</w>
kan sa</w>
appli es</w>
P aper</w>
happen ed</w>
M O
tetu n</w>
säännö t</w>
ko kous</w>
ann es
analy sis</w>
aihe esta</w>
tark ka
muu ten</w>
her ät
bro ad
vastu ussa</w>
expend iture</w>
e arly</w>
comp li
strategi an</w>
O LA
lea ve</w>
ihmis oikeuksia</w>
huol en
heik en
esitet ty</w>
Yhdisty neen</w>
nyky istä</w>
busin esses</w>
hyvä ä</w>
wh il
whil st</w>
vo isivat</w>
valvon taa</w>
par ts</w>
man ner</w>
increas ingly</w>
ita mme</w>
vastu u</w>
tr ansa
telu a</w>
kiel te
discus sing</w>
P u
simila r</w>
e k</w>
A C
exis t</w>
wee ks</w>
as pect</w>
paragrap h</w>
dis t
suun taan</w>
erin omais
c tion</w>
s pen
part nership</w>
organis ed</w>
ki ell
ke hy
bur g</w>
tilante eseen</w>
relation ship</w>
kuu n
ehdotuks essa</w>
wr ong</w>
v in
tode taan</w>
otta maan</w>
itor s</w>
inter pre
ad s</w>
neuvottel ut</w>
Minis ters</w>
neuvos toa</w>
laa tu
enti re</w>
sit ting</w>
recom mend
no on</w>
me dic
A lan
1 9</w>
ste ps</w>
pro duce</w>
g er
en ge</w>
chall enge</w>
Alan kom
la un
emme kä</w>
direktii viä</w>
sens itive</w>
ryh tyä</w>
requ ire</w>
crit ical</w>
ty yd
luu l
ho id
en ds</w>
te et
pres s</w>
lää kke
dra f
di versity</w>
c al
asia kirjo
na turally</w>
maase udu
aset taa</w>
a kaan</w>
y ers</w>
wan ts</w>
vam ma
promo ting</w>
hyv invo
conc iliation</w>
1 5
va i
tr ust</w>
op pos
joh to
flexi bility</w>
van sa</w>
tuks ista</w>
its enä
2 4</w>
lle en
conclu de</w>
äänes tin</w>
issa mme</w>
de ksi</w>
ongel man</w>
lop ulta</w>
k r
con sensu
asian tunti
Yhdisty neiden</w>
net works</w>
comb ating</w>
bi g</w>
anal ys
ra jat</w>
el ements</w>
bo dies</w>
asian mukaisesti</w>
Inter net</w>
Environ ment</w>
vaa ditaan</w>
sopim uksessa</w>
puol usta
politiik kaan</w>
po hd
ker toa</w>
il e
2 1</w>
tu ki
muu ttu
h ti
h ome</w>
suu res
giv es</w>
ati c</w>
N G
tan sa</w>
llisuu den</w>
jä r
sisäll yt
kysymy kset</w>
f all</w>
achiev ing</w>
nä yt
muuto ksia</w>
mik ään</w>
fail ure</w>
ni in
la inkaan</w>
G e
vi es
rajo itta
ki is
ins pec
arvo a</w>
P ak
äänesty s
ur s</w>
työ ttö
koh te
jä lleen
incor por
call ing</w>
t tuna</w>
es i
cre di
cap ital</w>
addres sed</w>
tämä ttö
kunni an
prosess i</w>
parlamen taar
mahdollisuu tta</w>
re ply</w>
em en
bo ard</w>
im bab
yksinkerta isesti</w>
pain os
becom ing</w>
alis m</w>
Fis ch
ton ta</w>
sovelle taan</w>
matk usta
ymmär tää</w>
medi a</w>
Amend ments</w>
ta tions</w>
ol ta</w>
convinc ed</w>
mel ko</w>
prob ably</w>
min kään
tulo ksia</w>
solu tions</w>
N ov
tic al</w>
kes tävän</w>
ittel en</w>
enti rely</w>
el se</w>
Turk ish</w>
s ent</w>
main itsem
dise ase</w>
uudell een
lop puun</w>
attemp t</w>
Swed ish</w>
tu ki</w>
markkino ille</w>
k än</w>
de gre
O c
K ar
raho itta
c y</w>
thre at</w>
riittä västi</w>
g os
char ac
Nov ember</w>
oikeus perus
keskustel uun</w>
jou du
du ty</w>
Afganis tan
thin king</w>
nei ther</w>
ar rang
valmis tel
use ful</w>
kolman neksi</w>
high er</w>
he ille</w>
elä im
suure m
es sani</w>
M o
net work</w>
koh tu
etu jen</w>
consensu s</w>
H er
pers on</w>
b lo
Afric a</w>
sov ittelu
poliitt iset</w>
il me
et ty</w>
compet itive</w>
ac y</w>
V i
Joh annes
Jan uary</w>
op ening</w>
mietin töön</w>
ilma ista</w>
compan y</w>
ex plan
A u
vi ita
see k</w>
nyky ään</w>
na tural</w>
muuta man</w>
mar ras
ma alis
laajentu minen</w>
tettu ja</w>
r ö
k tu
Char ter</w>
tä nne</w>
todell inen</w>
na me</w>
monim ut
puitte issa</w>
colleag ue</w>
Ber l
var muu
uno h
sääd ö
liber aal
stand ar
hallin to
cl imate</w>
at s</w>
Välimer en</w>
H us
gos la
des er
deal t</w>
kann us
is ms</w>
ac e
ver s</w>
täy dellis
proper ly</w>
me kin</w>
kaikki alla</w>
k tor
actu al</w>
Z imbab
tu t</w>
istunn ossa</w>
toim ista</w>
mor ning</w>
improv ed</w>
ca used</w>
asem assa</w>
WT O
vasta an
la ws</w>
jät tää</w>
sc ale</w>
käyt tö
ksi lla</w>
go ods</w>
Ita ly</w>
D an
in aan</w>
epäil emättä</w>
kansainväl inen</w>
d ik
an ti</w>
oike astaan</w>
a mista</w>
vaatimu kset</w>
spi rit</w>
sod an</w>
jul istu
des ire</w>
tru ktu
produc t</w>
om aks
n os
mer kille</w>
de pen
1 00</w>
uu si
t tunut</w>
sisäl tyy</w>
lou kka
tam mik
recogn ition</w>
S er
Proc edure</w>
rann ik
kol men</w>
j us
T he</w>
v uu
mahdollis esti</w>
judic ial</w>
ac qu
ys tävä
sop i
C entral</w>
käsittel ev
jon kin</w>
ci vil
puheenvuor on</w>
pr ices</w>
ol enna
hil j
e asi
a head</w>
alue ita</w>
vuo sien</w>
tra ffic
show s</w>
kyse en
is im
hy lä
eil en</w>
differ ences</w>
demokra at
rapporte urs</w>
r ural</w>
asem aa</w>
Bar ro
ti vät</w>
sup pl
kolman sien</w>
introduc tion</w>
hu n</w>
P T</w>
ver kos
under standing</w>
tetu t</w>
ev idence</w>
c al</w>
Poh jo
Pe ople</w>
Kansa kuntien</w>
teke vät</w>
pen al
jo takin</w>
he ar</w>
alais en</w>
Li ber
Hus se
äänes tä
välit tömästi</w>
oh ja
L an
sosi aalis
C an
s issa</w>
om aa</w>
er ous</w>
co ver</w>
P r
Christi an</w>
tarv itse</w>
r id
pää ministeri</w>
yhteiskunn all
o jen</w>
e ita</w>
a vi
So cial</w>
M ac
lead ers</w>
f eder
construc tion</w>
käyt tö</w>
infor med</w>
ap preci
la ito
infras truktu
e ing</w>
varmis tettava</w>
tr e</w>
thir dly</w>
M aa
He alth</w>
alue ellis
veto om
luonn on
le hd
2 7</w>
2 2</w>
t ista</w>
str ong
mu ihin</w>
järjestel y
ita tion</w>
ff ic</w>
Sta bility</w>
ta ata</w>
nel jä
ik enteen</w>
täll aisen</w>
partici p
järjestel mien</w>
b ed</w>
väl in
pal autta
degre e</w>
valti ossa</w>
ma ihin</w>
deb ates</w>
kanna tamme</w>
a miseksi</w>
sup ply</w>
la isia</w>
introduc ed</w>
ette mme</w>
ty h
ti ma
pro por
tra ffic</w>
is issä</w>
au c
a ff
state ments</w>
w on
valmis ta
odo tta
mahdollisuu det</w>
julk isen</w>
Gre ek</w>
199 8</w>
sa ys</w>
tu h
pos es</w>
cho ice</w>
c ut</w>
s ett
pitä nyt</w>
esittä nyt</w>
qu e</w>
os ittain</w>
o ita</w>
r un</w>
kulutta jien</w>
kehity s</w>
aim ed</w>
nyky isen</w>
min äkin</w>
meth ods</w>
kom men
C A
2 3</w>
väl in</w>
substan tial</w>
invol ving</w>
vi estin
ren e
kiito s</w>
ken ties</w>
ell isia</w>
con ven
administra tion</w>
wor ked</w>
re mar
kohd at</w>
it usta</w>
in in</w>
huippukokou ksessa</w>
ensimmä isessä</w>
cover ed</w>
Mar ch</w>
väes tö
määr ää</w>
mi lle</w>
san ctions</w>
happ y</w>
g ia</w>
suppor ting</w>
suo ja
kat son</w>
Gre ece</w>
resolu tions</w>
ho ita
c entral</w>
aih etta</w>
F und</w>
tu o</w>
ol s</w>
o ther
mi c</w>
huol eh
sub mitted</w>
ri itä</w>
de pend
asio ihin</w>
aika välillä</w>
S lo
C or
monim uo
ku va
ann oun
Eur o</w>
to isi
ks e
enorm ous</w>
constitu tion</w>
1 1.</w>
yl ittä
tä isi</w>
sy y</w>
ca pa
r ing</w>
era has
e fficient</w>
v alla</w>
subsi di
pe ace
vää rin
toim iv
re member</w>
alterna tive</w>
tob er</w>
t inen</w>
s ound</w>
ll ään</w>
S outh</w>
Oc tober</w>
menettely ä</w>
l ess
ing ing</w>
c he
agen cies</w>
C as
ö ö
yhd isty
tilin tarkastus
other wise</w>
y er</w>
toimin taan</w>
ol enn
keske inen</w>
dang erous</w>
U K</w>
EU: ssa</w>
oikeudellis ten</w>
o tettu</w>
kunnian him
kiinn ittää</w>
f all
eurooppal aiset</w>
elec ted</w>
osapuol ten</w>
con om
E conom
ta a
contro ls</w>
au tom
a jo
saat u</w>
m itta
jot kin</w>
ti me
one theless</w>
n onetheless</w>
strategi c</w>
politiik assa</w>
käy n
kiin ni
it tämään</w>
imen sion</w>
op les</w>
lo ka
i ght</w>
yhteis työ</w>
ty p
tut ki
sy ö
con tac
ä stä</w>
m usten</w>
päin vastoin</w>
j our
clos er</w>
cl as
c oura
pit kään</w>
e vä
maaseudu n</w>
as su
as king</w>
tol d</w>
intro duce</w>
gi c</w>
constitu tional</w>
co her
atta cks</w>
Commission ers</w>
re ject</w>
pu tting</w>
plen ary</w>
form er</w>
beli ev
Europe ans</w>
t ti
su h
saf e</w>
con stan
Portu gal</w>
yhtenä is
vi ll
telu n</w>
politiik ka
keh ittää</w>
any one</w>
P :n</w>
uu ta</w>
p t</w>
et ä</w>
appe ars</w>
K uu
en in</w>
ter ing</w>
s ala
henkilö iden</w>
I ran
yksimiel isyy
turvapa ikka
muod osta
maahan muutta
influ ence</w>
Koso v
sa mme</w>
repres ent</w>
recogn ised</w>
ful fi
suur ta</w>
kohd assa</w>
inn an</w>
etu ja</w>
challeng es</w>
tyytyvä isiä</w>
os aa</w>
lö yd
it ime</w>
ehdokas valtio
de ks
W h
we a
on ia</w>
nä illä</w>
nu mer
iti veness</w>
be ar</w>
ris e</w>
f ec
dang er</w>
at on</w>
B ur
sij ais
indus trial</w>
profes sion
ista minen</w>
g etting</w>
buil d</w>
y ksen</w>
laa ja</w>
ir man</w>
establis hment</w>
ad ded</w>
un able</w>
ta ho
rakenn erahas
op ti
ase tuks
tiete ellis
ra ha
proses sia</w>
noud attaa</w>
im äär
f ying</w>
Kypro ksen</w>
var at</w>
mi llä</w>
alu e</w>
sig ned</w>
perus oikeus
ki in</w>
inten tion</w>
commer cial</w>
Ch ech
Afrik an</w>
pi ll
kiinn i</w>
ap pla
taloudell inen</w>
pen sion</w>
sp ace</w>
pu h
exten d</w>
Ag ency</w>
sur pris
main ly</w>
fi gu
ann ut</w>
puheenjohta jan</w>
prosent in</w>
oikeud en
ulkopu ole
ryh ty
repe at</w>
inter ven
oike a</w>
merkittä västi</w>
la inen</w>
fun d</w>
construc tive</w>
consequ ently</w>
1 0
ulkopuole lle</w>
ul tima
roh ke
pe oples</w>
Pr ime</w>
tulo s</w>
poh jo
ha gen</w>
Am ster
yhteis ymmärr
odo ttaa</w>
iti ous</w>
inte ll
emplo ye
critic ism</w>
c ally</w>
ing dom</w>
exac tly</w>
ta vall
resol ve</w>
päät tävä
for ced</w>
Isra eli</w>
thou san
subsi dies</w>
politiik asta</w>
per fec
mo di
la u
ch ec
perustusla in</w>
gh ting</w>
erila isia</w>
lu vu
i j
emis sions</w>
suur im
s end</w>
määr än</w>
lead ing</w>
ja ka
enterpris es</w>
compet itiveness</w>
tälla isia</w>
tuo da</w>
t ty</w>
ra il</w>
tus ti</w>
tulevaisuu den</w>
sch em
rec or
inno va
fo re
ep ing</w>
Ge or
tem por
rahoit usta</w>
järjes tön</w>
bac k
Barro so</w>
vaati i</w>
see king</w>
op posed</w>
meet ings</w>
b ia</w>
av us
äskettä in</w>
tavoitte en</w>
se a</w>
otta nut</w>
man date</w>
f ron
Yhdisty ne
wh ere
tä lle</w>
suo si
ca teg
Pal estiin
Econom ic</w>
E T
to t</w>
thousan ds</w>
sopim us
kysymyks istä</w>
ja ks
finan cing</w>
par issa</w>
e iden</w>
con ference</w>
a tu
K ingdom</w>
vat ko</w>
tied ot</w>
m alle</w>
vuoropuhel ua</w>
viras ton</w>
use im
u ations</w>
re ad</w>
struc ture</w>
raken ta
adop ting</w>
E x
san on
im es</w>
ec u
all i
Kre ikan</w>
usko tta
ta po
res urs
kokon aan</w>
institu tion</w>
exis tence</w>
correc t</w>
vuo desta</w>
va at
tärke änä</w>
työjärjesty ksen</w>
olo gi
id aan</w>
funda menta
S har
yksinker tais
työnte ki
traffic king</w>
tettu jen</w>
simp le</w>
pit kän</w>
ong st</w>
n aiset</w>
am ongst</w>
P a
taloudell isia</w>
oike assa</w>
ik kaa</w>
fe ar</w>
esimer kki</w>
c ro
ac ts</w>
tule vat</w>
pass eng
o ffice</w>
c ement</w>
te kijö
recommen dations</w>
pid ämme</w>
mi lla
laati a</w>
jo issakin</w>
ex pen
en han
päätö kset</w>
mer ely</w>
ma ille</w>
k y</w>
ur he
tol er
manag ed</w>
lä mp
kor kea</w>
grea test</w>
compe tence</w>
al ussa</w>
ai omme</w>
tu k
mu tual</w>
an d
si t</w>
p es
ölj y
speak ers</w>
im possible</w>
esit tämä
ten a</w>
jo ille</w>
il mas
e vat</w>
dru gs</w>
contain s</w>
T am
O M</w>
our ce</w>
o ja</w>
kat som
ka ks
appe al</w>
wis hes</w>
vapaa eh
substan ces</w>
ma as
kansainvälis tä</w>
si mme</w>
l et
a men
P ub
tiet y
päät ty
ma ista</w>
in tä</w>
us kom
tr on
ri es</w>
guarante es</w>
v isi
pre ven
mä ssä</w>
ch ance</w>
yrity ksiä</w>
tarko ite
inter vention</w>
halu taan</w>
h a</w>
Pub lic</w>
19 8
kuolem an
for get</w>
en jo
comp ly</w>
D oh
C a
tois ta
ss ään</w>
r ying</w>
it uksen</w>
in him
aim s</w>
x emb
strength ening</w>
laus e
johtu u</w>
os ti</w>
esit tel
erä s</w>
ensi ksi</w>
b in
Saks an</w>
ve h
practic es</w>
improv ement</w>
tark asti</w>
mä ä</w>
Tra de</w>
ky ken
jos kus</w>
asem an</w>
suhte essa</w>
ratkais un</w>
ra tes</w>
pi in</w>
liitty mis
em inen</w>
a iden</w>
20 10</w>
kaup paa</w>
disas ter</w>
reduc ing</w>
p .
monimuo to
br inging</w>
vä lia
valvonn an</w>
sc ho
or gan
chan ged</w>
al usten</w>
transpar ent</w>
suur en</w>
am er
väline itä</w>
vi id
valtio ta</w>
to ki</w>
rejec ted</w>
occ asi
immedi ately</w>
arvio ida</w>
uni vers
te lleet</w>
takais in</w>
riittä vän</w>
raken ne
ide as</w>
f er</w>
f el
de fic
A z
kä ä</w>
isuu teen</w>
h om
figu res</w>
a ate</w>
Euro sta
yle ensä</w>
voim aan</w>
uh re
tuomioistu in</w>
torjun n
tois sijais
n ation</w>
t onn
koulu tus
eval uation</w>
si vat</w>
rene w
n ro</w>
ess ämme</w>
v ina</w>
suh teen</w>
congratu la
om en
köyh yyden</w>
ka m
propos ing</w>
pitkä llä</w>
comple x</w>
ku r
enemmis tö</w>
ar ing</w>
tulevaisuu tta</w>
lop et
liitty vien</w>
high li
Tam per
te in</w>
n en</w>
exerc ise</w>
c e
E rik
ul gar
pys ty</w>
ko vin</w>
3 ;</w>
&#9 3;</w>
vapau tta</w>
muuta mia</w>
komite an</w>
id ents</w>
Lu xemb
toimi vat</w>
ser va
safe gu
ran ge</w>
integra ted</w>
a ffairs</w>
1 ;</w>
&#9 1;</w>
ris m</w>
pres sion</w>
emp ha
con tra
kk ää
j un
e ikö</w>
F re
union ia</w>
tu te</w>
facil ita
ed ing</w>
ar ri
yhteis ö</w>
uud essa</w>
turvallisuu teen</w>
todell ista</w>
refer en
reduc ed</w>
oc cu
ca me</w>
t osta</w>
mp tion</w>
advanta ge</w>
muka ista</w>
harmon isation</w>
ex change</w>
avu n</w>
strong ly</w>
see m</w>
ad ap
Nor th</w>
väline iden</w>
tarjo aa</w>
re ite
offici al</w>
ker ro
katastro f
B ulgar
lu op
u ksien</w>
palvelu ja</w>
on sa</w>
mi e
käyd ä</w>
fail ed</w>
ver si
ehdotuks een</w>
väl ine</w>
tarko itan</w>
merk ityks
emb ly</w>
aloitte en</w>
Ju ly</w>
vo tes</w>
proc eed
op p
ei ght</w>
eas y</w>
amb itious</w>
väh immäis
peri aate</w>
he inä
Pro gra
N AT
continu ing</w>
ch es</w>
val taan</w>
refuge es</w>
pan o
käsiteltävä ksi</w>
huolen aihe
des truc
al aan</w>
unoh taa</w>
sisäl tää</w>
liik enn
g y
esit tämään</w>
ehdo tetaan</w>
appl ic
anta maan</w>
Barcelon a</w>
painopis te
mon i
aw ar
ad vo
tota lly</w>
tar gets</w>
s ho
rau d</w>
ko ke
fi f
arvois at</w>
S E
B SE</w>
vol un
ki ä</w>
B ro
Aus tri
subsidi arity</w>
ser ies</w>
repres ents</w>
o gra
B ol
territor y</w>
se ktor
jäl ke
compensa tion</w>
alue et</w>
ten ed</w>
sij asta</w>
maahanmuut to
välia ik
tu pa
sup ports</w>
ra haa</w>
päätöslauselma es
orig in</w>
neuvottelu issa</w>
koske viin</w>
dic ta
CO M</w>
2 8</w>
toim i</w>
tapa an</w>
recommend ation</w>
pay ments</w>
ks istä</w>
kos kem
US A</w>
2 6</w>
myön tää</w>
att itude</w>
as sosi
aikais emmin</w>
tila isuus</w>
ohjel maa</w>
des tro
con ver
E S</w>
vic e</w>
to isessa</w>
reason able</w>
ne ita</w>
ma x
erin oma
effici ency</w>
velvo itte
t isen</w>
selke ä</w>
inten d</w>
fac ed</w>
3 5</w>
obli gations</w>
mon issa</w>
te re
te ful</w>
ra ja</w>
om ien</w>
keino ja</w>
ga tive</w>
enemmis tö
alka en</w>
un employment</w>
tied ä</w>
ans w
säil yttää</w>
legit im
kulj etta
ita va</w>
il un</w>
tiedon an
os as
ohjel mien</w>
kalas ta
hyväksy tään</w>
hi en
te ver</w>
pub lis
orig inal</w>
fac ing</w>
Pohjo is</w>
utu a</w>
te ki</w>
star ting</w>
osa ksi</w>
ha min
ehdokas valtioiden</w>
arrang ements</w>
ag ed</w>
öö pen
ööpen hamin
wha tever</w>
veh ic
käytö stä</w>
e ten
comprehen sive</w>
K ööpenhamin
Ger man</w>
uu tta
ta ud
deta iled</w>
V an</w>
Le gal</w>
voima kka
valio kunn
elä kke
d imension</w>
liik ke
ka amme</w>
V itor
open hagen</w>
jo ko</w>
hyv än</w>
e dellä</w>
arti k
C openhagen</w>
tarkas tella</w>
tamis essa</w>
pres ence</w>
ne l</w>
gra teful</w>
dy na
Ruot sin</w>
Euroop paan</w>
A s
te li
kansall iset</w>
kans an</w>
idem okra
u is
tärke in</w>
ristiri id
periaatte ita</w>
lä pi</w>
com pla
val ko
kiito ksia</w>
en ab
d essä</w>
yhteistyö ssä</w>
puheenjohta j
kunnianhim o
sy nn
ryhmä mme</w>
osoitta vat</w>
an tu
todennäkö isesti</w>
ten ces</w>
sa astu
reg is
3 1</w>
tempor ary</w>
m .</w>
is ts</w>
Progra mme</w>
M an
yhteistyö stä</w>
yhteen kuulu
elä ke
tion ing</w>
tie tenkään</w>
päätöslausel massa</w>
perspec tive</w>
p o</w>
na isia</w>
ma tic</w>
luon te
kah ta</w>
g er</w>
o ffer
desig ned</w>
atta ck</w>
. 00</w>
transa tlan
pyr ittävä</w>
nyky inen</w>
langu ages</w>
kulutta ja
kehitys maiden</w>
an tanut</w>
ag o
G MO
ympäris töä</w>
sit uations</w>
man u
jat ket
infrastruc ture</w>
hyväksyt tiin</w>
än kin</w>
s man</w>
me idät</w>
ik ään</w>
f raud</w>
an toi</w>
Rus sian</w>
sää s
sosiaal ista</w>
si hte
sano in</w>
muuta ma</w>
mu issa</w>
invol ve</w>
f la
ex port</w>
ell ei</w>
consis tent</w>
bu re
Bud get</w>
pann a</w>
d aan</w>
aiko ina</w>
va tions</w>
ponnis telu
os uus</w>
or u
defin ed</w>
llis een</w>
jo tain</w>
happen ing</w>
tu jen</w>
to i
kilpail un</w>
wi lling</w>
resol ved</w>
häne lle</w>
ff er</w>
vastuu ta</w>
ri en</w>
ker ta
d ical</w>
appro val</w>
5 00</w>
vaike aa</w>
tu ksiin</w>
spe ed</w>
sa ar
k käy
er ää
by ro
M c
Com mun
4 5</w>
v ity</w>
työsken tel
turvallisuu s</w>
puhemi eh
myönte inen</w>
declar ation</w>
d it</w>
de ep
one u
om asta</w>
ne gative</w>
edusta ja</w>
koulu tuksen</w>
invol vement</w>
ensimmä istä</w>
E tel
työ n
re te</w>
follow ed</w>
esit ti</w>
ma ksi</w>
in t</w>
in come</w>
huippukokou ksen</w>
ra il
menet tely</w>
m min</w>
demokrati aa</w>
co t
vä än</w>
pääs tö
pollu tion</w>
mä ttö
lä hen
is yyttä</w>
i ed</w>
arv on</w>
seura uksena</w>
ka a
ent it
myönte isenä</w>
I tä
tu emme</w>
sta tis
nähd ä</w>
hallit ukset</w>
employe es</w>
charac ter
oikeus -</w>
merkittä viä</w>
fo oru
edusta jat</w>
care fully</w>
atta in</w>
ajat tel
B as
vä hin
kuu ka
jon kin
is ellä</w>
het k
gran ted</w>
esti ma
b ad</w>
Tre aties</w>
rauta tie
määräraho ja</w>
c ell
byro kra
avoim uutta</w>
vakuu ttunut</w>
ongel maa</w>
mon th</w>
mahdo tonta</w>
keskustel emme</w>
ke eping</w>
it or</w>
lik ely</w>
ituks et</w>
its es
t ments</w>
referen du
päätös ten</w>
pää asiassa</w>
ple ase</w>
mon ta</w>
miljoon an</w>
lämp im
krite er
tulo kset</w>
pan kin</w>
näkökul masta</w>
loppu jen</w>
l ost</w>
kyseen alais
grow ing</w>
Bol kes
täs mä
tiu k
kansainvälis ten</w>
equ ally</w>
en ter</w>
contribu tions</w>
Gre en</w>
representa tive</w>
histori all
gro unds</w>
Fisch ler</w>
F unds</w>
vaiku tukset</w>
p is
immi grants</w>
B o
0 1</w>
suffer ing</w>
ex ecu
I ran</w>
1 7
päiv ä</w>
las ten</w>
kasvu n</w>
interes ting</w>
compli ance</w>
alue elle</w>
utta va</w>
under min
ud itors</w>
si vely</w>
si des</w>
rah at</w>
pres er
ensisi ja
yhtä lä
sovell etta
siz ed</w>
sil ti</w>
kol m
keho tan</w>
joutu vat</w>
deta il</w>
at tu</w>
yll ä
viime inen</w>
sel vä</w>
me ko</w>
m pa
kysy ä</w>
kesk en</w>
CO D</w>
tuotte ita</w>
propos es</w>
monimut ka
af ter
a part</w>
9 0</w>
syys kuun</w>
ko he
inn än</w>
im ag
conc rete</w>
aktiiv isesti</w>
acc o</w>
a io
Kiin an</w>
pre ad</w>
mä stä</w>
thre a
suojel ua</w>
sano ttava</w>
per c
manu fac
N ew</w>
vaiku tus
toivotta vasti</w>
re kis
pöytä kirj
no jalla</w>
vastus ta
val in
tut k
tarv etta</w>
sto cks</w>
person ally</w>
olem aan</w>
myö tä
ik k
S truc
tu oll
shar ed</w>
riippu matta</w>
man a</w>
hy viä</w>
flo or</w>
direktiiv issä</w>
san on</w>
oso ituksia</w>
om ia</w>
ll s</w>
kustann ukset</w>
destruc tion</w>
rik kom
ter n</w>
sano ttuna</w>
poliitt isesti</w>
määr ittel
mu ista</w>
lainsäädän tö</w>
ko ihin</w>
äänesty ksen</w>
ver rat
us tra
tas ks</w>
ro und</w>
per man
ma ton</w>
gen der</w>
Amer ikan</w>
perus taa</w>
julk isten</w>
de ad
cl es</w>
allekirjo itta
lla kin</w>
isi llä</w>
in surance</w>
elec tion</w>
Struc tural</w>
kustan nu
immedi ate</w>
se et</w>
pi iri
ob sta
markkino ita</w>
justi fied</w>
toista iseksi</w>
te x
te ja</w>
maan viljelijö
le v
initi al</w>
expla in</w>
pi d</w>
itte es</w>
ent y</w>
aloitte ita</w>
Etel ä</w>
valmi ita</w>
mechan isms</w>
mar itime</w>
le vi
j al
glob alisation</w>
Pro tocol</w>
oll aan</w>
odo tamme</w>
ga ve</w>
el o
el ement</w>
tu ja</w>
te istä</w>
päätö stä</w>
politic s</w>
poli it
he u
pas s</w>
p us
contin ent</w>
r ä
lää ke
vi hdo
is taa</w>
f are</w>
en kä</w>
al ha
työsken ne
tob acco</w>
tieto inen</w>
suojel un</w>
kri itt
kki ä</w>
kaup all
kan is
isyy den</w>
fa il</w>
teh os
struc tures</w>
st res
sa in</w>
lim its</w>
äänesty ksessä</w>
pen sions</w>
ef ly</w>
dis charge</w>
str ik
for th
fin e</w>
eni ten</w>
dise ases</w>
alue ille</w>
Inter governmental</w>
un less</w>
n ais
kansan terveyden</w>
high light</w>
dis pu
vähen tää</w>
sisäl ty
na tions</w>
enn alta</w>
di gn
a dequate</w>
E gy
Bus h</w>
tar jota</w>
rahoitus näky
pil ar
pers ons</w>
ol itiik
te red</w>
te ita</w>
l uot
ki inti
expec ted</w>
bin ding</w>
an na
Chech ny
toim ik
sisä llä</w>
infor m</w>
er o</w>
edisty stä</w>
K io
ri is
hear t</w>
endor se</w>
b ra
arv o</w>
vi an</w>
sosiaal itur
se hdo
oikeu teen</w>
ks ena</w>
ent ises
ar ed</w>
Ver heu
F e
B os
yksi kö
vall e</w>
konferens sin</w>
ase iden</w>
us ko</w>
to istu
sp ent</w>
nouda tettava</w>
gener ally</w>
Chechny a</w>
tehtävä nä</w>
löy tää</w>
c le</w>
Ru le</w>
H a
tur ning</w>
tarkistu ksista</w>
ta ke
on te
bure auc
tru ly</w>
lin ked</w>
id emme</w>
essa mme</w>
d oll
aj oneu
wor k
un d
pyr imme</w>
om at</w>
occasi ons</w>
la be
ks u
2 9</w>
ver ei
vapau ksien</w>
sec ure</w>
k assa</w>
il ies</w>
contin ues</w>
ca uses</w>
T u
Sol ana</w>
suo sion
periaatte essa</w>
on a</w>
kyse isen</w>
investo in
ann ettu</w>
yo to</w>
th u
muo do
memb ership</w>
kulu ttua</w>
is ku
ilmo ittaa</w>
dis ap
K yoto</w>
G ö
uks ella</w>
toim ittava</w>
pyrki i</w>
mo ving</w>
kam pan
inn e</w>
Cha mber</w>
vo inut</w>
def end</w>
c ula
P res
tarpe eksi</w>
hal un
Re gi
E L
väär in</w>
verrat tuna</w>
entises tään</w>
T rans
val u
sit o
ser ve</w>
raho ituks
oso itus</w>
emen tary</w>
dis ab
tell ut</w>
sa ttu
itet tävä</w>
fisher men</w>
elintarvikke iden</w>
Po et
2 00</w>
reac hing</w>
max imum</w>
elä män</w>
appla use</w>
a u</w>
Dan ish</w>
ten ing</w>
sano taan</w>
pää sy
opti mis
mieh et</w>
k id
flexi ble</w>
au tu
a inen</w>
ulkopuol ella</w>
ty ihin</w>
strateg ia</w>
se x
perus tamista</w>
ob vious</w>
ku ka</w>
individ u
in ts</w>
Euroop asta</w>
respec ted</w>
inclu des</w>
tod ettava</w>
maks aa</w>
kompromis si
hyö kkäy
dela y</w>
appropri ations</w>
vastu un</w>
tasa puol
ta ri
oll inen</w>
jatkos sakin</w>
vasta us</w>
tieto isia</w>
ta van
miljar dia</w>
histor ic</w>
fam ilies</w>
comm ittees</w>
N L</w>
vah v
tra vel</w>
hä tä
d t</w>
aja tus</w>
ulkop olitiik
ttu jen</w>
joka isen</w>
NAT O</w>
var aa</w>
tied otta
pol tto
ongel mien</w>
i va
ar k
A nn
tehtävä ä</w>
seuraa van</w>
pla yed</w>
oh j
läs nä</w>
k yt
hyväksyt ty</w>
forth coming</w>
expres sion</w>
ester n</w>
En g
täys istunnossa</w>
tarkastel tava</w>
ro oli</w>
pa per</w>
oper ations</w>
markk ina</w>
g la
ar ies</w>
ttu ja</w>
säännö s
per in
koske vissa</w>
ad ver
toimenpite et</w>
rah a</w>
l än
campa ign</w>
yrity ksille</w>
vaal e
ti an</w>
is e
tri ed</w>
ne itä</w>
esit än</w>
Res earch</w>
3 7</w>
tävä än</w>
ther lands</w>
reg re
re ci
o ts</w>
mon opol
kuu lla</w>
han d
emer g
Ne therlands</w>
A uditors</w>
tämän päivä
todell akaan</w>
ratkais em
min uu
it täminen</w>
W at
Bud gets</w>
yleis sopimuksen</w>
so verei
re ago
ll emme</w>
eurooppala isia</w>
C ub
vää ris
t ter</w>
mas s</w>
let ter</w>
kehittä misen</w>
kansall isen</w>
k asta</w>
a ver
M one
Is la
ty yn</w>
tu ally</w>
torju miseksi</w>
toim imaan</w>
ti eli
pre fer
neuvottelu ja</w>
l ent
im pose</w>
Swed en</w>
Palestiin an</w>
stand ard</w>
po l</w>
par as</w>
niin pä</w>
there by</w>
sisä markkinoiden</w>
particip ate</w>
ik u
er ed</w>
cla im
saa pu
kää mme</w>
erinomais esta</w>
certain ty</w>
yr it
sig n</w>
jul kais
imäär ä
ap par
al laan</w>
Erik a</w>
A K
toteu tetta
th o
pri l</w>
me at</w>
A pril</w>
ó n</w>
Scheng en</w>
vis it</w>
seura uksia</w>
satisfac tory</w>
religi ous</w>
protec ting</w>
lo g
kohd ista</w>
kanso jen</w>
freed oms</w>
brea k</w>
asi all
Strasbour g</w>
F or
Al ger
union ille</w>
s tään</w>
palestiin alais
opin ions</w>
muod ossa</w>
ma mme</w>
joka inen</w>
jatkos sa</w>
huom i
Mone tary</w>
J ap
ympäristö asioiden</w>
wa it</w>
varain hoito
toim is
profession al</w>
ongel mista</w>
maa ta</w>
ev an</w>
di g
an in</w>
y ri
wor se</w>
vuo ros
vaad imme</w>
työllis yyden</w>
star ted</w>
promo tion</w>
ke ino</w>
improv ements</w>
hilj attain</w>
ro ol
pöytä kirjan</w>
differ ence</w>
tiet tyjä</w>
näkö kohtia</w>
tutkim usta</w>
tarv itsee</w>
lin k</w>
itet tiin</w>
fac tors</w>
f as
be ings</w>
assosi aati
affec t</w>
WTO :n</w>
An g
v issä</w>
tu kien</w>
liitty vistä</w>
it ten</w>
i um</w>
i it
farm ing</w>
am alla</w>
aj ien</w>
. 000</w>
vä stä</w>
pa per
numer ous</w>
erity istä</w>
commun ities</w>
ultima tely</w>
suure t</w>
sto od</w>
peace ful</w>
lo wer</w>
h ours</w>
ristiriid assa</w>
produc ers</w>
perä isin</w>
opim uksen</w>
hu hti
e vät</w>
yks is
tämän hetk
reflec t</w>
poli isi
genu in
continu ed</w>
conflic ts</w>
com pati
Pal ac
täysi määrä
tune ita</w>
kul ku
demonstra ted</w>
c ra
Turk ki</w>
vuoropuhel un</w>
olis imme</w>
lähestymis tapaa</w>
liik enteen</w>
isuu desta</w>
interes ted</w>
genuin ely</w>
ev en
en de
am pi</w>
Au th
työ hön</w>
touko kuuta</w>
saavutta miseksi</w>
ol isin</w>
il ta
Con sum
sa ira
j ur
d us
Inter nal</w>
A tlan
suhte ita</w>
re he
r on</w>
ol es
ob tain</w>
käyttööno t
kysymyks issä</w>
järjestel mään</w>
fac tor</w>
f al
conduc t</w>
N ig
199 7</w>
yhd ys
typ es</w>
miel ell
ensisij ais
al ities</w>
sopim ukset</w>
muu n
l ta</w>
capa ble</w>
alo jen</w>
ai empaa</w>
r y
nyky isin</w>
kol mas</w>
inn ut</w>
f il
el imin
a y</w>
a man
Ag ricul
v i</w>
suosion osoituksia</w>
sosiaal idemokra
si vu
oso ittanut</w>
ole vaa</w>
nel jä</w>
ista maan</w>
emplo yed</w>
minis ters</w>
li itt
k risti
fi ghting</w>
demonstra te</w>
Or ganis
Gal ic
yy teen</w>
tur ing</w>
taloudellis ten</w>
myönte istä</w>
komissi ossa</w>
kehitys yhteistyö
f ran
edisty s
dec isi
K es
A L
saa maan</w>
sa isi</w>
ratkais ua</w>
ann etta
Mar ket</w>
7 5</w>
yks et</w>
vil pit
vakuu ttaa</w>
täytäntöönpan oa</w>
tho rou
om assa</w>
cus tom
tele vat</w>
so tilas
ri ers</w>
repres ented</w>
onnettom uu
kuu kauden</w>
järjestö t</w>
jud g
is tö
aika välin</w>
yle isen</w>
pitkä lle</w>
m er</w>
go al</w>
chil d</w>
a isia</w>
to p
puu ttua</w>
pois taa</w>
pi c</w>
obli gation</w>
mon itor</w>
aine ita</w>
a ista</w>
Consum er</w>
voita va</w>
vaikutu s</w>
kuul u</w>
exc es
con solid
T ou
z one</w>
varmis tamaan</w>
teks t
tekem istä</w>
sosi alis
puol estaan</w>
moder n
laajentu mis
käytö ssä</w>
edusta jien</w>
K OM</w>
väli lle</w>
tunn usta
tarko ita</w>
realis e</w>
pros per
jäsen elle</w>
ite tään</w>
h ou
distribu tion</w>
al ta
wor th</w>
tu han
puol ella</w>
om ista
me kanis
ko t</w>
vält tää</w>
valtio ita</w>
taloudellis et</w>
puhu n</w>
lähestymis tapa</w>
kiinti ö
ilmo itta
terroris mia</w>
sa i</w>
kka a</w>
ke don
et na
contain ed</w>
ag ency</w>
M i
Kio ton</w>
Constitu tional</w>
ratkais e
m id
la isten</w>
käs itte
kaik enla
im posed</w>
wa iting</w>
väes tön</w>
san om
in vi
hyväksy mään</w>
d ro
contra dic
alo ite</w>
OLA F</w>
valtio issa</w>
tuotan non</w>
s ource</w>
mul ti
kysymyks essä</w>
in ation</w>
Pres ti
Euro pol</w>
vaati a</w>
tied on</w>
te bor
laa tua</w>
it ä
co as
Auth ority</w>
saa tav
require ment</w>
plann ing</w>
kas vaa</w>
he idät</w>
con su
tus sa</w>
talousarvi osta</w>
ta bility</w>
olog y</w>
nyky isten</w>
käytet tävissä</w>
edell yt
b la
Lae ken</w>
Gö tebor
valvon ta</w>
riippu va
gra du
ex pl
bri efly</w>
Bri tan
tuoll oin</w>
suhtaudu n</w>
kahd en
in tiin</w>
hyödyn tää</w>
anta vat</w>
Comm on</w>
se ja</w>
ra j
au t
siirty mä
se ka
legit imate</w>
it u</w>
Organis ation</w>
wel fare</w>
vuos ittain</w>
vi ed
tal ks</w>
naa pur
ks elle</w>
institu tion
equ ip
vir he
ordin ary</w>
nuor ten</w>
kes ku
ins tance</w>
huom auttaa</w>
enem pää</w>
ed y</w>
F i
Bryssel issä</w>
rahoit uksen</w>
ch em
politic ians</w>
hol ding</w>
1 8
vi isi</w>
pur poses</w>
pid äty
pid ät
huolestu tta
han kal
Portugal in</w>
N S</w>
vo ice</w>
oikeus asia
mielen kiin
kno ws</w>
empha sis</w>
d ings</w>
union ista</w>
ulkom inis
sy d
lo w
kau della</w>
govern ance</w>
dra wing</w>
tärke än</w>
tuotan to
tr a</w>
tain ed</w>
qu ar
prec ed
kulu essa</w>
kk inä</w>
kesk isuu
ex emp
credi bility</w>
materi al</w>
kol me
kesk en
conclu ded</w>
citiz en</w>
aikais esti</w>
AC P</w>
vapa us</w>
työ voim
toimenpite iden</w>
op tion</w>
ner gy</w>
hyväksy nyt</w>
vasta uks
us con
tre ated</w>
tarkistu ksessa</w>
parlament tien</w>
käsittely n</w>
ik an
i pu
determin ation</w>
A ss
yksimiel isesti</w>
sub sequ
edellyty kset</w>
D el
D R</w>
Cub a</w>
äänes tämme</w>
vi ivä
t osin</w>
produc tive</w>
perman ent</w>
fin ance</w>
Berl uscon
min ority</w>
katsom me</w>
ihmis tä</w>
ende av
tu lle
ma us
en ess</w>
Slo va
Husse in</w>
työjärjesty s
mill ään</w>
matka ilu
läh te
curr ency</w>
teks tin</w>
realis tic</w>
p om
ksi aan</w>
Vi etna
Ira q
u tunut</w>
te issa</w>
suos tu
rec o
entit led</w>
en try</w>
att le</w>
Val ko</w>
Sec re
Bel ar
trad itional</w>
tapa us</w>
pan a</w>
lento yhtiö
katso o</w>
y e</w>
vaikutta vat</w>
to re
tehd yn</w>
suhte et</w>
restric tions</w>
reco very</w>
ratkaisu ja</w>
paik alla</w>
na apu
istun to
dik ta
ab s
a misen</w>
volun tary</w>
uudistu ksia</w>
regula tory</w>
mon en
kaik esta</w>
exper ts</w>
amoun ts</w>
ad vis
än sä</w>
wel com
welcom ed</w>
vä is
tul k
seik ka</w>
ongel miin</w>
ka asu
it usten</w>
demokraatt isen</w>
co decision</w>
valvo a</w>
vaal ien</w>
tarkistu sten</w>
s em
laajentu mista</w>
julk isia</w>
en e</w>
ch ing</w>
an kar
200 7</w>
todellisuu dessa</w>
re infor
om et
mahdo llinen</w>
liitty mistä</w>
kiire ellis
ke jä</w>
k issa</w>
jäsen valtiossa</w>
artikl assa</w>
Co ton
us ti</w>
jäsen ille</w>
happen s</w>
exten ded</w>
ev ening</w>
enlarg ed</w>
dign ity</w>
alu etta</w>
Lae ken
yhd yn</w>
teh tä
sig nal</w>
ku mo
kaup pa</w>
han ds</w>
b it</w>
advo c
tax ation</w>
tarvitta vat</w>
ta usta
nä mme</w>
komissi olla</w>
kehity kseen</w>
gr ant</w>
ehdo tusten</w>
c ou
ymmärr än</w>
tä kin</w>
sivi il
seuraa vaksi</w>
rahas ton</w>
pass ed</w>
oc ca
occa sion</w>
ha kem
esitteli jö
ati t</w>
allow ing</w>
Agricul ture</w>
yhteis päätös
yhte isestä</w>
työ markkina
sijo itta
käyd ään</w>
h id
su hd
sit te</w>
pri or
m pää</w>
hyväksy ty
en immäis
depend ent</w>
coura ge</w>
confir m</w>
teki jä</w>
strategi aa</w>
si bly</w>
quali fied</w>
puheenvuor oni</w>
no ted</w>
kes tävää</w>
kaikki aan</w>
jä tte
bri ef</w>
as h
ann an</w>
M us
spen ding</w>
p k</w>
al kaa</w>
union illa</w>
un ut</w>
tä h
P SE</w>
5 5</w>
täll aiset</w>
tur ned</w>
teho kas</w>
te illä</w>
res tor
ke ja</w>
i assa</w>
d om
toissijais uus
onnistu nut</w>
kuu ll
acc idents</w>
Ma kedon
yhte isiä</w>
vahvis tetaan</w>
tra gic</w>
tasa vallan</w>
t isesti</w>
su rely</w>
sov itta
rup tion</w>
poliit ik
kysymyks estä</w>
inno vation</w>
Roman ia</w>
F ra
puhu mme</w>
mu la
llisuu tta</w>
kasvu a</w>
itu n</w>
inhim i
hen g
ajoneu vo
He ads</w>
199 6</w>
z z
toteu tetaan</w>
te tä</w>
mit kä</w>
is hed</w>
hyväks ym
consider ing</w>
D ut
D en
vakaus -</w>
use at</w>
use am
ta hd
puheenjohtaja valtion</w>
hyväksy y</w>
edis tämiseksi</w>
at te</w>
Ir lan
to p</w>
suku pol
pal au
käsiteltävä nä</w>
kun no
järjestel miä</w>
ill ani</w>
elec tron
1 6
time table</w>
tark emmin</w>
pla ces</w>
molem mat</w>
lop ussa</w>
ha ki
mu s</w>
la in</w>
l yö
it uu
deli ghted</w>
condem n</w>
H ome</w>
Barcelon an</w>
ulko -</w>
mul tila
esittelijä nä</w>
an t
wa ters</w>
vi iden</w>
tul osta</w>
to isia</w>
ti veness</w>
referendu m</w>
ph ase</w>
periaatte iden</w>
mer i
i taa</w>
experi enc
wr itten</w>
valitetta vaa</w>
sugg est</w>
stan ds</w>
s mo
or al</w>
n tä</w>
ks ella</w>
im iel
compe tences</w>
al usta</w>
tä hd
some what</w>
re vis
mi tenkään</w>
lausun non</w>
kohtu u
j emme</w>
encoura ging</w>
emb ar
believ es</w>
associ ation</w>
EL DR</w>
tö ihin</w>
toimi valta
sy mb
separ ate</w>
n es
maa han</w>
keskustelu ja</w>
ic ated</w>
ha ita
g one</w>
en e
c y
rajo jen</w>
oike uksista</w>
mun a</w>
inn ista</w>
ic ate</w>
huole hd
Afric an</w>
ta var
s ources</w>
perustu van</w>
la tter</w>
g issa</w>
elä k
cen tre</w>
Dut ch</w>
tule van</w>
talou s</w>
str ö
saata isiin</w>
ro ati
parlament tiin</w>
kom mun
kan ta
huu maus
guarante ed</w>
P os
väki vallan</w>
s ou
mu ille</w>
kon e
fel t</w>
avoim esti</w>
U N
l ying</w>
f our
ess ing</w>
äs ken</w>
ri it
ra pid</w>
met sä
j en
Bolkes tein</w>
un da
tan t</w>
parlamenti lla</w>
me ja</w>
käsittelev än</w>
joulu kuussa</w>
examin e</w>
vaati musten</w>
toimielim et</w>
talousarvio ta</w>
mechan ism</w>
independ ence</w>
imp ia</w>
gla d</w>
dis tor
as ta
S an
vaka via</w>
to tu
tapahtu mat</w>
talousarvio on</w>
pr e</w>
os al
joulu kuuta</w>
go t</w>
ehkä isem
c ent</w>
bur den</w>
aa muna</w>
a h
H ar
A gen
vastu un
suures ti</w>
perus ta</w>
ko os
g as</w>
b ila
O s</w>
Balkan s</w>
sija itse
seura a</w>
s anne</w>
moder n</w>
Gal ile
vois in</w>
varmis tamiseksi</w>
työpaik koja</w>
prec ise</w>
ase tus</w>
Vitor ino</w>
Afganistan in</w>
AK T</w>
vakuu tus
tie tävät</w>
sosiaal inen</w>
so ta</w>
p. m.</w>
ita ble</w>
h ence</w>
for es
3 2</w>
tiet tyjen</w>
pitä vät</w>
hallit uks
Lat in</w>
I C
perfec tly</w>
j ääd
ark alu
toim een
r at</w>
osallistu mista</w>
liit to
kansall isia</w>
etu sij
confir med</w>
ben e
ar m</w>
ar kk
Wh ite</w>
wi ll
t isia</w>
palvel ut</w>
kysym ysten</w>
kilpail ua</w>
fle et</w>
vi ksi</w>
ves sels</w>
tan ts</w>
muu ton</w>
il mi
exam ples</w>
clari fy</w>
ar me
ans all
vielä kin</w>
uni ted</w>
sopimuks esta</w>
san a
rekis ter
pos t</w>
nim issä</w>
he al
ex tra
I tä</w>
tosi asiassa</w>
remar ks</w>
käsittel yyn</w>
kasv u</w>
an tly</w>
T i
E nergy</w>
E mp
teh täviä</w>
tar ve</w>
saavu tettu</w>
res truc
pa yment</w>
ot sa
minkään laista</w>
koros tetaan</w>
ite et
invol ves</w>
fir m</w>
vasta avat</w>
uudes saan</w>
toiv e
tavo itetta</w>
prim ary</w>
penal ty</w>
p at
ohjel massa</w>
muo to
mu kau
k kuu
k kaan</w>
inte gro
han kkeen</w>
Liber al</w>
0 2</w>
väl isessä</w>
see ks</w>
r ich</w>
man age</w>
ins ist</w>
fo ot</w>
emerg ency</w>
descri bed</w>
nähd äkseni</w>
kehittä mistä</w>
fe el
w arm
torj ua</w>
itu ksiin</w>
fri ends</w>
ed essä</w>
a void
Ass embly</w>
varmis ta
va kauden</w>
s li
proc eed</w>
onn e</w>
käsittely ä</w>
il u</w>
avoim uuden</w>
Fin an
Britan ni
yksi puol
vi enti
vastaa maan</w>
va kau
po or
b es
säännö ksiä</w>
im pression</w>
h ir
facilita te</w>
am ma
yr ittää</w>
vapau teen</w>
tois inaan</w>
pien ten</w>
l or
käy tettävä</w>
E K
B u
3 3</w>
yksi lö
tukem aan</w>
ta p
pp ed</w>
oper ating</w>
äänesty stä</w>
yksin omaan</w>
suure mpi</w>
proc esses</w>
oper ators</w>
om aisen</w>
mer en
la w
exis ts</w>
en ed</w>
e ties</w>
as sure</w>
Kore a</w>
Agen da</w>
ud esta</w>
syys kuuta</w>
suur ten</w>
nä y
l ose</w>
kka ita</w>
cour t</w>
b om
aj at</w>
O l
In dus
tois istaan</w>
por ting</w>
oper ational</w>
luovu tta
kos sa</w>
kel po
kansall is
a misesta</w>
u hd
puheenjohta jana</w>
omaks u
mone tary</w>
enn ut</w>
maahan muuton</w>
komissi olta</w>
h inn
f ru
ä llä</w>
tavoitte ista</w>
ra dio
ku vi
Mo ro
under taken</w>
tar get</w>
sus pen
r in</w>
pill ar</w>
o l</w>
mill oin</w>
järke vää</w>
enemmis tön</w>
a mis
M al
yhteistyö hön</w>
viestin tä
vaka va</w>
tämis essä</w>
paran tamiseksi</w>
hyväksyt tävä</w>
use iden</w>
politic ally</w>
negoti ating</w>
kesken ään</w>
kas vi
kansall ista</w>
i ten</w>
hallit usta</w>
easi er</w>
Kosov o</w>
F unda
varmis tetaan</w>
vall an
suunn ittel
ryhmä t</w>
proses siin</w>
por ted</w>
inten ds</w>
electron ic</w>
el ää</w>
br uary</w>
Funda mental</w>
Fe bruary</w>
Belar us</w>
w th</w>
saman aikaisesti</w>
maatalous politiikan</w>
fe ed</w>
elec tor
appl ying</w>
Gro wth</w>
vaati vat</w>
tekni ikan</w>
laad u
la in
is tamme</w>
elin ten</w>
ad e</w>
Pu ol
spo ke</w>
s inc
m ly</w>
kustannu ksia</w>
koh tana</w>
gener ation</w>
Trans port</w>
työn anta
st re
spo ken</w>
saa kka</w>
pu hta
go ro
go als</w>
fic ations</w>
awar eness</w>
H el
Austri a</w>
piiri in</w>
osapuol et</w>
mi d</w>
man sa</w>
toteu tettava</w>
poikke uks
kri isin</w>
is empi</w>
dist inc
an ts</w>
Ukra in
Emp lo
vuo sia</w>
velvollisuu s</w>
tet täisiin</w>
pro hi
otta matta</w>
cr imes</w>
a miseen</w>
tu ettava</w>
suunnitel man</w>
puheen vuoros
offici als</w>
mis essä</w>
mahdollisuu ksien</w>
lämpim ästi</w>
luop u
kasv us
kap pal
k le</w>
hel mik
0 5
yle istä</w>
vaike uksia</w>
täv istä</w>
protec ted</w>
pa si
im peri
huu me
es tic</w>
ase tetaan</w>
ac knowled
Y :n</w>
stric t</w>
safegu ard</w>
paho illani</w>
on ers</w>
no ise</w>
ker ta</w>
ke pt</w>
ha an</w>
fre qu
etel ä
esittä neet</w>
ed ut</w>
alo ja</w>
Iraq i</w>
tw enty</w>
tois tan</w>
regre tta
pyyd ämme</w>
p lu
kertom uksen</w>
be ha
announ ced</w>
Lat in
va ali
technolog ies</w>
su ffici
saatta vat</w>
sa man</w>
ro om</w>
pyrki ä</w>
proceed ings</w>
neighbour s</w>
min im
deta ils</w>
Tans kan</w>
Poet tering</w>
M or
yy destä</w>
uskon no
uni on</w>
sol ve</w>
plann ed</w>
medic ines</w>
an no
K al
u ne
te tusti</w>
suhte iden</w>
ryhd yttävä</w>
maintain ing</w>
kiit ollinen</w>
k er</w>
esimer kkinä</w>
b ase</w>
aver age</w>
Fis her
Emplo yment</w>
terroris ts</w>
tasapain o</w>
tab ly</w>
suoj ella</w>
stu d
rakenn us
prev enting</w>
prepar ing</w>
istunn on</w>
ad jus
Mac ed
9 5</w>
4 8</w>
voit u</w>
vasta inen</w>
tila isuuden</w>
re di
rau haa</w>
edis tetään</w>
yks een</w>
tyyd yt
tut kin
tur y</w>
tun tuu</w>
tila isuutta</w>
konferens sissa</w>
am bi
W all
kommun is
hyväks y</w>
ga in</w>
H i
uni la
tämä stä</w>
sy yt
sor kka
saata villa</w>
mo bility</w>
kun kin</w>
k kä</w>
ihmis ille</w>
han ke</w>
ess enti
c king</w>
bila teral</w>
Finan cial</w>
vastus taa</w>
työpaik kojen</w>
pursu e</w>
ni ght</w>
lear n</w>
ir a</w>
aut onom
assa ol
am in</w>
ala inen</w>
S to
Ang ol
vä itte
reques ted</w>
nouda tetaan</w>
he illä</w>
contrac ts</w>
consu mption</w>
consis ten
appro ve</w>
ad vice</w>
a var
tutkim us</w>
peruste ellisesti</w>
os ana</w>
henkilö t</w>
et si
c at
NG Os</w>
tul i</w>
sel ven
se itsem
res u
päätöslausel maa</w>
ne w
m oun
a z
Isra el
teh tiin</w>
tarv itsevat</w>
myönte isiä</w>
käy nyt</w>
kesk inä
ja mme</w>
hä v
aik om
Verheu gen</w>
yhte y
tel u</w>
sisäll yttää</w>
sa mat</w>
isyy s</w>
ic s</w>
hankke iden</w>
argu ments</w>
ajan kohta
Ara f
vapa a</w>
uo ll
tion ary</w>
than king</w>
sa w</w>
la iset</w>
keho ttaa</w>
aal i
Mar o
w ed</w>
satis fied</w>
lis ään
koulu tusta</w>
kokonais uudessaan</w>
jäsenvaltio ta</w>
ite ll
cond ition</w>
M u
L än
vasta ista</w>
valti osta</w>
pow er
pid em
perus tell
over come</w>
ver on
suu -</w>
sen sible</w>
ro ko
ongel maan</w>
lu v
lai m</w>
determin ed</w>
da ily</w>
torjun ta</w>
prosess issa</w>
määräraho jen</w>
muod ostaa</w>
liik aa</w>
kah deks
ai o</w>
Fisher ies</w>
tac kle</w>
rik ka
puhu taan</w>
la test</w>
kuu kau
fundamenta lis
dou ble</w>
defin e</w>
äänes timme</w>
utu u</w>
täytäntöönpan on</w>
tulo ksena</w>
tule vien</w>
publis hed</w>
käynn issä</w>
exten sion</w>
edis tämään</w>
a kti
ty neet</w>
tois taa</w>
li i
eed ed</w>
bi olog
ö in</w>
tä yttää</w>
oikeus valtion</w>
mo ot
mie hi
individu als</w>
hall into</w>
dom estic</w>
demokra tia</w>
consi ders</w>
arvio inti
arme i
vi it
täll aisten</w>
taloudellis esti</w>
re vision</w>
fiel ds</w>
f in</w>
e hd
decisi ve</w>
assosiaati os
Indus try</w>
4 2</w>
u d</w>
työs tään</w>
tu ista</w>
tapahtu mien</w>
re construction</w>
lin ed</w>
la a</w>
koh tien</w>
b ann
C NS</w>
yl imäärä
x ed</w>
väl isiä</w>
vo itte</w>
va cc
tu kia</w>
pal k
lä hem
introduc ing</w>
com men
I D
Can c
vehic les</w>
tun ne
sm all
sisä asioiden</w>
perustu vat</w>
p li
lisä ttävä</w>
huol issaan</w>
d omin
contac t</w>
yhteis een</w>
won der</w>
see ing</w>
prepar e</w>
politiik kojen</w>
m es
laittom an</w>
K au
vara uks
syy llis
kan tojen</w>
ittu jen</w>
cen tury</w>
ase ita</w>
talousarvi o</w>
mb ud
la isen</w>
käyt tävät</w>
hankke ita</w>
h ouse</w>
fa ir
Venä jä
O mbud
työttö my
opol itiik
main itsi</w>
expec tations</w>
D P</w>
1 1.
sex ual</w>
ongel mana</w>
nor mal</w>
johd osta</w>
cre dit</w>
alis e</w>
ab ol
Nig er
C ol
A sia</w>
uh kaa</w>
työntekijö itä</w>
taud in</w>
substan ce</w>
shor t
menettely jä</w>
ll i
ko vasti</w>
ig nor
en cies</w>
coher ent</w>
c au
an kin</w>
Ju gosla
In don
vastaa van</w>
trans fer</w>
ri d</w>
fin ding</w>
ar rest</w>
vo ineet</w>
vasta uksen</w>
valu able</w>
us ers</w>
työsken tely
pro secu
o ihin</w>
mä ttä</w>
compe tent</w>
cla use</w>
chan ging</w>
arvo ja</w>
am paa</w>
al alle</w>
valmistelu kunta</w>
tu tus
myön netään</w>
kuluttaja politiikan</w>
kr itiik
konkreett isia</w>
ine u
eu vos
essenti ally</w>
allow s</w>
Yhdysvall oissa</w>
Secre tary</w>
Qu es
us k
tra g
ta vasta</w>
ristiri ita
luo tetta
eläk elä
care ful</w>
t tia</w>
sisä markkina</w>
rela tes</w>
prosper ity</w>
kolman nen</w>
investo inte
huom ion</w>
fac ts</w>
f os
er ing</w>
asia kirjan</w>
Palac io</w>
ter ri
telev ision</w>
sano ttu</w>
ra tion</w>
alloc ated</w>
Yhdistyne essä</w>
Den mark</w>
19 7
viivä sty
täll öin</w>
teks ti</w>
reite rate</w>
määrä yksiä</w>
ki ista
is emmin</w>
argu ment</w>
Ombud sman</w>
As soci
. 30</w>
van g
v on</w>
under stood</w>
kuningas kunnassa</w>
kesk ity
jatket tava</w>
compar ed</w>
N iel
Eurosta t</w>
ver ran</w>
uudistu ksen</w>
tu vat</w>
tar jou
pr ing</w>
maintain ed</w>
la h
jo kin</w>
hyl kää
edusta j
Ukra ine</w>
Sch re
Galile o</w>
vas em
b urg
vapa asti</w>
sion ers</w>
ogra ph
jäsen enä</w>
impl ications</w>
enn us
acc ident</w>
S A
yle inen</w>
vi esti</w>
tu le</w>
terve yttä</w>
statis tics</w>
refer ring</w>
recor d</w>
lear ning</w>
ing ness</w>
immä t</w>
Sto ck
välttämä ttä</w>
viik on</w>
stu dies</w>
p in
min orities</w>
mi lla</w>
larg ely</w>
käsitel tävä</w>
inst ituu
elä mään</w>
ai em
ympäristö n
tote sin</w>
tii vi
luku isia</w>
haluais imme</w>
ent ity</w>
b ian</w>
associ ated</w>
I N
3 8</w>
199 5</w>
yl pe
will ingness</w>
tuks essa</w>
tek op
re min
3 4</w>
viljel y
viime is
vi our</w>
trad ition</w>
tra te
obsta cles</w>
nation als</w>
help ing</w>
explan ation</w>
as taa</w>
tyy pp
tre aty</w>
riippu u</w>
onn ittelen</w>
itses tään</w>
func tioning</w>
e b
cho ose</w>
arm ed</w>
ar ia</w>
E I
CA P</w>
tra ding</w>
effec tiveness</w>
dis pos
Presid ents</w>
väki valta
ohjel masta</w>
ilme isesti</w>
fulfi l</w>
el v
co operate</w>
teki jä
te e</w>
suunnitel ma</w>
spec ies</w>
keino in</w>
consider ations</w>
blo od</w>
ton sa</w>
til ä
suor itta
succ eed</w>
pää sihte
merkittä vää</w>
järjes täyty
joukko jen</w>
ala isia</w>
Portu gu
Maa ilman</w>
Associ ation</w>
ys tä
tää ltä</w>
tel ee</w>
tarkas ta
oppos ite</w>
main ittu</w>
lla mme</w>
liitty vän</w>
kiito kset</w>
keskus tellaan</w>
ho itaa</w>
after noon</w>
Portugu ese</w>
Fre ed
tell en</w>
te iltä</w>
tarkistu ksesta</w>
tarkas tellaan</w>
sugges ted</w>
run ning</w>
ehdottom an</w>
ehdo t</w>
t issa</w>
päivä ä</w>
ni lle</w>
muka inen</w>
kristi llis
julk is
Johannes burg</w>
B la
urg ency</w>
tä essä</w>
te ur
ohjel maan</w>
järjes tää</w>
intell ig
ineu vos
ill een</w>
fir mly</w>
coun ter</w>
arkalu onte
Pak istan</w>
D u
vaal it</w>
tää kseen</w>
tu etaan</w>
tru th</w>
toiminn asta</w>
toimenpite isiin</w>
selvä sti
s cru
m outh</w>
kun taa</w>
its isi</w>
Kööpenhamin an</w>
3 6</w>
12 .00</w>
vat kin</w>
vakuu ttu
reques ts</w>
pla ying</w>
myy n
k eli
compati ble</w>
ad ing</w>
Al ban
ulkom aan
o u</w>
mill ions</w>
me ant</w>
liitty vää</w>
er imiel
con tain</w>
alu n</w>
af for
tex ts</w>
parlia ment</w>
os assa</w>
kau pan
high est</w>
exclu sion</w>
ep idem
en ding</w>
br ings</w>
ac knowledge</w>
valtu u
vall itsee</w>
syd ä
päätöslausel ma</w>
koh tiin</w>
il tana</w>
exces sive</w>
appreci ate</w>
advanta ges</w>
ymmär re
yll ät
x im
van ho
valtuus kunnan</w>
ot ti</w>
myö nn
inves tments</w>
id es</w>
dru g</w>
W omen</w>
vastus tamme</w>
tulo kseen</w>
todellis en</w>
tet tä</w>
schem e</w>
olu mb
ohjel mia</w>
obli ged</w>
ni c</w>
muis tettava</w>
laati maan</w>
ket ta</w>
democ ra
cha irman</w>
teh tävän</w>
tammik uuta</w>
sta ble</w>
produc ing</w>
pakol ais
paikall is
nä ille</w>
ed etä</w>
do w</w>
constan tly</w>
Y or
3 9</w>
tarkoituks enmuka
oll e
itur vall
indic ated</w>
ed un</w>
vall itse
uudes taan</w>
uh ka
puolue iden</w>
pos t
kyse inen</w>
him self</w>
halu a
enna kko
anna mme</w>
Zimbab we</w>
pit o
o tte
o ffic
keske y
gi ble</w>
constitu te</w>
at ly</w>
4 4</w>
vaiku tusta</w>
us in</w>
tävä ssä</w>
se where</w>
käsi tell
kah teen</w>
jo lle</w>
hyö d
han k
ex ports</w>
eval u
el sewhere</w>
beha viour</w>
anne tun</w>
G ar
Balkan in</w>
tävä ksi</w>
passeng ers</w>
korke an</w>
kansainväl isiä</w>
jäsen valtio</w>
c laim</w>
Soci alists</w>
Kore an</w>
D ef
viim eksi</w>
var i
ut tom
syn tyy</w>
sano isin</w>
ratkais eva</w>
rati fication</w>
mieh en</w>
maail maa</w>
ensimmä iseksi</w>
collec tive</w>
D A</w>
4 1</w>
varo va
seura ukset</w>
no body</w>
järjes tet
hä pe
equip ment</w>
con vention</w>
Ex ternal</w>
D e</w>
tapo ja</w>
suo tu
p yys
op tions</w>
kaks in
ihmis en</w>
huole llisesti</w>
for med</w>
fi g
an ia</w>
va ura
re move</w>
p ath</w>
osallistu vat</w>
mo d
koulu tukseen</w>
ensisij aisesti</w>
en tr
deli ber
ab use</w>
Regi onal</w>
viranom aisen</w>
usko akseni</w>
riko llisuuden</w>
prim arily</w>
pasi teet
maas sani</w>
amend ed</w>
accoun ts</w>
T ai
y llä</w>
vasta vuoro
vall assa</w>
ur in</w>
u den</w>
tekn ologi
perus telu
on going</w>
o tamme</w>
clas si
becom es</w>
air lines</w>
aiheutta vat</w>
u mp
tod ennut</w>
myönnet tävä</w>
mu illa</w>
jour n
han kin
follow s</w>
ar ab
acti vely</w>
yhte isessä</w>
perustu va</w>
or i
o he
mä lle</w>
henkilös tö
