, 712481
. 501365
ja 332612
on 290729
että 167505
ei 69177
Euroopan 60159
@-@ 55942
- 50343
in 49079
myös 47803
se 46752
ista 46647
ovat 42853
sen 38486
arvoisa 37914
ole 37767
komission 37054
en 34953
joka 32987
a 32545
tämä 32269
i 32034
is@@ 30636
puhemies 30623
jotka 30207
ta@@ 29264
inen 28348
siitä 28332
meidän 27099
jäsen 26677
mutta 26379
sitä 26354
a@@ 25956
isen 25028
an 24832
parlamentin 24752
tämän 24182
nyt 23156
kuin 23149
tai 22774
emme 22682
e@@ 22434
) 21843
olisi 21840
( 21742
i@@ 21344
vat 21087
issa 20972
tu@@ 20952
sekä 20914
kun 20704
istä 20603
o@@ 20465
unionin 20275
ta 19713
kuitenkin 19511
ä 19426
: 19309
komissio 19292
jos 19277
k@@ 19202
? 19152
ti@@ 18818
isten 18747
neet 18718
isiin 18565
&quot; 18455
ne 18290
an@@ 18191
in@@ 18067
voi 17949
taan 17934
kuten 17920
kanssa 17853
en@@ 17845
te@@ 17633
u@@ 17593
t 17391
isia 17292
olemme 17289
maan 17255
olen 17237
koska 17157
tässä 16757
een 16654
aan 16385
isesti 16303
et 16134
asta 16074
niin 15985
iden 15896
neuvoston 15855
s@@ 15836
jo 15822
es@@ 15623
ka@@ 15611
assa 15566
u 15388
hyvin 15272
vain 15210
minen 15077
ko@@ 15036
jonka 15020
t@@ 14907
ita 14873
to@@ 14774
al@@ 14743
y@@ 14720
ille 14677
j@@ 14664
pää@@ 14645
kin 14540
iset 14474
it@@ 14365
sillä 14236
ia 14159
jen 14107
oli 13893
la@@ 13884
o 13821
kaikki 13677
im@@ 13549
olla 13506
tätä 13453
mme 13442
us@@ 13311
me 13283
vielä 13280
eivät 13166
vaan 12802
isi 12758
mitä 12727
ä@@ 12702
jotta 12584
ik@@ 12573
haluan 12480
taa 12409
vi@@ 12376
siihen 12337
erittäin 12322
niiden 12261
as@@ 12251
ku@@ 12233
haluaisin 12154
ti 12053
mielestäni 12002
n@@ 11983
at 11973
os@@ 11949
n 11881
em@@ 11880
lle 11875
ki@@ 11788
jossa 11774
sa@@ 11597
voidaan 11526
e 11477
vien 11466
mista 11461
tä@@ 11455
joita 11351
si@@ 11329
vaa 11299
näin 11298
ihin 11238
/ 11089
on@@ 11033
tästä 11026
van 10970
iseen 10905
lisäksi 10891
s 10855
h@@ 10827
illa 10799
ma@@ 10782
vuoksi 10708
p@@ 10680
v@@ 10609
et@@ 10540
perus@@ 10493
esta 10490
ne@@ 10479
val@@ 10422
hän 10414
erityisesti 10388
tällä 10382
alla 10374
va@@ 10308
ha@@ 10278
mukaan 10132
vät 10083
to 9995
misen 9987
parlamentti 9961
elle 9918
var@@ 9883
siksi 9865
eikä 9811
alle 9808
essa 9776
ennen 9702
lu@@ 9693
vuoden 9638
ksi 9623
yhteisön 9607
il@@ 9578
li@@ 9567
ty@@ 9559
tähän 9522
ut 9470
mieltä 9460
työ@@ 9382
mis@@ 9357
aa 9334
jota 9322
joiden 9320
om@@ 9282
usta 9277
ra@@ 9277
er@@ 9228
EU:n 9202
jäsenvaltioiden 9180
ke@@ 9170
paljon 9163
via 9157
r@@ 9144
epä@@ 9142
vasta@@ 9131
pitäisi 9121
tää 9106
tään 9093
ina 9018
uuden 8977
mistä 8971
nämä 8911
ol@@ 8847
huomioon 8802
vaikka 8797
S@@ 8733
issä 8654
ksen 8638
ja@@ 8583
isiä 8578
määrä@@ 8550
ollut 8546
tärkeää 8530
itä 8524
asti 8511
tta@@ 8483
ks@@ 8481
tel@@ 8457
niitä 8417
isesta 8402
stä 8385
puolesta 8346
ell@@ 8340
mu@@ 8271
ella 8263
llä 8243
tehdä 8227
pitää 8222
ar@@ 8216
tä 8210
uu@@ 8115
ettei 8109
siinä 8076
pa@@ 8074
tettava 8044
he 8012
neuvosto 8006
m@@ 7999
kaan 7991
el@@ 7986
E@@ 7955
l@@ 7948
jälkeen 7939
siis 7926
va 7882
tiin 7869
ot@@ 7745
täysin 7681
imme 7679
lla 7660
vä@@ 7655
ll@@ 7622
mikä 7586
man 7560
miseen 7532
ään 7520
asia 7503
pan@@ 7427
tetaan 7424
osta 7424
toa 7387
amme 7378
koko 7362
jä@@ 7349
än 7349
ssä 7344
hyvät 7255
itta@@ 7249
itse 7241
sitten 7234
ten 7234
hänen 7224
re@@ 7221
puol@@ 7213
vuonna 7173
K@@ 7138
T@@ 7101
M@@ 7067
kyse 7064
juuri 7033
yhteydessä 7026
miten 7024
van@@ 7019
essä 6997
vastaan 6962
kä@@ 6944
voimme 6931
toim@@ 6925
ö@@ 6875
jäsenet 6871
eksi 6860
A@@ 6859
viime 6831
meillä 6814
Eurooppa 6814
eri 6800
ien 6773
saa 6773
näiden 6760
ase@@ 6743
kan@@ 6727
tamme 6687
asiassa 6686
valiokunnan 6684
ellä 6681
esimerkiksi 6655
ko 6634
un@@ 6620
antaa 6604
ottaa 6596
teen 6579
pal@@ 6575
toimia 6556
P@@ 6551
tojen 6512
mien 6500
enn@@ 6496
ympäristö@@ 6452
politiikan 6431
aja@@ 6430
lisä@@ 6396
ais@@ 6361
tö@@ 6344
toja 6344
all@@ 6310
us 6262
hyväksy@@ 6260
osalta 6255
sa 6253
ena 6245
toimi@@ 6244
ossa 6239
anta@@ 6236
aivan 6229
kaikkien 6207
tamista 6196
puheenjohtaja 6191
jo@@ 6156
ri@@ 6154
koskevan 6148
ittä@@ 6146
jien 6146
kseen 6145
enemmän 6094
yksi 6090
puhu@@ 6080
lopuksi 6077
heidän 6065
isin 6049
maiden 6035
vo@@ 6031
men@@ 6021
nä@@ 6020
tusta 5991
B@@ 5981
per@@ 5946
esittelijä 5941
tava 5932
ittaa 5894
mietinnön 5885
te 5868
arvo@@ 5868
jat 5835
kiel@@ 5828
ksiin 5827
tia 5815
joilla 5815
d@@ 5798
-@@ 5790
tan 5778
id@@ 5760
edelleen 5751
; 5746
istu@@ 5738
ää@@ 5731
alalla 5722
ainoastaan 5722
koskee 5721
avulla 5710
kysymys 5700
utu@@ 5696
y 5679
kannalta 5632
yt@@ 5611
miseksi 5604
no@@ 5591
aikana 5587
tänään 5536
jolla 5535
mitään 5515
kka@@ 5505
ker@@ 5473
unioni 5468
tettu 5463
koskevat 5454
iin 5452
mon@@ 5444
se@@ 5434
osallistu@@ 5434
käy@@ 5428
sanoa 5428
minun 5417
pääs@@ 5398
mä@@ 5392
ite@@ 5388
arvio@@ 5367
isessa 5363
hyvä 5359
valta@@ 5344
tin 5338
ehdo@@ 5335
sy@@ 5332
tu 5328
toivon 5319
joissa 5308
mi@@ 5306
uksia 5305
kset 5293
tois@@ 5289
asiasta 5277
oltava 5264
estä 5250
yhteis@@ 5247
osa 5243
ensa 5240
tulee 5239
mat 5229
ill@@ 5223
voivat 5222
kansalais@@ 5217
tua 5212
eni 5178
ys@@ 5168
san@@ 5165
kaa 5162
tapauksessa 5153
hu@@ 5152
kuitenkaan 5149
tetään 5147
oll@@ 5147
tapa@@ 5136
misesta 5133
ma 5124
alan 5080
samaa 5076
hyväksyä 5073
yleis@@ 5071
ksia 5067
tus@@ 5047
tapahtu@@ 5047
ro@@ 5039
itu@@ 5024
mietinnössä 5023
muu@@ 5018
aina 5012
ilta 5000
otta@@ 4998
ver@@ 4994
mukaisesti 4988
tärkeä 4984
meille 4979
saada 4974
jan 4972
na@@ 4941
kään 4937
tyä 4934
au@@ 4929
uutta 4928
jä 4926
inn@@ 4885
johta@@ 4877
nn@@ 4874
jäsen@@ 4872
laaj@@ 4869
it 4861
ilman 4850
nyky@@ 4848
mietintö 4834
2001 4823
sopimuksen 4820
kau@@ 4815
maa 4813
eseen 4797
eli 4789
ih@@ 4787
tettiin 4776
kiittää 4766
seuraa@@ 4765
yh@@ 4764
tehtävä 4761
malla 4759
aikaan 4746
ämme 4734
vahvis@@ 4711
hd@@ 4710
yn 4699
aal@@ 4695
ir@@ 4689
iv@@ 4689
ihmis@@ 4689
vasta 4688
samalla 4687
asiaa 4675
teitä 4666
näitä 4655
utta@@ 4648
täällä 4642
siten 4629
kaikkia 4627
tämään 4626
kansalaisten 4621
pu@@ 4616
ttava 4610
toinen 4603
mään 4600
haluamme 4595
so@@ 4593
su@@ 4584
kaksi 4582
tien 4579
I@@ 4566
käsittel@@ 4558
sisä@@ 4530
rajo@@ 4521
ön 4518
tävä 4514
tekem@@ 4513
R@@ 4510
at@@ 4502
ki 4492
un 4484
ansa 4481
toteutta@@ 4475
maan@@ 4470
asian 4461
ee 4452
kes@@ 4446
teille 4442
ken@@ 4441
isestä 4440
tukea 4425
op@@ 4421
järjes@@ 4417
niistä 4417
todella 4414
lo@@ 4407
G@@ 4406
H@@ 4400
2@@ 4396
par@@ 4385
ty 4375
yhä 4374
tettävä 4373
ratkais@@ 4370
kaikkea 4369
sel@@ 4368
asioiden 4364
C@@ 4362
tuksen 4357
ista@@ 4336
ksi@@ 4329
iseksi 4327
kuinka 4325
hetkellä 4323
po@@ 4322
edis@@ 4322
raken@@ 4320
onnistu@@ 4318
ky@@ 4314
siir@@ 4314
! 4312
ni@@ 4307
pien@@ 4307
otetaan 4300
am@@ 4296
ollen 4294
jäsenvaltiot 4291
maks@@ 4291
direktiivin 4287
or@@ 4283
oikeus@@ 4281
2000 4279
prosenttia 4263
esittää 4262
viin 4260
yhtä 4233
le@@ 4231
ajan 4226
keske@@ 4224
turvallisuus@@ 4224
D@@ 4224
F@@ 4224
kollegat 4217
iä 4213
kohd@@ 4213
käyttää 4210
:@@ 4201
kann@@ 4199
tuom@@ 4195
tävät 4195
uh@@ 4193
ris@@ 4186
muiden 4182
miä 4180
parlamentissa 4178
L@@ 4171
tietenkin 4169
ryhmän 4162
ittää 4152
täytyy 4150
tilanne 4147
min 4144
koskeva 4136
miel@@ 4133
jopa 4131
ul@@ 4121
voim@@ 4118
pel@@ 4117
ystä 4115
me@@ 4114
illä 4113
kos@@ 4106
si 4105
alue@@ 4099
mahdoll@@ 4090
välillä 4082
liian 4077
nut 4071
tekn@@ 4062
isista 4054
vasti 4053
liitty@@ 4053
ton 4052
vän 4049
2 4039
enää 4037
ud@@ 4025
huol@@ 4024
voida 4023
jou@@ 4022
varten 4018
tar@@ 4018
alo@@ 4008
väl@@ 4004
laati@@ 3998
toivo@@ 3984
Euroopassa 3982
main@@ 3979
sano@@ 3967
ka 3966
masta 3962
mia 3962
tul@@ 3955
tavalla 3942
isuutta 3926
mahdollisimman 3923
ilma@@ 3922
ehdotuksen 3917
massa 3903
politiikkaa 3902
llis@@ 3887
saa@@ 3879
paik@@ 3868
pitä@@ 3866
selv@@ 3866
tieto@@ 3860
käyttöön 3854
toiminta@@ 3850
2002 3850
joista 3849
isille 3847
yttä@@ 3827
ittava 3826
merk@@ 3820
uudistu@@ 3811
olemassa 3811
ole@@ 3807
he@@ 3805
yhdessä 3802
tur@@ 3799
talous@@ 3796
itse@@ 3793
vaar@@ 3792
tunut 3790
ito@@ 3787
kerran 3781
ur@@ 3779
kirj@@ 3776
tun@@ 3775
ivat 3772
vapa@@ 3767
ann@@ 3767
olevan 3767
isessä 3756
V@@ 3754
vaka@@ 3752
teh@@ 3749
yhteisen 3742
onko 3733
suunnitel@@ 3729
esit@@ 3727
ian 3720
voitaisiin 3720
josta 3716
äänes@@ 3708
hä@@ 3697
tiet@@ 3678
halu@@ 3676
tunn@@ 3673
1 3672
asian@@ 3671
peruste@@ 3670
min@@ 3669
tänyt 3665
keskustelu 3663
hi@@ 3660
oso@@ 3653
kuulu@@ 3648
todellakin 3633
keskustel@@ 3632
g@@ 3631
edusta@@ 3627
uun 3622
use@@ 3621
lä@@ 3604
b@@ 3603
N@@ 3602
miksi 3597
ava@@ 3595
pe@@ 3582
hen@@ 3576
käyt@@ 3570
tila@@ 3570
mo@@ 3564
ed@@ 3563
edell@@ 3544
tö 3544
mahdollista 3543
viime@@ 3541
vähen@@ 3540
vuotta 3539
uksen 3538
ää 3530
vaike@@ 3525
aiheutta@@ 3511
monet 3506
voisi 3504
asioita 3503
yhte@@ 3501
ou@@ 3500
toon 3495
uus@@ 3492
huom@@ 3491
selvästi 3489
perusteella 3488
uudelleen 3483
isuus 3479
3 3477
itte@@ 3462
ehdotus 3454
ään@@ 3453
ala@@ 3450
:n 3448
tunnus@@ 3448
pi@@ 3444
ttaa 3436
suos@@ 3432
J@@ 3432
tied@@ 3430
sä 3429
tarpe@@ 3427
johon 3427
etu@@ 3422
valmis@@ 3422
järjestelmän 3420
silloin 3417
onn@@ 3410
usten 3400
mer@@ 3395
itsem@@ 3394
tus 3388
tan@@ 3387
oike@@ 3385
aihe@@ 3376
teiden 3376
tärke@@ 3375
minusta 3370
alueen 3361
unionissa 3359
poliitt@@ 3356
kehitys@@ 3356
oikeudell@@ 3354
sall@@ 3354
turva@@ 3353
män 3348
kk@@ 3348
aik@@ 3346
vir@@ 3345
usein 3342
ten@@ 3341
yt 3335
näkö@@ 3329
suor@@ 3328
nimittäin 3319
nim@@ 3317
tet@@ 3315
ensä 3313
rahoitus@@ 3307
mall@@ 3303
tavoin 3292
valtioiden 3291
oikeus 3288
yhteistyötä 3288
jät@@ 3283
kuussa 3278
eet 3275
naisten 3272
ot 3271
ana 3270
käs@@ 3269
toiseksi 3266
korva@@ 3266
ensinnäkin 3261
nä 3259
tarvitaan 3256
tämistä 3251
neen 3249
julk@@ 3248
its@@ 3240
miin 3240
ev@@ 3239
tarjo@@ 3236
sille 3233
saan 3231
toisin 3217
kumppan@@ 3215
eh@@ 3211
tule@@ 3209
jälleen 3202
Arvoisa 3201
alueella 3201
huolimatta 3200
aisen 3200
tulo@@ 3200
ent@@ 3196
päät@@ 3192
iksi 3184
rik@@ 3182
työtä 3177
ongelmia 3172
muka@@ 3169
tavoitte@@ 3168
täminen 3167
tetty 3165
har@@ 3164
suuri 3160
jää@@ 3153
uskon 3151
toimiin 3150
ili@@ 3141
aikaa 3138
puheenjohtajavaltio 3138
uusia 3136
alis@@ 3135
emaan 3131
yl@@ 3129
ani 3128
tanut 3127
man@@ 3126
han 3124
viä 3123
las@@ 3120
ter@@ 3116
kansan@@ 3115
valtion 3111
selvää 3106
määrä 3104
enä 3100
kohtaan 3098
säännö@@ 3098
tasolla 3091
7 3090
ainen 3087
0@@ 3087
nope@@ 3086
otettava 3085
puheenjohtaja@@ 3074
2003 3073
tote@@ 3072
tis@@ 3071
ho@@ 3071
maailman 3071
erityis@@ 3064
arvos@@ 3062
erityisen 3062
uudesta 3061
sia 3060
tynyt 3058
alu@@ 3055
vero@@ 3052
missä 3048
suojel@@ 3047
valitettavasti 3041
inkin 3036
kautta 3035
lisää@@ 3027
henkilö@@ 3025
ussa 3025
etenkin 3025
io@@ 3024
yhteisö@@ 3023
ys 3019
sisäl@@ 3018
teet 3010
aa@@ 3005
alueiden 3003
osin 3000
yli 2998
pysty@@ 2996
tom@@ 2994
tark@@ 2993
töä 2991
kulutta@@ 2991
kyse@@ 2989
esiin 2988
akseen 2986
vastuu@@ 2984
laad@@ 2983
ati@@ 2982
korostaa 2981
tarkistu@@ 2980
syystä 2979
meitä 2978
alta 2977
pako@@ 2977
yritysten 2976
keh@@ 2970
tamisen 2968
komissiota 2964
ongelma 2957
huomiota 2955
hal@@ 2945
ut@@ 2941
selke@@ 2941
maa@@ 2940
usta@@ 2938
5@@ 2937
näistä 2937
suur@@ 2936
jaa 2931
onkin 2930
maissa 2928
tor@@ 2928
8 2924
z@@ 2923
ita@@ 2922
6 2921
sovel@@ 2921
vall@@ 2920
päivä@@ 2919
valiokunta 2911
O@@ 2910
jia 2907
kalastus@@ 2903
tarko@@ 2901
uus 2888
tta 2886
kuuta 2884
misestä 2884
liittyvät 2883
ohjelman 2881
kar@@ 2879
ton@@ 2877
enne 2875
myön@@ 2870
ensimmäinen 2867
tutkim@@ 2867
liittyy 2866
maatalous@@ 2862
pois@@ 2856
kesk@@ 2853
pidet@@ 2852
avoim@@ 2852
tarkistuksia 2851
toisaalta 2850
vaih@@ 2849
isuu@@ 2843
inä 2841
koulu@@ 2839
suhte@@ 2829
pidä 2828
itte 2826
isivat 2825
kertom@@ 2824
muita 2824
ukset 2823
ity@@ 2822
vas@@ 2822
llinen 2819
jatku@@ 2818
6@@ 2818
7@@ 2818
voin 2813
kke@@ 2811
kansall@@ 2810
tiedämme 2804
tyy 2803
my@@ 2800
ittel@@ 2800
seura@@ 2797
kuu@@ 2796
kia 2795
tuks@@ 2792
hyödy@@ 2790
varo@@ 2790
aista 2788
ohjel@@ 2787
koskevia 2786
mennessä 2784
ihmisten 2783
toiv@@ 2781
4 2780
tamisesta 2773
aj@@ 2770
muuto@@ 2769
ehkä 2767
oh@@ 2766
attom@@ 2765
osoittaa 2762
mietintöä 2761
demokraatt@@ 2760
vaikuttaa 2754
� 2753
esittä@@ 2752
läh@@ 2752
vastus@@ 2751
järjestelmä@@ 2751
kem@@ 2749
entistä 2748
varmasti 2745
ak@@ 2743
ilmo@@ 2736
mielestämme 2736
parlamentille 2734
keskus@@ 2732
perustu@@ 2729
kas@@ 2723
köyh@@ 2722
myöskään 2719
kuuluu 2714
liikku@@ 2709
todell@@ 2709
tamiseen 2708
yty@@ 2705
han@@ 2705
ehdotuksia 2705
vastaa@@ 2704
kin@@ 2704
pelkästään 2698
tön 2697
Yhdysvaltojen 2693
osoitta@@ 2692
alueell@@ 2692
llisesti 2691
aisia 2690
etta@@ 2688
avat 2686
uud@@ 2682
joihin 2679
niihin 2678
saavu@@ 2677
tänä 2673
kon@@ 2672
lopu@@ 2671
oikeuksien 2669
ksista 2668
ehdotusta 2662
asi@@ 2657
oikeu@@ 2652
joitakin 2649
yks@@ 2649
mahdollisuus 2645
keskustelun 2643
korke@@ 2642
ville 2639
muutta@@ 2638
syytä 2635
8@@ 2635
ksiä 2633
miljoonaa 2631
artiklan 2629
kaik@@ 2628
pysy@@ 2628
huomau@@ 2627
sopimus 2627
ryh@@ 2620
tämme 2619
elä@@ 2619
tuotta@@ 2617
isuuden 2614
koskevaa 2608
kans@@ 2607
uksista 2603
osta@@ 2603
teidän 2599
isi@@ 2598
asiaan 2596
kollego@@ 2595
nopeasti 2593
oman 2590
lap@@ 2589
jäsenvaltioissa 2589
markkinoiden 2583
kor@@ 2581
tella 2581
pyy@@ 2578
etta 2578
tämä@@ 2577
olev@@ 2574
määri@@ 2572
elin@@ 2563
ve@@ 2562
jäsenten 2560
tarkoituksena 2560
muun 2559
EU 2559
W@@ 2558
tell@@ 2555
isilla 2554
luom@@ 2553
luku@@ 2550
paitsi 2546
aloitte@@ 2546
esille 2541
til@@ 2541
tehokka@@ 2541
tulevaisuudessa 2540
sta 2540
käyttä@@ 2539
pien 2538
ehdotuks@@ 2538
ain@@ 2537
tais@@ 2528
tosi@@ 2527
koja 2522
oikein 2521
hin@@ 2520
työsken@@ 2517
kien 2515
rauhan@@ 2514
euroa 2514
järjestelmä 2513
minä 2502
muut 2502
itetaan 2497
tehtävä@@ 2496
luo@@ 2494
sov@@ 2489
kehitty@@ 2488
kul@@ 2487
aika 2486
nsä 2486
kais@@ 2484
koskevien 2480
maailmanlaaju@@ 2480
kö 2475
välisen 2475
tavoitteena 2473
perustamis@@ 2469
isuudesta 2468
ihmisoikeus@@ 2467
sop@@ 2460
yrity@@ 2453
iltä 2453
tehnyt 2452
ap@@ 2450
vapautta@@ 2450
kunn@@ 2449
vä 2448
kalta@@ 2443
ö 2442
minkä 2442
halua 2440
uusi 2438
kauppa@@ 2438
kokonais@@ 2437
toimielinten 2435
amaan 2431
tuho@@ 2429
yyttä 2428
teita 2426
budjetti@@ 2423
sten 2420
9 2419
3@@ 2418
syy@@ 2417
edisty@@ 2414
seik@@ 2413
keskustelu@@ 2412
hall@@ 2412
välis@@ 2411
kehityksen 2410
näkem@@ 2408
erila@@ 2407
kysymyksiä 2406
vuo@@ 2397
edistää 2397
menettely@@ 2394
tas@@ 2391
politiikka 2390
iko@@ 2388
sin 2387
av@@ 2385
ing@@ 2380
pyritään 2376
kaikille 2376
keskustelua 2375
lop@@ 2375
toiminnan 2374
yksimiel@@ 2373
f@@ 2373
pit@@ 2371
jät 2370
kokou@@ 2370
ksien 2368
politiik@@ 2366
matta 2365
jille 2364
samoin 2363
jolloin 2363
lainsäädäntö@@ 2362
oikeuden 2357
lainsäädännön 2356
joutu@@ 2356
tarkastel@@ 2355
vaati@@ 2354
ras@@ 2354
kiitän 2353
loppu@@ 2350
kohta 2348
inti@@ 2348
ven@@ 2345
vaiku@@ 2344
kutsu@@ 2342
taas 2341
yhdis@@ 2341
talouden 2340
saattaa 2340
kuun 2328
kansalaiset 2328
poikke@@ 2319
tuo@@ 2318
lan@@ 2318
useita 2316
ehdotta@@ 2308
turvall@@ 2307
osten 2307
saavutta@@ 2306
suhtautu@@ 2305
jat@@ 2303
essaan 2303
äni 2302
määritel@@ 2302
mietinnöstä 2299
olivat 2298
kunnio@@ 2298
yhd@@ 2298
vassa 2298
hallituksen 2297
toimien 2297
oikeuden@@ 2295
hieman 2294
kansainvälisen 2289
eurooppalaisen 2287
töjen 2287
ityks@@ 2285
täyd@@ 2284
tin@@ 2281
menetel@@ 2276
esitet@@ 2275
tukseen 2274
valtio@@ 2274
kannatta@@ 2270
alais@@ 2270
tarkas@@ 2270
4@@ 2268
mp@@ 2266
kärsi@@ 2265
tetta@@ 2264
1999 2263
kiinn@@ 2263
Mar@@ 2262
sellais@@ 2261
mukaista 2260
euro@@ 2260
tieteell@@ 2255
teoll@@ 2254
yttä 2254
YK:n 2253
tamiseksi 2247
vista 2244
hallin@@ 2244
pian 2243
valiokunnassa 2243
muuta 2242
tuksia 2241
tarkoittaa 2240
pid@@ 2240
vah@@ 2240
takia 2236
tävää 2231
muut@@ 2230
töjä 2229
kol@@ 2228
huon@@ 2227
täneet 2225
15 2225
kat@@ 2223
U@@ 2223
myönnet@@ 2219
keho@@ 2217
tämällä 2214
johtaa 2214
paremmin 2213
ilu@@ 2209
parha@@ 2209
tie@@ 2208
tuen 2208
hallitus 2208
sosiaal@@ 2208
tol@@ 2207
än@@ 2206
kysymyksen 2205
tusten 2203
taminen 2201
ettava 2198
poliittinen 2197
kaiken 2197
edus@@ 2196
koskaan 2195
yhteen@@ 2195
itaan 2195
toimet 2194
klo 2193
kasva@@ 2193
valtu@@ 2192
pyydän 2192
keino@@ 2190
joten 2189
tarkistukset 2189
konflik@@ 2189
sanoen 2188
neuvostossa 2188
poh@@ 2182
kulu@@ 2182
mattom@@ 2181
ihmiset 2179
varoja 2178
piir@@ 2176
ainakin 2172
haluaa 2170
turvallisuuden 2169
ryhmäni 2167
vaiheessa 2167
maat 2167
ihmisoikeuksien 2162
koh@@ 2159
ok@@ 2158
täytäntöönpan@@ 2158
sien 2158
kolme 2158
koti@@ 2158
vaihtoeh@@ 2158
kal@@ 2155
toista 2154
kohdistu@@ 2154
toteuttaa 2151
kala@@ 2151
esti 2150
tärkeitä 2150
000 2148
määr@@ 2146
ittu 2144
iti@@ 2144
alueilla 2143
monia 2143
9@@ 2142
uuteen 2142
valvonta@@ 2142
aisten 2139
minulla 2137
tarkistusta 2134
hyväksi 2134
jää 2132
varmistaa 2131
todeta 2129
ansiosta 2126
sää@@ 2124
llisen 2123
A5 2123
ad@@ 2123
päätöks@@ 2121
hallinno@@ 2120
terve@@ 2120
tarkoitus 2118
isistä 2117
pyrkim@@ 2116
temme 2115
ali@@ 2114
ette 2112
sanoi 2112
paran@@ 2112
sään@@ 2112
oikeuksia 2109
tutkimus@@ 2108
talousarvion 2108
itettava 2107
inno@@ 2104
yli@@ 2103
toimielim@@ 2101
valta 2101
ryhmä 2100
valtaa 2100
mät 2098
mietinnö@@ 2098
palvelujen 2097
toimintaa 2097
käsitellä 2095
vaatimu@@ 2094
elta 2094
asiat 2093
mä 2093
olette 2092
yssä 2092
lähet@@ 2090
kilpailu@@ 2087
tehdään 2082
isella 2082
auttaa 2081
sta@@ 2080
timme 2077
olle 2077
tapahtuu 2076
jäsenvaltio@@ 2076
perustusla@@ 2076
mieh@@ 2075
komissiolle 2074
asem@@ 2074
ata 2073
lisää 2073
tilannetta 2072
ida 2072
kyllä 2070
noin 2067
tehty 2066
ota 2066
tarvitsemme 2064
tilanteen 2061
johdon@@ 2060
istaa 2059
harjoitta@@ 2058
yhteistyö@@ 2058
uks@@ 2057
tasa 2056
koordino@@ 2055
kaikissa 2051
tuot@@ 2050
suunta@@ 2049
kansallisten 2047
jul@@ 2046
sopimukseen 2041
lausun@@ 2040
kalas@@ 2039
merkitsee 2038
kun@@ 2037
mel@@ 2037
asu@@ 2035
tensa 2035
ymmär@@ 2034
terroris@@ 2034
siellä 2032
kehittä@@ 2032
tasapaino@@ 2032
paino@@ 2032
lin@@ 2032
tekee 2032
kantaa 2031
välttämätöntä 2031
od@@ 2029
viranom@@ 2028
hyvä@@ 2027
asetuksen 2025
yle@@ 2025
tuleva@@ 2025
täytäntöön 2024
paikall@@ 2024
yksityis@@ 2024
mill@@ 2023
annetaan 2023
tää@@ 2022
toimin@@ 2022
eurooppalais@@ 2022
ellisesti 2020
heik@@ 2020
olleet 2018
mas@@ 2016
olo@@ 2015
suunn@@ 2015
voima@@ 2014
ellinen 2014
vuutta 2014
neuvottelu@@ 2013
aine@@ 2010
yksi@@ 2010
uusien 2008
järke@@ 2007
aikais@@ 2007
itti 2007
minulle 2006
onta 2006
1@@ 2006
muo@@ 2006
edes 2005
allinen 2004
pys@@ 2004
neiden 2002
mat@@ 2002
tarkistuksen 2001
tyytyväinen 2001
yhteinen 1999
koa 1998
isimme 1997
huomenna 1997
edellyttää 1997
tele@@ 1996
her@@ 1995
jäsenen 1995
poliittisen 1992
muassa 1992
kulttuuri@@ 1991
kehitystä 1991
sti 1990
sani 1987
oikeutta 1987
tällainen 1985
akin 1984
pol@@ 1983
niille 1982
is 1982
paa 1981
kyseessä 1980
varsin 1979
noudatta@@ 1979
työllisyys@@ 1978
asioista 1977
puolus@@ 1976
yhdenmukais@@ 1976
heitä 1976
kokem@@ 1976
pä@@ 1976
tau@@ 1974
vara@@ 1973
tuu 1973
jousta@@ 1973
siin 1972
käsitellään 1970
tavat 1969
maail@@ 1969
kahden 1966
oista 1965
ike@@ 1965
aminen 1964
tah@@ 1964
vuuden 1959
hark@@ 1959
tekemään 1955
ineet 1953
sijaan 1950
tärkeä@@ 1950
yksittä@@ 1949
kohdalla 1948
intia 1948
tiä 1946
ikä@@ 1946
uksesta 1946
puu@@ 1945
kilpail@@ 1942
vai 1941
sul@@ 1941
innin 1941
tävä@@ 1940
taloudell@@ 1940
tivat 1938
kompromis@@ 1935
ag@@ 1935
tarvitta@@ 1934
mielessä 1932
odo@@ 1932
kojen 1932
5 1928
kahd@@ 1928
asia@@ 1927
katso@@ 1926
raho@@ 1923
yhteistyön 1923
merkittä@@ 1922
sä@@ 1921
kysymystä 1920
lisätä 1918
isenä 1917
itettu 1916
viranomaisten 1916
tyjen 1915
ksesta 1914
um@@ 1914
tietoja 1912
istun@@ 1911
ettävä 1911
mikäli 1909
ensi 1908
kulttuur@@ 1908
vel@@ 1908
ityksen 1907
kansainvälis@@ 1907
mukainen 1907
eli@@ 1906
kertaa 1905
Venäjän 1905
10 1900
telem@@ 1900
tarpeen 1898
terrorismin 1898
iselle 1897
isuuteen 1895
liittyviä 1892
poliittista 1890
seuraavana 1889
rakenn@@ 1888
yhden 1888
saman@@ 1887
aloilla 1887
johd@@ 1883
puite@@ 1880
aihe 1878
euron 1877
toisen 1876
ituks@@ 1876
iso@@ 1875
torjun@@ 1873
suo@@ 1872
palvelu@@ 1871
olevien 1871
viik@@ 1871
50 1871
oa 1869
ves@@ 1866
sil@@ 1866
kaikkein 1866
kaupan 1865
direktiivi@@ 1863
ettom@@ 1863
20 1862
sosiaali@@ 1861
direktiivi 1860
varojen 1860
valti@@ 1860
ettu 1858
mahdollisuuksia 1858
ttävä 1858
työntekijöiden 1858
sellaisen 1856
din 1853
palvel@@ 1853
kysymykseen 1850
ukseen 1849
tietää 1848
ksemme 1848
ostaa 1847
kysy@@ 1847
yys@@ 1845
tarv@@ 1845
ät@@ 1844
liik@@ 1843
autta@@ 1840
energia@@ 1839
valmistelu@@ 1837
joukko@@ 1834
näky@@ 1833
iloinen 1833
telu@@ 1833
hyväksyi 1832
vähän 1832
haluavat 1831
vahvistaa 1830
kansainväl@@ 1830
ua 1828
liikenne@@ 1828
misessa 1828
itus@@ 1828
sopimusta 1828
tukem@@ 1827
sopimusten 1826
pidän 1825
teks@@ 1825
Irakin 1824
usko@@ 1823
kustann@@ 1822
vää 1821
järjestel@@ 1821
mielipite@@ 1820
käynnis@@ 1819
hankke@@ 1818
ai@@ 1817
isim@@ 1816
isem@@ 1816
käytännössä 1815
lis@@ 1815
vis@@ 1811
ellisen 1811
isena 1811
rikos@@ 1811
jatkaa 1810
maksu@@ 1810
synty@@ 1809
kunnioitta@@ 1809
hava@@ 1808
siltä 1806
ensimmä@@ 1806
koon 1805
järjestelmää 1804
unioniin 1803
ulko@@ 1803
välinen 1802
selväksi 1801
jatkuvasti 1801
puolueen 1800
talou@@ 1800
korja@@ 1799
valtiot 1799
äänestys 1798
uttaa 1797
juu@@ 1797
vissa 1794
empia 1794
prosessin 1792
tamaan 1792
yd@@ 1791
tellaan 1791
tos@@ 1791
esityslistalla 1788
lainsäädäntöä 1787
Turkin 1787
presidentti 1787
myönteisesti 1784
pyyn@@ 1783
epäil@@ 1783
työllis@@ 1782
suoraan 1782
tod@@ 1779
toihin 1777
isuud@@ 1777
tuksesta 1776
eurooppalaisten 1775
aiemmin 1774
yhtenä@@ 1774
sähkö@@ 1773
laittom@@ 1773
selkeästi 1772
päästä 1772
2004 1771
oon 1769
todis@@ 1769
lähes 1768
päätöslausel@@ 1767
valtio 1767
työn 1767
di@@ 1765
isissa 1764
aineiden 1764
00@@ 1763
suurin 1762
aati@@ 1760
elintarvike@@ 1760
kohta@@ 1759
lento@@ 1759
täisiin 1758
muistu@@ 1753
erity@@ 1752
tani 1752
sellaisten 1750
tuotteiden 1749
esittelijän 1748
vin@@ 1748
lisäänty@@ 1746
yttävä 1746
töön 1745
viis@@ 1745
inta 1743
kier@@ 1742
asioissa 1742
saanut 1739
je@@ 1738
jäsenvaltion 1738
oikeudet 1738
viitta@@ 1737
eri@@ 1737
aat@@ 1735
ab@@ 1734
parantaa 1731
yttää 1730
Ranskan 1730
kanna@@ 1729
hallitusten 1729
tunte@@ 1729
näihin 1725
avo@@ 1724
puolustus@@ 1724
nimenomaan 1723
puut@@ 1722
annettava 1719
uksessa 1718
edellyty@@ 1718
niissä 1718
kki@@ 1718
ante@@ 1716
nor@@ 1716
kannatan 1711
puhua 1710
es 1710
gi@@ 1709
aiheutu@@ 1709
vähemmän 1709
Euro@@ 1708
uttava 1708
meistä 1707
talousarvi@@ 1705
myötä 1704
kohdan 1703
tiu@@ 1703
yö@@ 1702
tietoa 1701
ulottu@@ 1700
uksiin 1700
kseni 1700
koskevasta 1700
syistä 1698
vuosina 1697
ksissa 1696
ainoa 1695
mur@@ 1695
käytetään 1691
apua 1690
ttu 1689
vaal@@ 1689
huomattavasti 1689
sitou@@ 1688
kaup@@ 1687
tehneet 1686
yhteen 1686
tety@@ 1684
ettiin 1684
sääntöjä 1683
toteu@@ 1679
kan 1678
ottaen 1678
päätökseen 1677
tiedotus@@ 1677
pet@@ 1677
ryhmä@@ 1676
laajen@@ 1675
maailmassa 1675
ittu@@ 1674
Y@@ 1672
alkuperä@@ 1671
luoda 1671
korosta@@ 1671
pyr@@ 1670
yhteistä 1669
ät 1669
puolue@@ 1669
tukset 1668
osan 1668
näyttää 1666
valmistelukunnan 1666
yy@@ 1664
lähtö@@ 1664
ura@@ 1664
uudet 1664
jaan 1664
saavat 1663
help@@ 1663
ratkaisu 1662
aikoo 1662
ongel@@ 1660
työstä 1659
inti 1658
keski@@ 1657
jatka@@ 1654
kuul@@ 1654
kko@@ 1654
jan@@ 1654
assa@@ 1653
ihmisiä 1653
tävän 1652
torju@@ 1652
anne 1651
demokratian 1651
tilanteessa 1650
ero@@ 1649
tämän@@ 1648
luonnollisesti 1647
19@@ 1646
llista 1645
viras@@ 1644
tietysti 1643
päätös 1642
näissä 1642
tuomioistuimen 1639
riittä@@ 1638
tavoite 1638
ammin 1637
ituksia 1636
mukana 1636
perustuu 1636
vakuu@@ 1636
teta 1635
päätöslauselman 1635
tii@@ 1635
kohti 1634
parhaillaan 1633
aluksi 1632
essään 1632
merkittävä 1632
keskustelussa 1632
tilanteesta 1632
eteenpäin 1632
ved@@ 1628
ydin@@ 1628
käytä@@ 1627
totta 1627
tavan 1627
sellaisia 1624
hallitusten@@ 1624
tamis@@ 1621
onnitella 1620
nuor@@ 1619
käsit@@ 1619
Espanjan 1619
voisimme 1618
laajentumisen 1617
kokouksessa 1616
parlamenttia 1616
kri@@ 1615
välistä 1613
muistuttaa 1613
tapa 1612
tämis@@ 1610
etaan 1609
varsinkin 1608
vuoteen 1608
Israelin 1608
päättää 1607
hta@@ 1607
saadaan 1606
rin@@ 1604
luettel@@ 1603
yr@@ 1603
virall@@ 1603
suu@@ 1599
tällais@@ 1598
toiminta 1596
mielestä 1595
ttiin 1594
ehkäis@@ 1594
aiko@@ 1593
rahas@@ 1593
kollega 1591
päivän 1591
rauta@@ 1591
aksi 1591
missa 1590
uudis@@ 1589
vaad@@ 1588
yhteiskunnan 1588
lainsäädännö@@ 1587
kiell@@ 1586
kil@@ 1586
aiset 1585
ju@@ 1583
puhe@@ 1581
tal@@ 1581
minua 1581
muuta@@ 1578
kaupun@@ 1578
yritykset 1578
toimenpiteitä 1577
sata@@ 1577
poliittisten 1576
komite@@ 1573
ksestä 1572
ttom@@ 1571
sija@@ 1571
de@@ 1570
konkreett@@ 1568
ins@@ 1568
ket@@ 1567
tason 1567
ansa@@ 1567
FR 1566
perhe@@ 1565
olin 1564
kansalaisille 1562
neuvo@@ 1562
tulisi 1561
koskevassa 1561
tehd@@ 1560
organis@@ 1558
kim@@ 1557
tasa@@ 1556
hyö@@ 1555
äänesty@@ 1555
periaatte@@ 1554
tietojen 1554
ympäristön 1554
kirja 1554
sitoumu@@ 1554
antamaan 1550
sellaista 1549
vähä@@ 1549
määrin 1549
järjestöjen 1547
kää@@ 1547
laill@@ 1547
päätöksen 1546
kauan 1546
saaneet 1545
viera@@ 1545
käy 1544
vaikea 1544
tavoitteet 1544
täyden@@ 1543
turvallisuutta 1542
puuttu@@ 1542
tuna 1540
oli@@ 1540
issaan 1540
kannattaa 1539
kuulem@@ 1539
elim@@ 1538
osallistua 1538
jäseniä 1537
tettaisiin 1537
jälj@@ 1537
kymmenen 1537
katta@@ 1536
kko 1536
käytän@@ 1536
päätel@@ 1536
taso@@ 1536
teki@@ 1536
neuvostolle 1535
vaarall@@ 1535
olevat 1535
tyjä 1534
suuria 1533
vastaa 1533
hyväks@@ 1533
,@@ 1532
eltä 1531
muis@@ 1530
tullut 1530
tiiv@@ 1530
oiden 1530
menettel@@ 1529
nou@@ 1527
ongelmat 1525
käytet@@ 1524
mietin@@ 1523
yhtenäis@@ 1523
tuotan@@ 1522
jotkut 1521
kum@@ 1521
elämä@@ 1521
askel 1520
totesi 1520
é@@ 1519
kiinnos@@ 1517
ohjelma 1517
istaan 1516
sellainen 1515
toivomme 1515
yhteiskun@@ 1512
tämisestä 1508
tämiseksi 1508
tarkis@@ 1507
laat@@ 1507
ino@@ 1507
yleisesti 1506
kanta 1504
asiakirj@@ 1503
uo@@ 1503
lähtien 1502
yys 1502
tämättä 1501
päte@@ 1501
valvo@@ 1500
het@@ 1500
mahdollisuuden 1499
pyytää 1498
yrittä@@ 1498
vuus 1497
mainit@@ 1496
käytön 1496
riippumattom@@ 1496
valtion@@ 1495
omais@@ 1494
tti 1493
niillä 1492
tuke@@ 1492
päätöksiä 1491
nnö@@ 1491
vastata 1491
huomio@@ 1491
ilmi 1490
nne 1489
w@@ 1487
l 1485
tiedonann@@ 1485
oleva 1484
menettelyn 1484
osa@@ 1484
mällä 1483
energi@@ 1483
kollegani 1482
harjo@@ 1482
vaikutuksia 1481
muodos@@ 1481
parlament@@ 1480
muuten 1480
uudessa 1480
verta@@ 1480
laatima 1479
kauden 1478
tyvät 1478
oikeastaan 1477
strateg@@ 1477
myönte@@ 1476
att@@ 1476
huomatta@@ 1476
voimakkaasti 1476
käsitel@@ 1475
kea 1475
Lissabonin 1475
valmi@@ 1473
humanitaar@@ 1473
muod@@ 1471
lyhy@@ 1471
sitoutu@@ 1470
ess@@ 1470
ensimmäisen 1469
vaikutta@@ 1469
pitkä@@ 1468
valiokun@@ 1468
rapor@@ 1468
ru@@ 1468
esimer@@ 1468
rau@@ 1467
inut 1467
Yhdysvallat 1466
vapauden 1465
omaan 1464
utta 1464
puitteissa 1464
ensin 1464
ehdotuksesta 1463
päättynyt 1461
markkino@@ 1460
käyttöä 1459
saatava 1459
ip@@ 1458
teemme 1457
olisivat 1457
suure@@ 1457
saavuttaa 1457
ttu@@ 1456
kunta 1456
sijo@@ 1456
tapauksissa 1456
tällaista 1455
vakavasti 1455
sisälly@@ 1454
lähe@@ 1452
väli@@ 1452
kannan 1451
luonno@@ 1451
mitta@@ 1450
tely@@ 1448
missään 1448
tiedän 1447
kom@@ 1446
miljoon@@ 1446
hem@@ 1445
ratkaisem@@ 1445
B5 1445
enkin 1444
oma 1443
estää 1442
tun 1441
vuosi 1441
virka@@ 1440
väline@@ 1439
maita 1437
vu@@ 1437
ehdottomasti 1437
hyl@@ 1436
kel@@ 1436
aiheuttaa 1435
tettua 1435
maatalouden 1434
kohtaa 1433
empi 1433
kä 1431
01@@ 1431
eurooppalainen 1431
eläin@@ 1431
jäsenvaltioita 1430
esittelijää 1429
vana 1429
toteutu@@ 1429
vuosi@@ 1428
pikemminkin 1428
äkin 1428
perustamissopimuksen 1428
teollisuuden 1427
menet@@ 1426
tältä 1426
maassa 1425
periaatteen 1424
ksille 1424
sovell@@ 1424
hyötyä 1423
eläinten 1423
saan@@ 1422
itys 1422
perinte@@ 1420
eurooppalaista 1417
tapahtunut 1417
aktiiv@@ 1416
usi 1415
lyhyesti 1415
kuuluvat 1414
täys@@ 1414
pohjalta 1412
kesä@@ 1412
erin 1412
12 1412
jos@@ 1411
asetta@@ 1410
T 1410
taan@@ 1410
eja 1410
res@@ 1407
pidetään 1406
suuntaviivo@@ 1406
onin 1406
parempi 1405
ottamaan 1405
emmin 1405
isivät 1405
ehdottaa 1405
myöhemmin 1404
ehdotukset 1404
empaa 1404
miesten 1404
tiedätte 1402
yksityiskohta@@ 1400
ryhtyä 1398
tavoitteita 1398
tehokkaasti 1397
sääntely@@ 1397
tukee 1396
käytännön 1396
kokouksen 1395
teollisuus@@ 1395
z 1394
koskevaan 1394
täv@@ 1394
selvi@@ 1393
viljel@@ 1392
konferens@@ 1392
sotilaall@@ 1392
yksiä 1391
talous- 1391
maailman@@ 1390
eivätkä 1389
käsi@@ 1389
vihre@@ 1389
opis@@ 1389
mainita 1388
tutkimuksen 1388
tulla 1388
mihin 1388
muuttaa 1387
askel@@ 1387
Lähi 1387
käsittelyssä 1386
päivänä 1385
ryhmien 1385
Rans@@ 1385
heti 1382
emään 1381
toimitetaan 1381
sama 1381
tilante@@ 1380
yyden 1380
ly@@ 1379
ilmais@@ 1379
esitetään 1379
tujen 1378
itet@@ 1377
sen@@ 1377
30 1377
joh@@ 1376
ministeri@@ 1376
terveys@@ 1375
ässä 1375
kaikista 1375
kaikilla 1374
aloittaa 1374
näh@@ 1373
alaa 1373
sääntöjen 1373
merkitys 1373
olem@@ 1372
helpo@@ 1372
markkina@@ 1372
solidaar@@ 1372
johto@@ 1370
riko@@ 1370
kansalaisia 1369
kää 1369
kymmen@@ 1369
ala 1369
jäsentä 1367
pain@@ 1367
osapuol@@ 1367
opim@@ 1367
suurim@@ 1366
vallan 1366
tarkistus 1365
taloudellisen 1364
markkinat 1363
laajentu@@ 1362
tekni@@ 1362
yttävät 1361
perusoikeus@@ 1361
Eurooppaa 1360
kaikkiin 1360
asema 1359
kysymyksiin 1358
aksemme 1357
ammatti@@ 1357
kulje@@ 1356
rangais@@ 1355
rikoll@@ 1355
periaatetta 1354
täyty@@ 1353
attava 1353
parem@@ 1352
pois 1351
kokous 1349
voisivat 1349
poliittisia 1349
merkitystä 1347
markkinoilla 1346
Irlannin 1345
urhe@@ 1344
viranomaiset 1344
keskustella 1342
valmis 1340
lähestymis@@ 1340
25 1340
tahansa 1340
kysymyks@@ 1338
saamme 1338
de 1336
ilmen@@ 1336
pa 1336
kyv@@ 1335
miselle 1334
lupa@@ 1334
sosiaalisen 1333
koro@@ 1333
toiseen 1333
20@@ 1332
epäonnistu@@ 1331
ss@@ 1331
säily@@ 1330
vakaus@@ 1329
aloitta@@ 1328
as 1327
sin@@ 1327
erä@@ 1326
olevia 1326
soveltamis@@ 1325
kukaan 1325
tavoitteiden 1324
sopimuks@@ 1321
asiantunti@@ 1321
päätöksente@@ 1321
ongelman 1320
hallinnon 1320
isiksi 1320
tarpeell@@ 1319
met@@ 1319
telee 1318
näkemyks@@ 1318
saat@@ 1316
tämisen 1315
mukaisia 1315
puh@@ 1313
yyn 1313
vähemmis@@ 1313
er 1312
kon 1310
voimassa 1310
siirty@@ 1310
tanne 1310
do@@ 1309
Ira@@ 1309
vaatimuksia 1308
direktiiviä 1308
nykyään 1308
puheenvuoro@@ 1307
yksity@@ 1307
vastuussa 1307
yhtiö@@ 1307
rajat 1307
toimintasuunnitel@@ 1306
noudat@@ 1306
kaa@@ 1305
yhdenty@@ 1304
järjesty@@ 1303
toimii 1303
joidenkin 1303
suuntaan 1302
herät@@ 1302
kansala@@ 1302
insa 1302
aste@@ 1301
neuvottelujen 1300
vaaditaan 1300
vaik@@ 1300
luottamu@@ 1300
hoid@@ 1300
ic@@ 1299
hän@@ 1299
tuja 1299
viita@@ 1298
C5 1297
nu@@ 1297
Li@@ 1295
tuken@@ 1293
samaan 1293
häntä 1293
velvollisuu@@ 1293
erinom@@ 1293
mukais@@ 1293
täm@@ 1292
toimitta@@ 1292
ratifio@@ 1292
aisille 1291
sovittelu@@ 1290
tyyd@@ 1290
jana 1289
vaksi 1288
kielte@@ 1288
sopimuksessa 1286
omme 1285
Välimeren 1285
kuluttajien 1285
tuki@@ 1284
evan 1284
eto@@ 1283
asiakirjo@@ 1282
ratkaista 1282
kirjo@@ 1281
kehy@@ 1281
menesty@@ 1281
kysymykset 1280
luok@@ 1280
sopi@@ 1279
västi 1279
alueita 1278
enla@@ 1278
prosent@@ 1278
aset@@ 1277
ittanut 1277
demokrati@@ 1276
Nizzan 1276
parann@@ 1275
viikolla 1275
tarkka@@ 1275
telua 1275
gin 1274
sopim@@ 1274
sopimuksia 1273
udet 1272
teja 1272
jotakin 1270
jäsenvaltioille 1270
laaju@@ 1270
Afrikan 1270
kana 1269
rakennerahas@@ 1268
vuoropuhel@@ 1268
tämiseen 1267
teli@@ 1266
palestiinalais@@ 1266
vastuu 1264
soveltaa 1264
tit 1264
moni@@ 1263
ajan@@ 1263
ittiin 1262
kolmanneksi 1261
lö@@ 1261
melko 1261
monien 1261
ke 1261
aan@@ 1260
&apos; 1260
asettaa 1259
tely 1258
äl@@ 1258
äänestää 1257
valvontaa 1257
pos@@ 1257
kansa 1256
kus@@ 1256
säännöt 1256
Yhdysvaltain 1256
taloudellista 1255
onnettom@@ 1254
lopulta 1254
c@@ 1254
oikeusperus@@ 1254
aiheesta 1253
markkinoille 1253
heiken@@ 1253
hyvää 1252
tehtä@@ 1251
lääkke@@ 1250
hallinto@@ 1248
ila@@ 1247
tavo@@ 1247
seur@@ 1247
musta 1246
perustel@@ 1244
esitetty 1244
heille 1244
void@@ 1244
kaamme 1243
esitety@@ 1243
yhteiskunnall@@ 1243
kuun@@ 1242
hy@@ 1242
paten@@ 1242
tilanteeseen 1240
koros@@ 1240
pohd@@ 1240
välttämättö@@ 1238
kalais@@ 1238
jän 1236
henkilökohta@@ 1236
paket@@ 1236
emmekä 1235
tellä 1235
koskevista 1234
ymmärtää 1234
EU:@@ 1232
pidettävä 1231
pä 1231
uutta@@ 1231
tuo 1231
kokoon@@ 1230
kuningaskunnan 1230
mikään 1230
rauhan 1230
mahdollisuutta 1229
tetun 1229
kirjan 1229
hyödyn@@ 1229
ymmärr@@ 1228
tull@@ 1227
sit@@ 1226
yksinkertaisesti 1223
1. 1222
ehdotuksessa 1222
etujen 1222
rannik@@ 1221
llisiä 1221
isissä 1221
varma 1220
kö@@ 1220
anne@@ 1220
itamme 1219
ine@@ 1219
rahoitta@@ 1218
tune@@ 1218
issamme 1217
paho@@ 1216
E 1216
loppuun 1216
taistel@@ 1216
vastaan@@ 1215
muuttu@@ 1215
luj@@ 1213
etteivät 1213
hoita@@ 1212
yhteisöjen 1212
lainkaan 1211
ilmaista 1211
kiis@@ 1211
jälleen@@ 1211
olu@@ 1210
äärimmäisen 1209
ikenteen 1208
välit@@ 1207
alka@@ 1206
jonkin 1206
syrj@@ 1206
huoleh@@ 1205
verkko@@ 1205
kti@@ 1205
aks@@ 1205
valmista@@ 1204
itsenä@@ 1204
vetoom@@ 1203
tansa 1203
riittävästi 1202
Sch@@ 1201
nykyistä 1201
vil@@ 1199
kansa@@ 1199
ihmisoikeuksia 1199
piä 1197
puheenvuoron 1196
ope@@ 1196
mahdollisesti 1196
tuksista 1195
mekin 1194
jättää 1194
rajoitta@@ 1194
ehd@@ 1192
omaa 1192
toiminn@@ 1192
arvoa 1192
parlamentaar@@ 1192
infrastruktu@@ 1191
sosiaalis@@ 1190
tarvitse 1189
esittänyt 1189
mi 1187
tekevät 1187
neuvostoa 1187
mainitsem@@ 1187
kki 1187
laatu@@ 1187
olenna@@ 1186
mietintöön 1186
Italian 1186
julistu@@ 1186
mit@@ 1185
Yhdistyneiden 1185
muutaman 1183
vies@@ 1182
kolmansien 1182
oma@@ 1181
tettuja 1180
molem@@ 1179
ch@@ 1179
direktiiv@@ 1179
mahdollisuudet 1179
politiikkaan 1179
lait@@ 1179
saatta@@ 1177
esi@@ 1177
olenn@@ 1176
prosessi 1175
tut 1175
luonnon@@ 1174
sisältyy 1174
ojen 1174
kuva@@ 1174
kannus@@ 1173
tuki 1173
tuh@@ 1172
Euroop@@ 1172
aikavälillä 1172
vamma@@ 1172
keskusteluun 1171
luon@@ 1171
uudelleen@@ 1170
muutoksia 1170
evat 1170
tuloksia 1170
käyttö@@ 1169
Ber@@ 1169
yhden@@ 1169
aihetta 1169
etty 1168
aid@@ 1168
lehd@@ 1167
kertoa 1167
käyttö 1167
tte 1166
todellinen 1166
tuon@@ 1166
painos@@ 1166
Venä@@ 1164
kestävän 1164
gian 1164
eläim@@ 1164
Tur@@ 1164
menettelyä 1163
vahin@@ 1163
ksilla 1163
enta@@ 1162
oita 1161
olosuh@@ 1161
kolmen 1160
maalis@@ 1160
taata 1160
raja@@ 1160
julkisen 1159
nro 1159
avun 1158
kiire@@ 1158
ymmärre@@ 1158
kolleg@@ 1156
ob@@ 1155
järjestelmien 1155
toimiv@@ 1155
mene@@ 1155
laisia 1154
ensiksi 1154
itsee 1154
Yhdistyneen 1154
kas 1153
ep@@ 1153
puolusta@@ 1152
sanne 1152
taloud@@ 1152
maihin 1152
mille 1151
tärkeim@@ 1151
pitänyt 1150
ttö@@ 1150
ystävä@@ 1149
järjestö@@ 1149
epäilemättä 1148
maaseudun 1148
käytö@@ 1148
kannatamme 1148
matkusta@@ 1148
ulkopuol@@ 1147
amista 1147
00 1146
ette@@ 1145
päiv@@ 1145
henkilöiden 1145
llisten 1145
tällaisen 1144
.@@ 1144
päinvastoin 1144
terveyden@@ 1144
varsin@@ 1143
väär@@ 1143
eilen 1143
sukupuol@@ 1143
vaatimukset 1142
tänne 1141
kilpailukyky@@ 1141
täisi 1141
kiito@@ 1140
liberaal@@ 1139
ttua 1139
välittömästi 1139
asioihin 1138
muihin 1138
huippukokou@@ 1138
ittelu@@ 1137
taka@@ 1137
kohdassa 1137
ylittä@@ 1137
kiitos 1136
varmis@@ 1136
essani 1136
kaikkialla 1136
korkea 1136
itetta@@ 1135
riitä 1135
teeseen 1134
vastu@@ 1134
asemassa 1134
millä 1133
vuos@@ 1132
ryhty@@ 1132
alue 1132
istaminen 1132
Kansakuntien 1131
oper@@ 1131
neuvos@@ 1131
uskon@@ 1131
järjestely@@ 1130
lain@@ 1130
voit@@ 1129
väestö@@ 1129
suurta 1129
toimista 1129
huu@@ 1127
neljä@@ 1127
varat 1126
kolman@@ 1126
ehdokasvaltio@@ 1125
asianmukaisesti 1125
laito@@ 1125
kohdat 1125
ohjelmien 1125
kehittää 1124
nykyisen 1124
suoja@@ 1124
ros@@ 1124
otettu 1123
poliittiset 1122
elin 1121
oikeudellisten 1121
toisi@@ 1120
ilun 1120
väki@@ 1120
tön@@ 1119
tti@@ 1119
kansainvälinen 1119
loukka@@ 1119
tetu@@ 1118
Kreikan 1118
merkille 1118
neuvottelut 1118
pidämme 1117
kehitys 1117
vahingo@@ 1117
tetut 1116
monimuo@@ 1116
Espan@@ 1116
akseni 1115
ottanut 1115
käytännö@@ 1115
väärin@@ 1115
13 1114
syy 1114
talousarvio@@ 1114
vuosien 1113
osaa 1112
säädö@@ 1111
tutki@@ 1111
inin 1111
huippukokouksessa 1111
kehity@@ 1111
pakol@@ 1110
ohja@@ 1109
mil@@ 1109
pas@@ 1109
eräs 1108
ysten 1108
pik@@ 1108
muodosta@@ 1107
osittain 1107
arvoisat 1107
hol@@ 1107
saastu@@ 1107
avus@@ 1106
kiinnittää 1105
vansa 1105
politiikassa 1105
toimintaan 1105
ittämään 1104
02@@ 1104
yll@@ 1104
sodan 1104
suurem@@ 1103
yksinkerta@@ 1103
sisäll@@ 1103
palautta@@ 1103
ge@@ 1103
ion 1102
määrää 1102
hyvinvo@@ 1102
jon@@ 1101
eurooppalaiset 1101
puhemieh@@ 1101
johtu@@ 1100
por@@ 1099
väh@@ 1099
sovelletaan 1098
ponnistelu@@ 1097
tot 1097
itusta 1097
kolm@@ 1097
tivät 1097
löyd@@ 1096
suosi@@ 1096
vaatii 1096
odottaa 1096
asetuks@@ 1096
jotkin 1096
nouda@@ 1095
työpaik@@ 1095
raha@@ 1095
laajentuminen 1095
tiety@@ 1094
joskus 1094
syö@@ 1094
tty 1093
etuja 1092
perusta@@ 1092
käyn@@ 1092
ulkopuolelle 1091
sala@@ 1090
asemaa 1090
erilaisia 1089
tes@@ 1089
hte@@ 1088
eva 1088
ener@@ 1088
tulevat 1088
määrän 1087
tuk@@ 1087
ide@@ 1086
yksen 1085
vos@@ 1085
ästä 1084
paan 1084
ikka 1084
lainen 1083
välin@@ 1082
isik@@ 1082
hylä@@ 1082
ri 1081
llistä 1081
luvu@@ 1081
sis@@ 1081
katastrof@@ 1080
yrityksiä 1080
äkään 1080
perä@@ 1079
40 1079
änä 1078
taloudellinen 1078
imaan 1078
aisiin 1078
yhteistyö 1077
naiset 1077
tälle 1076
parissa 1076
kiinni@@ 1076
maista 1076
eiden 1075
joissakin 1074
jaka@@ 1074
kiinni 1073
telun 1073
aloitteen 1073
useim@@ 1072
ituksen 1072
työttömy@@ 1071
minäkin 1071
keskitty@@ 1071
vuodesta 1071
verkos@@ 1071
päätökset 1070
johtuu 1070
keskeinen 1069
koske@@ 1069
neksi 1069
erää@@ 1068
kommen@@ 1068
tavoitteen 1068
itus 1068
turvapaikka@@ 1068
itty@@ 1067
valtuus@@ 1067
etään 1066
teista 1065
gen 1064
mässä 1064
kokonaan 1064
ministeri 1064
P:n 1064
vähimmäis@@ 1063
ensimmäisessä 1063
tavall@@ 1063
PPE 1062
tärkeänä 1062
rahaa 1062
itys@@ 1061
sisältää 1060
äänestin 1060
noudattaa 1059
lähen@@ 1059
kasv@@ 1059
yleensä 1059
sijasta 1059
isellä 1058
sanottava 1058
taloudellisia 1057
sanon 1057
ist@@ 1057
tuomioistuim@@ 1057
enin 1057
tlan@@ 1057
pääministeri 1057
toimenpite@@ 1056
näillä 1056
osapuolten 1056
taa@@ 1056
eikö 1055
detään 1055
tettujen 1055
öljy@@ 1055
kenties 1055
tämättö@@ 1054
prosentin 1054
ett@@ 1054
sanotaan 1053
sum@@ 1053
hun 1053
innan 1053
eu@@ 1053
todetaan 1053
pohjo@@ 1052
resurs@@ 1052
äskettäin 1051
laus@@ 1051
strategian 1050
pitkään 1050
valla 1050
tena 1050
ilo@@ 1049
evä@@ 1049
täy@@ 1049
lää@@ 1049
tyh@@ 1047
politiikasta 1047
maahanmuutta@@ 1046
totean 1046
marras@@ 1045
edu@@ 1045
itsell@@ 1045
joille 1044
täviä 1044
arv@@ 1044
eita 1043
ssään 1043
väline 1043
pitkän 1042
hyväksyt@@ 1041
kysymyksistä 1041
sopimus@@ 1041
lliset 1041
uhre@@ 1041
laatia 1040
inhimill@@ 1039
tiedot 1039
saatu 1038
ettemme 1038
päättävä@@ 1038
halutaan 1038
saira@@ 1037
periaate 1035
säännös@@ 1035
tulevaisuuden 1035
lleet 1034
vapaaeh@@ 1034
lik@@ 1034
isyyttä 1034
lasten 1033
osas@@ 1031
Al@@ 1031
11 1031
artik@@ 1031
unut 1030
aseman 1029
k 1029
kkää@@ 1029
syn@@ 1029
tuoda 1029
uskom@@ 1028
pitkällä 1028
välineitä 1028
tarkoite@@ 1028
pohj@@ 1026
tulos 1026
nel@@ 1026
suuren 1026
laaja 1025
g 1025
kyken@@ 1025
säilyttä@@ 1024
uut@@ 1023
tiuk@@ 1023
maille 1023
kiin 1022
myönteisenä 1021
käydä 1020
Saksan 1020
pano@@ 1020
äär@@ 1019
aikaisemmin 1019
alueet 1019
llisia 1019
nos@@ 1018
lev@@ 1018
intä 1017
malle 1017
takaisin 1016
ku 1016
tarkasti 1015
idaan 1015
järjestön 1015
läpi 1014
Y 1014
toisessa 1014
EU:ssa 1014
ran@@ 1014
tällaisia 1013
uno@@ 1013
velvo@@ 1012
julkilausu@@ 1011
tekijö@@ 1011
olemaan 1011
vin 1011
liikenn@@ 1010
komitean 1010
siv@@ 1010
prosessia 1010
eläkke@@ 1010
yritys@@ 1009
liittyvien 1009
tarkastella 1009
tilintarkastus@@ 1008
varmistettava 1008
tävien 1007
03@@ 1007
kehitysyhteistyö@@ 1007
matka@@ 1006
annut 1006
valko@@ 1006
muutamia 1005
tiedä 1005
sektor@@ 1005
oja 1005
deksi 1004
toki 1004
lle@@ 1003
telleet 1003
voimaan 1003
alussa 1003
saad@@ 1003
vaat@@ 1003
yhdisty@@ 1003
työjärjestyksen 1002
ikin 1002
luovu@@ 1001
strategi@@ 1000
huoles@@ 1000
oikea 1000
yhteisö 1000
kovin 1000
kohtia 999
tehok@@ 999
täs@@ 999
innän 999
uskotta@@ 999
työnteki@@ 999
mää 998
aiomme 998
rikkom@@ 998
alusten 998
imin@@ 998
viid@@ 998
esimerkki 998
tyytyväisiä 998
erill@@ 998
kkaasti 997
Saks@@ 996
arvioida 996
ation 996
pyyd@@ 996
ehdotetaan 996
kunnassa 996
takin 995
lopet@@ 995
synn@@ 995
kur@@ 995
ehdokasvaltioiden 995
huippukokouksen 994
taho@@ 994
miljoonan 994
ber@@ 994
Ruotsin 993
sanoin 993
neita 992
Itali@@ 992
valvonnan 992
alku@@ 992
luotta@@ 991
yhteisymmärr@@ 991
so 991
simme 991
mus@@ 990
näkökulmasta 990
yydestä 990
enem@@ 990
jal@@ 989
vatko 989
rahoitusta 989
Kre@@ 989
myöntää 988
paranta@@ 988
atta 988
ongelmaa 988
bi@@ 988
oikeassa 987
utua 987
esittämä@@ 987
lyh@@ 987
voimakka@@ 987
kiireell@@ 986
yksinkertais@@ 986
liikke@@ 985
essämme 985
äänestä@@ 985
poli@@ 985
suhteessa 984
jaks@@ 983
isuudessa 983
edustaja 983
enemmistö@@ 983
veto@@ 983
yttämään 982
ivät 982
osuus 981
minister@@ 981
kohte@@ 980
eläke@@ 980
riittävän 979
koulutus@@ 979
valtaan 979
sisällä 978
hallit@@ 977
tilaisuus 976
allekirjo@@ 976
raja 976
luonte@@ 975
esittämään 975
päätty@@ 975
onsa 975
laa@@ 975
toimivat 975
11. 975
ulkom@@ 974
standar@@ 974
rohke@@ 974
vuoropuhelua 974
päätöslauselmaes@@ 974
kiä 973
keinoja 972
konferenssin 972
joll@@ 971
neuvotteluissa 971
rakenta@@ 971
tamisessa 970
todellista 970
velvoitte@@ 970
koke@@ 969
ennalta 969
pysty 968
2006 968
merkittävästi 968
teistä 968
immä@@ 967
ltä 967
nähdä 967
ölj@@ 967
väliaik@@ 966
run@@ 966
kansalliset 966
ryhd@@ 965
rakenne@@ 965
samme 965
tiedonan@@ 965
uksien 964
olog@@ 964
yyd@@ 964
vastoin 964
Etelä 964
koskem@@ 963
sur@@ 962
kilpailun 961
tietenkään 961
ohjelmaa 960
reh@@ 960
ympäristöä 959
omien 959
aar@@ 959
1998 958
valiokunn@@ 958
hyvän 958
lause@@ 957
rö@@ 957
täsmä@@ 957
ente@@ 956
astaan 956
esiin@@ 956
tere@@ 955
demokraat@@ 955
kauppaa 955
meidät 954
vuoro@@ 954
alueelle 954
ratkaisun 954
14 954
koskeviin 953
imp@@ 953
käyttöönot@@ 953
ban@@ 953
attu 952
syrjä@@ 952
vaihe@@ 952
tilas@@ 952
sääs@@ 951
hyväksytään 950
ong@@ 950
välineiden 948
loka@@ 948
jälke@@ 948
ajo@@ 948
kyky@@ 948
tut@@ 948
joko 947
politiikka@@ 947
joutuvat 947
käytöstä 947
köyhyyden 947
kerro@@ 947
päätöslauselmassa 947
demokra@@ 947
Kiinan 947
maksi 946
nähd@@ 946
tarkoitan 946
puheenjohtajan 945
kunni@@ 945
kunnianhimo@@ 945
toimi 945
muutama 944
tarjoaa 944
huolenaihe@@ 943
palveluja 943
myötä@@ 942
unohtaa 942
maahanmuutto@@ 942
löy@@ 941
loppujen 941
rahat 941
maksaa 941
suojelun 941
tupa@@ 941
rool@@ 941
alaisen 940
Ruot@@ 940
kra@@ 940
kalasta@@ 940
menettely 939
määrittel@@ 938
Alankom@@ 938
muissa 938
ollaan 938
äs@@ 938
saar@@ 938
osaksi 938
nykyisin 938
kuntien 938
tuemme 938
kysyä 937
riippu@@ 937
pankin 937
osoittavat 936
vält@@ 936
kansan 936
heinä@@ 935
hoito@@ 935
antanut 935
histori@@ 935
kiitoksia 935
one@@ 934
kään@@ 934
selkeä 934
tulevaisuutta 934
monissa 933
aikoina 933
liit@@ 933
jäl@@ 933
laan 932
yden 932
tra@@ 932
ehdotukseen 931
nykyinen 931
suojelua 931
omasta 930
alaan 930
äm@@ 930
ehdokas@@ 930
hyväksyttiin 929
15@@ 929
haas@@ 929
maas@@ 929
kerta@@ 929
vissä 928
periaatteessa 928
haaste@@ 928
kär@@ 928
aton 928
tärkein 927
joudu@@ 926
osti 926
turvallisuuteen 926
kehitysmaiden 926
suosionosoituksia 925
vastuuta 925
pyrki@@ 925
estaan 925
myy@@ 925
työ 924
vakuuttunut 924
säilyttää 924
periaatteita 924
vuod@@ 923
sehdo@@ 923
direktiivissä 923
kustannukset 923
läsnä 922
koulutuksen 922
Pohjois 922
kuljetta@@ 921
Su@@ 921
joka@@ 921
seurauksena 921
idän 921
yhteenkuulu@@ 920
tettu@@ 919
vaikeaa 919
muodossa 918
sanot@@ 918
edellä 918
teki 917
merkityks@@ 917
isyys 917
yn@@ 917
määrärahoja 917
tuotteita 917
ac@@ 916
byro@@ 916
villa 916
ksessa 916
monta 915
päätösten 914
ryhmämme 914
kansainvälistä 914
inte@@ 913
panna 913
meko 913
uden 912
verrattuna 912
emiseksi 912
kansainvälisten 912
päästö@@ 912
uaal@@ 912
turvallisuus 911
alkaen 911
Sa@@ 911
samo@@ 911
amis@@ 911
enti@@ 910
itan 910
enemmistö 910
ensimmäistä 910
vähin@@ 910
keskustelemme 909
kis@@ 909
mielell@@ 908
rj@@ 908
nia 908
ehdot@@ 907
selvä 907
vapautta 907
hänelle 907
ans@@ 906
ij@@ 905
odotta@@ 905
esitti 904
pur@@ 904
nojalla 904
tuomioistuin 903
kahta 902
raha 902
mar@@ 902
KOM 901
niinpä 900
aino@@ 900
kaupall@@ 900
uri@@ 899
jatket@@ 899
vähentää 899
yleissopimuksen 899
maahanmuut@@ 899
netään 898
tuksiin 898
mästä 898
antoi 897
avoimuutta 897
yllä@@ 897
yhtälä@@ 897
d 897
odaan 896
ona 896
Eurooppaan 896
hallitukset 896
jotain 896
sivat 895
toi 895
yhteistyössä 895
selvä@@ 894
hien@@ 894
kyseenalais@@ 894
riippumatta 894
akaan 894
sosiaalista 893
opol@@ 893
mukaisen 892
koihin 892
änkin 892
vaale@@ 892
maton 892
puheenjohtaj@@ 891
torjunn@@ 891
sattu@@ 890
äänestyksen 890
suhteen 890
seurauksia 890
luu@@ 890
vuot@@ 889
valmiita 889
rooli 889
myönteinen 889
ikään 889
mahdotonta 889
lai@@ 888
viraston 888
keen 888
An@@ 888
kansanterveyden 888
tarkistuksista 887
toistaiseksi 886
poliittisesti 886
poltto@@ 886
mpi 886
isuus@@ 886
rä@@ 885
laaja@@ 885
aika@@ 885
ympäristöasioiden 885
tista 885
bio@@ 885
löytää 884
sanottuna 883
pilar@@ 883
isillä 883
mahdollisuu@@ 883
unionia 883
haki@@ 883
komissi@@ 882
suhtaudu@@ 882
edustajat 882
aloitteita 881
luonn@@ 881
itukset 881
yrityksille 880
enkä 879
hätä@@ 879
katson 879
lääke@@ 879
eniten 878
tapaan 878
tapaa 877
ellei 877
yksikö@@ 876
tutk@@ 876
monimutka@@ 876
tarpeeksi 876
sito@@ 876
aisesti 876
sor@@ 876
arvon 875
omia 874
alueille 874
isyyden 874
lainsäädäntö 874
todennäköisesti 874
tulokset 873
valtiota 873
hor@@ 872
pöytäkirj@@ 872
kehittämisen 872
ongelmien 872
Amerikan 872
vahv@@ 872
elämän 872
vill@@ 872
Is@@ 871
misessä 871
hallinn@@ 871
toistu@@ 870
päätöstä 870
yksis@@ 869
vastaus 869
muista 869
fi@@ 868
sakin 868
kuluttua 867
jonkin@@ 867
käsiteltäväksi 865
ET@@ 865
hyviä 864
ha 864
taloudellisten 864
sosiaalitur@@ 864
oissa 864
realis@@ 863
Britanni@@ 863
toivottavasti 863
inne 863
eksi@@ 863
jokainen 863
Strasbour@@ 862
sosialis@@ 862
työntekijö@@ 862
talous 862
essamme 862
julkisten 861
käämme 860
ei@@ 860
ksistä 860
pääasiassa 859
alha@@ 859
pyrimme 859
markkinoita 859
turvapaik@@ 859
itava 858
tarvetta 858
politiikkojen 858
vaikutukset 858
pö@@ 858
kansojen 858
kesku@@ 857
silti 857
ulkopuolella 855
jokaisen 855
io 855
sovelletta@@ 855
ilmoittaa 855
sain 854
ellista 854
hyv@@ 854
Portugalin 854
kassa 853
seuraavan 853
idemme 853
päivä 853
ilmas@@ 852
omat 852
yhteistyöstä 852
tehokkuu@@ 851
ittäminen 851
haluais@@ 851
teissa 850
hel@@ 850
antu@@ 850
neitä 849
vastusta@@ 849
tuneita 848
puuttua 847
vastuun 847
voinut 846
Mon@@ 846
edistystä 846
alojen 846
sopimukset 846
kuka 846
henkilös@@ 846
der@@ 846
kampan@@ 846
historiall@@ 845
arvi@@ 845
ykset 845
S 845
ruo@@ 845
pidät@@ 844
matkailu@@ 844
taloutta 844
tellut 844
sihte@@ 844
väärin 843
yteen 843
aktiivisesti 843
os 843
työllisyyden 842
vään 842
sisälty@@ 841
perustaa 841
nimissä 841
oikeus- 841
tiettyjä 840
entisestään 840
maanviljelijö@@ 840
tietoinen 840
tyihin 840
leik@@ 840
län@@ 840
naisia 840
80 839
tehtävänä 839
tarjota 839
otsa@@ 839
annettu 838
väestön 838
käytössä 838
kesken 838
tek@@ 838
ajat@@ 838
mal@@ 838
isla@@ 838
aloite 837
arvo 837
kriitt@@ 837
koskevissa 837
mekanis@@ 837
tahd@@ 837
tosin 837
vam@@ 837
pyrittävä 837
ete@@ 836
alaiset 836
merkittäviä 836
saisi 836
miljardia 836
alaisten 836
allekirjoitta@@ 836
Kööpenhamin@@ 836
ajatus 835
seet 835
iku@@ 835
ny@@ 835
jel@@ 834
ssa 834
kansallisen 834
välttää 834
valle 834
lou@@ 834
julkais@@ 833
kasvun 833
painopiste@@ 833
onte@@ 833
halun@@ 832
pelk@@ 831
syyskuun 831
etel@@ 831
ek@@ 831
piin 831
ristiriidassa 831
pitkälle 831
elo@@ 831
ikan 831
astu@@ 830
sisämarkkinoiden 830
ulkopolitiik@@ 830
liittymis@@ 830
laista 829
H 829
liittyvistä 828
olevaa 828
odotamme 828
puhumme 828
palj@@ 828
kohdista 828
investo@@ 828
rautatie@@ 827
tekstin 827
aineita 827
saapu@@ 827
usko 827
viimeinen 826
tiedotta@@ 826
ensisija@@ 825
sell@@ 825
vaatia 825
vapauksien 825
WTO:n 825
pääsy@@ 825
mielen@@ 824
eten@@ 824
olisin 823
kaikenla@@ 823
syd@@ 822
m 822
oin 821
kulku@@ 821
yttäminen 821
metsä@@ 821
käytettävissä 820
yrit@@ 820
kkiä 820
valmistel@@ 820
kriteer@@ 819
investoin@@ 819
peräisin 818
mielip@@ 818
tukien 818
elintarvikkeiden 818
Afrik@@ 818
aatt@@ 818
hyväksytty 817
ansi@@ 817
omassa 817
haa 817
paras 816
keskisuu@@ 816
toimielin@@ 816
tämänhetk@@ 815
erityistä 815
vaikutus 815
västä 815
asiall@@ 815
een@@ 815
tarkistuksessa 815
liikenteen 814
pyrkii 814
ivan 814
tietoisia 814
muoto@@ 813
tehos@@ 813
ajattel@@ 813
uol@@ 813
suuret 812
jen@@ 812
kuulu 812
perustamista 812
tarkistusten 811
gia 811
Gen@@ 811
valin@@ 811
käsittelyn 810
uksella 809
kuukauden 809
tieli@@ 809
reago@@ 809
ikkaa 809
itettävä 809
järjestelmään 809
Makedon@@ 809
puhun 808
kohe@@ 808
tiedon 808
Portugal@@ 808
kuulla 808
järjestöt 808
vääris@@ 807
käsiteltävänä 807
taloudelliset 807
toimittava 807
ongelmista 807
aikavälin 807
miehet 807
vaikutus@@ 807
täysistunnossa 806
itettiin 806
järjestäyty@@ 806
ammat@@ 806
istamaan 805
tiedo@@ 805
ilta@@ 805
saamaan 805
x@@ 805
tämänpäivä@@ 804
onnettomuu@@ 804
tasapain@@ 804
edel@@ 803
esite@@ 803
tähd@@ 803
sivu@@ 803
60 803
isyyteen 803
hyökkäy@@ 803
annetta@@ 802
kuull@@ 802
kahden@@ 802
nell@@ 802
toimis@@ 802
tävään 801
keino 801
sai 801
kiintiö@@ 800
väes@@ 800
kolmas 800
oikeuteen 800
huhti@@ 800
edistys@@ 800
Bryssel@@ 799
tore@@ 799
yleisen 799
lleen 799
neuvotteluja 799
seka@@ 798
olisimme 798
pöytäkirjan 798
yri@@ 798
poistaa 797
tarkoituksen@@ 797
allaan 797
valvonta 797
alkaa 797
pis@@ 797
puolestaan 797
ulko- 797
todellakaan 796
ttömy@@ 796
tekst@@ 796
istö@@ 796
vied@@ 796
tyyn 795
toimenpiteet 795
nais@@ 795
komissiolla 794
aiden 794
kompromissi@@ 794
riis@@ 794
Na@@ 794
viel@@ 793
Kansa@@ 793
yhteisestä 792
ivä@@ 792
osoittanut 792
antavat 792
työhön 792
kkaa 792
pann@@ 791
aluetta 790
suhd@@ 790
Kes@@ 790
miljar@@ 790
neljä 789
toimimaan 789
sanom@@ 789
edustajien 789
muun@@ 789
kunno@@ 788
ajoneuvo@@ 788
vaadimme 788
iit@@ 788
noudatettava 788
asta@@ 788
demokratiaa 788
komissiossa 787
äänestyksessä 787
varaa 787
vuoropuhelun 787
poliisi@@ 787
amisen 787
len@@ 786
200@@ 786
riippuva@@ 786
tekemistä 786
kysymyksessä 786
rahoituks@@ 785
br@@ 785
innut 785
valvoa 785
siirtymä@@ 784
vakuuttaa 784
suurten 784
osoitus 784
tavan@@ 784
näkökohtia 784
varainhoito@@ 784
seja 783
maata 783
mitkä 783
todellisuudessa 783
kuluessa 782
isyy@@ 782
ekin 782
itu 782
kyseisen 782
pro@@ 782
tärkeän 781
arvois@@ 781
käsitte@@ 781
ankar@@ 781
mamme 781
18 781
tutkimusta 781
puolu@@ 781
yksimielisesti 780
I 780
Tans@@ 780
hyväksymään 779
pite@@ 779
huippu@@ 779
kysymyksissä 779
diplom@@ 779
virhe@@ 779
14@@ 778
tana 778
heng@@ 777
vat@@ 777
itä@@ 776
erinomaisesta 776
tarvitsee 776
sisällyttä@@ 776
Val@@ 776
lta 776
lähte@@ 775
eminen 775
jatkossakin 775
jatkossa 775
vi 775
pk 775
toteutetta@@ 775
huomi@@ 774
eurooppalaisia 774
tehtävää 774
meja 774
nnet@@ 774
änsä 773
ilu 773
rahaston 773
tulk@@ 773
tto@@ 773
kehotan 772
työjärjestys@@ 772
laatua 772
kejä 772
isty@@ 772
itell@@ 772
vapau@@ 772
hakem@@ 772
äsken 771
yhdys@@ 771
puolella 771
televat 770
perin@@ 770
kasvaa 768
varova@@ 768
vuosittain 768
budjet@@ 768
amiseksi 767
vai@@ 766
ksessä 766
Brysselissä 766
istunto@@ 765
kysymyksestä 765
voitava 765
AKT 765
vastauks@@ 764
tunnusta@@ 764
riit@@ 764
välille 764
puitte@@ 764
sol@@ 764
vää@@ 764
esitän 762
Itävallan 762
kehitykseen 762
tuotte@@ 762
ratkaisua 762
Palestiinan 762
mpää 761
16 761
strategia 761
paikalla 760
lähestymistapa 760
ni 759
huolehd@@ 759
hyöd@@ 759
jäsenvaltiossa 759
enempää 759
laajentumis@@ 759
yyteen 758
ilmi@@ 758
In@@ 758
iko 757
aste 757
tuotanto@@ 757
toissijaisuus@@ 756
tasavallan 756
hyödyntää 756
rauh@@ 756
omin@@ 755
artiklassa 755
mor@@ 755
piiriin 755
terro@@ 755
itetään 754
ilmoitta@@ 754
ongelmiin 754
rahoituksen 754
useat 754
Tanskan 754
kaikesta 753
tuhan@@ 753
ponnis@@ 753
tarkasteltava 753
ensisijais@@ 753
utunut 753
nykyisten 753
ymmärrän 753
iva@@ 753
toimeen@@ 752
L 752
huolestutta@@ 752
tuon 752
ampi 751
DE 751
käydään 751
itsevat 751
viestintä@@ 751
EK@@ 751
iteet@@ 751
suhtaudun 751
puhta@@ 751
varmuu@@ 750
kee 750
ohj@@ 750
tarkoita 750
ratkaisuja 750
merkin@@ 749
suoj@@ 749
valtioissa 749
toteutetaan 749
lähestymistapaa 749
täytäntöönpanoa 748
O 748
laajentumista 748
ajien 748
käsittelyyn 748
käynn@@ 748
istunnon 747
hyväksyy 747
hankal@@ 747
olisik@@ 747
hyväksynyt 747
nellä 747
ihmistä 747
199@@ 746
itusten 746
liitto@@ 746
talousarviosta 746
heidät 746
rasis@@ 746
komissiolta 744
ehdotusten 744
kaudella 743
saavuttamiseksi 743
tarve 743
toimenpiteiden 743
haita@@ 743
mmin 743
unionille 743
kauppa 743
kossa 742
mmä@@ 742
kein@@ 742
väis@@ 742
kselle 742
valvonn@@ 742
tuotannon 742
tetä 742
tapaus 741
nämme 741
viisi 741
seikka 741
Kuu@@ 741
Euroopasta 740
valtioita 740
tasapuol@@ 740
hil@@ 739
saataisiin 739
torjumiseksi 739
kilpailua 739
käsittelevän 739
parlamenttien 739
oikeusasia@@ 738
perustuslain 738
esittelijö@@ 737
aamuna 737
eks@@ 737
sijoitta@@ 736
esittelijä@@ 736
otti 736
ajankohta@@ 735
og@@ 735
vieläkin 735
nuorten 735
raj@@ 735
mielenkiin@@ 734
tarkoituks@@ 734
annan 734
henkil@@ 734
sotilas@@ 733
mahdollinen 733
sanoisin 733
täydell@@ 733
seuranta@@ 733
suhteita 733
millään 732
täh@@ 732
äänty@@ 732
II 732
välisessä 732
Barcelonan 732
tiettyjen 731
tekijä 731
jäsenelle 731
yhteisiä 731
hyväksyty@@ 731
tettäisiin 731
lyö@@ 730
ratkaisu@@ 730
jemme 730
tulle@@ 730
kysymysten 730
tällaiset 729
tussa 729
lainsäädän@@ 729
minkäänlaista 729
mie@@ 729
määräyksiä 728
työpaikkoja 728
lausunnon 728
mitenkään 727
yhteiskunn@@ 727
ästi 727
ore@@ 727
laa 727
ntä 727
saatav@@ 727
aseiden 726
Itä 726
pienten 726
töntä 726
todettava 726
eläkelä@@ 726
kuuka@@ 725
ksiaan 725
ansall@@ 725
pes@@ 725
huomauttaa 725
amalla 725
myönteistä 724
Belgian 724
vapaus 724
ulkominis@@ 724
Jugosla@@ 724
isku@@ 723
säil@@ 723
puhutaan 723
kaikkiaan 723
yhteispäätös@@ 723
unionilla 723
järjestelmiä 723
aikataulu@@ 722
kasta 721
omista@@ 721
gen@@ 721
sovitta@@ 720
ittain 720
ste@@ 720
ologi@@ 719
koos@@ 719
yrittää 719
yhdyn 718
uudestaan 718
levi@@ 718
sopimuksesta 718
periaatteiden 717
Prodi 717
opp@@ 717
ylimäärä@@ 717
ituksiin 717
liitt@@ 717
rajojen 717
integro@@ 716
lopussa 716
työmarkkina@@ 716
tiedon@@ 716
kot 716
ttuja 715
sosiaalidemokra@@ 715
äänestämme 715
kansallisia 715
käd@@ 715
sisällyttää 715
vakuutus@@ 715
asetus 715
siviil@@ 715
Laeken@@ 715
luul@@ 714
viksi 714
sal@@ 714
vakavia 714
työvoim@@ 714
tosiasiassa 714
tietävät 714
70 714
artikl@@ 713
työs@@ 713
neuvot@@ 713
rat@@ 713
proses@@ 712
itun 712
hin 712
laisten 712
ryhdyttävä 711
12@@ 711
sana@@ 711
puheenjohtajavaltion 711
assosiaati@@ 711
vallan@@ 710
näyt@@ 710
kaud@@ 710
julkisia 710
vian 710
vakava 709
gissa 709
meren@@ 709
pana 709
samanaikaisesti 708
palau@@ 708
tehokas 708
lain 708
vilpit@@ 707
muille 707
edessä 707
demokraattisen 707
suostu@@ 707
hiljattain 707
tehdyn 706
kehittämistä 706
etelä@@ 706
oikeuksista 706
milloin 705
toimivalta@@ 705
vaikuttavat 705
liiken@@ 705
tekniikan 705
kir@@ 705
kansallis@@ 705
osal@@ 705
tituu@@ 705
ympä@@ 705
Itä@@ 704
kustannuksia 704
asukka@@ 704
r 703
määrärahojen 703
vastuun@@ 703
sanottu 703
pidäty@@ 703
pitävät 703
utuu 702
osallistumista 702
vastaamaan 702
Yhdysval@@ 702
gu@@ 701
jääd@@ 701
järk@@ 701
pakolais@@ 701
kuolem@@ 700
järkevää 700
Se@@ 700
vaikeuksia 700
teri@@ 700
keskenään 700
rahoitusnäky@@ 700
vastaavat 699
siirre@@ 699
pyydämme 699
laadu@@ 699
konkreettisia 699
konferenssissa 699
institution@@ 699
arkalu@@ 699
tarvittavat 699
ihmisille 698
A 698
Pro@@ 697
liikaa 697
oikeud@@ 697
kohtana 697
tuolloin 697
PT 697
maahan 696
pom@@ 695
keja 695
töihin 695
itään 695
ban 695
ksella 695
Iran@@ 695
ryhmät 694
alusta 694
tulevan 694
Car@@ 694
lähi@@ 693
sty@@ 693
edellytykset 693
korostetaan 693
tarkemmin 693
tulosta 692
asetetaan 692
toisistaan 692
avoimuuden 692
häv@@ 692
toimenpid@@ 692
avoimesti 691
telev@@ 691
jäsenille 691
unionista 691
ttujen 691
11@@ 691
atte 690
tosta 690
kaupan@@ 690
ohjelmassa 690
luulen 689
perusteellisesti 689
haan 689
molemmat 689
lentoyhtiö@@ 689
ehkäisem@@ 688
toisia 688
37 688
talousarviota 688
jar@@ 688
syrjin@@ 688
tehtäviä 687
tuntuu 687
kertomuksen 687
yksilö@@ 687
uusi@@ 687
istamme 687
uudistuksia 687
hinn@@ 687
toimielimet 687
prosessiin 686
P 686
käyd@@ 686
etsi@@ 685
perusta 685
tavoitetta 685
hyväksy 685
Ro@@ 685
katsoo 685
tämästä 684
ilmeisesti 684
talousarvioon 684
etusij@@ 683
imiel@@ 683
suojella 683
rikollisuuden 683
kolmannen 683
esittäneet 682
useiden 682
kestävää 682
Per@@ 682
tavasta 682
teillä 681
ohjelmia 681
lliseen 681
äänestystä 681
hankkeiden 681
parlamentilla 681
poliitik@@ 681
tutkin@@ 680
saakka 680
sosiaalinen 680
usti 680
aikataul@@ 680
innista 680
Kyproksen 680
04@@ 680
ällä 679
mahdollisuuksien 679
suhteiden 679
seuraavaksi 679
ittujen 679
keskusteluja 679
ulkomaan@@ 679
kappal@@ 679
eurooppal@@ 678
palvelut 678
kou@@ 678
tukia 678
seuraa 678
päätöslauselmaa 678
syyttä@@ 677
parantamiseksi 677
tyypp@@ 677
luv@@ 677
kovasti 677
täysimäärä@@ 677
glob@@ 677
suuresti 677
meri@@ 677
kriisin 677
mansa 676
viivästy@@ 676
työpaikkojen 676
maatalouspolitiikan 676
liittymistä 676
iten 676
netaan 676
edut 676
alainen 676
tilä@@ 676
sota 676
kunnan 676
käsittelyä 675
jokin 675
viit@@ 675
suhteet 675
terveyden 675
vaatimusten 674
päätö@@ 674
kohtien 674
kohtuu@@ 674
pyrkiä 673
kerta 673
apu@@ 673
toukokuuta 673
saatavilla 673
käytettävä 672
valitettavaa 672
Kar@@ 672
ipu@@ 672
ellaan 672
työnanta@@ 671
takaa@@ 671
voitu 670
joulukuuta 670
totu@@ 670
näy@@ 669
puheenvuoroni 669
kasvua 669
saman 669
hallituks@@ 669
kkä@@ 669
kanta@@ 668
aikom@@ 668
vastainen 668
suurempi 668
esitys@@ 668
sod@@ 668
varmistamaan 668
lentoli@@ 668
koulutusta 667
sit 667
Y:n 667
itetta 667
elää 666
yksipuol@@ 666
kuvi@@ 666
edistämiseksi 666
kelpo@@ 666
säännöksiä 666
suunnittel@@ 665
terveyd@@ 665
esittelijänä 665
heillä 665
yhteyd@@ 665
huume@@ 665
kuluttajapolitiikan 665
vina 664
rakennus@@ 664
rans@@ 664
velvollisuus 664
ere@@ 664
ihmisen 664
vastauksen 664
and@@ 663
itsestään 663
sääd@@ 663
hoitaa 663
onnistunut 663
rakenteell@@ 662
seitsem@@ 662
isemmin 662
syyllis@@ 662
vuosia 662
jet@@ 662
helmik@@ 661
kkeen 661
esiinty@@ 661
Amsterdamin 661
miet@@ 661
päätöslauselma 661
ristiriita@@ 661
ktiiv@@ 661
ongelmaan 661
dikta@@ 661
Välimer@@ 661
tävissä 660
itsisi 660
sti@@ 660
täni 660
kaasu@@ 660
väkivallan 660
ottamatta 659
vastustaa 659
toistan 659
hankkeen 659
vastuull@@ 659
kokonaisuudessaan 659
kriis@@ 659
Kioton 659
vastaista 659
täytäntöönpanon 658
jamme 658
tukemaan 658
yhteistyöhön 658
tutkimus 657
saattavat 657
välttämättä 657
joulukuussa 657
Latin@@ 657
asiakirjan 656
ympäristön@@ 656
henkilöt 656
prior@@ 656
sukupol@@ 656
evät 655
tarkistuksesta 655
17 655
Internet@@ 655
taloudellisesti 655
alta@@ 654
amma@@ 654
tapahtumat 654
intiin 654
moot@@ 654
parlamenttiin 654
oleskel@@ 654
monen@@ 654
Zimbab@@ 654
istan 653
onnittelen 653
kuud@@ 653
tasapaino 653
ennus@@ 653
varmistamiseksi 653
tinen 653
täkin 653
vakauden 652
tilaisuuden 652
tuista 652
amisesta 652
pahoillani 651
teksti 651
saavutettu 651
SE@@ 651
verran 651
tarvitsevat 650
ampaa 650
vapaa 650
hankkeita 650
selven@@ 650
rekister@@ 650
yp@@ 650
alli@@ 650
tuloksena 650
prosessissa 649
mukau@@ 649
vaativat 649
Yhdysvalloissa 648
has@@ 648
tuntu@@ 648
paikallis@@ 648
jäsenvalti@@ 648
asianmukais@@ 648
kuukau@@ 647
käyttävät 647
tuli 647
ampia 647
vastaavan 646
kap@@ 646
tr@@ 646
uudistuksen 646
strategiaa 646
viljeli@@ 646
teen@@ 645
yhteiseen 645
ehdottoman 645
samat 645
tömä@@ 645
otamme 644
aloja 644
lii@@ 644
kunkin 644
telu 644
teet@@ 644
vih@@ 644
tavoitteista 643
toisinaan 643
suunni@@ 643
noudatetaan 643
toimenpiteisiin 643
Roman@@ 642
menettelyjä 642
yleistä 642
Maailman 642
isempi 641
hallitusta 641
välisten 640
kasvu 640
välisiä 640
arme@@ 640
luovutta@@ 640
kasvi@@ 640
myöhä@@ 639
poikkeuks@@ 639
ind@@ 638
tellään 638
Bus@@ 638
vallassa 637
nnön 637
voineet 637
enemmistön 637
ajat 637
taudin 637
käynyt 636
katsomme 636
käynnissä 636
sään 636
palk@@ 636
kolog@@ 636
kristi@@ 636
sellaiset 636
perustuvan 636
annamme 635
kiitollinen 635
rin 635
tuomio@@ 635
hyväksyttävä 635
ohjelmaan 635
myönteisiä 635
ES 634
liittyvän 634
ensiksikin 634
tettä 634
varain@@ 634
uni@@ 634
kuningas@@ 634
ohjelmasta 633
tule 633
täyttä@@ 633
täyttää 633
painopis@@ 633
haluaisimme 633
ennet@@ 633
veron@@ 633
puheenvuoros@@ 633
lämpimästi 633
laisen 633
usin 633
roko@@ 633
isitte 632
perustuslaill@@ 632
hir@@ 632
mainitsi 632
amerikkalais@@ 632
ivo@@ 632
bian 632
Lan@@ 631
po 631
uhd@@ 631
keli@@ 631
yleinen 630
á@@ 630
amiseen 630
toiminnasta 630
rikka@@ 630
tyneet 630
vuor@@ 630
parlamen@@ 630
uhkaa 630
sitte 630
kissa 630
näille 629
yksinomaan 629
oikeutetusti 629
vaali@@ 629
vatkin 629
mättä 629
televisi@@ 628
esityslis@@ 628
doll@@ 628
puheenjohtajana 628
suoritta@@ 628
yhteisessä 627
esin 627
tekop@@ 627
iselta 627
arvoja 627
äkseni 626
ehkä@@ 626
kka 626
työntekijöitä 626
kieltäyty@@ 625
tutus@@ 625
työstään 625
työskentely@@ 625
syntyy 625
kahdeks@@ 625
syyskuuta 625
osapuolet 625
vakuuttu@@ 625
Götebor@@ 625
enimmäis@@ 625
alalle 624
seuraukset 624
vaikutusta 624
tilaisuutta 624
menestyks@@ 624
asianom@@ 624
velvoll@@ 624
are@@ 624
ron 624
mik@@ 624
ilua 624
ile@@ 623
kansallista 623
myönn@@ 623
vahvistetaan 623
qu@@ 623
fooru@@ 623
kid@@ 623
kantojen 623
huolestu@@ 622
10@@ 622
liittyvä 622
pyytä@@ 621
uksissa 621
valtuuskunnan 621
osall@@ 621
ytä@@ 620
oikeudenmukais@@ 620
itakin 620
sanonut 620
maahanmuuton 620
äänestys@@ 619
maal@@ 619
todellisen 619
varmista@@ 619
tion@@ 619
torjua 619
muilla 619
tellen 619
esimerkkinä 619
kok@@ 619
lah@@ 619
Yhdistyneessä 619
vesi@@ 619
toistaa 618
oihin 618
Turk@@ 618
kuningaskunnassa 618
tällöin 617
lisään@@ 617
korkean 617
ensi@@ 617
iltana 617
henkilöstö@@ 617
Lam@@ 617
edustaj@@ 616
myönnetään 616
viimeksi 616
viranomaisen 616
keskinä@@ 616
kaksin@@ 616
C 615
uskoakseni 615
luopu@@ 615
huomion 615
järjestää 615
pasiteet@@ 615
tulevien 615
sotila@@ 615
maus@@ 615
aiempaa 615
huolellisesti 614
tuksessa 614
aalis@@ 614
tehtiin 614
hank@@ 614
Tu@@ 614
riippuu 614
rahoit@@ 614
Balkanin 614
joku 613
pieni 613
kuljetus@@ 613
tällaisten 613
outu@@ 613
kehitysa@@ 613
pros@@ 613
elinten 613
vakau@@ 613
kommun@@ 613
sorkka@@ 613
ykseen 612
ensimmäiseksi 612
teke@@ 612
liittyvää 612
omaksu@@ 612
ydinvoim@@ 612
pikaisesti 611
puuttuu 611
kohtiin 611
teiltä 610
mahdollistaa 610
milla 610
elintarvikke@@ 610
alkoh@@ 610
täväksi 609
luotetta@@ 609
tävässä 609
atu@@ 609
toimik@@ 608
varauks@@ 608
teihin 608
arviointi@@ 608
viiden 607
aio 607
,5 607
Ma@@ 607
ppa@@ 607
välttämätön 607
osana 607
sisämarkkina 607
uttom@@ 607
vaihto@@ 607
suu- 607
perustelu@@ 606
elitte@@ 606
den 606
krite@@ 606
ministerineuvos@@ 606
järj@@ 606
johdosta 605
president@@ 605
aikaan@@ 605
da@@ 605
vapaasti 605
etn@@ 605
aankin 604
12.00 604
investointe@@ 604
vallitsee 604
toteutettava 604
omen@@ 604
naapu@@ 604
kehottaa 604
erään@@ 603
äänestyssel@@ 603
tikin 603
täältä 603
tuettava 603
uhka@@ 603
hdo@@ 602
yä 602
tävästä 602
illaan 602
edistetään 602
jäsenvaltiota 602
hallinto 602
tulokseen 602
piti 601
onom@@ 601
osassa 601
analyys@@ 601
ongelmana 601
illeen 601
sisäasioiden 601
vaalien 601
Län@@ 601
rauhaa 601
voitte 600
annetun 600
taustalla 600
uusiutu@@ 600
inkaan 600
monik@@ 600
laadun 600
astaa 600
kritiik@@ 600
geneett@@ 600
valmistelukunta 600
kulj@@ 599
myyn@@ 599
pito@@ 599
tyytyvä@@ 599
kuntaa 599
terveyttä 598
jänä 598
lailla 598
erään 598
elämään 598
tietyt 598
muodostaa 598
biolog@@ 598
periaatteet 598
tapahtui 598
käsitell@@ 597
avan 597
vienti@@ 597
ennakko@@ 597
väitte@@ 597
mennä 597
.00 597
laiset 597
kuukautta 596
hämmä@@ 596
tarkastellaan 596
edelleenkin 596
itiik@@ 596
tehokk@@ 596
tapoja 596
ehdot 596
kysel@@ 596
terrorismia 596
puutteell@@ 595
ennako@@ 595
mut@@ 595
tav@@ 595
Irlann@@ 595
Kore@@ 595
vapauteen 595
kone@@ 595
posti@@ 595
uhrien 594
tammikuuta 594
edun 594
tävistä 594
mälle 594
aseita 594
nähdäkseni 594
äty@@ 594
edetä 593
eroja 593
äkseen 593
vasem@@ 593
mahdot@@ 592
13@@ 592
pyynnön 592
kr@@ 592
ttavat 592
teltava 592
käsiteltävä 592
keskittyä 592
rohkais@@ 592
kasvu@@ 592
merkittävää 592
aih@@ 592
eik@@ 592
naapur@@ 592
edistämään 592
painottaa 591
jassa 591
kirjall@@ 591
julkis@@ 591
th@@ 591
sisällö@@ 591
af@@ 591
vaihd@@ 591
mainittu 591
todistu@@ 591
tee 591
tarjou@@ 591
osopim@@ 591
seks@@ 591
Afganistanin 591
vie@@ 590
syrjäyty@@ 590
tarkasta@@ 590
direktiiviin 590
ketta 589
hanke 589
tonsa 589
väkivalta@@ 588
oloissa 588
varmistetaan 588
hedel@@ 588
isinä 588
vuodessa 588
puolueiden 588
suojelu@@ 587
viikon 587
puheenvuor@@ 587
vistä 587
kirjassa 587
see 587
oppim@@ 587
yllä 586
mietinnöstään 586
:tä 586
suotu@@ 586
viljelijö@@ 586
kahteen 586
tehtävän 586
stan@@ 586
ensisijaisesti 586
kumo@@ 586
lannin 586
välineet 586
hyväksi@@ 586
kuolemanrangais@@ 586
anin 585
laatimaan 585
valv@@ 584
oni 584
itsemme 583
eni@@ 583
sup@@ 582
Ar@@ 582
luet@@ 582
ure@@ 582
Saddam 582
ittävä 580
neuvosto@@ 579
hou@@ 578
Euro 578
suuntavi@@ 576
burg@@ 575
dyna@@ 575
take@@ 574
esti@@ 574
sivi@@ 574
ow@@ 573
Kosov@@ 573
Johannes@@ 573
histor@@ 572
ratka@@ 571
17@@ 570
telut 570
avi@@ 570
alun 569
atte@@ 568
ittelen 567
Bar@@ 566
1997 566
ises@@ 566
On 566
pon@@ 564
ria 564
olta 563
í@@ 562
eng@@ 561
... 560
nimen@@ 560
ky 559
iri@@ 557
läs@@ 557
näkökul@@ 556
for@@ 556
kiin@@ 555
mus 555
eil@@ 553
tyyty@@ 550
ilme@@ 550
eg@@ 549
urg@@ 549
Ir@@ 548
pp@@ 546
18@@ 544
suures@@ 544
kiit@@ 544
prote@@ 544
radio@@ 544
kanso@@ 544
tusla@@ 544
ass@@ 543
35 542
päin 542
katastro@@ 541
autu@@ 541
yhti@@ 539
suhtaud@@ 537
ensisij@@ 537
21 537
Z@@ 537
mies 535
avar@@ 535
kop@@ 534
jäs@@ 533
kut@@ 533
maahan@@ 533
der 532
not 531
ittäin 531
Cor@@ 531
viim@@ 530
ulta 529
Par@@ 528
tammik@@ 527
materi@@ 527
Yhdisty@@ 527
2005 525
24 525
Ch@@ 525
Her@@ 525
inf@@ 525
sissa 524
analys@@ 524
tömästi 524
neu@@ 523
autom@@ 523
son 522
dra@@ 522
Scheng@@ 522
kah@@ 521
ah@@ 520
Hel@@ 520
ga@@ 519
Luxemb@@ 518
nte@@ 517
100 517
OLA@@ 515
omaks@@ 515
NL 515
toden@@ 514
198@@ 514
minkään@@ 514
Ver@@ 514
Patten 514
22 513
90 513
mit 512
pöytä@@ 512
ü@@ 512
ens@@ 511
käsittely@@ 510
COD 510
rati@@ 510
tossa 510
touko@@ 509
ine 509
ero 508
kohtu@@ 508
pi 507
itteli@@ 507
vapaa@@ 507
23 507
be@@ 505
Le@@ 505
itt@@ 505
jär@@ 505
lann@@ 504
itur@@ 503
union@@ 502
Tamper@@ 500
19 500
itystä 499
syys@@ 498
voita@@ 498
yksin@@ 496
Sol@@ 495
ue 494
ite 493
Lissab@@ 493
ser@@ 492
tenkin 492
suun@@ 492
du@@ 492
käsiteltävä@@ 491
maase@@ 491
teho@@ 491
Ka@@ 490
yhten@@ 489
hid@@ 489
16@@ 488
käsittelev@@ 488
pil@@ 488
etä 487
Gal@@ 486
sanon@@ 485
päätös@@ 484
27 484
päätöslauselma@@ 484
tapo@@ 484
ikke@@ 483
ier@@ 483
uksena 482
innova@@ 481
tonn@@ 481
.30 481
Bur@@ 481
him@@ 480
Gu@@ 480
45 480
kuoleman@@ 479
do 479
työjärjesty@@ 478
usti@@ 477
BSE 477
varm@@ 474
tuomioistu@@ 474
amp@@ 473
tarkastus@@ 472
kille 472
Bel@@ 472
Doh@@ 472
issu@@ 471
Yhdysvall@@ 470
tro@@ 470
uuta 470
lem@@ 470
K 469
Bro@@ 469
GMO@@ 469
bet@@ 467
versi@@ 466
roh@@ 465
our@@ 465
Van 465
mila@@ 465
päin@@ 464
Mc@@ 462
yhtä@@ 462
tetta 461
olle@@ 460
tilin@@ 459
ristiri@@ 459
go@@ 459
500 458
leg@@ 458
SV 457
direktii@@ 457
hti@@ 456
täysi@@ 456
ash@@ 456
Az@@ 455
ity 454
viestin@@ 454
1996 454
co@@ 453
erinomais@@ 452
01 452
täll@@ 451
ire@@ 450
Ti@@ 450
Ser@@ 450
dik@@ 449
käyttööno@@ 449
ättä 447
toivotta@@ 447
lähesty@@ 446
tuotann@@ 446
Amer@@ 444
itsi 444
pen@@ 443
Maa@@ 443
La@@ 443
myö@@ 442
kein 442
tem@@ 442
PSE 441
vät@@ 441
Koso@@ 441
gra@@ 441
kenn@@ 440
ry@@ 440
2010 439
tou@@ 438
sij@@ 438
serva@@ 437
ang@@ 437
set 437
identi@@ 437
kys@@ 436
saata@@ 435
YK@@ 435
ren@@ 434
jalla 434
ELDR 433
sing@@ 433
28 433
dio@@ 433
ordin@@ 433
era@@ 432
julkilaus@@ 432
ig@@ 431
koko@@ 431
Kau@@ 430
rah@@ 429
Kiin@@ 429
aman@@ 429
ätte 428
Du@@ 428
rea@@ 428
Ukra@@ 428
valvon@@ 427
26 427
joulu@@ 426
N 426
oin@@ 426
š@@ 426
x 425
75 425
ov@@ 424
Bas@@ 424
omet@@ 424
fin 423
Afganistan@@ 423
peri@@ 422
Pak@@ 422
sanotta@@ 421
end@@ 421
vaikutu@@ 421
Pa@@ 421
insääd@@ 420
set@@ 419
Ki@@ 419
isuudet 419
Egyp@@ 417
essa@@ 416
transa@@ 416
200 412
Ä@@ 410
määräraho@@ 409
Internet 409
Mal@@ 409
markkin@@ 408
atta@@ 408
el 408
Geor@@ 408
ide 407
Mad@@ 407
empää 407
Inter@@ 406
niin@@ 405
iel@@ 405
anom@@ 404
lau@@ 403
amb@@ 403
paper@@ 402
v 401
todennäkö@@ 400
jö@@ 400
häne@@ 399
Yhdistyne@@ 399
gan@@ 399
esityslista@@ 398
DA 397
Nor@@ 396
puhel@@ 395
torj@@ 395
ken 395
WTO@@ 395
rann@@ 394
aria 393
32 392
Angol@@ 392
puhemi@@ 391
Nizz@@ 391
1990 390
ón 389
29 389
gin@@ 388
sh@@ 387
Jap@@ 386
h 385
CNS 385
jus@@ 384
teell@@ 384
rit 384
Husse@@ 384
Bu@@ 383
bru@@ 382
tusti 381
AL@@ 381
Presti@@ 381
mieles@@ 379
musten 379
Med@@ 379
05@@ 378
ff@@ 378
puheenjohta@@ 377
kaks@@ 375
Ne@@ 375
D 374
issakin 374
New 374
konkre@@ 374
Shar@@ 374
Mos@@ 373
ts 373
rien 372
Israel@@ 372
idem@@ 372
dig@@ 372
Erika 371
ge 371
jur@@ 371
lim@@ 371
ECH@@ 371
Co@@ 370
Ri@@ 370
Ol@@ 369
Niel@@ 369
Poet@@ 368
even 368
Mi@@ 368
von 365
valitetta@@ 364
42 363
strö@@ 363
Belgi@@ 362
äh@@ 362
31 362
välin 359
55 359
anti@@ 359
Ha@@ 359
Bulgar@@ 358
UN@@ 358
inä@@ 357
48 357
enna@@ 356
Verheu@@ 356
ra 356
gh@@ 356
oppos@@ 356
issa@@ 354
emme@@ 353
al 353
esitteli@@ 353
tän@@ 352
33 352
WTO 352
rke@@ 351
dia 351
c 350
Pe@@ 350
valio@@ 350
Wat@@ 350
Har@@ 350
iin@@ 348
1995 348
eb@@ 347
estään 346
IP@@ 345
ec@@ 344
monimut@@ 343
lia@@ 343
even@@ 343
02 342
iken@@ 342
istunnossa 342
Or@@ 342
luop@@ 341
toge@@ 341
Indon@@ 340
Nig@@ 340
Del@@ 339
kre@@ 339
38 339
omen 338
imen@@ 338
R 338
Galic@@ 338
ter 336
immi@@ 336
sto@@ 336
M 335
taud@@ 335
Ru@@ 335
symb@@ 334
too 333
äskettä@@ 332
Mor@@ 332
Bos@@ 332
95 331
minis@@ 331
top@@ 331
Tun@@ 331
34 329
takais@@ 329
Yor@@ 329
Fischler 327
anal@@ 326
Wall@@ 326
36 326
44 325
parlamenti@@ 325
Alger@@ 325
ve 325
Vietna@@ 325
optimis@@ 324
ven 324
fundamentalis@@ 324
Coton@@ 324
monopol@@ 323
Berluscon@@ 323
avu@@ 322
ula@@ 322
41 322
sig@@ 321
Cas@@ 321
kolle@@ 321
eenkin 321
Barni@@ 320
onia 319
fe@@ 318
V 318
imperi@@ 318
isa 317
Araf@@ 316
Feir@@ 316
Kal@@ 316
kuluttaja@@ 315
tall@@ 315
demok@@ 315
Lu@@ 315
wan@@ 314
06@@ 314
Afganis@@ 314
emp@@ 313
kokon@@ 313
NG@@ 313
ú@@ 313
tron@@ 312
jot@@ 312
MO@@ 311
liber@@ 311
300 311
toissijais@@ 310
Fer@@ 310
Tai@@ 309
hyök@@ 309
Eng@@ 308
emen@@ 308
kolmann@@ 307
mid@@ 306
Guine@@ 305
inaan 303
idenkin 303
öl@@ 302
39 302
onnis@@ 302
Th@@ 301
Di@@ 301
US@@ 301
up@@ 300
Bla@@ 300
51 300
ympäris@@ 299
Maastrich@@ 299
Slova@@ 299
stään 299
zz@@ 299
COS 298
säh@@ 298
Israel 298
emminkin 298
65 298
mää@@ 297
Kinno@@ 297
99 296
43 296
matk@@ 296
töön@@ 296
nään 295
Man@@ 295
Fisch@@ 294
Canc@@ 294
prosess@@ 293
é 293
ous@@ 292
ub@@ 292
tain 291
tein 291
yste@@ 291
1994 290
re 290
ori 290
rat 289
emb@@ 289
Kypro@@ 288
katsom@@ 288
NAT@@ 288
Balkan@@ 288
Sta@@ 287
IN@@ 287
ner@@ 286
urs@@ 286
b 285
mmen@@ 285
sem@@ 284
rup@@ 284
Ca@@ 284
tode@@ 284
fil@@ 283
197@@ 283
ard 283
kiitoll@@ 282
Sw@@ 282
huolen@@ 282
kump@@ 282
sid@@ 282
&a@@ 281
Pos@@ 281
tann@@ 281
&#91; 280
&#93; 280
kamp@@ 279
rid@@ 279
Solana 279
ever@@ 278
Go@@ 278
atten@@ 278
IC@@ 278
teg@@ 278
ir 276
join 275
sch@@ 274
puheen@@ 273
periaat@@ 272
emis@@ 272
ci@@ 272
pul@@ 271
emättä 271
minim@@ 271
tenkään 270
välttämä@@ 270
ck@@ 269
Mac@@ 269
ug@@ 269
Agenda 268
di 264
kus 264
our 264
ing 263
ord@@ 261
Fran@@ 260
pun@@ 260
EC@@ 260
euro 259
kyseen@@ 259
hom@@ 259
dit 258
pail@@ 258
enemmis@@ 258
imäär@@ 257
rekti@@ 257
Es@@ 257
we@@ 257
des@@ 256
Mol@@ 256
ymp@@ 255
CA@@ 255
vasto@@ 254
puun 254
mana 253
integra@@ 253
rian 252
sosi@@ 251
mies@@ 251
työn@@ 251
abor@@ 251
kaikki@@ 250
into 249
esty@@ 249
hallitus@@ 249
orm@@ 249
komis@@ 249
bo@@ 248
dy@@ 247
Palacio 246
palestiin@@ 246
lent@@ 246
seen 245
bel@@ 245
od 245
eir@@ 244
feder@@ 243
kl@@ 243
CO@@ 243
amerik@@ 243
è@@ 242
ira@@ 242
j 241
kysymy@@ 241
ulot@@ 240
asio@@ 240
aim@@ 240
traged@@ 240
ba@@ 239
of 239
fa@@ 239
Qu@@ 237
ous 236
bar@@ 235
hun@@ 235
uro@@ 235
und@@ 235
tuloks@@ 234
foor@@ 234
ck 234
interven@@ 233
anna@@ 233
ez@@ 233
fal@@ 232
gene@@ 232
and 231
Fi@@ 231
ch 230
rang@@ 230
# 230
mahd@@ 229
Bal@@ 228
æ@@ 228
poten@@ 226
äärimmä@@ 226
Bolkestein 226
fin@@ 226
Bo@@ 225
idät 225
ME@@ 225
lämp@@ 224
ktor@@ 224
myöhem@@ 223
dt 222
AT@@ 222
numer@@ 221
Vitor@@ 220
Hu@@ 219
kut 218
Barcelon@@ 218
menn@@ 217
En@@ 217
men 216
piiri@@ 216
Alban@@ 216
Ky@@ 216
Vitorino 215
tering 214
prof@@ 213
Poh@@ 211
il 211
ori@@ 211
Erik@@ 211
suku@@ 211
solu@@ 211
one 210
oman@@ 210
tari@@ 209
euroop@@ 209
mot@@ 208
Pohjo@@ 207
gn@@ 206
p 206
inis@@ 206
Bush 206
lämpim@@ 205
naa@@ 205
inter@@ 204
uc@@ 204
yer 204
nes@@ 204
Vi@@ 203
amin 203
autonom@@ 203
the 202
inten@@ 202
oton 201
super@@ 201
tam@@ 201
co 200
ene 200
Palac@@ 198
le 198
Europe 198
rekis@@ 196
ry 196
del@@ 196
tyy@@ 195
fio@@ 194
lly 194
markkina 192
tion 192
Re@@ 192
ef@@ 192
pill@@ 191
onni@@ 191
des 191
ill 191
net@@ 190
neg@@ 190
bes@@ 190
Br@@ 189
imäärä@@ 188
legitim@@ 188
lob@@ 188
Palestiin@@ 188
ron@@ 188
esimerki@@ 187
assosi@@ 187
elintarv@@ 186
ator@@ 186
opposition 186
ers 186
Lat@@ 186
F 185
maaseud@@ 184
Sc@@ 184
cos@@ 184
Hussein 184
oc@@ 182
aud@@ 181
infor@@ 180
kunnianhim@@ 180
hetke@@ 179
arti@@ 178
mili@@ 178
bour@@ 177
aw@@ 177
ttunut 176
oth@@ 176
Q@@ 176
Ara@@ 176
Po@@ 175
don@@ 175
htu@@ 175
da 175
B 174
Mus@@ 174
f 173
kän 173
ran 173
oda 172
dis@@ 172
wa@@ 171
fos@@ 170
He@@ 168
imatta 167
loo@@ 166
Bolkes@@ 166
ehdottom@@ 165
viol@@ 165
Ac@@ 164
titu@@ 164
ile 164
tit@@ 163
opti@@ 163
no 163
AC@@ 163
merik@@ 162
bud@@ 162
kui@@ 162
öö@@ 161
+ 161
bus@@ 161
ren 160
ire 160
sion 159
Aus@@ 159
ro 159
ristiriid@@ 159
hap@@ 159
argu@@ 158
ean 158
ò@@ 158
use 157
Europol 156
vilj@@ 155
ant@@ 155
ric@@ 154
mod@@ 154
pus@@ 153
rad@@ 152
nation@@ 152
tausta@@ 151
kijö@@ 151
oth 150
dem@@ 150
tic@@ 150
never@@ 149
vähimmä@@ 149
ard@@ 149
vähem@@ 148
visi@@ 148
OLAF 148
radi@@ 148
than 147
­ 147
toista@@ 146
fran@@ 146
Am@@ 146
den@@ 145
ganis@@ 145
medi@@ 144
vuoros@@ 144
the@@ 144
ó@@ 142
ulkop@@ 142
poliit@@ 141
of@@ 141
ippu@@ 141
sian 141
id 141
fiel@@ 141
rou@@ 140
opin@@ 140
bro@@ 140
Joh@@ 140
soon 139
pl@@ 139
ad 138
asiantun@@ 138
pop@@ 137
aut@@ 137
over@@ 137
Por@@ 137
tuoll@@ 136
ning 135
rap@@ 134
suhta@@ 134
fas@@ 133
ler 133
Schengen 133
eder@@ 133
bur@@ 132
oun@@ 132
enimmä@@ 131
tre@@ 131
Dan@@ 131
Wh@@ 131
kep@@ 130
che@@ 129
sym@@ 129
or 129
Tou@@ 129
presid@@ 128
risti@@ 128
ttä 127
periaa@@ 127
turvapa@@ 127
For@@ 126
PP@@ 126
AK@@ 126
Pal@@ 125
ensinnä@@ 124
kill@@ 124
ans 124
human@@ 123
kulttu@@ 123
lor@@ 123
Slo@@ 123
tri@@ 122
be 122
X@@ 121
So@@ 120
met 119
ar 119
organ@@ 119
työnte@@ 119
itaa 118
acqu@@ 118
ruption 118
arm@@ 118
impl@@ 118
tom 117
tetusti 117
enna 116
mun@@ 116
Ita@@ 116
ear@@ 116
spe@@ 116
log@@ 116
Korea 116
alle@@ 115
plan@@ 115
Pol@@ 115
toisa@@ 114
Ban@@ 114
ye 113
kunnian@@ 113
television 112
tain@@ 112
G 112
taar@@ 112
ark@@ 111
wit@@ 111
for 111
viivä@@ 111
harmon@@ 111
bia 111
Tra@@ 111
ajoneu@@ 110
inves@@ 110
m. 109
shar@@ 109
lab@@ 108
post@@ 108
taulu@@ 108
Uni@@ 107
htunut 107
car@@ 107
eivät@@ 107
pat@@ 107
adop@@ 107
am 106
ê@@ 106
As@@ 106
plu@@ 106
eman 106
hon@@ 106
est 105
U 105
hetk@@ 105
ikä 105
Amster@@ 104
prim@@ 104
kuning@@ 104
1.@@ 103
Britan@@ 103
Ger@@ 103
Å@@ 103
kiinti@@ 102
oles@@ 102
mas 102
by@@ 101
rac@@ 101
Sep@@ 100
ino 100
ilos@@ 100
th 99
Ö@@ 99
imer@@ 99
Ni@@ 99
ies 98
istunn@@ 98
pahoill@@ 98
pay@@ 98
eläk@@ 98
tab@@ 98
Á@@ 98
iz@@ 97
hes@@ 97
tarvi@@ 96
ber 96
ety 95
tak@@ 95
are 95
rates 95
reas@@ 95
gar@@ 94
kkinä 94
hard 94
annes@@ 93
hön 93
Iran 93
enpäin 92
kollegan@@ 92
med 92
wi@@ 92
Fin@@ 91
contro@@ 91
erin@@ 90
itor@@ 90
put@@ 90
go 90
osoituksia 89
termin@@ 89
aikaisesti 88
AI@@ 88
à@@ 88
dre@@ 88
om 87
International 87
tw@@ 87
air@@ 87
ø@@ 86
ollu@@ 86
myös@@ 86
ner 86
ong 86
EC 85
les 85
kysym@@ 85
out 85
inc@@ 85
sensu@@ 85
kanis@@ 84
head@@ 84
kuin@@ 84
Liber@@ 83
ur 83
bin@@ 82
Brys@@ 82
els 82
unoh@@ 81
just 81
ç@@ 81
töö@@ 81
X 81
res 81
itten 81
Zimbabwe 81
kesken@@ 80
anteen 80
bil@@ 80
pasi@@ 80
star@@ 79
bu@@ 79
porte@@ 79
Con@@ 79
inv@@ 79
Pat@@ 79
net 78
version 78
okra@@ 78
ise 77
ily 77
0 77
Mo@@ 77
pr@@ 77
typ@@ 76
valu@@ 76
ars 76
ã@@ 76
reg@@ 75
inde@@ 75
European 75
LA@@ 74
Isra@@ 74
Fra@@ 74
SE 74
his@@ 74
ns 73
toimen@@ 73
Min@@ 73
w 73
open 73
um 72
stu@@ 72
sion@@ 72
temp@@ 72
som@@ 72
ex@@ 71
World 71
NATO 71
meat 71
pe 70
modern@@ 70
syste@@ 70
gro@@ 70
sijais@@ 69
vic@@ 69
J 69
ker 69
time@@ 68
can 68
ant 68
sens@@ 68
Char@@ 68
tilann@@ 68
ties 67
im 67
Sadd@@ 67
British 66
big 66
pati@@ 66
con@@ 66
mys@@ 66
sub@@ 65
stra@@ 65
que 65
Kosovo 65
ben@@ 65
Ag@@ 65
à 65
oneu@@ 65
ster@@ 65
veh@@ 65
konf@@ 64
eding 64
non 64
käyttöö@@ 63
ord 63
sp@@ 63
ures 63
lamen@@ 62
ges 62
del 62
ff 62
.e@@ 62
minu@@ 61
opportun@@ 61
tras@@ 61
app@@ 60
ent 60
pass@@ 60
ws 60
uudessaan 60
ase 59
idemokra@@ 59
solid@@ 59
ence 59
yo@@ 59
ques@@ 59
fur@@ 59
fel@@ 59
dro@@ 58
enä@@ 58
Jun@@ 58
DS 58
USA 57
gent@@ 57
syr@@ 56
uudell@@ 56
EL@@ 56
ay 56
attaa 56
ñ@@ 56
char@@ 56
ksikin 56
Irish 56
suh@@ 55
med@@ 55
maj@@ 55
ester@@ 54
fis@@ 54
ó 54
Ju@@ 53
ce 52
suosion@@ 52
ogra@@ 52
kedon@@ 52
ep 52
ferens@@ 52
put 51
Trans@@ 51
eth@@ 51
Com@@ 51
Pres@@ 51
The 51
Lis@@ 50
ääd@@ 50
Ex@@ 50
Ang@@ 50
got 50
anti 50
her 50
separ@@ 50
Gro@@ 50
majo@@ 50
cu@@ 50
Gö@@ 50
ins 50
NS 50
ger@@ 49
Pr@@ 49
olos@@ 49
0.@@ 49
ese 49
pensa@@ 49
eur@@ 49
enc@@ 48
ysti 48
all 48
shi@@ 48
mid 48
vol@@ 48
sus@@ 48
ï@@ 48
lot 47
polit@@ 47
vern@@ 47
EU@@ 47
ary 47
head 47
enter@@ 47
imag@@ 46
bri@@ 46
ally 46
tulis@@ 46
st@@ 46
sc@@ 46
hansa 46
Stock@@ 46
välia@@ 45
ph@@ 45
France 45
sis 45
OM 45
cal@@ 45
House 45
analy@@ 44
cel@@ 44
bon 44
wel@@ 44
í 43
oura@@ 43
Den@@ 43
fu@@ 43
Fre@@ 43
reite@@ 43
land 43
off@@ 43
mer 43
ks 42
verrat@@ 42
Bud@@ 42
cor@@ 42
trans@@ 42
Au@@ 42
hiljat@@ 42
isimman 42
multi@@ 42
stres@@ 42
mes 42
ors 41
æ 41
Brit@@ 41
Etel@@ 41
unila@@ 41
status 40
äris@@ 40
pre@@ 40
US 40
imbab@@ 40
ational 40
ò 40
we 39
ling 39
uro 39
str@@ 39
ition 39
ymmä@@ 39
oton@@ 39
line 39
ude 39
Ener@@ 39
Isla@@ 39
limit 39
joon@@ 38
..@@ 38
siih@@ 38
join@@ 38
aid 38
ambi@@ 38
Tre@@ 38
lar@@ 38
tig@@ 38
imes 38
meet@@ 38
soci@@ 38
á 38
ustra@@ 37
pub@@ 37
lic@@ 37
ago@@ 37
idea 37
by 37
ech@@ 37
tes 37
Scot@@ 37
gh 37
hagen 37
tenkaan 37
dri@@ 36
ood 36
fre@@ 36
moder@@ 36
Bri@@ 36
Finan@@ 36
thy 35
ed 35
simp@@ 35
fo@@ 35
erahas@@ 35
ye@@ 35
ca@@ 35
COM 35
attit@@ 35
mone@@ 34
Gre@@ 34
ale 34
wn 34
Energy 34
had 34
up 34
aff@@ 33
une@@ 33
king 33
ago 33
jour@@ 33
ly 33
cial 33
ß@@ 33
dou@@ 33
Ä 32
Cha@@ 32
bit 32
anu@@ 32
aate 32
Rights 32
Fis@@ 32
asy@@ 32
Väl@@ 32
onna 32
tal 31
ger 31
farm@@ 31
meet 31
prov@@ 31
uclear 31
stitu@@ 31
ice 31
minkin 31
ast 31
Can@@ 30
shall 30
manner 30
instru@@ 30
ost 30
control 30
etna@@ 30
pol 29
jatkos@@ 29
mom@@ 29
prog@@ 29
but 29
col@@ 29
cal 29
Yhd@@ 29
back 29
blo@@ 29
my 29
lli@@ 29
ish 29
Hi@@ 28
xemb@@ 28
los@@ 28
ktu@@ 28
Bol@@ 28
beli@@ 28
top 28
truktu@@ 28
burg 28
ol 28
ime 28
Trade 28
gg@@ 28
ô@@ 28
fer@@ 27
ref@@ 27
def@@ 27
obli@@ 27
ween 27
mul@@ 27
com@@ 27
ery 27
anim@@ 27
market@@ 27
problem@@ 27
law 26
ic 26
tor 26
olitiik@@ 26
kansain@@ 26
ld 26
É@@ 26
territor@@ 26
Democ@@ 26
ens 26
noud@@ 26
yet 26
age 26
cha@@ 25
W 25
Human 25
ineuvos@@ 25
safe 25
sinnä@@ 25
nal 25
% 25
East 25
dom@@ 25
cat@@ 25
Union 24
ols 24
human 24
shor@@ 24
ther@@ 24
agre@@ 24
Soci@@ 23
lec@@ 23
intervention 23
side 23
ting 23
imb@@ 23
ek 23
its 23
fra@@ 23
amin@@ 23
bal@@ 22
war@@ 22
sha@@ 22
will 22
over 22
resid@@ 22
cas@@ 22
lausel@@ 22
ft 22
abs@@ 22
hop@@ 22
Wor@@ 22
ket 22
rich 22
evel@@ 22
per 22
arri@@ 22
ende@@ 22
Cour@@ 22
emer@@ 21
Dec@@ 21
pri@@ 21
reser@@ 21
bor@@ 21
muuton 21
ich 21
parti@@ 21
pelkäs@@ 21
ineu@@ 21
peen 20
Strasbourg 20
ture 20
vel 20
ope 20
tlantic 20
ist 20
q@@ 20
vision 20
ace 20
improv@@ 20
ming 20
call 20
bila@@ 20
sou@@ 19
Res@@ 19
unc@@ 19
Barcelona 19
ess 19
Europe@@ 19
then 19
pain 19
ards 19
val 19
will@@ 19
ok 19
justi@@ 19
Arvo@@ 18
st 18
him 18
mis 18
that 18
Group 18
Sto@@ 18
aske@@ 18
let@@ 18
gre@@ 18
opa 18
dec@@ 18
media 18
Eg@@ 18
aver@@ 18
thing 18
call@@ 18
tru@@ 18
lif@@ 18
ow 17
tastro@@ 17
ement 17
ate 17
entit@@ 17
rele@@ 17
pla@@ 17
ment 17
öin 17
und 17
Lissa@@ 17
Ö 16
fac@@ 16
trad@@ 16
able 16
out@@ 16
Econom@@ 16
cho@@ 16
manu@@ 16
business 16
entr@@ 16
work 16
vement 16
arms 16
air 16
fil 16
Ó 16
influ@@ 16
ust 15
acc@@ 15
cc@@ 15
ance 15
cre@@ 15
war 15
Ge@@ 15
rela@@ 15
ical 15
thou@@ 15
thu@@ 15
Development 15
Committee 15
Laeken 15
sman 15
Health 15
bey@@ 15
dus@@ 15
ž@@ 15
lloin 14
deleg@@ 14
entises@@ 14
Commission 14
hope 14
bre@@ 14
ce@@ 14
· 14
ver 14
repe@@ 14
Nov@@ 14
ders 14
Christian 14
arm 14
add@@ 13
fir@@ 13
taul@@ 13
ef 13
ms 13
ods 13
row 13
ening 13
get 13
policy 13
ë@@ 13
sho@@ 13
Tam@@ 13
q 13
cies 13
Community 13
mation 13
found@@ 13
ters 13
ud 13
end 12
pli@@ 12
gr@@ 12
tra 12
ple@@ 12
elec@@ 12
wor@@ 12
field 12
governance 12
lack 12
money 12
tric@@ 12
ure 12
poin@@ 12
mark 12
run 12
Office 12
toler@@ 12
cour@@ 12
ds 11
regi@@ 11
Rus@@ 11
Council 11
Läh@@ 11
bac@@ 11
gender 11
ital 11
dependent 11
contr@@ 11
obser@@ 11
invo@@ 11
nel 11
å@@ 11
muna 11
ely 11
vari@@ 11
can@@ 11
ial 11
low 11
ade 11
ult 11
aga@@ 11
off 11
Yhdys@@ 11
plan 11
American 11
ú 11
Hus@@ 11
each 11
common 10
assis@@ 10
force 10
ther 10
right 10
fro@@ 10
with 10
ted 10
ual 10
coll@@ 10
data 10
profes@@ 10
fam@@ 10
old 10
fri@@ 10
dic@@ 10
div@@ 10
cro@@ 10
ules 10
talis@@ 10
Medi@@ 10
occ@@ 10
duc@@ 10
sea 10
cr@@ 10
ium 10
ces 10
cell@@ 10
ath 10
Freed@@ 10
ulgar@@ 10
lines 10
ried 10
alter@@ 10
clause 10
reac@@ 10
fer 9
Fund 9
amon@@ 9
if 9
small@@ 9
Proc@@ 9
ministra@@ 9
ecu@@ 9
dev@@ 9
vers@@ 9
pers@@ 9
û@@ 9
see@@ 9
tas 9
Party 9
chil@@ 9
ight 9
pursu@@ 9
United 9
cy@@ 9
ory 9
cl@@ 9
cla@@ 9
regula@@ 9
Ass@@ 9
IG@@ 9
verei@@ 9
Oc@@ 9
achi@@ 9
Security 9
bed 9
Foreign 9
gener@@ 9
Α@@ 9
any@@ 8
Ü@@ 8
terran@@ 8
new 8
defic@@ 8
individu@@ 8
Q 8
pec@@ 8
ere 8
year 8
loc@@ 8
Presid@@ 8
lleen@@ 8
ative 8
part@@ 8
national 8
China 8
prin@@ 8
well 8
State 8
Organisation 8
CAP 8
promis@@ 8
pac@@ 8
ble 8
tory 8
red 8
assu@@ 8
Indus@@ 8
ition@@ 8
mal 8
ulti@@ 8
South 8
People 8
ones 8
Emp@@ 7
Liberal 7
far 7
playing 7
vähim@@ 7
ities 7
reli@@ 7
from 7
less 7
nership 7
UK 7
lands 7
economy 7
review 7
value 7
area 7
peace 7
ß 7
mean 7
eing 7
gla@@ 7
ves 7
ations 7
messa@@ 7
p.@@ 7
lem 7
Programme 7
tions 7
onal 7
trag@@ 7
ward 7
Government 7
food 7
group 7
äsket@@ 7
multila@@ 7
Industry 7
ign 7
seri@@ 7
demon@@ 7
ach 7
form 7
@ 7
Ε@@ 7
DR 6
ask 6
Justice 6
basi@@ 6
sex@@ 6
cap@@ 6
have 6
tment 6
under@@ 6
requ@@ 6
ular 6
ches 6
bec@@ 6
hold 6
sm@@ 6
main 6
ding 6
practice 6
refer@@ 6
act 6
road 6
ency 6
tics 6
Research 6
Bank 6
repres@@ 6
tance 6
ners 6
No 6
estin@@ 6
way 6
noon 6
vention 6
bla@@ 6
North 6
ps 6
appe@@ 6
Authority 6
ates 6
lainsäädä@@ 6
level 6
Regi@@ 6
Gener@@ 6
Í@@ 6
global 6
ete 6
hand@@ 6
als 6
º@@ 5
ons 5
very 5
dela@@ 5
state 5
sive 5
high 5
must 5
pres@@ 5
based 5
burden 5
aim 5
volun@@ 5
ology 5
ght 5
this 5
time 5
substan@@ 5
³ 5
ved 5
ful 5
them 5
lea@@ 5
ours 5
äli 5
terr@@ 5
agenda 5
spo@@ 5
early 5
fication 5
ility 5
Af@@ 5
täytän@@ 5
vice 5
ebru@@ 5
sing 5
egal 5
op 5
fla@@ 5
prevention 5
ision 5
Members 5
how 5
made 5
gran@@ 5
tive 5
ets 5
their 5
market 5
Economic 5
töönpan@@ 5
show 5
operation 5
tic 5
ics 5
stre@@ 5
Sec@@ 5
execu@@ 5
Policy 5
name 5
rule 5
labour 5
Africa 5
without 5
Ê@@ 5
stand 5
ose 5
single 5
trade 5
tionary 5
ways 5
ced 5
dama@@ 5
eve 5
fied 5
secu@@ 5
ouse 5
Americ@@ 5
¤ 5
− 5
unti@@ 5
board 4
pris@@ 4
outh 4
Treaty 4
mission 4
ugosla@@ 4
you 4
counter 4
aring 4
correc@@ 4
proc@@ 4
ising 4
best 4
alists 4
ì@@ 4
depend@@ 4
they 4
ever 4
was 4
night 4
commer@@ 4
only 4
tex@@ 4
happ@@ 4
tax 4
fic@@ 4
Amsterdam 4
quality 4
ew 4
cur@@ 4
body 4
ratic 4
legal 4
ù 4
has 4
Direc@@ 4
America 4
port 4
Z 4
fic 4
Regional 4
Agreement 4
any 4
Parliament 4
Internal 4
eag@@ 4
employment 4
environment 4
sure 4
comb@@ 4
trac@@ 4
enda 4
plom@@ 4
inste@@ 4
Conference 4
let 4
tent 4
fare 4
tuna@@ 4
good 4
trial 4
vil 4
yers 4
Social 4
wait 4
gs 4
ources 4
è 4
network 4
ordino@@ 4
bers 4
mental 4
â@@ 4
General 4
Minis@@ 4
democ@@ 4
ground 4
change 4
coun@@ 4
equ@@ 4
wis@@ 4
public 4
ability 4
cus@@ 4
adoption 4
WT@@ 4
clas@@ 4
system 4
spending 4
racy 4
tors 4
compromise 4
ender 4
Agency 4
eas@@ 4
due 4
power 4
Home 4
heu@@ 4
African 4
fair 4
ats 4
ural 4
cri@@ 4
court 4
form@@ 4
seem@@ 4
ological 4
beg@@ 4
monim@@ 4
Regu@@ 4
ound 4
quic@@ 4
open@@ 4
ace@@ 4
tural 4
″ 4
where 3
² 3
cost 3
Portugu@@ 3
minimum 3
inning 3
Employment 3
been 3
tribu@@ 3
enhan@@ 3
building 3
ying 3
goro@@ 3
cond@@ 3
cle@@ 3
sec@@ 3
tives 3
base 3
possible 3
xi@@ 3
ving 3
µ@@ 3
spi@@ 3
Court 3
cul@@ 3
more 3
information 3
society 3
ses 3
ethnic 3
two 3
Environment 3
ffer@@ 3
ications 3
enter 3
hes 3
domin@@ 3
propor@@ 3
tional 3
continuing 3
life 3
crime 3
free 3
stor@@ 3
num@@ 3
low@@ 3
potential 3
Portugal 3
defence 3
tute 3
Sum@@ 3
EUR 3
yes 3
Green 3
treaty 3
Nice 3
your 3
Transport 3
day 3
ls 3
eed@@ 3
person@@ 3
short 3
abo@@ 3
better 3
programme 3
nic 3
oil 3
dise@@ 3
gy 3
joint 3
tant 3
kle 3
face 3
govern@@ 3
itions 3
dom 3
ends 3
chec@@ 3
now 3
past 3
under 3
private 3
È@@ 3
ffer 3
Govern@@ 3
abol@@ 3
fron@@ 3
å 3
term 3
exac@@ 3
Intergovernmental 3
ils 3
dru@@ 3
sli@@ 3
start 3
cand@@ 3
comes 3
fact 3
ased 3
saf@@ 3
ingu@@ 3
regulation 3
gue 3
want 3
eiv@@ 3
union 3
thir@@ 3
wh@@ 3
international 3
President 3
Convention 3
share 3
eness 3
try 3
Coun@@ 3
_ 3
cer@@ 3
= 3
custom@@ 3
law@@ 3
action 3
civil@@ 3
Afgh@@ 3
access 3
last 3
funds 3
pend@@ 3
compromis@@ 3
women 3
self 3
country 3
Environ@@ 3
future 3
attle 3
agreement 3
Fisher@@ 3
centr@@ 3
É 3
dies 3
modi@@ 3
productive 3
appar@@ 3
Commun@@ 3
democracy 3
indic@@ 3
there 3
Stability 3
ple 3
deb@@ 3
estern 3
pid 3
peci@@ 3
lear@@ 3
else 3
make 3
rene@@ 3
gas 3
representative 3
fig@@ 3
Public 3
institu@@ 3
balan@@ 2
cou@@ 2
ress 2
comp@@ 2
benefit 2
elimin@@ 2
nor 2
º 2
welfare 2
dealt 2
subject 2
memb@@ 2
ece 2
therefore 2
orders 2
countries 2
activity 2
management 2
goals 2
hing 2
capacity 2
strong@@ 2
won@@ 2
world 2
basis 2
endor@@ 2
takes 2
later 2
lum 2
thern 2
ond 2
rec@@ 2
charge 2
propos@@ 2
competent 2
authorities 2
dist@@ 2
direct 2
cy 2
ated 2
part 2
export 2
À@@ 2
Mone@@ 2
tech@@ 2
promo@@ 2
foot@@ 2
itime 2
statis@@ 2
Maas@@ 2
julki@@ 2
order 2
present 2
Cy@@ 2
ists 2
moun@@ 2
than@@ 2
Central 2
happy 2
short@@ 2
pic@@ 2
regre@@ 2
ences 2
Christi@@ 2
committee 2
impor@@ 2
small 2
Market 2
ference 2
deal 2
which 2
sense 2
conflict 2
first 2
&@@ 2
enlargement 2
essing 2
community 2
approach 2
actions 2
subsidi@@ 2
Aud@@ 2
understanding 2
four 2
statement 2
social 2
light 2
compliance 2
manufac@@ 2
turing 2
§ 2
priva@@ 2
turning 2
lation 2
tically 2
own 2
may 2
person 2
his 2
how@@ 2
service 2
larg@@ 2
going 2
finan@@ 2
come 2
signed 2
plo@@ 2
learning 2
wr@@ 2
compe@@ 2
States 2
table 2
allow@@ 2
initiative 2
parties 2
rules 2
procedure 2
vity 2
White 2
ration 2
implementation 2
osla@@ 2
Commissioner 2
fish 2
ded 2
paper 2
conven@@ 2
led@@ 2
endorse 2
consultation 2
terms 2
lead@@ 2
urs 2
major 2
tly 2
wing 2
pation 2
surance 2
itable 2
acy 2
Organis@@ 2
labelling 2
house 2
mainly 2
new@@ 2
asylum 2
î@@ 2
rapid 2
ross 2
least 2
Â@@ 2
guar@@ 2
ential 2
ï 2
chall@@ 2
thank 2
taking 2
alisation 2
kly 2
motion 2
tho@@ 2
travel 2
tries 2
Middle 2
case 2
differ@@ 2
Copenhagen 2
± 2
versity 2
manag@@ 2
security 2
Commis@@ 2
perman@@ 2
Parlia@@ 2
points 2
people 2
border 2
suspen@@ 2
friend@@ 2
fight 2
bodies 2
party 2
cle 2
ines 2
health 2
clos@@ 2
regis@@ 2
holding 2
fear 2
ating 2
commun@@ 2
thre@@ 2
pay 2
range 2
cen@@ 2
adver@@ 2
after@@ 2
step 2
canc@@ 2
Republic 2
¡ 2
author@@ 2
Berl@@ 2
cru@@ 2
fail@@ 2
company 2
event 2
emplo@@ 2
kers 2
during 2
wee@@ 2
avoid@@ 2
Agriculture 2
itoring 2
prob@@ 2
Danish 2
led 2
great 2
Russia 2
sibility 2
alities 2
ilies 2
ised 2
again 2
still 2
reduce 2
alise 2
cent@@ 2
ù@@ 2
operators 2
Affairs 2
esses 2
Citiz@@ 2
ă@@ 2
through 2
Europeans 2
four@@ 1
vers 1
yed 1
justice 1
itional 1
organisations 1
sci@@ 1
other 1
ause 1
prehen@@ 1
mework 1
embar@@ 1
confidence 1
regard 1
Directive 1
cover 1
instruments 1
recognised 1
scale 1
uation 1
reci@@ 1
ness 1
laid 1
highest 1
standard 1
prac@@ 1
Paper 1
special 1
either 1
sanctions 1
learn 1
much 1
know 1
knowledge 1
collec@@ 1
risk 1
evalu@@ 1
cement 1
origin@@ 1
genu@@ 1
task 1
scope 1
tual 1
payment 1
solution 1
Polic@@ 1
pression 1
prosecu@@ 1
scheme 1
Auth@@ 1
orities 1
product 1
conom@@ 1
stand@@ 1
annual 1
against 1
ism 1
fine 1
teral 1
Develop@@ 1
ments 1
istic 1
power@@ 1
mic 1
mouth 1
train@@ 1
proceedings 1
flexibility 1
Ì@@ 1
Ï@@ 1
cing 1
Consumer 1
Commission@@ 1
job 1
training 1
¼ 1
debt 1
governmental 1
organisation 1
trust 1
extre@@ 1
show@@ 1
considers 1
temporary 1
puhem@@ 1
authority 1
compl@@ 1
coher@@ 1
coordination 1
certain@@ 1
conditions 1
conclu@@ 1
claim@@ 1
remember 1
often 1
because 1
things 1
absolutely 1
interests 1
population 1
commitments 1
report 1
examin@@ 1
certainty 1
clari@@ 1
option 1
transport 1
Afric@@ 1
cannot 1
kept 1
achieved 1
phen@@ 1
ghts 1
stocks 1
changed 1
curr@@ 1
ject 1
gets 1
were 1
once 1
both 1
ready 1
left 1
exper@@ 1
failed 1
produc@@ 1
produced 1
December 1
works 1
till 1
natural 1
available 1
zone 1
rs 1
xim@@ 1
pressure 1
mind 1
trafficking 1
preci@@ 1
oblig@@ 1
viously 1
talks 1
February 1
Assembly 1
active 1
contrac@@ 1
fec@@ 1
ering 1
talk 1
Minister 1
oms 1
ource 1
Ø@@ 1
representa@@ 1
gence 1
markets 1
follow 1
sound 1
lying 1
wha@@ 1
them@@ 1
fall 1
commitment 1
bad 1
days 1
incorpor@@ 1
enable 1
political 1
funding 1
adopted 1
codecision 1
Justi@@ 1
working 1
elines 1
model 1
fav@@ 1
reducing 1
source 1
internal 1
itor 1
qualified 1
majority 1
difficult 1
individuals 1
finding 1
broad@@ 1
poor@@ 1
did 1
election 1
May 1
confirmed 1
Constitu@@ 1
June 1
calls 1
examine 1
possibility 1
using 1
Article 1
consisten@@ 1
judg@@ 1
aware 1
awar@@ 1
specific 1
ership 1
rise 1
Amsterd@@ 1
pects 1
ements 1
deta@@ 1
liability 1
seems 1
return 1
cris@@ 1
additional 1
Mediterranean 1
understand 1
reform 1
occu@@ 1
negoti@@ 1
involved 1
content 1
Ñ@@ 1
ents 1
Pub@@ 1
geogra@@ 1
institution 1
expres@@ 1
rights 1
fru@@ 1
essenti@@ 1
ful@@ 1
wish 1
back@@ 1
rism 1
medium 1
uses 1
Å 1
iddle 1
date 1
conf@@ 1
judicial 1
ints 1
¸ 1
education 1
sible 1
ffec@@ 1
what 1
goes 1
down 1
rying 1
sustainable 1
mobility 1
Amendment 1
course 1
supported 1
Mrs 1
grateful 1
room 1
ality 1
favour 1
Funda@@ 1
duty 1
meth@@ 1
employed 1
Charter 1
balance 1
position 1
process 1
broad 1
criteria 1
respect 1
meeting 1
between 1
Cyprus 1
Turkish 1
supports 1
establishment 1
invi@@ 1
fy 1
particular 1
significant 1
carry 1
capital 1
buil@@ 1
foc@@ 1
ship@@ 1
ffic@@ 1
compan@@ 1
sexual 1
exploitation 1
gration 1
stric@@ 1
UN 1
enjo@@ 1
consum@@ 1
hed 1
feel 1
alth 1
sions 1
mentary 1
stands 1
association 1
professional 1
doing 1
within 1
death 1
quo@@ 1
across 1
ffici@@ 1
home 1
tebor@@ 1
together 1
ë 1
politics 1
goods 1
Secre@@ 1
enough 1
existing 1
negotiations 1
ý 1
ý@@ 1
Ý@@ 1
ð@@ 1
cam@@ 1
rate 1
science 1
wrong 1
coming 1
letter 1
parliamentary 1
porting 1
third 1
cks 1
oub@@ 1
away 1
post 1
fundamen@@ 1
ome 1
paid 1
talking 1
with@@ 1
legislation 1
fle@@ 1
elections 1
accoun@@ 1
relevant 1
willing 1
moment 1
press 1
desig@@ 1
tern 1
place 1
central 1
total 1
allowed 1
transpar@@ 1
freedom 1
period 1
think 1
xed 1
sport 1
threat 1
related 1
critical 1
ators 1
negative 1
democratic 1
should 1
institutions 1
permanent 1
Pact 1
jud@@ 1
reference 1
protection 1
exis@@ 1
lose 1
youn@@ 1
including 1
never 1
orrow 1
late 1
means 1
acco 1
Yugosla@@ 1
Macedonia 1
fill@@ 1
Spanish 1
connec@@ 1
March 1
inst 1
deli@@ 1
atory 1
spec@@ 1
tac@@ 1
after 1
selves 1
ghting 1
read@@ 1
brief 1
conc@@ 1
ths 1
week 1
Afghanistan 1
session 1
tical 1
ü 1
ping 1
pre 1
remo@@ 1
something 1
educ@@ 1
real 1
consequ@@ 1
such 1
compatible 1
membership 1
Swedish 1
experience 1
½ 1
taxation 1
entation 1
existence 1
Ç@@ 1
susta@@ 1
Balkans 1
document 1
õ@@ 1
candid@@ 1
tably 1
directive 1
reports 1
ring 1
vation 1
weap@@ 1
many 1
xt 1
Om@@ 1
olution 1
Iraq 1
institutional 1
tants 1
reach 1
independence 1
colleagues 1
relations 1
speci@@ 1
ings 1
ority 1
ages 1
blood 1
estiin@@ 1
hamin@@ 1
ittee 1
bill@@ 1
ì 1
payments 1
prohi@@ 1
Nations 1
September 1
presented 1
budget 1
iting 1
resolved 1
issues 1
weapons 1
state@@ 1
standards 1
before 1
Greece 1
being 1
chance 1
bear 1
build 1
Common 1
reduction 1
drugs 1
entity 1
southern 1
ê 1
cross 1
parts 1
million 1
estab@@ 1
contin@@ 1
Maastric@@ 1
portun@@ 1
technology 1
opportunity 1
Brussels 1
Budgets 1
cent 1
focus 1
Stras@@ 1
deman@@ 1
stop 1
sometimes 1
tury 1
Summit 1
particularly 1
sensitive 1
descri@@ 1
busin@@ 1
Consum@@ 1
excell@@ 1
ication 1
entific 1
substantial 1
less@@ 1
competition 1
Α 1
burea@@ 1
inhim@@ 1
scho@@ 1
Fisheries 1
sugg@@ 1
aspects 1
relating 1
isation 1
about 1
etting 1
seem 1
essential 1
progress 1
tively 1
character@@ 1
these 1
apply 1
respective 1
laws 1
regulations 1
already 1
distribu@@ 1
few 1
establish 1
measures 1
pass 1
vely 1
divid@@ 1
hear@@ 1
cra@@ 1
neighbour@@ 1
double 1
ries 1
tax@@ 1
eval@@ 1
sign 1
ral 1
Ireland 1
Ι@@ 1
Ν@@ 1
Ι 1
concerns 1
development 1
economic 1
cooperation 1
quar@@ 1
struc@@ 1
movement 1
