the 93254
, 65853
. 48110
of 42933
to 42139
and 34496
in 30713
a 21958
that 21873
is 21842
we 14898
I 14091
this 13832
for 13786
on 13524
it 12058
be 11458
are 9929
as 9250
have 9017
which 8860
not 8477
with 7997
@-@ 7228
by 6588
will 6332
European 6110
has 5764
Mr 5710
Commission 4973
at 4958
s 4954
&apos; 4615
an 4556
would 4335
all 4316
but 4214
also 3975
President 3884
from 3834
our 3826
should 3791
must 3764
- 3602
there 3511
been 3503
you 3477
or 3191
can 3160
ing 3160
Parliament 3087
ed 3061
report 2899
was 2875
do 2849
these 2844
more 2844
they 2828
Council 2770
Union 2769
what 2744
so 2636
Member 2627
like 2621
if 2574
its 2569
very 2512
one 2491
ted 2479
States 2417
my 2363
re@@ 2307
their 2261
e 2163
other 2130
es 2098
about 2081
us 2075
now 1926
no 1926
Europe 1920
because 1910
who 1904
? 1898
up 1897
s@@ 1888
people 1887
only 1883
b@@ 1857
time 1847
policy 1823
t 1817
need 1796
: 1795
c@@ 1793
countries 1767
am 1751
important 1742
take 1703
out 1644
tion 1642
when 1621
make 1619
) 1596
ting 1594
therefore 1589
ts 1571
( 1569
such 1554
into 1554
able 1535
d@@ 1520
g@@ 1520
some 1494
new 1493
in@@ 1483
however 1477
any 1466
work 1464
&apos;s 1450
Commissioner 1429
EU 1429
first 1404
y 1397
/ 1392
support 1391
between 1369
way 1369
those 1363
debate 1359
un@@ 1350
being 1342
made 1325
just 1322
ation 1297
issue 1296
me 1295
point 1290
a@@ 1288
than 1283
were 1282
dis@@ 1243
proposal 1241
question 1236
er 1230
S@@ 1230
Committee 1224
use 1195
ar@@ 1192
fact 1174
e@@ 1173
Mrs 1170
political 1165
many 1159
say 1159
en@@ 1157
situation 1151
them 1148
well 1143
measures 1139
believe 1129
here 1126
f@@ 1121
public 1111
how 1107
year 1093
even 1091
does 1091
tions 1076
p@@ 1066
w@@ 1065
C@@ 1064
think 1061
where 1059
&quot; 1059
country 1054
against 1032
ly 1029
two 1022
within 999
most 996
economic 994
part 992
right 992
future 991
had 984
why 977
last 977
social 973
order 970
years 970
same 966
course 960
al 957
rights 953
ers 948
clear 946
much 942
he 934
want 934
possible 932
t@@ 929
then 927
; 926
could 920
both 920
taken 919
cannot 918
over 916
Community 916
already 912
development 910
too 906
ate 902
still 899
market 899
A@@ 898
i@@ 896
case 892
information 892
know 890
said 884
d 883
today 879
te 878
see 878
h@@ 877
an@@ 874
human 872
ent 868
m@@ 867
may 866
place 852
good 846
ated 844
under 843
his 842
common 842
view 834
national 833
agreement 832
hope 832
process 824
ra@@ 820
area 819
directive 819
own 817
de@@ 813
l 812
matter 805
end 793
for@@ 775
set 770
number 769
ab@@ 769
2000 768
thank 764
before 764
example 758
system 751
problem 749
put 743
problems 743
your 742
ally 739
m 737
great 732
given 731
rapporteur 727
areas 726
tive 724
cooperation 723
u@@ 722
er@@ 720
2001 719
o@@ 717
since 715
position 714
long 711
action 709
as@@ 709
n@@ 708
ding 706
ad@@ 705
issues 705
citizens 705
world 705
vote 704
particular 703
ensure 703
far 695
is@@ 689
through 687
im@@ 682
gentlemen 681
ations 680
amendments 679
E@@ 675
ladies 673
give 672
ro@@ 671
T@@ 669
decision 665
ence 663
level 663
regard 662
whether 661
means 660
r@@ 655
ta@@ 655
D@@ 653
con@@ 653
financial 651
ity 651
o 651
behalf 649
l@@ 648
al@@ 648
ri@@ 642
again 636
M@@ 635
th@@ 633
resolution 633
y@@ 631
used 629
z@@ 628
co@@ 627
red 621
without 618
ac@@ 618
health 618
necessary 618
aid 618
ble 617
particularly 616
per@@ 614
P@@ 614
k 612
shall 611
transport 611
international 610
tic 607
sector 607
si@@ 606
present 604
legal 604
after 603
going 601
House 597
basis 596
legislation 596
proposals 594
adopted 593
ks 593
es@@ 592
done 592
programme 591
different 591
ve 590
subject 590
ch@@ 588
est 586
next 586
tes 586
% 585
res@@ 579
on@@ 579
R@@ 578
Group 571
ex@@ 569
certain 569
further 567
United 564
rules 556
wish 555
terms 554
Madam 553
ask 552
or@@ 552
Members 552
pre@@ 552
ds 552
industry 549
three 547
ti@@ 547
few 545
opinion 545
G@@ 545
pro@@ 544
making 543
di@@ 542
ma@@ 541
quite 540
ter 540
mis@@ 537
op@@ 537
safety 535
group 535
concerned 533
L@@ 532
ous 532
framework 530
women 530
forward 526
sta@@ 523
agree 523
rather 523
com@@ 523
budget 522
State 521
go 515
pa@@ 514
ies 514
come 513
F@@ 512
role 511
let 509
B@@ 509
ge 509
tly 508
once 507
employment 507
second 507
less 507
I@@ 504
protection 501
respect 498
environmental 498
another 495
every 494
su@@ 491
ce 489
whole 488
working 488
progress 487
continue 486
la@@ 486
access 484
law 484
better 482
under@@ 482
ir@@ 480
deal 480
farmers 478
yet 475
li@@ 474
something 470
did 468
million 468
ch 467
no@@ 467
n 466
specific 464
initiative 464
ol@@ 463
clearly 463
principle 463
line 462
ic@@ 462
committee 461
ating 461
responsibility 460
least 460
current 459
W@@ 458
ag@@ 458
regulation 457
No 455
crisis 455
form 454
help 454
based 453
rec@@ 452
h 450
finally 450
to@@ 449
itself 448
Swedish 448
als 448
together 448
ded 447
opportunity 445
approach 445
general 444
taking 444
get 443
down 442
2 441
third 440
really 439
fully 439
importance 437
especially 437
el@@ 436
greater 436
environment 435
towards 435
sa@@ 434
services 434
institutions 431
look 431
1 430
find 429
resources 428
Affairs 426
research 426
authorities 425
ical 424
th 424
i 423
fication 420
result 420
it@@ 417
call 417
involved 417
high 415
te@@ 415
proposed 414
N@@ 413
us@@ 413
trade 413
tra@@ 412
v@@ 412
favour 411
qu@@ 410
conditions 410
money 410
change 409
ul@@ 409
ten@@ 409
interests 409
always 409
certainly 409
production 409
indeed 408
including 408
during 407
welcome 406
ents 404
ying 404
p 404
food 403
economy 403
en 402
having 400
reports 400
Treaty 398
uni@@ 398
provide 398
points 397
needs 397
achieve 395
although 394
society 394
her 393
while 391
difficult 391
decisions 391
concern 390
account 390
ins@@ 389
ver@@ 389
young 388
words 388
various 388
serious 387
agricultural 387
ed@@ 386
id@@ 386
Turkey 386
consider 385
quality 385
par@@ 384
Government 384
ic 384
sh@@ 383
ance 382
energy 382
ty 381
animals 381
Presidency 380
security 380
ently 380
become 380
g 379
extremely 379
back 378
products 378
peace 377
upon 377
day 376
available 376
ia 375
reason 375
4 374
interest 374
responsible 374
large 373
aware 373
accept 372
strategy 372
companies 372
government 372
ou@@ 372
state 370
small 370
full 369
ine 369
le 368
sive 368
ings 367
hand 367
questions 367
mo@@ 366
V@@ 365
increase 365
ant 364
real 364
step 364
free 364
allow 363
control 363
open 362
se@@ 362
ged 362
simply 361
ne@@ 360
H@@ 360
amendment 358
age 358
major 357
matters 357
comes 357
EUR 357
ur@@ 355
positive 354
procedure 353
ture 353
trans@@ 352
term 352
appropriate 351
concerns 351
management 351
mentioned 350
concerning 350
ec@@ 350
following 348
king 347
negotiations 347
freedom 345
act 345
fe@@ 344
called 344
K@@ 344
min@@ 343
ves 343
reform 342
costs 341
ha@@ 341
at@@ 340
field 340
cases 339
often 337
each 337
vi@@ 337
Court 336
competition 335
perhaps 335
os@@ 335
power 335
0@@ 334
ary 334
6 334
lo@@ 333
force 333
pr@@ 333
ten 333
land 333
might 332
voted 332
conflict 332
ise 331
secondly 331
attention 330
ised 329
em@@ 328
using 328
meeting 327
region 327
he@@ 327
lis@@ 327
ing@@ 326
fundamental 326
sion 325
ar 324
r 324
Stockholm 323
be@@ 322
education 321
actually 320
9 319
best 319
implementation 319
months 318
feel 318
tr@@ 318
workers 318
ities 317
ig@@ 317
ban 316
essential 316
start 316
others 315
pi@@ 315
Nice 313
communication 313
programmes 313
bring 312
over@@ 311
plan 311
risk 311
organisations 311
disease 311
il@@ 309
har@@ 309
gh@@ 308
democracy 308
5 307
k@@ 306
der@@ 306
transparency 306
Article 306
understand 305
single 305
thing 305
BSE 305
men@@ 304
8 304
inter@@ 303
currently 303
improve 303
things 302
pu@@ 302
inc@@ 302
ability 302
ful 301
ess 301
aspects 301
ely 301
O@@ 300
side 300
fy 300
doing 300
sure 299
mar@@ 299
tional 298
00@@ 298
longer 297
wor@@ 297
ever 297
themselves 297
enough 296
ago 296
effective 296
discussion 295
et 295
priority 294
technical 294
objective 294
regions 293
ment 293
1999 292
animal 292
ci@@ 291
life 290
.@@ 290
am@@ 290
we@@ 289
text 289
P 289
ked 288
groups 286
excellent 286
recent 286
until 286
ap@@ 286
civil 286
pres@@ 284
ite 284
9@@ 284
regarding 283
acc@@ 283
objectives 283
systems 283
immigration 283
fisheries 282
pl@@ 282
efforts 282
policies 282
request 281
agenda 281
moment 281
ces 280
initiatives 280
growth 279
crime 278
ving 278
create 278
nothing 277
reasons 276
fied 276
fishing 276
democratic 275
do@@ 274
main 274
out@@ 274
mean 274
7 274
Rights 273
dialogue 273
answer 273
bo@@ 273
ke 272
gra@@ 272
A5 272
cor@@ 272
funds 272
tan@@ 271
try 270
majority 270
parties 270
agreements 270
6@@ 269
special 269
ters 269
dec@@ 268
firstly 268
3 267
internal 267
congratulate 267
eg@@ 267
pla@@ 267
she 266
context 266
agreed 265
members 265
key 265
road 265
off 264
w 264
relations 264
ans 264
Lisbon 264
Office 264
population 264
consumers 263
so@@ 262
mi@@ 262
documents 261
lead 261
markets 261
tri@@ 261
play 261
unfortunately 260
solution 260
sing 259
lack 259
prevent 259
UN 259
ement 259
little 258
results 256
od@@ 256
tor 255
training 255
due 254
Ireland 254
led 253
everything 253
past 253
effect 253
regional 253
motion 252
fin@@ 252
pos@@ 252
tabled 251
several 251
individual 251
movement 251
legislative 250
statement 249
table 249
consumer 249
everyone 248
share 248
despite 248
relation 248
tomorrow 248
old 248
coun@@ 248
des@@ 247
soon 246
benefit 246
asked 245
apply 245
commitment 245
rate 245
achieved 244
kind 244
closed 244
light 243
va@@ 243
crucial 243
enlargement 243
ses 242
all@@ 242
res 241
sub@@ 241
tation 241
gu@@ 240
ined 240
sol@@ 240
tors 240
Amendment 240
projects 240
throughout 239
speak 239
sur@@ 239
presented 239
B5 239
changes 238
short 238
impact 238
nuclear 238
ved 237
ness 237
include 237
ising 237
military 237
never 237
cha@@ 236
Party 236
principles 236
cre@@ 236
ates 236
ourselves 236
um 235
Mediterranean 235
final 234
balance 234
either 234
border 233
according 233
7@@ 233
illegal 232
vo@@ 232
po@@ 232
ency 232
addition 232
children 232
true 232
coordination 231
funding 231
x 231
non 230
sustainable 230
makes 229
response 229
4@@ 229
developing 229
him 228
000 228
draw 228
ill@@ 228
needed 228
J@@ 227
instead 227
established 227
tu@@ 227
contribution 227
investment 227
ish 226
ref@@ 226
move 226
follow 225
provisions 225
raised 224
adopt 224
fi@@ 224
priorities 224
seen 224
period 224
document 223
required 223
gener@@ 223
mind 222
carried 222
up@@ 222
nature 222
end@@ 221
joint 221
UK 221
tion@@ 221
close 220
fair 220
regulations 220
ges 220
8@@ 220
Con@@ 220
talk 220
cost 219
stage 219
id 219
practice 219
tal 219
12 219
governments 219
c 219
se 218
guarantee 218
honourable 218
liberalisation 218
3@@ 217
local 217
above 217
ws 217
sense 217
Convention 217
Minister 217
doubt 216
activities 216
euro 216
ning 215
self 215
idea 215
connection 215
1@@ 214
man@@ 214
ging 214
asylum 214
held 213
recently 213
sed 213
around 213
prepared 213
tre@@ 213
previous 213
5@@ 212
Spanish 212
ought 212
aim 212
stability 212
prevention 212
Sweden 212
item 211
ev@@ 211
oc@@ 211
inten@@ 211
extent 211
justice 211
der 211
private 211
ge@@ 210
mu@@ 210
furthermore 210
hi@@ 210
enti@@ 210
ling 210
procedures 210
quickly 210
standards 210
prof@@ 210
agriculture 210
rail 210
nor 209
ice 209
constitu@@ 209
na@@ 209
seems 208
sions 208
namely 208
basic 208
water 208
el 207
body 207
French 207
jobs 207
fight 207
included 206
ent@@ 206
wa@@ 206
significant 206
promote 206
requirements 205
foot 205
organisation 204
x@@ 204
budgetary 204
ita@@ 203
ter@@ 203
le@@ 203
ass@@ 203
per 203
Summit 203
de 203
presidency 203
ong@@ 202
wh@@ 202
week 201
discuss 201
business 201
cultural 201
20 200
decided 200
pe@@ 200
saying 200
existing 200
actions 199
discussed 199
mit 199
reading 199
task 199
consequences 198
A 198
received 198
ess@@ 198
bility 198
completely 197
Republic 197
ei@@ 197
u 197
fic@@ 197
success 197
implemented 197
lu@@ 197
discharge 197
absolutely 196
confidence 196
tax 196
yed 195
express 195
tal@@ 195
representatives 195
pay 194
establish 194
b 194
list 194
effects 194
sc@@ 193
technology 193
2@@ 193
ran@@ 192
regards 192
develop 192
huge 192
ph@@ 192
Regulation 192
powers 192
address 192
method 192
mouth 192
humanitarian 192
15 191
10 191
across 191
compl@@ 191
date 191
ve@@ 191
ine@@ 191
reg@@ 191
effort 191
ms 191
exten@@ 191
focus 190
prepar@@ 190
ca@@ 190
Policy 190
though 189
coming 189
provided 189
precisely 189
dri@@ 189
pic@@ 188
tin@@ 188
oun@@ 188
knowledge 188
assistance 187
implement 187
job 187
directly 187
half 187
fa@@ 187
les 187
expressed 186
remain 186
alised 186
carry 186
labour 186
almost 186
fellow 185
directives 185
reached 185
exclu@@ 185
took 185
regime 185
solidarity 184
hed 184
tro@@ 184
viol@@ 184
mon@@ 184
her@@ 184
increased 184
conclusion 184
March 184
colleagues 184
pon@@ 183
keep 183
thus 183
ys 183
France 183
ments 183
atory 183
vis@@ 183
community 183
ob@@ 183
hold 182
ian 182
au@@ 182
ist 182
considered 182
In@@ 182
sor@@ 181
str@@ 181
organised 181
states 181
eng@@ 181
ences 180
relevant 180
sec@@ 180
candidate 180
et@@ 180
Internet 180
dic@@ 180
live 180
fer@@ 180
ition 180
iting 180
hol@@ 179
brought 179
tell 179
els 179
ality 179
takes 179
Nos 179
opportunities 179
monitoring 179
protect 179
tically 179
mention 178
j@@ 178
increasing 178
Turkish 178
moreover 178
implementing 178
value 178
ep@@ 178
four 177
war@@ 177
re 177
project 177
wid@@ 177
iti@@ 177
author@@ 177
December 176
tur@@ 176
earlier 176
ak@@ 176
unacceptable 176
ban@@ 176
ately 176
refugees 176
expect 175
relating 175
rule 175
external 175
referred 174
five 174
ises 174
ven@@ 174
talking 174
thanks 174
sufficient 174
infrastructure 174
ins 174
urgent 173
draft 173
lines 173
conc@@ 173
face 173
enable 173
General 173
affected 172
parliamentary 172
times 172
hing 172
direct 172
Ch@@ 172
bu@@ 172
rela@@ 172
levels 172
pleased 172
bre@@ 172
highly 172
voting 171
approved 171
wide 171
left 171
considerable 171
reach 171
por@@ 171
developed 171
strong 171
conclusions 171
network 171
conf@@ 171
02@@ 171
farming 171
WTO 171
rati@@ 171
equal 170
found 170
demand 170
ile 170
Justice 169
meet 169
staff 169
instruments 169
50 168
hard 168
obviously 168
content 168
away 168
lies 168
nevertheless 167
networks 167
model 167
note 166
ot@@ 166
stress 166
restric@@ 166
scientific 166
cl@@ 166
ind@@ 165
assessment 165
pri@@ 165
service 165
isation 165
meat 165
man 164
i.e. 164
ru@@ 164
turn 164
circumstances 164
show 164
um@@ 164
defin@@ 164
guidelines 164
ons 164
da@@ 164
criteria 164
cause 164
low 164
compromise 163
men 163
known 163
ide 163
ars 163
direction 163
global 163
among 163
! 163
consideration 162
related 162
along 162
ced 162
pen@@ 162
ets 162
stated 162
rightly 162
integration 162
application 162
incorpor@@ 162
reality 162
tw@@ 161
late 161
specifically 161
price 161
sitting 160
weapons 160
behind 160
active 160
rest 160
ud@@ 160
whose 159
goes 159
comp@@ 159
regula@@ 159
pas@@ 159
explo@@ 159
measure 159
proper 159
discussing 158
encourage 158
myself 158
British 158
sum@@ 158
reduce 158
hes 158
suppl@@ 158
January 157
overall 157
Sta@@ 157
setting 157
ports 157
soci@@ 157
placed 157
fra@@ 157
amount 157
D 157
war 156
atta@@ 156
ory 156
participation 156
emplo@@ 156
condem@@ 156
ll@@ 155
enting 155
days 155
il 155
trying 155
PVC 155
ste@@ 154
propose 154
sectors 154
hor@@ 154
naturally 154
experience 154
ial 154
tor@@ 154
dealing 154
tures 154
criminal 154
sp@@ 153
ure 153
family 153
tic@@ 153
anything 153
begin 153
scope 153
investig@@ 153
30 153
EC 153
additional 153
total 153
hon@@ 152
ken 152
ho@@ 152
administrative 152
manner 152
sometimes 152
comments 152
review 152
inf@@ 152
reforms 152
tory 152
sen@@ 151
add 151
borders 151
competitive 151
dly 151
sugar 151
ear@@ 150
speech 150
mean@@ 150
Spain 150
ways 150
om@@ 150
accoun@@ 150
risks 150
material 150
Development 150
ned 149
beginning 149
later 149
forces 149
purpose 149
applies 149
operation 149
giving 149
commercial 149
session 148
type 148
ational 148
speci@@ 148
tab@@ 148
ut@@ 148
practical 148
properly 148
ast 148
elec@@ 148
negoti@@ 148
Mon@@ 147
comment 147
looking 147
ensuring 147
tary 147
fri@@ 147
Conference 146
natural 146
accordance 146
ill 146
authority 146
closely 146
sha@@ 146
interpre@@ 146
improving 146
foreign 146
cu@@ 146
creating 146
sanctions 146
obser@@ 145
our@@ 145
China 145
entire 145
views 145
American 145
&#91; 145
&#93; 145
Ministers 145
car@@ 145
criticism 145
off@@ 144
heard 144
require 144
Bud@@ 144
annual 144
Kosovo 144
capacity 144
2002 144
01@@ 144
fir@@ 143
supported 143
Nations 143
pressure 143
mer@@ 143
lot 143
ties 143
coordin@@ 143
receive 143
poor 143
Irish 143
event 143
pursu@@ 142
accepted 142
pur@@ 142
oper@@ 142
status 142
happen 142
chec@@ 142
mod@@ 142
sig@@ 142
poverty 142
C 142
dealt 141
potential 141
Na@@ 141
board 141
consultation 141
covered 141
me@@ 141
benefits 141
reply 140
z 140
lly 140
Brussels 140
home 140
DE 140
forms 140
party 140
efficiency 140
the@@ 140
developments 140
lives 140
O 140
decide 140
fraud 140
prices 140
lic@@ 140
genuine 140
ically 139
pan@@ 139
outside 139
und@@ 139
ological 139
establishing 139
possibility 139
fac@@ 139
pension 139
repres@@ 138
yesterday 138
flo@@ 138
urge 138
recommendation 138
identi@@ 138
offer 138
produce 138
steps 138
lin@@ 138
ni@@ 138
demands 138
discussions 138
mend 138
ite@@ 138
cross 138
Auditors 138
Macedonia 138
speaking 137
An@@ 137
ils 137
respon@@ 137
introduced 137
whom 137
comb@@ 137
waste 137
word 137
val@@ 137
yes 137
demonstra@@ 137
institutional 137
Ukraine 137
victims 136
complete 136
actual 136
bel@@ 136
improvement 136
enta@@ 136
committed 136
eth@@ 136
provides 136
partnership 136
lled 135
violence 135
ris@@ 135
scale 135
raise 135
efficient 135
effectively 135
alone 135
successful 135
values 135
ative 135
structural 135
bi@@ 135
hy@@ 135
plans 135
01 135
air 135
seriously 134
ours 134
fall@@ 134
probably 134
vital 134
Prodi 134
becoming 133
remind 133
treatment 133
ps 133
paid 133
six 133
critic@@ 133
cohesion 133
é@@ 133
vision 133
signed 133
drugs 133
hear 132
addressed 132
sti@@ 132
broad 132
emphasise 132
Germany 132
yers 132
name 132
exactly 131
operate 131
refer 131
Amendments 131
balanced 131
early 131
lif@@ 131
applied 131
parts 131
limit 131
aspect 131
resolutions 131
itional 131
activity 131
def@@ 131
America 130
drawn 130
similar 130
with@@ 130
uranium 130
living 130
produced 130
businesses 130
itions 130
sort 130
acceptable 130
limited 130
former 130
Greece 130
appe@@ 130
compensation 130
created 130
ard 130
Agriculture 130
alist 129
ga@@ 129
govern@@ 129
lling 129
alloc@@ 129
C5 129
partners 129
achieving 129
stand 129
ser@@ 129
f 129
ns 129
exist 129
provision 129
persons 129
leg@@ 129
paragraph 129
vaccination 129
informed 128
beyond 128
People 128
avoid 128
mainly 128
mp@@ 128
remains 128
improved 128
pul@@ 128
concept 128
encies 128
pointed 128
medium 128
accession 128
ad 127
acqu@@ 127
Research 127
ger 127
inte@@ 127
allowed 127
analysis 127
rou@@ 127
commitments 127
Human 127
expenditure 127
creation 127
South 127
oms 126
ry 126
broad@@ 126
duty 126
intend 126
recommendations 126
ual 126
care 126
building 126
difficulties 126
fu@@ 126
fish 126
wanted 125
press 125
ell@@ 125
Par@@ 125
alternative 125
og@@ 125
organis@@ 125
administration 125
requires 125
ong 125
parliaments 125
calls 125
International 125
jo@@ 124
11 124
mul@@ 124
instance 124
read 124
explan@@ 124
obligations 124
pects 124
loc@@ 124
fall 124
ship 124
critical 124
else 124
ras@@ 124
Kingdom 124
dig@@ 124
Agreement 123
competitiveness 123
cle@@ 123
gets 123
introduction 123
elections 123
concrete 123
Public 123
safe 123
produc@@ 123
reference 123
que 123
Programme 123
tical 123
Balkans 123
capital 123
immigrants 123
ue 122
Morocco 122
detailed 122
wit@@ 122
Russia 122
surpris@@ 122
morning 122
ck 122
recognition 122
sible 122
attempt 122
cut 122
industrial 122
tou@@ 122
intervention 122
bodies 122
supporting 122
ication 122
Portugal 122
product 122
Iraq 122
comprehensive 121
justi@@ 121
putting 121
exper@@ 121
stra@@ 121
targets 121
Mar@@ 121
exc@@ 121
test 121
Paper 121
February 120
air@@ 120
lead@@ 120
repe@@ 120
convinced 120
wants 120
yer 120
useful 120
maintain 120
gen@@ 120
totally 120
happened 119
Social 119
sugges@@ 119
del@@ 119
ght 119
added 119
tively 119
exam@@ 119
methods 119
alisation 119
fores@@ 119
B 119
gene@@ 119
says 119
emissions 119
fishermen 119
biotechnology 119
p.m. 118
MEPs 118
substantial 118
weeks 118
increasingly 118
stop 118
tance 118
cover 118
nonetheless 118
shar@@ 118
depen@@ 118
law@@ 118
reducing 118
solutions 118
los@@ 118
bear 118
cover@@ 118
return 118
traffic 118
contin@@ 118
US 118
package 118
accidents 118
Schengen 118
person 117
ow@@ 117
colleague 117
ched 117
told 117
thought 117
cop@@ 117
fine 117
cr@@ 117
uc@@ 117
den 117
shows 117
rural 117
advantage 117
sci@@ 117
events 116
debates 116
NATO 116
os 116
ound 116
contrac@@ 116
governmental 116
Legal 116
gives 116
establishment 116
cul@@ 116
unemployment 116
compar@@ 116
tric@@ 116
currency 116
ably 116
Mexico 116
van 115
evidence 115
stu@@ 115
responsibilities 115
atten@@ 115
inv@@ 115
East 115
asking 115
mission 115
Environment 115
med 114
interven@@ 114
unable 114
contrary 114
hear@@ 114
br@@ 114
repeat 114
calling 114
heritage 114
combat 114
appear 114
COM 114
S 114
Foreign 114
justified 114
judicial 114
immunity 114
alists 113
draf@@ 113
North 113
message 113
territory 113
worth 113
ily 113
du@@ 113
regulatory 113
factors 113
ements 113
ambitious 113
Central 112
prov@@ 112
Rules 112
wrong 112
run 112
media 112
personal 112
shor@@ 112
ground 112
worked 112
sound 112
collec@@ 112
14 112
entation 112
OLAF 112
reflec@@ 112
trafficking 112
quotas 112
supply 112
contribute 112
ay 111
month 111
son 111
Soci@@ 111
crops 111
ahead 111
ase 111
ka@@ 111
PPE 111
deser@@ 111
div@@ 111
conference 111
closer 111
thirdly 111
13 111
applic@@ 111
contributions 111
strengthen 111
leave 111
professional 111
Africa 111
testing 111
respond 110
anyone 110
depleted 110
Gre@@ 110
harmon@@ 110
mil@@ 110
forced 110
entirely 110
involving 110
40 110
coll@@ 110
challenge 110
leading 110
instrument 110
recognise 110
granted 110
gro@@ 110
immediately 110
ura@@ 110
Bank 110
export 110
Health 110
st 110
ir 109
intended 109
thinking 109
submitted 109
laws 109
pe 109
came 109
mer 109
seem 109
cer@@ 109
ur 109
lation 109
surely 109
ner@@ 109
getting 109
outcome 109
rapid 109
che@@ 109
higher 109
ends 109
19@@ 109
ship@@ 109
transpor@@ 109
hu@@ 109
spirit 108
sensitive 108
fore@@ 108
speakers 108
independent 108
publis@@ 108
consistent 108
cho@@ 108
rac@@ 108
atic 108
cing 108
enter 108
damage 108
understanding 108
1998 108
rise 108
sup@@ 108
tment 108
od 108
resid@@ 108
Charter 108
H 108
statements 107
whilst 107
inform 107
Y@@ 107
Procedure 107
limits 107
v 107
letter 107
den@@ 107
dra@@ 107
ot 107
03@@ 107
unless 107
sus@@ 107
threat 107
kers 107
open@@ 107
enormous 107
data 107
remember 107
contains 107
cap@@ 107
changed 107
cy@@ 107
beef 107
floor 106
ming 106
trust 106
arri@@ 106
Economic 106
Ar@@ 106
strategic 106
providing 106
go@@ 106
ously 106
bly 106
realis@@ 106
ver 106
concentra@@ 106
World 106
trad@@ 106
influence 106
works 106
operations 106
tax@@ 106
ards 106
introduce 106
teral 106
Green 106
representative 105
proc@@ 105
study 105
amongst 105
ining 105
cred@@ 105
port 105
ches 105
otherwise 105
arly 105
eing 105
detail 105
innova@@ 105
part@@ 105
ships 105
culture 105
ats 105
dings 105
initial 105
00 105
foc@@ 105
E 105
dangerous 105
poses 105
ord@@ 104
Trade 104
assu@@ 104
af@@ 104
regret 104
seeking 104
apart 104
liber@@ 104
producers 104
evaluation 104
globalisation 104
nationals 104
ula@@ 104
moving 104
spent 104
ous@@ 104
attitude 104
equ@@ 104
fle@@ 104
nor@@ 104
police 103
rapporteurs 103
company 103
ders 103
outbreak 103
correct 103
incid@@ 103
member 103
designed 103
tics 103
ratic 103
standing 103
seek 103
simple 103
pros@@ 103
ple@@ 103
ination 103
lan@@ 103
rejected 103
plu@@ 103
blo@@ 103
delegation 103
Italy 103
ep 103
mandate 103
tar@@ 103
emergency 103
Portuguese 103
summit 103
elected 103
struc@@ 102
delighted 102
ordin@@ 102
pose 102
represent 102
sent 102
holding 102
fo@@ 102
happy 102
icated 102
stocks 102
paper 102
ession 102
urg@@ 102
goal 102
indicators 102
reasonable 102
where@@ 102
ism 102
Security 102
grant 102
relationship 102
highlight 101
Car@@ 101
send 101
advan@@ 101
arrangements 101
neither 101
lear@@ 101
range 101
construction 101
Co@@ 101
adoption 101
sea 101
consul@@ 101
factor 101
histor@@ 101
gi@@ 101
finan@@ 101
imp@@ 101
defence 101
Colombia 101
November 100
conclude 100
intention 100
Sch@@ 100
positions 100
round 100
elements 100
fying 100
wait 100
cement 100
interested 100
definition 100
rates 100
clos@@ 100
ementary 100
ors 100
frontier 100
post 100
leaders 100
secu@@ 100
forget 99
appears 99
ati@@ 99
met 99
June 99
caused 99
obtain 99
spending 99
duc@@ 99
toler@@ 99
adopting 99
fav@@ 99
tackle 99
goods 99
ideas 99
ft 99
initi@@ 99
structure 99
extend 99
ading 99
uses 99
wer@@ 99
May 99
Ca@@ 99
easy 99
carriers 99
laid 98
aring 98
big 98
ingly 98
billion 98
ods 98
affairs 98
ef@@ 98
transfer 98
gre@@ 98
Assembly 98
adequate 97
16 97
visit 97
exchange 97
speed 97
ton@@ 97
central 97
some@@ 97
causes 97
climate 97
Denmark 97
buil@@ 97
vers 97
official 97
failure 97
ne 97
defic@@ 97
intell@@ 97
figures 96
18 96
loo@@ 96
cur@@ 96
conciliation 96
ose 96
mutual 96
appar@@ 96
burden 96
obvious 96
subsidiarity 96
includes 96
stock 96
Palestinian 96
office 96
reduced 96
succ@@ 96
travel 96
plants 96
Solana 96
suffering 95
clari@@ 95
fas@@ 95
situations 95
ines 95
death 95
Britain 95
affect 95
pun@@ 95
Euro@@ 95
excep@@ 95
tried 95
ished 95
grounds 95
truly 95
players 95
visi@@ 95
serva@@ 95
truc@@ 95
Per@@ 95
super@@ 95
char@@ 95
2004 95
meetings 95
controls 95
bs 95
Democrats 95
threa@@ 95
spec@@ 95
applause 95
opening 95
shown 94
delay 94
arm@@ 94
ones 94
supports 94
dom@@ 94
types 94
jud@@ 94
aims 94
wel@@ 94
minimum 94
ology 94
promoting 94
Chamber 94
tural 94
tered 94
impossible 94
sett@@ 94
ves@@ 94
choice 94
bil@@ 94
chance 94
nation@@ 94
cattle 94
beings 94
please 94
families 93
cy 93
consensus 93
cal 93
Industry 93
talks 93
original 93
differences 93
constan@@ 93
cent 93
signific@@ 93
defined 93
financing 93
recognised 93
interesting 93
imin@@ 93
willing 93
distribution 93
clu@@ 93
cles 93
tests 93
vic@@ 93
Pro@@ 92
24 92
hund@@ 92
scheme 92
series 92
protecting 92
involvement 92
gave 92
considering 92
addres@@ 92
negotiating 92
attemp@@ 92
sport 92
ular 92
ogra@@ 92
exemp@@ 92
aged 92
25 92
spo@@ 92
.5 92
inves@@ 92
discrimination 92
tem@@ 92
ese 92
restrictions 92
thousands 91
destro@@ 91
Netherlands 91
happening 91
imposed 91
Energy 91
direc@@ 91
tual 91
ight 91
complex 91
monitor 91
carefully 91
conven@@ 91
remar@@ 91
technologies 91
see@@ 91
standard 91
foun@@ 91
wr@@ 91
emphasis 91
U@@ 91
ug@@ 91
ace 91
ists 91
passed 91
roads 91
ber 91
labelling 91
requests 90
treated 90
evening 90
aimed 90
correc@@ 90
ership 90
release 90
accep@@ 90
character@@ 90
verse 90
contribu@@ 90
implications 90
modern 90
strongly 90
integrated 90
enjo@@ 90
opposed 90
substan@@ 90
solve 90
declar@@ 90
hence 90
T 90
comply 90
NGOs 90
railways 90
somewhat 89
run@@ 89
strik@@ 89
ust 89
bringing 89
impression 89
comple@@ 89
users 89
ime 89
ron@@ 89
lim@@ 89
preven@@ 89
ben@@ 89
var@@ 89
dimension 89
temporary 89
2003 89
started 89
failed 89
lastly 89
requirement 89
inspec@@ 89
eight 89
resolve 89
railway 89
GMOs 89
continued 88
pollution 88
renew@@ 88
welcomed 88
degree 88
cons@@ 88
laun@@ 88
four@@ 88
tari@@ 88
barri@@ 88
Liber@@ 88
expen@@ 88
reaching 88
han@@ 88
presence 88
conver@@ 88
equally 88
reac@@ 88
keeping 88
terinary 88
sized 88
acts 88
Bar@@ 88
sson 88
convention 88
onal 87
requested 87
thy 87
bus@@ 87
civil@@ 87
occu@@ 87
declaration 87
harmonisation 87
streng@@ 87
iver 87
grateful 87
ther@@ 87
ious 87
abor@@ 87
communities 87
integra@@ 87
rely 87
restor@@ 87
Democ@@ 87
fund 87
expected 87
merely 87
AC@@ 87
vis 87
Directive 87
­ 87
human@@ 87
dead@@ 86
manufac@@ 86
radioactive 86
inn@@ 86
Market 86
dro@@ 86
managed 86
mechanisms 86
preser@@ 86
congratula@@ 86
23 86
expres@@ 86
welfare 86
tell@@ 86
wishes 86
pop@@ 86
Ques@@ 86
Patten 86
aside 86
Kyoto 86
maximum 85
preced@@ 85
explain 85
ages 85
association 85
tally 85
categ@@ 85
regis@@ 85
institution 85
continues 85
codecision 85
Gothenburg 85
transparent 85
pp@@ 85
join 85
schools 85
ol 85
recom@@ 85
aries 85
facts 85
element 85
cle 85
cotton 85
realise 85
reduction 85
disabilities 85
substances 85
Protocol 85
southern 85
Chechnya 85
Strasbourg 84
less@@ 84
obligation 84
conflicts 84
linked 84
appeal 84
ale 84
don@@ 84
openness 84
read@@ 84
noon 84
Fin@@ 84
binding 84
mula@@ 84
distinc@@ 84
practices 84
likely 84
diversity 84
tiva@@ 84
speaker 84
etc 84
faced 84
basically 84
tations 84
teen 84
resul@@ 84
Consumer 84
investments 84
ision 84
Fischler 84
Tampere 84
announced 84
wis@@ 83
top 83
clarify 83
appropri@@ 83
conduct 83
ff@@ 83
wonder 83
advis@@ 83
esses 83
Yugoslavia 83
immediate 83
wards 83
tened 83
prote@@ 83
prisoners 83
personally 83
ens 83
greatest 83
indic@@ 83
help@@ 83
build 83
structures 83
amb@@ 83
counter@@ 83
tis@@ 83
estima@@ 83
combating 83
EC@@ 83
vir@@ 83
campaign 83
prosecu@@ 83
Italian 83
represents 83
Prime 83
forthcoming 82
employees 82
ain@@ 82
exceptions 82
debt 82
guaranteed 82
wi@@ 82
determin@@ 82
func@@ 82
lea@@ 82
arms 82
ingu@@ 82
acy 82
bac@@ 82
perc@@ 82
N 82
Direc@@ 82
followed 82
imag@@ 82
rep@@ 82
sides 82
expec@@ 82
lied 82
fear 82
sustain@@ 82
species 82
larg@@ 82
protein 82
ki@@ 81
&apos;@@ 81
mas@@ 81
bur@@ 81
ost 81
tes@@ 81
int 81
assure 81
tedly 81
October 81
capa@@ 81
played 81
exercise 81
fif@@ 81
experts 81
changing 81
emphas@@ 81
sign 81
wn 81
Sea 81
guarantees 81
stitu@@ 81
bad 81
flexibility 81
growing 81
livestock 81
materials 81
tening 81
spread 81
medic@@ 81
origin 81
knows 80
continuing 80
expression 80
ths 80
ghts 80
citizen 80
bla@@ 80
bureauc@@ 80
negative 80
goals 80
outh 80
prim@@ 80
sin@@ 80
ared 80
equality 80
generally 80
ber@@ 80
perfectly 80
sli@@ 80
ital 80
consumption 80
moved 80
considerations 80
imports 80
obsta@@ 80
politicians 80
pet@@ 80
intends 80
beg@@ 80
Wh@@ 80
Guinea 80
Sep@@ 80
election 80
As@@ 80
laundering 80
Sa@@ 79
occasions 79
gn@@ 79
cal@@ 79
Russian 79
prove 79
Regi@@ 79
win@@ 79
proceed@@ 79
safegu@@ 79
desire 79
dispu@@ 79
ann@@ 79
serve 79
reaction 79
ire 79
Re@@ 79
numerous 79
CAP 79
stands 79
income 79
contradic@@ 79
advo@@ 79
pensions 79
invi@@ 79
involve 79
Geneva 79
operators 79
lost 78
spe@@ 78
hand@@ 78
visa 78
ians 78
Cyprus 78
zone 78
written 78
Bu@@ 78
improvements 78
imes 78
resolved 78
Internal 78
Ac@@ 78
examine 78
itation 78
tim@@ 78
associated 78
22 78
competence 78
eful 78
judg@@ 78
property 78
elimin@@ 78
Middle 78
exis@@ 78
van@@ 78
itable 78
Organisation 78
endeav@@ 78
proposing 78
enterprises 78
emer@@ 78
extre@@ 78
language 78
alis@@ 78
neighbour@@ 78
econom@@ 78
freight 78
intermod@@ 78
For@@ 78
telecommunications 78
Berl@@ 78
latest 77
ere 77
post@@ 77
Su@@ 77
jec@@ 77
difference 77
proposes 77
Aus@@ 77
extra 77
ultimately 77
committees 77
constructive 77
rin@@ 77
enhan@@ 77
partly 77
Belgian 77
examples 77
unanim@@ 77
appoin@@ 77
restructuring 77
contained 77
bom@@ 77
modified 77
eb@@ 76
every@@ 76
briefly 76
officials 76
opposition 76
198@@ 76
promis@@ 76
ety 76
pill@@ 76
compared 76
processes 76
contact 76
starting 76
enab@@ 76
subsidies 76
nation 76
60 76
ions 76
feder@@ 76
eed@@ 76
court 76
exports 76
reject 76
Commun@@ 76
mending 76
advantages 76
maintaining 76
democ@@ 76
bra@@ 76
istan 76
electronic 76
Framework 76
Swoboda 76
ased 75
Fisheries 75
competent 75
essing 75
discrimin@@ 75
Amsterdam 75
mor@@ 75
remain@@ 75
dynamic 75
inde@@ 75
encoura@@ 75
hop@@ 75
turning 75
quant@@ 75
reite@@ 75
separate 75
eu@@ 75
night 75
brief 75
secure 75
legitimate 75
legisla@@ 75
assistants 75
ali@@ 75
Bangladesh 75
hom@@ 74
deep@@ 74
Freed@@ 74
sit@@ 74
participate 74
ress 74
industries 74
secre@@ 74
doub@@ 74
extended 74
gue 74
peri@@ 74
selec@@ 74
wing 74
cou@@ 74
deli@@ 74
cies 74
gain 74
perfor@@ 74
oll@@ 74
stres@@ 74
perspective 74
Her@@ 74
existence 74
history 74
des 74
70 74
yment 74
bor@@ 74
waiting 74
mine 74
High 74
adjus@@ 74
ustra@@ 74
las@@ 74
will@@ 74
ner 74
actively 74
pensioners 74
ox@@ 74
mass 74
The 74
tonnes 74
Albanian 74
Al@@ 73
sch@@ 73
assume 73
consequently 73
ton 73
pursue 73
base 73
cri@@ 73
rup@@ 73
avoid@@ 73
organ@@ 73
work@@ 73
tern 73
accord@@ 73
scru@@ 73
dem@@ 73
represented 73
approval 73
finance 73
reser@@ 73
sively 73
phase 73
bud@@ 73
politic@@ 73
lower 73
helping 73
manage 73
armed 73
disabled 73
Thursday 72
sal@@ 72
Monetary 72
largely 72
differ@@ 72
posed 72
afternoon 72
iry 72
centre 72
dependent 72
encouraging 72
April 72
undertaken 72
iv@@ 72
tives 72
proportion 72
allow@@ 72
tants 72
saw 72
communications 72
danger 72
facing 72
asi@@ 72
stay 72
ow 72
possibly 72
trac@@ 72
jour@@ 71
rele@@ 71
sinc@@ 71
pus@@ 71
Geor@@ 71
elled 71
ME@@ 71
reflect 71
sensible 71
payments 71
consolid@@ 71
qualified 71
endorse 71
average 71
custom@@ 71
opinions 71
determination 71
bit 71
appro@@ 71
sel@@ 71
brings 71
classi@@ 71
voluntary 71
oppos@@ 71
affor@@ 71
thereby 71
show@@ 71
worse 71
arise 71
R 71
crimin@@ 71
ti 71
timetable 71
obli@@ 71
firm 71
Bel@@ 71
tragedy 70
Presidents 70
normal 70
relates 70
tained 70
details 70
concluded 70
involves 70
pol@@ 70
compliance 70
head 70
quar@@ 70
vity 70
claim@@ 70
ple 70
receiv@@ 70
got 70
arch@@ 70
awar@@ 70
assess@@ 70
facilitate 70
deliber@@ 70
ners 70
destruction 70
planning 70
protected 70
cial 70
sto@@ 70
stor@@ 70
deb@@ 70
feed 70
Representative 70
diseases 70
poor@@ 70
producing 70
territor@@ 70
revis@@ 70
understood 70
indicated 70
link 70
regar@@ 70
ef 70
fla@@ 70
cod 70
maritime 70
rid@@ 69
top@@ 69
ell 69
moratorium 69
pass 69
ases 69
promised 69
ering 69
German 69
experienc@@ 69
approve 69
subsequ@@ 69
parlia@@ 69
turned 69
1997 69
primarily 69
ren@@ 69
rism 69
achiev@@ 69
lose 69
front 69
liability 69
satisfactory 69
gible 69
gs 69
Agenda 69
raft 69
advice 69
taxation 69
pub@@ 69
disaster 69
Christian 69
mark 68
90 68
commun@@ 68
tute 68
repor@@ 68
individu@@ 68
External 68
kept 68
contro@@ 68
gla@@ 68
tex@@ 68
tioning 68
coherent 68
M 68
approxim@@ 68
foot@@ 68
elsewhere 68
shi@@ 68
thorough 68
regre@@ 68
valuable 68
background 68
xed 68
decisi@@ 68
strengthening 68
discipl@@ 68
low@@ 68
ired 68
anti 68
Treaties 68
view@@ 68
precise 68
milk 68
19 68
toral 68
felt 68
hands 68
observation 68
vari@@ 68
inadequate 68
seven 68
politics 68
mobility 68
Ma@@ 68
feedingstuffs 68
strategies 68
trans 68
ulations 68
precautionary 68
cau@@ 68
Bla@@ 68
boo@@ 67
distor@@ 67
unanimously 67
dre@@ 67
impose 67
via 67
certainty 67
objec@@ 67
stre@@ 67
operating 67
Inter@@ 67
mill@@ 67
lls 67
healthy 67
peac@@ 67
flexible 67
evalu@@ 67
safeguard 67
older 67
confirmed 67
erro@@ 67
determined 67
identified 67
notes 67
fre@@ 67
Z@@ 67
disposal 67
alise 67
cris@@ 67
confirm 67
strict 67
overcome 67
drawing 67
source 67
excessive 67
stric@@ 67
applying 67
val 67
ino 67
movements 67
vehicles 67
2006 67
vil@@ 67
mechanism 67
wood 67
Korea 67
bia 67
passengers 67
copyright 67
resum@@ 66
century 66
Barcelona 66
happens 66
insurance 66
fair@@ 66
hopefully 66
compati@@ 66
contain 66
cen@@ 66
mal 66
Li@@ 66
ented 66
than@@ 66
learning 66
ski@@ 66
prosper@@ 66
July 66
studies 66
courage 66
UN@@ 66
shared 66
frequ@@ 66
Funds 66
emb@@ 66
rich 66
appreciate 66
aff@@ 66
answers 66
sex@@ 66
acknowledge 66
suffici@@ 66
seeing 66
farms 66
genuinely 66
occasion 66
gen 66
agre@@ 66
bann@@ 66
Man@@ 66
marketing 66
27 66
oil 66
Serbia 66
pendence 66
ferred 66
Rule 65
minutes 65
can@@ 65
rea@@ 65
whatever 65
memb@@ 65
enty 65
deleg@@ 65
bar@@ 65
amoun@@ 65
1996 65
remove 65
ric@@ 65
attrac@@ 65
planned 65
equipment 65
religious 65
oral 65
familiar 65
referring 65
gone 65
multi@@ 65
manag@@ 65
assist 65
Comm@@ 65
argument 65
un 65
ility 65
tackl@@ 65
gradu@@ 65
lar@@ 65
Rural 65
sign@@ 65
Latin 65
diplom@@ 65
syn@@ 65
Afgh@@ 65
log@@ 64
icate 64
expla@@ 64
siz@@ 64
Employment 64
expl@@ 64
Feder@@ 64
avi@@ 64
cat@@ 64
tain 64
exp@@ 64
reserva@@ 64
challenges 64
surround@@ 64
educ@@ 64
ready 64
calc@@ 64
statistics 64
debating 64
abs@@ 64
Costa 64
deman@@ 64
charges 64
minister 64
F 64
head@@ 64
Si@@ 64
reinfor@@ 64
lik@@ 64
Eng@@ 64
proceed 64
gan@@ 64
modern@@ 64
Nordic 64
mation 64
domestic 64
CF@@ 64
mentary 64
emission 64
Gra@@ 64
hab@@ 63
arguments 63
Is@@ 63
.30 63
connec@@ 63
greatly 63
100 63
unfor@@ 63
carrying 63
ade 63
tasks 63
remin@@ 63
tially 63
fulfil 63
quot@@ 63
school 63
ols 63
hopes 63
entitled 63
identity 63
cla@@ 63
26 63
deplo@@ 63
cand@@ 63
fighting 63
torate 63
17 63
SMEs 63
target 63
embar@@ 63
entry 63
plenary 63
ques@@ 63
believes 63
infec@@ 63
undoubtedly 62
Home 62
Chairman 62
28 62
necessarily 62
radi@@ 62
ther 62
spoke 62
compla@@ 62
tunate 62
ik@@ 62
exception 62
heart 62
lined 62
simpli@@ 62
easier 62
fail 62
ori@@ 62
allowing 62
room 62
careful 62
ki 62
dist@@ 62
lying 62
define 62
propor@@ 62
ang@@ 62
minority 62
Bö@@ 62
reli@@ 62
Secre@@ 62
EI@@ 62
71 62
satisfac@@ 62
premi@@ 62
ceil@@ 62
respected 62
offered 62
Jo@@ 62
DS 62
vaccin@@ 62
tragic 61
subjects 61
sympa@@ 61
places 61
Citizens 61
feel@@ 61
highest 61
plan@@ 61
courts 61
record 61
ticles 61
ambi@@ 61
leng@@ 61
introducing 61
suspended 61
fusion 61
adapt 61
sy 61
track 61
demonstrated 61
smo@@ 61
function 61
systema@@ 61
easily 61
xth 61
sid@@ 61
issued 61
nal 61
ential 61
shortcomings 61
quali@@ 61
delays 61
tiveness 61
Fund 61
entr@@ 61
sion@@ 61
farm 61
satisfied 61
granting 61
truth 61
ak 61
absolute 61
controlled 61
hal@@ 61
alism 61
waters 61
becomes 61
chem@@ 61
nity 61
succeed 61
Greens 61
lob@@ 61
Iraq@@ 61
Heads 61
migration 61
liberal 61
cosmetics 61
co 60
ffic@@ 60
preparing 60
attack 60
described 60
consisten@@ 60
cas@@ 60
affects 60
ys@@ 60
rapidly 60
tradition 60
maintain@@ 60
spen@@ 60
highlighted 60
stan@@ 60
appointed 60
alternatives 60
permanent 60
languages 60
ping 60
osp@@ 60
continu@@ 60
facilities 60
thly 60
medical 60
execu@@ 60
credibility 60
Report 60
urities 60
Transport 60
latter 60
Luxembour@@ 60
unc@@ 60
numbers 60
Israel 60
profits 60
Fundamental 60
penalties 60
behaviour 60
bio@@ 60
La@@ 60
meal 60
gas 60
cks 60
constitution 60
condition 60
nic 60
Le@@ 60
privatis@@ 60
AI@@ 60
Macau 60
terrorism 59
disas@@ 59
cus@@ 59
suggested 59
pic 59
ited 59
supposed 59
fast 59
prisons 59
tain@@ 59
pect 59
av@@ 59
won@@ 59
stand@@ 59
ministers 59
fiel@@ 59
Hel@@ 59
technological 59
suggest 59
motor@@ 59
reti@@ 59
effec@@ 59
Def@@ 59
went 59
path 59
ü@@ 59
union 59
respective 59
any@@ 59
Plan 59
olution 59
suffer 59
ou 59
northern 59
pped 59
loading 59
slaughter 59
Proc@@ 59
Dan@@ 58
ices 58
tera@@ 58
dru@@ 58
origin@@ 58
prev@@ 58
ide@@ 58
qual@@ 58
Europe@@ 58
nu@@ 58
observa@@ 58
Finan@@ 58
big@@ 58
neg@@ 58
37 58
lai@@ 58
small@@ 58
speec@@ 58
tent 58
Parlia@@ 58
ouse 58
analys@@ 58
II 58
tocol 58
cot@@ 58
dia 58
Saddam 58
termin@@ 58
Cam@@ 58
Mo@@ 58
Byrne 58
Pakistan 58
distribu@@ 57
conduc@@ 57
proved 57
simp@@ 57
ilos@@ 57
associ@@ 57
Kar@@ 57
arity 57
respec@@ 57
mone@@ 57
announ@@ 57
dian 57
enc@@ 57
version 57
Bush 57
ator@@ 57
FYROM 57
ler 56
autom@@ 56
adap@@ 56
kes@@ 56
fran@@ 56
pati@@ 56
wer 56
vely 56
Kinnock 56
olum@@ 56
drama@@ 56
... 56
Ber@@ 56
ek 56
descri@@ 56
monopol@@ 56
rea 56
pollu@@ 56
US@@ 56
sil@@ 55
bed 55
nes@@ 55
follow@@ 55
Afric@@ 55
chil@@ 55
wise 55
Commission@@ 55
cro@@ 55
45 55
ven 55
affec@@ 55
ans@@ 55
Bur@@ 55
Ara@@ 55
Bullmann 55
refer@@ 54
back@@ 54
san@@ 54
med@@ 54
í@@ 54
mitted 54
Lam@@ 54
ey@@ 54
une@@ 54
ications 54
protec@@ 54
ota 54
consid@@ 54
sem@@ 54
Euro 54
ff 54
freed@@ 54
transf@@ 54
80 53
ash@@ 53
amend@@ 53
separ@@ 53
coher@@ 53
ira@@ 53
racy 53
environ@@ 53
getary 53
hap@@ 53
onally 53
conclu@@ 53
olis@@ 53
divid@@ 53
1408 53
Fatuzzo 53
pread 53
optimis@@ 53
tak@@ 53
compan@@ 53
legitim@@ 53
Deprez 53
IS@@ 53
wha@@ 52
transa@@ 52
bon@@ 52
difficul@@ 52
clas@@ 52
Palestin@@ 52
olu@@ 52
schem@@ 52
nam@@ 52
vu@@ 52
Dec@@ 52
guid@@ 52
by@@ 52
sis@@ 52
eni@@ 52
ester@@ 52
Jap@@ 52
comm@@ 51
ring 51
vers@@ 51
jur@@ 51
Pa@@ 51
ina 51
alth 51
Mc@@ 51
sever@@ 51
21 51
infrastruc@@ 51
ke@@ 51
refuge@@ 51
accid@@ 51
penal@@ 51
cod@@ 51
aman@@ 51
CA@@ 51
ju@@ 50
television 50
cally 50
eding 50
importan@@ 50
35 50
profes@@ 50
Min@@ 50
12@@ 50
tin 50
Belgi@@ 50
ghtly 50
33 50
ece 50
ourable 50
medi@@ 50
bila@@ 50
compensa@@ 50
attle 50
campa@@ 50
ström 50
reas@@ 50
sia 50
charge 50
El 49
ew 49
presid@@ 49
Med@@ 49
ole 49
keen 49
Lamfalus@@ 49
guarante@@ 49
ach 49
elling 49
knowled@@ 49
curr@@ 49
eas@@ 49
Isra@@ 49
consider@@ 49
consequ@@ 49
Bal@@ 49
Nor@@ 49
He@@ 49
Har@@ 49
pris@@ 49
thir@@ 49
U 49
gol@@ 49
sul@@ 49
ma 49
chan@@ 49
ski 49
om 49
31 48
ba 48
inclu@@ 48
him@@ 48
highli@@ 48
infor@@ 48
lec@@ 48
compe@@ 48
ca 48
viously 48
comprehen@@ 48
ulation 48
1995 48
lev@@ 48
tta@@ 48
ority 48
ood 48
compet@@ 48
ources 48
ck@@ 48
elli 48
mur@@ 47
gia 47
mas 47
hel@@ 47
appreci@@ 47
fis@@ 47
ama@@ 47
incre@@ 47
poin@@ 47
Bosnia 47
ger@@ 47
lab@@ 47
uation 47
tici@@ 47
55 47
rejec@@ 47
Yugosla@@ 47
Lan@@ 47
consis@@ 47
cond@@ 46
terroris@@ 46
hen@@ 46
has@@ 46
recogn@@ 46
ros@@ 46
assis@@ 46
mend@@ 46
iliation 46
circ@@ 46
partici@@ 46
qui@@ 46
whe@@ 46
ELDR 46
itive 46
G 46
cam@@ 46
Or@@ 46
orities 46
trial 46
minu@@ 45
paper@@ 45
Poettering 45
ky 45
break 45
fundamen@@ 45
Bus@@ 45
secon@@ 45
pers@@ 45
beli@@ 45
decid@@ 45
subsi@@ 45
ok 45
aud@@ 45
euro@@ 45
ign 45
yn@@ 45
kil@@ 45
ECHO 45
Mus@@ 45
CNS 45
Moro@@ 45
Van 45
assa@@ 45
vita@@ 45
Cor@@ 45
facilita@@ 45
Alger@@ 44
ito@@ 44
ip@@ 44
tun@@ 44
COD 44
ffering 44
fulfi@@ 44
them@@ 44
ta 44
pite 44
ket@@ 44
sibilities 44
Bas@@ 44
DA 44
Roth 44
Coun@@ 44
Se@@ 44
Hau@@ 44
ri 44
isi@@ 43
confir@@ 43
then@@ 43
Hol@@ 43
ome 43
believ@@ 43
ente@@ 43
tac@@ 43
prog@@ 43
2010 43
care@@ 43
nit@@ 43
ks@@ 43
contain@@ 43
300 43
ub@@ 43
Fer@@ 43
Macedon@@ 43
itors 42
pil@@ 42
ord 42
enter@@ 42
ilities 42
pain@@ 42
lands 42
42 42
epidem@@ 42
63 42
oh@@ 42
mental 42
practic@@ 42
Wall@@ 42
Indones@@ 42
Gal@@ 42
IV 42
tuna 42
Mercos@@ 42
tribu@@ 41
contac@@ 41
vas@@ 41
cour@@ 41
thin@@ 41
ain 41
grants 41
ference 41
onom@@ 41
religi@@ 41
eli@@ 41
eli 41
iled 41
tments 41
credi@@ 41
Ag@@ 41
anne@@ 41
je@@ 41
success@@ 41
commer@@ 41
auth@@ 41
egulation 41
sels 41
1991 41
Behrend@@ 41
Mexic@@ 41
p.@@ 40
tern@@ 40
onne@@ 40
tter 40
osta@@ 40
Pe@@ 40
rad@@ 40
fund@@ 40
EM@@ 40
and@@ 40
measu@@ 40
ening 40
ran 40
Husse@@ 40
Posselt 40
ö@@ 40
Kor@@ 40
PSE 40
argu@@ 39
irman 39
j 39
lou@@ 39
ala@@ 39
29 39
32 39
pec@@ 39
quic@@ 39
kin@@ 39
farm@@ 39
thern 39
CO@@ 39
Oomen 39
omal@@ 39
Gar@@ 39
tice 39
ens@@ 39
teri@@ 39
tely 39
io 39
saf@@ 39
endor@@ 39
eir@@ 39
Pol@@ 39
Pla@@ 39
lli@@ 39
Fre@@ 39
ari@@ 39
von 39
Katifor@@ 39
slaugh@@ 39
FIF@@ 39
Varela 38
Barón 38
Crespo 38
ads 38
candid@@ 38
itte@@ 38
perfec@@ 38
quan@@ 38
tre 38
Gu@@ 38
astr@@ 38
thorou@@ 38
rying 38
cru@@ 38
impor@@ 38
err@@ 38
Du@@ 38
aller@@ 38
Pur@@ 38
Salva@@ 37
cel@@ 37
dt 37
Com@@ 37
rs 37
exerc@@ 37
Ex@@ 37
len@@ 37
adequ@@ 37
ili@@ 37
add@@ 37
gh 37
inary 37
star@@ 37
10@@ 37
Fl@@ 37
ensi@@ 37
ken@@ 37
Vitor@@ 37
mun@@ 37
sen 37
statis@@ 37
Randzio 37
bian 37
prior@@ 36
ole@@ 36
onger 36
ena 36
effici@@ 36
minim@@ 36
15@@ 36
necess@@ 36
appl@@ 36
iel@@ 36
ject 36
dor@@ 36
peci@@ 36
tom@@ 36
docu@@ 36
Sec@@ 36
Ser@@ 36
isen 36
199@@ 36
Ruij@@ 36
500 36
indus@@ 36
cc@@ 36
IC@@ 36
tting 36
oman 36
11@@ 36
Daniel@@ 36
rance 36
FO@@ 36
gers 36
200 35
bec@@ 35
sit 35
20@@ 35
sy@@ 35
standar@@ 35
rat 35
ion 35
Th@@ 35
dy 35
mat@@ 35
anti@@ 35
hes@@ 35
51 35
ffered 35
bet@@ 35
provid@@ 35
é 35
promise 35
1994 35
evi@@ 35
mal@@ 35
tit@@ 35
So@@ 35
Mong@@ 35
Tra@@ 35
fail@@ 34
versi@@ 34
need@@ 34
vin@@ 34
asure 34
st@@ 34
row 34
margin@@ 34
tus 34
dama@@ 34
vill@@ 34
emp@@ 34
princi@@ 34
mand@@ 34
Ne@@ 34
Niel@@ 34
satis@@ 34
Alban@@ 34
vil 34
Korean 34
ward 34
omen 34
mot@@ 34
paten@@ 34
GUE 34
Zimbab@@ 34
vasta@@ 33
Sand@@ 33
olog@@ 33
az@@ 33
ural 33
COS 33
43 33
pula@@ 33
reason@@ 33
2005 33
itude 33
construc@@ 33
prac@@ 33
feed@@ 33
sioners 33
modi@@ 33
nership 33
tastro@@ 33
reques@@ 33
ha 33
á@@ 33
ators 33
carri@@ 33
NGL 33
Kal@@ 33
rend@@ 32
gic 32
LI@@ 32
contr@@ 32
ult 32
sens@@ 32
proced@@ 32
48 32
io@@ 32
advanta@@ 32
kan 32
norma@@ 32
1993 32
recommend@@ 32
particip@@ 32
56 32
influ@@ 32
ener@@ 32
aria 32
balan@@ 32
thre@@ 32
tionary 32
passen@@ 32
Jarzembow@@ 32
006@@ 32
ï@@ 32
citiz@@ 32
Woga@@ 32
Maca@@ 32
Nev@@ 32
Bol@@ 31
dela@@ 31
experi@@ 31
excell@@ 31
neu@@ 31
yste@@ 31
increas@@ 31
ro 31
suppor@@ 31
57 31
doll@@ 31
ource 31
versity 31
ai@@ 31
Minis@@ 31
è@@ 31
39 31
IP@@ 31
het@@ 31
poten@@ 31
inno@@ 31
symb@@ 31
Di@@ 31
Ri@@ 31
Verts 31
ALE 31
ana 31
Colom@@ 31
ticle 30
75 30
establis@@ 30
rat@@ 30
there@@ 30
sis 30
moder@@ 30
ough 30
Gro@@ 30
aties 30
app@@ 30
Nic@@ 30
tila@@ 30
Atlan@@ 30
Mirand@@ 30
Bos@@ 30
K 30
Lae@@ 30
ino@@ 30
va 30
tan 30
Chech@@ 30
Turk@@ 30
coura@@ 29
Tsi@@ 29
guar@@ 29
ffer 29
200@@ 29
uring 29
hment 29
gy 29
dom 29
yd@@ 29
Am@@ 29
ty@@ 29
tunately 29
tering 29
à 29
ih@@ 29
aper 29
paragrap@@ 29
tence 29
wan@@ 29
psy@@ 29
pression 29
wee@@ 29
rian 29
eill@@ 29
traffic@@ 29
entific 29
jö@@ 28
judic@@ 28
ctions 28
problem@@ 28
mom@@ 28
charac@@ 28
hid@@ 28
prec@@ 28
alle@@ 28
bill@@ 28
ee 28
eiv@@ 28
fam@@ 28
mm@@ 28
Sol@@ 28
Pi@@ 28
arm 28
kl@@ 28
programm@@ 28
bon 28
dang@@ 28
exac@@ 28
pä@@ 28
nen 28
rik@@ 28
Wi@@ 28
din 28
pation 27
contra@@ 27
ls 27
tech@@ 27
ever@@ 27
08 27
pt 27
arti@@ 27
isms 27
omen@@ 27
Fran@@ 27
vel@@ 27
V 27
regi@@ 27
Pal@@ 27
arily 27
alu@@ 27
main@@ 27
Ecofin 27
ET@@ 26
xi@@ 26
ikan@@ 26
kes 26
ffici@@ 26
1990 26
administra@@ 26
yr@@ 26
sibly 26
idence 26
aty 26
din@@ 26
ularly 26
bri@@ 26
time@@ 26
17@@ 26
Americ@@ 26
ffs 26
tries 26
teg@@ 26
tra 26
ò@@ 26
iddle 25
Mal@@ 25
tein 25
eed 25
aan 25
seri@@ 25
occ@@ 25
availa@@ 25
ava@@ 25
Go@@ 25
seem@@ 25
isions 25
aid@@ 25
reduc@@ 25
vol@@ 25
ech@@ 25
consu@@ 25
resolu@@ 25
,@@ 25
tial 25
sibility 25
yh@@ 25
14@@ 24
turing 24
ean 24
profession@@ 24
autu@@ 24
dle 24
desig@@ 24
ym@@ 24
ego@@ 24
let@@ 24
fronti@@ 24
fisher@@ 24
Mad@@ 24
sian 24
ka 24
deal@@ 24
Koso@@ 24
Ver@@ 24
eni 24
Ni@@ 24
aw@@ 23
ghting 23
til@@ 23
asu@@ 23
thou@@ 23
ministra@@ 23
kly 23
levi@@ 23
ero 23
aking 23
En@@ 23
institu@@ 23
kid@@ 23
Br@@ 23
concep@@ 23
orders 23
lla 23
requ@@ 23
ria 23
of@@ 23
exer@@ 23
embly 23
vice 23
omet@@ 23
eh@@ 23
AT@@ 23
tele@@ 23
tlan@@ 23
appla@@ 22
impl@@ 22
vehic@@ 22
Kau@@ 22
criteri@@ 22
ministeri@@ 22
oli@@ 22
anta@@ 22
vina 22
ansi@@ 22
att@@ 22
sty@@ 22
mili@@ 22
know@@ 22
stuffs 22
enem@@ 22
gran@@ 22
fal@@ 22
jects 22
specific@@ 22
rap@@ 22
challeng@@ 22
ile@@ 22
kas 22
invo@@ 21
polic@@ 21
oth@@ 21
lem@@ 21
oman@@ 21
oni 21
Ol@@ 21
pay@@ 21
empha@@ 21
hou@@ 21
glob@@ 21
tioned 21
Po@@ 21
ket 21
ko@@ 21
Serbian 21
rah@@ 21
meet@@ 21
.00 21
Res@@ 21
GM@@ 21
Algerian 20
tas@@ 20
Qu@@ 20
eur@@ 20
stood 20
ful@@ 20
resol@@ 20
Uni@@ 20
typ@@ 20
ita 20
fur@@ 20
Wor@@ 20
urity 20
ures 20
eag@@ 20
youn@@ 20
L 20
ilita@@ 20
surance 20
fic 20
ivo@@ 20
ore@@ 20
gent@@ 20
ón 20
cosme@@ 20
eder@@ 20
victi@@ 19
Cy@@ 19
ffec@@ 19
ike@@ 19
ilo@@ 19
short@@ 19
meth@@ 19
tia 19
use@@ 19
De@@ 19
eless 19
strong@@ 19
mit@@ 19
mechan@@ 19
otti 19
gin 19
edu@@ 19
refu@@ 19
enna 19
uclear 19
valu@@ 19
bers 19
offici@@ 19
eseen 19
techn@@ 19
precau@@ 19
eet 19
ker@@ 19
Tur@@ 19
uro 19
etta 19
ude 19
pend@@ 18
mber 18
certain@@ 18
consum@@ 18
earli@@ 18
minis@@ 18
susta@@ 18
issu@@ 18
Environ@@ 18
anno@@ 18
efly 18
issa@@ 18
ire@@ 18
Swed@@ 18
conflic@@ 18
ultima@@ 18
ues 18
mic 18
ah@@ 18
arrang@@ 18
uro@@ 18
istan@@ 18
priva@@ 18
vacc@@ 18
m. 17
are@@ 17
yl@@ 17
net@@ 17
oth 17
cos@@ 17
nn@@ 17
fron@@ 17
Ro@@ 17
after@@ 17
ä@@ 17
aim@@ 17
eve 17
althy 17
call@@ 17
Presid@@ 17
nte@@ 17
tras@@ 17
prin@@ 17
opa@@ 17
get@@ 17
inti@@ 17
pel@@ 17
ij@@ 17
Ukrain@@ 17
ld 17
ais@@ 16
ster@@ 16
bab@@ 16
cil 16
Govern@@ 16
uations 16
aton 16
enterpris@@ 16
incor@@ 16
volun@@ 16
ut 16
terro@@ 16
ples 16
convinc@@ 16
FR 16
nos@@ 16
alun 16
traged@@ 16
alta 16
portun@@ 16
asia 16
Val@@ 16
ipu@@ 16
monia 16
Mos@@ 15
equip@@ 15
sym@@ 15
one@@ 15
concer@@ 15
agrap@@ 15
occasi@@ 15
relevan@@ 15
22@@ 15
efully 15
tunne@@ 15
pensa@@ 15
nec@@ 15
relation@@ 15
ath 15
elin@@ 15
suspen@@ 15
orm@@ 15
Rus@@ 15
Cha@@ 14
py@@ 14
ja@@ 14
imen@@ 14
wers 14
itor 14
enorm@@ 14
FI@@ 14
plen@@ 14
op 14
inging 14
Å@@ 14
messa@@ 14
oners 14
eping 14
perspec@@ 14
introduc@@ 14
vention 14
sou@@ 14
nific@@ 14
ghted 14
yll@@ 14
itoring 14
ium 14
weap@@ 14
preci@@ 14
ov@@ 14
exces@@ 14
ond 14
representa@@ 14
neigh@@ 14
ply 14
jun@@ 14
bour@@ 14
laus@@ 14
pes@@ 14
adop@@ 14
vo 14
han 14
immi@@ 14
rom 14
Á@@ 13
ete 13
perf@@ 13
packa@@ 13
keh@@ 13
inning 13
aj@@ 13
Agricul@@ 13
prehen@@ 13
eval@@ 13
lop@@ 13
prob@@ 13
Mir@@ 13
Ban@@ 13
alo@@ 13
nau@@ 13
unds 13
radio@@ 13
rats 13
kno@@ 13
max@@ 13
commit@@ 13
Ps 13
his@@ 13
Gener@@ 13
Mac@@ 13
pit@@ 13
Os 13
hd@@ 13
tau@@ 12
round@@ 12
met@@ 12
my@@ 12
tty 12
restruc@@ 12
emm@@ 12
cir@@ 12
ross 12
ista 12
NL 12
SV 12
hil@@ 12
lau@@ 12
emerg@@ 12
ecu@@ 12
alogue 12
tima@@ 12
itime 12
æ@@ 12
Pak@@ 12
Col@@ 12
tiet@@ 11
Ger@@ 11
perman@@ 11
ilu@@ 11
itage 11
deta@@ 11
Christi@@ 11
iri@@ 11
pover@@ 11
raud 11
benef@@ 11
23@@ 11
spi@@ 11
jo 11
tempor@@ 11
pac@@ 11
Es@@ 11
isely 11
pois@@ 11
Sto@@ 11
fare 11
propos@@ 11
opportun@@ 11
uri@@ 11
oblig@@ 11
vices 11
emoc@@ 11
pal@@ 11
oura@@ 11
EL@@ 11
EU@@ 11
set@@ 11
opti@@ 11
yo@@ 11
tani 11
ß@@ 11
itu@@ 10
ko 10
Ô@@ 10
ê@@ 10
recei@@ 10
scho@@ 10
fficient 10
0 10
treat@@ 10
uly 10
rene@@ 10
tel@@ 10
NG@@ 10
tru@@ 10
achi@@ 10
Ki@@ 10
orig@@ 10
gentlem@@ 10
acti@@ 10
fore 10
titu@@ 10
siv@@ 10
tonn@@ 10
tig@@ 10
vall@@ 10
burg 10
aar@@ 10
jan 10
Agre@@ 10
mel@@ 10
iva@@ 10
imer@@ 10
Fra@@ 10
telec@@ 10
kin 10
inen 10
kop@@ 10
lap@@ 9
itta@@ 9
dispos@@ 9
laugh@@ 9
zz@@ 9
Representa@@ 9
entit@@ 9
famili@@ 9
Aud@@ 9
employe@@ 9
sell@@ 9
capac@@ 9
201@@ 9
ffice 9
subsidi@@ 9
amp@@ 9
sequ@@ 9
tol@@ 9
gration 9
oles@@ 9
Jun@@ 9
Sw@@ 9
Ass@@ 9
oli 9
vement 9
mption 9
nia 9
ç@@ 9
market@@ 9
kel@@ 9
develop@@ 9
Y 9
eto@@ 9
tto@@ 9
isia 8
Í@@ 8
Ï 8
burea@@ 8
isla@@ 8
numer@@ 8
lum 8
ould 8
Lis@@ 8
Ru@@ 8
kim@@ 8
sing@@ 8
hall@@ 8
hin@@ 8
entity 8
DR 8
sus 8
elines 8
Lu@@ 8
ero@@ 8
jar@@ 8
Itali@@ 8
ye@@ 8
beha@@ 8
-@@ 8
atte@@ 8
sa 8
giv@@ 8
gian 8
tod@@ 8
emis@@ 8
X@@ 8
rau@@ 8
sop@@ 8
Por@@ 8
Char@@ 8
pa 8
avo@@ 8
grow@@ 8
ñ@@ 8
nut 8
mat 8
Gen@@ 8
ffer@@ 8
child@@ 8
Guine@@ 8
Q@@ 8
uh@@ 8
esta 8
kar@@ 7
del 7
ist@@ 7
veness 7
materi@@ 7
led@@ 7
dy@@ 7
pian 7
ette 7
lamen@@ 7
pid 7
18@@ 7
terr@@ 7
goti@@ 7
ua 7
iden 7
tunn@@ 7
Bri@@ 7
compli@@ 7
elf 7
grou@@ 7
rang@@ 7
Kore@@ 7
&amp; 7
echan@@ 7
destruc@@ 7
enn@@ 7
mus@@ 7
lle 7
emen@@ 7
bin@@ 7
ella 7
olem@@ 7
än@@ 7
technolog@@ 7
pain 7
atives 7
imate 7
min 7
kia 7
nim@@ 7
ani@@ 7
feeding@@ 7
trag@@ 6
happ@@ 6
sm@@ 6
strength@@ 6
proper@@ 6
entra@@ 6
further@@ 6
X 6
und 6
pid@@ 6
easi@@ 6
Develop@@ 6
vel 6
suring 6
porte@@ 6
ved@@ 6
itor@@ 6
vain 6
urs 6
ren 6
onn@@ 6
simila@@ 6
ich 6
dic 6
jus@@ 6
ala 6
aver@@ 6
Sum@@ 6
enda 6
olin 6
Organis@@ 6
kul@@ 6
ò 6
ille 6
xim@@ 6
ja 6
telecommun@@ 6
eman 6
tta 5
transpar@@ 5
£ 5
..@@ 5
veh@@ 5
dyna@@ 5
J 5
turally 5
ó@@ 5
Progra@@ 5
Banglades@@ 5
anu@@ 5
asta@@ 5
Ky@@ 5
Gö@@ 5
OM 5
Pos@@ 5
till 5
road@@ 5
sin 5
atu@@ 5
Pat@@ 5
esty@@ 5
degre@@ 5
ody 5
uno@@ 5
eri@@ 5
flik@@ 5
à@@ 5
rish 5
rime 5
lic 5
Oc@@ 5
ittees 5
veto@@ 5
kor@@ 5
Econom@@ 5
cohes@@ 5
mys@@ 5
ista@@ 5
electron@@ 5
ase@@ 5
ó 5
nne 5
invol@@ 5
í 5
demon@@ 5
competiti@@ 4
ante@@ 4
mall@@ 4
Medi@@ 4
edes 4
ly@@ 4
· 4
kon@@ 4
ö 4
Ö@@ 4
rete 4
discus@@ 4
tura@@ 4
busin@@ 4
vie@@ 4
Pl@@ 4
aa@@ 4
ã@@ 4
osa 4
extrem@@ 4
meri@@ 4
inis@@ 4
inst 4
humanita@@ 4
tos@@ 4
Lat@@ 4
telem@@ 4
high@@ 4
testa@@ 4
circum@@ 4
isi 4
jen@@ 4
teful 4
anim@@ 4
progra@@ 4
consen@@ 4
een 4
ere@@ 4
â 4
ô@@ 4
Ì@@ 4
Ir@@ 4
monop@@ 4
usti@@ 4
Citiz@@ 4
minister@@ 4
polit@@ 4
improv@@ 4
era@@ 4
opp@@ 4
analy@@ 4
odo@@ 4
estic 4
num@@ 4
Z 4
anna 4
eva 4
LA@@ 4
kke@@ 4
PP@@ 4
AL@@ 4
017@@ 4
rought 4
Den@@ 3
ret@@ 3
hdo@@ 3
Q 3
forth@@ 3
partic@@ 3
NS 3
tista 3
Morocc@@ 3
deple@@ 3
ani 3
fel@@ 3
plo@@ 3
ise@@ 3
uu@@ 3
maj@@ 3
amis@@ 3
On 3
union@@ 3
gratu@@ 3
ss@@ 3
enlarg@@ 3
Indus@@ 3
ona 3
Maa@@ 3
strateg@@ 3
ternal 3
itious 3
tuon@@ 3
dies 3
presenta@@ 3
q 3
bal@@ 3
Kre@@ 3
aga@@ 3
Trans@@ 3
osa@@ 3
ß 3
solid@@ 3
vels 3
W 3
É@@ 3
Hi@@ 3
enne 3
akin 3
tene@@ 3
ises@@ 3
oso@@ 3
circumstan@@ 3
rann@@ 3
taka@@ 3
ucle@@ 3
tus@@ 3
ECH@@ 3
vious 3
teur@@ 3
poli@@ 3
.e@@ 3
ugoslavi@@ 3
oa 3
som@@ 3
llis@@ 3
dus@@ 3
PVC@@ 3
itt@@ 3
kus 3
ganis@@ 3
Af@@ 3
launder@@ 3
po 2
yt@@ 2
reh@@ 2
hill@@ 2
aste 2
erous 2
+ 2
Brit@@ 2
ku@@ 2
Fisher@@ 2
fell@@ 2
pis@@ 2
allis@@ 2
paran@@ 2
urs@@ 2
Span@@ 2
gin@@ 2
osta 2
tois@@ 2
äl@@ 2
ä 2
apua 2
syste@@ 2
usi 2
asian 2
alter@@ 2
onne 2
Mediterran@@ 2
heik@@ 2
ricul@@ 2
essa@@ 2
ë@@ 2
mol@@ 2
si 2
risti@@ 2
PS@@ 2
unti@@ 2
Mer@@ 2
basi@@ 2
dimen@@ 2
morator@@ 2
ckle 2
Emp@@ 2
pom@@ 2
tho@@ 2
flexi@@ 2
tu 2
instru@@ 2
rapid@@ 2
= 2
$ 2
ien 2
ppa@@ 2
onetary 2
fin 2
olen 2
ota@@ 2
mia 2
nais@@ 2
Ire@@ 2
ossa 2
â@@ 2
atte 2
itan 2
tit 2
jan@@ 2
figu@@ 2
Ener@@ 2
esi@@ 2
å 2
perio@@ 2
its@@ 2
lem 2
oma@@ 2
BS@@ 2
egal 2
teet@@ 2
ni 2
assa 2
icy 2
apos@@ 2
kan@@ 2
ope 2
oma 2
elin 2
uo@@ 1
villa 1
Byr@@ 1
vista 1
vern@@ 1
Cour@@ 1
ingdom 1
llu@@ 1
sib@@ 1
Cres@@ 1
itten 1
sten 1
solu@@ 1
ky@@ 1
tarv@@ 1
Ü@@ 1
Consum@@ 1
ollen 1
viour 1
ember 1
ei 1
ett@@ 1
Stock@@ 1
Poh@@ 1
sall@@ 1
ida 1
ú@@ 1
ette@@ 1
Mediter@@ 1
ove 1
mut@@ 1
Ira@@ 1
inste@@ 1
isy@@ 1
á 1
iture 1
usko 1
elle 1
other@@ 1
Luxemb@@ 1
astu@@ 1
Ï@@ 1
Fren@@ 1
maiden 1
esterday 1
zio 1
kon 1
ago@@ 1
alterna@@ 1
edon@@ 1
tote@@ 1
kra@@ 1
rapporte@@ 1
great@@ 1
yri@@ 1
å@@ 1
how@@ 1
alla 1
alan 1
kis@@ 1
activ@@ 1
Ý@@ 1
É 1
koh@@ 1
mi 1
kou@@ 1
aat@@ 1
orrow 1
Bull@@ 1
tul@@ 1
alle 1
actu@@ 1
ippu@@ 1
toon 1
À@@ 1
hun 1
ommun@@ 1
arz@@ 1
aa 1
lann@@ 1
Götebor@@ 1
osten 1
tron@@ 1
ansa 1
iso@@ 1
int@@ 1
Pub@@ 1
mme 1
viel@@ 1
tut@@ 1
utu@@ 1
ause 1
teen@@ 1
ogn@@ 1
congratu@@ 1
egu@@ 1
kö@@ 1
kenn@@ 1
NAT@@ 1
æ 1
aste@@ 1
usta@@ 1
kka 1
moot@@ 1
Ø@@ 1
ysten 1
toi@@ 1
nya 1
,5 1
asto@@ 1
º 1
pall@@ 1
genu@@ 1
kun@@ 1
Justi@@ 1
tee 1
Dev@@ 1
teli@@ 1
plann@@ 1
ø@@ 1
kot 1
through@@ 1
perus@@ 1
kam@@ 1
väl@@ 1
kom@@ 1
firs@@ 1
itur@@ 1
rans@@ 1
mien 1
codec@@ 1
Ge@@ 1
ampi 1
implem@@ 1
isin 1
ottom@@ 1
kal@@ 1
usta 1
Dani@@ 1
omme 1
ville 1
Commis@@ 1
void@@ 1
pite@@ 1
elop@@ 1
vana 1
ark@@ 1
Tre@@ 1
copy@@ 1
oin 1
oda 1
nell@@ 1
