, 684395
. 496557
ja 328769
on 285375
että 159377
ei 65337
Euroopan 60961
@-@ 54337
- 52249
ista 50360
in 48002
myös 45475
se 42724
ovat 41973
komission 37355
ole 36522
arvoisa 36207
sen 35979
en 34426
i 32508
joka 31364
tämä 31215
a 30397
is@@ 29884
inen 29841
puhemies 29638
jotka 28375
ta@@ 27903
siitä 26598
meidän 26502
jäsen 26406
mutta 25318
parlamentin 24885
a@@ 24568
an 23451
e@@ 23312
sitä 23172
tämän 23152
kuin 22565
nyt 22122
tai 21832
olisi 21765
sekä 21550
o@@ 21528
issa 21275
i@@ 21085
emme 21035
isen 20864
kun 19950
unionin 19846
ä 19559
) 19308
( 19223
vat 19117
tu@@ 18911
isiin 18889
istä 18813
ta 18812
in@@ 18786
taan 18755
kuitenkin 18731
jos 18692
et 18580
ti@@ 18568
komissio 18543
? 18300
&quot; 18229
neet 18201
maan 18068
kanssa 17903
kuten 17648
: 17473
ne 17202
voi 17065
olen 17016
aan 16978
olemme 16954
k@@ 16924
een 16668
en@@ 16352
isia 16323
koska 16201
an@@ 16153
te@@ 16062
iden 15974
isten 15966
kin 15885
u@@ 15715
neuvoston 15646
t 15624
tässä 15508
al@@ 15424
es@@ 15379
ko@@ 15288
ita 15205
ka@@ 15134
asta 15116
s@@ 15100
u 15016
la@@ 15005
niin 14832
jonka 14822
jo 14801
assa 14787
hyvin 14610
ille 14546
to@@ 14386
vain 14298
j@@ 14265
pää@@ 14240
minen 14030
sillä 13903
oli 13893
isesti 13842
it@@ 13796
taa 13696
im@@ 13593
ä@@ 13565
haluan 13531
n@@ 13504
t@@ 13476
y@@ 13439
lle 13407
kaikki 13358
jen 13326
ik@@ 13278
mme 13094
s 12997
tätä 12634
vielä 12595
eivät 12542
o 12502
iset 12383
ia 12262
as@@ 12228
vaan 12177
n 12173
sa@@ 12083
mitä 12064
si@@ 12043
isi 12042
jotta 11947
van 11938
os@@ 11930
us@@ 11927
ku@@ 11869
näin 11862
em@@ 11846
ihin 11835
at 11749
mielestäni 11715
olla 11611
siihen 11592
jossa 11587
me 11574
niiden 11552
voidaan 11508
erittäin 11497
h@@ 11408
ti 11317
ki@@ 11271
mista 11119
vaa 11050
esta 11047
ma@@ 10969
joita 10940
lisäksi 10836
tästä 10799
vien 10720
ne@@ 10598
vuoksi 10557
haluaisin 10542
et@@ 10499
lla 10487
llä 10474
vi@@ 10408
illa 10343
ha@@ 10310
essa 10304
on@@ 10219
EU:n 10192
ut 10191
aa 10190
val@@ 10189
tä@@ 10167
mukaan 10138
er@@ 10057
hän 10028
tä 10025
il@@ 9980
erityisesti 9959
tällä 9921
tään 9911
v@@ 9907
alla 9880
to 9879
parlamentti 9855
/ 9790
e 9756
ksi 9752
li@@ 9728
ke@@ 9676
tta@@ 9606
vät 9592
vuoden 9575
alle 9558
perus@@ 9558
eikä 9518
ennen 9494
iseen 9355
mis@@ 9318
ty@@ 9312
tähän 9214
va@@ 9153
yhteisön 9125
misen 9083
ettei 9079
jäsenvaltioiden 9073
siksi 9039
ra@@ 9033
työ@@ 9009
epä@@ 8992
paljon 8984
ina 8976
r@@ 8963
joiden 8939
via 8883
jota 8864
vaikka 8850
om@@ 8847
tää 8836
usta 8786
p@@ 8775
teen 8742
mieltä 8698
stä 8669
pitäisi 8601
var@@ 8594
ten 8589
ol@@ 8582
nämä 8569
huomioon 8525
ksen 8463
ollut 8457
pa@@ 8456
itä 8447
puolesta 8392
K@@ 8362
vasta@@ 8355
tärkeää 8325
S@@ 8309
issä 8286
mu@@ 8220
määrä@@ 8171
ks@@ 8136
m@@ 8122
asti 8106
uu@@ 8062
mistä 8010
niitä 7981
el@@ 7981
neuvosto 7960
tettava 7913
tel@@ 7900
ja@@ 7833
jälkeen 7825
tehdä 7807
he 7777
re@@ 7771
vä@@ 7713
tetaan 7687
isiä 7665
imme 7652
än 7619
pan@@ 7592
siinä 7466
täysin 7450
l@@ 7406
itta@@ 7406
mikä 7369
vuonna 7345
lu@@ 7325
toa 7273
men@@ 7270
va 7266
ar@@ 7260
koko 7257
hyvät 7225
jo@@ 7181
kaan 7146
tiin 7144
Eurooppa 7120
puol@@ 7106
hänen 7102
ssä 7096
pitää 7094
E@@ 7069
ö@@ 7026
ll@@ 7022
eksi 7005
kä@@ 6986
jäsenet 6975
viime 6965
ase@@ 6960
siis 6954
miseen 6946
amme 6944
ehdo@@ 6909
toim@@ 6905
T@@ 6901
asia 6898
vastaan 6870
itse 6868
miten 6845
llis@@ 6772
sitten 6736
voimme 6735
jä@@ 6716
uuden 6716
toimia 6685
M@@ 6666
all@@ 6665
kan@@ 6641
anta@@ 6611
yhteydessä 6589
elle 6568
juuri 6535
saa 6514
puheenjohtaja 6511
eri 6481
d@@ 6468
asiassa 6449
esimerkiksi 6439
mon@@ 6438
pal@@ 6434
kyse 6431
osta 6425
toimi@@ 6405
isesta 6399
meillä 6388
näiden 6388
enn@@ 6367
valiokunnan 6335
un@@ 6329
kiel@@ 6324
antaa 6288
kseen 6249
politiikan 6232
ena 6227
ien 6187
toja 6186
edelleen 6185
tö@@ 6171
A@@ 6170
ais@@ 6163
van@@ 6150
us 6147
man 6132
istu@@ 6122
B@@ 6084
tamme 6083
kaikkien 6073
aivan 6058
sa 6052
tava 6044
tojen 6044
ri@@ 6043
am@@ 6033
ittä@@ 6030
ko 6030
jien 6010
kka@@ 6003
heidän 5991
kään 5977
koskevan 5971
tamista 5971
ttava 5948
enemmän 5936
yksi 5933
ään 5895
ksi@@ 5875
joilla 5841
utu@@ 5832
puhu@@ 5823
P@@ 5814
se@@ 5807
tan 5785
tusta 5780
alalla 5770
-@@ 5769
maiden 5748
mien 5742
eseen 5739
laaj@@ 5725
mi@@ 5717
jat 5717
esittelijä 5686
lisä@@ 5681
mietinnön 5678
lopuksi 5677
tin 5670
per@@ 5667
tämään 5654
ää@@ 5651
ossa 5648
tävät 5633
ella 5624
aikana 5622
käy@@ 5617
ksiin 5566
unioni 5559
yt@@ 5556
id@@ 5536
yh@@ 5536
tänään 5531
ittaa 5522
avulla 5511
jolla 5494
eni 5463
tettu 5437
ainoastaan 5420
kannalta 5408
tus@@ 5401
au@@ 5377
koskee 5366
hyväksy@@ 5365
oltava 5345
toivon 5330
ver@@ 5326
ensa 5322
essä 5309
arvio@@ 5293
ottaa 5289
ite@@ 5277
iv@@ 5270
mitään 5270
valta@@ 5268
pääs@@ 5265
te 5251
ker@@ 5244
aja@@ 5244
sy@@ 5233
kysymys 5207
osalta 5204
le@@ 5194
koskevat 5186
y 5185
vasta 5167
mat 5166
alue@@ 5165
hyvä 5164
ympäristö@@ 5137
tyä 5128
isille 5122
kau@@ 5111
voivat 5108
iin 5097
kansalais@@ 5088
yhteis@@ 5083
ksia 5077
estä 5071
tetään 5057
tu 5054
uutta 5042
osa 5035
alan 5034
joissa 5028
asiasta 5019
mukaisesti 5017
aina 5006
; 4988
johta@@ 4979
tua 4977
kes@@ 4958
tapa@@ 4938
mietinnössä 4935
osallistu@@ 4934
uksia 4931
kuitenkaan 4929
ee 4925
sano@@ 4922
luo@@ 4919
samaa 4909
muu@@ 4897
nyky@@ 4889
vo@@ 4883
tapahtu@@ 4879
san@@ 4875
nä@@ 4874
inn@@ 4873
ilta 4872
misesta 4868
kiittää 4856
jä 4855
tehtävä 4853
minun 4852
kaa 4834
siir@@ 4831
ttaa 4821
teitä 4820
liitty@@ 4815
tulee 4810
malla 4804
nä 4802
hyväksyä 4801
tapauksessa 4795
tärkeä 4792
sanoa 4770
so@@ 4767
seuraa@@ 4765
2001 4764
ro@@ 4761
tois@@ 4759
pel@@ 4753
sopimuksen 4738
kuu@@ 4727
uh@@ 4725
viin 4719
un 4710
pi@@ 4705
kansalaisten 4701
op@@ 4700
ellä 4696
jan 4695
ilman 4692
vahvis@@ 4689
meille 4687
hd@@ 4683
kaikkia 4683
nn@@ 4681
na@@ 4674
jäsen@@ 4672
pu@@ 4664
itu@@ 4664
saada 4661
tettiin 4660
tia 4655
voim@@ 4646
kset 4642
sel@@ 4639
ell@@ 4633
ih@@ 4630
:@@ 4620
ken@@ 4616
tien 4612
samalla 4600
tettävä 4598
isin 4596
sisä@@ 4576
at@@ 4575
ansa 4573
ton 4572
kirj@@ 4571
ki 4556
yleis@@ 4554
ir@@ 4538
den 4531
mään 4523
ma 4523
ollen 4521
eli 4503
kaksi 4501
tarpe@@ 4500
haluamme 4499
asiaa 4498
edis@@ 4494
ul@@ 4483
näitä 4462
toinen 4462
aikaan 4461
ämme 4458
ys@@ 4456
ty 4455
ihmis@@ 4450
rajo@@ 4449
otta@@ 4441
todella 4439
po@@ 4437
tta 4436
itse@@ 4425
arvo@@ 4420
mietintö 4419
aal@@ 4405
2@@ 4385
onnistu@@ 4382
miseksi 4375
lo@@ 4369
utta@@ 4366
ole@@ 4363
parlamentissa 4357
ris@@ 4329
jäsenvaltiot 4327
isessa 4327
or@@ 4323
maan@@ 4319
it 4319
toteutta@@ 4314
ajan 4311
ky@@ 4303
tekem@@ 4300
kuinka 4299
tukea 4296
hu@@ 4274
yn 4269
käsittel@@ 4267
maa 4264
he@@ 4258
kaikkea 4251
täällä 4249
tieto@@ 4248
ään@@ 4245
tänyt 4238
tuom@@ 4235
prosenttia 4229
tuo@@ 4227
mä@@ 4227
asioiden 4225
no@@ 4225
asian 4220
esittää 4215
tuksen 4214
siten 4210
I@@ 4203
vuo@@ 4197
teh@@ 4182
yhtä 4165
turvallisuus@@ 4162
kann@@ 4157
H@@ 4147
yhä 4140
G@@ 4133
tilanne 4131
R@@ 4125
hä@@ 4115
kollegat 4110
nut 4102
miä 4101
masta 4099
maks@@ 4093
muiden 4088
pien@@ 4088
niistä 4087
su@@ 4080
hetkellä 4079
miel@@ 4077
F@@ 4073
tietenkin 4068
vasti 4066
käyttää 4066
teille 4062
2002 4062
tar@@ 4046
massa 4040
järjes@@ 4020
ian 4018
ystä 3996
si 3991
C@@ 3990
Arvoisa 3989
alo@@ 3974
ni@@ 3969
tur@@ 3966
ittää 3960
tävä 3960
uus@@ 3955
toiminta@@ 3945
tämistä 3944
jopa 3943
direktiivin 3926
ehdotuksen 3916
aj@@ 3914
ryhmän 3913
Euroopassa 3907
merk@@ 3905
me@@ 3897
käyt@@ 3897
koskeva 3881
main@@ 3881
par@@ 3880
itte@@ 3880
pitä@@ 3877
voida 3876
otetaan 3874
enää 3872
yt 3850
ittava 3846
kos@@ 3833
täminen 3826
ill@@ 3821
hi@@ 3819
liian 3814
b@@ 3809
iä 3804
ön 3802
olevan 3801
politiikkaa 3800
1 3799
yhdessä 3783
uudistu@@ 3781
laati@@ 3777
mia 3776
min 3771
vän 3766
ilma@@ 3763
joista 3761
väl@@ 3758
kohd@@ 3755
varten 3753
talous@@ 3753
tunut 3752
välillä 3749
g@@ 3748
tul@@ 3739
ann@@ 3737
tavalla 3736
oso@@ 3735
mahdollisimman 3734
keske@@ 3730
D@@ 3722
peruste@@ 3717
perustusla@@ 3716
vapa@@ 3715
saa@@ 3709
N@@ 3705
vaar@@ 3705
keskustel@@ 3700
vaka@@ 3696
isestä 3682
2 3680
mo@@ 3677
jou@@ 3675
ratkais@@ 3669
ivat 3668
tiet@@ 3666
selv@@ 3664
käyttöön 3663
paik@@ 3655
2003 3653
V@@ 3646
ito@@ 3639
oikeus@@ 3628
kerran 3624
illä 3608
hen@@ 3596
pyy@@ 3590
keskustelu 3590
perusteella 3577
yhteisen 3577
L@@ 3574
edusta@@ 3573
toivo@@ 3559
mahdollis@@ 3558
3 3556
! 3555
josta 3536
tunn@@ 3531
inä 3527
kuulu@@ 3525
onko 3524
tulo@@ 3522
itte 3519
ou@@ 3510
monet 3509
etu@@ 3502
vuotta 3497
uun 3467
täy@@ 3465
suojel@@ 3456
tila@@ 3452
yhteistyötä 3450
llisesti 3449
todellakin 3449
kansan@@ 3447
rik@@ 3447
vastuu@@ 3446
tunnus@@ 3438
tun@@ 3437
ka 3435
nim@@ 3416
kautta 3414
miksi 3412
poliitt@@ 3408
lä@@ 3406
tavoin 3404
har@@ 3403
voin 3398
ehdotus 3388
vaike@@ 3386
sä 3385
tule@@ 3385
naisten 3385
kuussa 3384
ista@@ 3381
vir@@ 3380
tan@@ 3380
mahdollista 3377
turva@@ 3376
toon 3376
saan 3376
ed@@ 3370
vähen@@ 3370
ten@@ 3368
suos@@ 3367
voitaisiin 3364
huom@@ 3358
raken@@ 3354
uudelleen 3347
neen 3341
huol@@ 3341
mer@@ 3340
jälleen 3337
tynyt 3335
isessä 3328
kumppan@@ 3324
järjestelmän 3319
mall@@ 3312
selvästi 3304
tus 3301
itsem@@ 3298
unionissa 3292
iksi 3290
ellis@@ 3290
johon 3281
asioita 3279
tavoitte@@ 3279
ensinnäkin 3278
aihe@@ 3276
kehitys@@ 3274
usten 3271
tarjo@@ 3260
tarvitaan 3255
rahoitus@@ 3254
jaa 3252
voisi 3241
oikeu@@ 3240
ensä 3237
6@@ 3235
miin 3233
ava@@ 3232
laad@@ 3231
oikeus 3228
minusta 3227
alueen 3224
valtioiden 3220
tön 3211
säännö@@ 3210
suor@@ 3208
korva@@ 3202
olemassa 3198
jää@@ 3191
esiin 3187
ut@@ 3186
tanut 3185
toisin 3178
iseksi 3176
julk@@ 3175
huolimatta 3174
näkö@@ 3165
isuu@@ 3164
J@@ 3163
pä@@ 3161
suur@@ 3156
uo@@ 3148
tis@@ 3147
puheenjohtajavaltio 3147
sille 3141
usein 3138
henkilö@@ 3129
halu@@ 3128
O@@ 3123
oike@@ 3115
ili@@ 3114
0@@ 3113
ani 3113
5@@ 3110
viime@@ 3108
uusia 3107
yty@@ 3106
Yhdysvaltojen 3106
tetty 3104
alis@@ 3104
maailman 3103
män 3099
tö 3093
ana 3089
toiseksi 3088
arvos@@ 3086
lisää@@ 3082
ongelmia 3080
yhte@@ 3079
tärke@@ 3079
aikaa 3064
eet 3057
suuri 3057
ent@@ 3057
tekn@@ 3046
käs@@ 3039
tie@@ 3038
kon@@ 3037
eh@@ 3036
työtä 3036
isi@@ 3021
sall@@ 3021
man@@ 3020
kia 3014
:n 3014
kuuta 3011
varo@@ 3011
kohtaan 3004
vä 3001
toimiin 3000
valitettavasti 2997
etenkin 2994
sia 2993
emaan 2984
kar@@ 2981
silloin 2978
komissiota 2977
llinen 2975
las@@ 2975
syystä 2974
määrä 2974
selke@@ 2971
onn@@ 2970
tyy 2969
erityisen 2966
muka@@ 2965
aa@@ 2964
usta@@ 2964
yli 2964
koh@@ 2956
ot 2956
välis@@ 2952
nimittäin 2947
korostaa 2945
ter@@ 2944
isista 2943
meitä 2941
uskon 2938
otettava 2926
llisen 2921
pysty@@ 2919
vaih@@ 2918
osin 2918
kem@@ 2917
tor@@ 2912
hyödy@@ 2908
kalastus@@ 2907
ita@@ 2907
ää 2907
vassa 2906
selvää 2905
jia 2904
ys 2902
alu@@ 2896
erityis@@ 2894
2000 2892
päät@@ 2891
uus 2884
keh@@ 2884
alta 2880
huomiota 2877
ve@@ 2870
näistä 2869
ussa 2867
tutkim@@ 2867
min@@ 2865
enne 2860
tamisen 2851
valtio@@ 2850
sovel@@ 2850
töä 2849
suhte@@ 2848
inkin 2845
uksen 2843
z@@ 2842
valmis@@ 2842
yritysten 2841
hal@@ 2838
demokraatt@@ 2837
muuto@@ 2834
han 2833
seura@@ 2829
mennessä 2828
liittyvät 2828
onkin 2824
jatku@@ 2819
ho@@ 2819
ton@@ 2818
alueella 2816
sisäl@@ 2815
osoitta@@ 2811
pidet@@ 2811
talou@@ 2809
entistä 2807
tote@@ 2807
7 2803
alais@@ 2802
ot@@ 2802
akseen 2802
EU 2801
tarkistu@@ 2798
vas@@ 2797
pidä 2797
missä 2796
puheenjohtaja@@ 2793
asianmuka@@ 2793
saavu@@ 2786
vero@@ 2786
tuks@@ 2784
maissa 2784
alueiden 2784
täneet 2782
my@@ 2779
valiokunta 2773
pois@@ 2772
pit@@ 2772
muita 2771
4 2770
yhteisö@@ 2770
ala@@ 2766
maatalous@@ 2765
parlamentille 2762
esit@@ 2759
kke@@ 2759
koskevia 2757
esittä@@ 2754
äänes@@ 2754
kulutta@@ 2754
� 2753
vaikuttaa 2752
tiedämme 2752
myön@@ 2747
nope@@ 2747
ongelma 2741
ensimmäinen 2739
kyse@@ 2738
täytyy 2736
osoittaa 2735
huomau@@ 2735
tet@@ 2734
ohjelman 2734
liittyy 2727
köyh@@ 2725
pien 2724
iko@@ 2722
ilmo@@ 2721
8 2721
avoim@@ 2718
suunnitel@@ 2712
kansall@@ 2712
kk@@ 2709
kans@@ 2708
jäsenten 2702
delle 2702
liikku@@ 2701
ukset 2698
pako@@ 2696
oikeuksien 2695
aiheutta@@ 2692
6 2691
seik@@ 2690
attom@@ 2689
oll@@ 2685
asu@@ 2682
desta 2682
etta@@ 2678
viä 2665
ittel@@ 2662
mahdollisuus 2658
järjestelmä@@ 2657
valtion 2655
tarkistuksia 2653
5 2652
tamiseen 2646
isivat 2645
tamisesta 2643
ehdotuksia 2639
tarkoituksena 2637
mietintöä 2634
pelkästään 2632
kor@@ 2630
ihmisten 2628
kertom@@ 2627
enä 2624
edisty@@ 2624
myöskään 2620
tasolla 2619
tänä 2618
ksista 2617
syytä 2612
lopu@@ 2606
kas@@ 2605
ur@@ 2603
esti 2603
avat 2601
ville 2600
ehdotusta 2596
joitakin 2592
teidän 2586
7@@ 2586
varmasti 2584
kki@@ 2583
tarko@@ 2583
elä@@ 2582
ksiä 2582
vastaa@@ 2581
jäsenvaltioissa 2579
joihin 2575
3@@ 2574
kala@@ 2565
til@@ 2564
mielestämme 2563
tehokka@@ 2561
miljoonaa 2561
toisaalta 2557
pysy@@ 2555
korke@@ 2555
määri@@ 2553
tämme 2552
tavoitteena 2546
muun 2545
2004 2545
tulevaisuudessa 2536
ryh@@ 2533
ymmär@@ 2531
kuuluu 2529
ehdotuks@@ 2528
näkem@@ 2527
kalta@@ 2526
keskustelun 2519
sopimus 2514
sta 2513
tehtävä@@ 2511
tte@@ 2510
koskevaa 2508
aat@@ 2508
paino@@ 2506
muutta@@ 2503
niihin 2501
rauhan@@ 2499
yyttä 2497
tävä@@ 2495
uksista 2489
uusi 2488
nsä 2488
etta 2487
odo@@ 2487
di@@ 2486
mietinnö@@ 2484
9 2483
io@@ 2482
YK:n 2481
kais@@ 2479
kaik@@ 2479
elin@@ 2475
itetaan 2473
ihmisoikeus@@ 2472
yks@@ 2471
tella 2469
ohjel@@ 2469
isilla 2468
tuotta@@ 2467
ak@@ 2466
terroris@@ 2465
use@@ 2463
4@@ 2462
de@@ 2461
halua 2458
ua 2457
kö 2456
järjestelmä 2456
aika 2454
syy@@ 2452
terrorismin 2450
kansalaiset 2449
yl@@ 2449
kansainvälisen 2449
saavutta@@ 2446
euroa 2444
W@@ 2441
asiaan 2440
oman 2439
iltä 2438
ehkä 2437
kollego@@ 2436
ras@@ 2432
aisen 2431
pe@@ 2430
koskevien 2429
tuho@@ 2428
tehnyt 2427
jäsenvaltio@@ 2425
talouden 2423
aik@@ 2422
muut 2419
tais@@ 2417
tied@@ 2417
tark@@ 2411
kutsu@@ 2407
budjetti@@ 2407
hyvä@@ 2406
kul@@ 2406
uudesta 2404
keskustelu@@ 2403
aloitte@@ 2403
nopeasti 2402
sop@@ 2400
artiklan 2399
yhdis@@ 2398
osta@@ 2397
menettely@@ 2394
oikein 2390
kysymyksiä 2390
amaan 2388
jät@@ 2386
inno@@ 2384
teiden 2382
jät 2381
maailmanlaaju@@ 2381
tosi@@ 2381
kuun 2380
lainsäädännön 2380
kunnio@@ 2379
yrity@@ 2379
kunn@@ 2378
sten 2378
dessa 2377
edistää 2375
saattaa 2374
hin@@ 2374
kiitän 2373
8@@ 2369
koja 2366
misestä 2366
liik@@ 2365
vaiku@@ 2362
sov@@ 2360
välisen 2357
kaikille 2356
ero@@ 2353
toimielinten 2352
todeta 2350
minkä 2348
perustamis@@ 2348
ity@@ 2347
koulu@@ 2346
isuuden 2346
päivä@@ 2342
vaati@@ 2339
tin@@ 2339
asian@@ 2337
ati@@ 2337
ud@@ 2336
keskustelua 2334
lainsäädäntö@@ 2333
luom@@ 2332
loppu@@ 2332
paitsi 2326
enkin 2324
lap@@ 2323
joten 2321
anne 2321
kehitty@@ 2320
pyritään 2319
eri@@ 2318
turvallisuuden 2317
olivat 2316
ksien 2316
hallituksen 2315
elta 2315
oa 2314
läh@@ 2312
inti@@ 2309
kehityksen 2309
kokou@@ 2308
periaatte@@ 2308
tarkastel@@ 2307
tämä@@ 2306
markkinoiden 2306
Venäjän 2305
jäsenen 2304
suhtautu@@ 2303
essaan 2300
ap@@ 2300
koti@@ 2298
jille 2295
matta 2292
pian 2288
kannatta@@ 2287
riko@@ 2285
aika@@ 2281
erila@@ 2281
mietinnöstä 2280
tarkoittaa 2280
kokonais@@ 2280
toimet 2277
hallin@@ 2277
esitet@@ 2271
Turkin 2271
politiikka 2271
tarkas@@ 2268
keho@@ 2267
olette 2264
lop@@ 2262
9@@ 2260
töjen 2260
ttom@@ 2257
toimien 2256
vaihtoeh@@ 2256
konflik@@ 2255
koskaan 2255
ven@@ 2254
minä 2253
varmistaa 2252
vapautta@@ 2251
täytäntöönpan@@ 2250
hallitus 2249
jolloin 2249
joutu@@ 2246
menetel@@ 2242
tom@@ 2241
samoin 2238
ihmisoikeuksien 2236
katso@@ 2232
itettava 2230
kri@@ 2228
puu@@ 2227
ansiosta 2226
vista 2224
asi@@ 2224
tuen 2219
kärsi@@ 2218
pyydän 2218
tävää 2218
jää 2217
toiminnan 2217
ev@@ 2216
poliittinen 2214
kohta 2213
tämällä 2213
töön 2210
ryhmäni 2208
kol@@ 2208
ehdotta@@ 2208
muut@@ 2207
tuksia 2207
ettava 2204
kin@@ 2202
tarkoitus 2200
sää@@ 2198
äni 2197
jat@@ 2196
eurooppalaisen 2195
monia 2192
tasa 2192
isuutta 2190
määritel@@ 2188
kolme 2186
oikeuden 2184
taminen 2181
hall@@ 2179
tyytyväinen 2177
kseni 2175
tämiseksi 2174
osten 2171
ellisen 2168
sanoen 2168
muuta 2166
tuotan@@ 2166
euro@@ 2165
av@@ 2163
yttä 2163
tulevaisuu@@ 2163
tusten 2162
uudis@@ 2160
yy@@ 2159
tetta@@ 2158
kohdistu@@ 2158
tamiseksi 2155
töjä 2152
yle@@ 2152
unioniin 2151
toiv@@ 2150
neuvostossa 2149
ittu 2148
poikke@@ 2148
parha@@ 2148
kiinn@@ 2147
vastus@@ 2144
tti 2144
sijaan 2144
toista 2140
tilannetta 2137
paremmin 2135
taas 2135
tavat 2133
aiset 2133
sosiaal@@ 2132
uuteen 2128
kulu@@ 2127
ydin@@ 2127
valiokunnassa 2126
hallinno@@ 2125
iti@@ 2123
yhtenä@@ 2122
uusien 2122
hieman 2121
talousarvion 2121
oikeuksia 2120
toimielim@@ 2116
valtaa 2116
varoja 2114
mattom@@ 2111
tensa 2110
valvonta@@ 2110
yhteen@@ 2109
ihmiset 2109
ike@@ 2109
tärkeitä 2106
piir@@ 2106
ves@@ 2105
pid@@ 2104
toteuttaa 2103
vaiheessa 2103
useita 2102
f@@ 2101
johtaa 2101
temme 2101
edus@@ 2100
sään@@ 2099
haluaa 2099
esille 2098
kokem@@ 2097
es 2094
poh@@ 2094
asia@@ 2094
eli@@ 2094
itti 2092
minulla 2090
ette 2090
täytäntöön 2088
maat 2088
huon@@ 2087
pys@@ 2086
tekee 2085
kaiken 2082
ainakin 2082
ali@@ 2082
lisää 2081
än@@ 2080
palvelujen 2079
lausun@@ 2079
keskus@@ 2077
kysymyksen 2075
noudatta@@ 2073
oma@@ 2071
valta 2070
tau@@ 2070
annetaan 2069
kasva@@ 2068
jul@@ 2067
muo@@ 2067
aisten 2066
han@@ 2066
ttu 2063
,@@ 2063
olleet 2059
paran@@ 2059
vuutta 2058
oli@@ 2057
vaatimu@@ 2056
kulttuuri@@ 2054
auttaa 2052
asiat 2051
Irakin 2045
tehdään 2044
ryhmä 2043
kun@@ 2043
15 2042
tunte@@ 2041
uks@@ 2041
heik@@ 2040
yli@@ 2038
tele@@ 2036
kalas@@ 2035
ida 2034
tol@@ 2031
päätöks@@ 2028
edellyttää 2027
noin 2026
tutkimus@@ 2026
ttiin 2025
käsitellä 2024
tehty 2024
tarkistukset 2023
U@@ 2022
yhteistyö@@ 2022
isyy@@ 2018
lähet@@ 2017
aloilla 2015
tasapaino@@ 2015
muassa 2013
sien 2012
ino@@ 2010
vah@@ 2010
toimintaa 2010
paa 2008
tilanteen 2007
takia 2007
gi@@ 2005
järke@@ 2003
ilu@@ 2003
ellinen 2002
oikeudenmuka@@ 2001
isem@@ 2000
koordino@@ 1998
taso@@ 1997
sellais@@ 1996
kehitystä 1995
asem@@ 1994
kehittä@@ 1994
ing@@ 1989
kantaa 1988
merkittä@@ 1988
eurooppalais@@ 1986
yssä 1984
ettom@@ 1984
ityks@@ 1981
yksi@@ 1980
ituks@@ 1979
huomenna 1979
1@@ 1977
kahden 1977
heitä 1977
kauppa@@ 1977
poliittista 1976
ineet 1974
lähe@@ 1974
suo@@ 1972
tapahtuu 1969
tämisestä 1967
tarkistusta 1967
energi@@ 1967
poliittisen 1966
kompromis@@ 1963
sin 1959
innin 1959
komissiolle 1958
vara@@ 1958
tällainen 1958
tävän 1956
sti 1956
tivat 1954
pyrkim@@ 1954
kaikissa 1951
tarvitsemme 1951
kyllä 1950
lin@@ 1950
jousta@@ 1950
sopimukseen 1950
edell@@ 1949
viik@@ 1948
harjoitta@@ 1948
mat@@ 1943
toimin@@ 1943
klo 1939
määr@@ 1939
allinen 1937
sul@@ 1936
edes 1936
asioista 1935
siin 1935
intia 1935
ksemme 1934
tekemään 1934
alueilla 1934
ensi 1933
aminen 1932
yksittä@@ 1931
ettu 1930
puuttu@@ 1927
kansallisten 1927
mät 1927
kat@@ 1927
Lissabonin 1927
oikeutta 1926
lai@@ 1923
suunta@@ 1922
kilpailu@@ 1921
työllisyys@@ 1917
ityksen 1916
mas@@ 1915
kien 1915
sä@@ 1914
tyjen 1914
kansainvälis@@ 1913
aikais@@ 1913
yhteistyön 1912
neiden 1912
tarkis@@ 1911
politiik@@ 1911
viranomaisten 1910
tietoja 1909
onta 1909
käyttä@@ 1908
kyseessä 1908
puutte@@ 1907
lisätä 1905
suunn@@ 1905
työntekijöiden 1904
puolus@@ 1904
yhteinen 1902
tarvitta@@ 1902
taka@@ 1900
käynnis@@ 1899
kaup@@ 1897
kel@@ 1896
käsitellään 1895
mä 1895
asetuksen 1895
minulle 1894
tärkeä@@ 1892
is 1891
uksesta 1889
vuuden 1887
niille 1885
paikall@@ 1884
menesty@@ 1883
luku@@ 1882
liikenne@@ 1882
hyö@@ 1881
ettävä 1881
totesi 1880
aine@@ 1880
hyväksi 1879
kan 1878
ukseen 1876
kertaa 1876
tarkistuksen 1875
olev@@ 1874
valmistelu@@ 1874
din 1873
puolueen 1872
väline@@ 1870
yhden 1868
lainsäädäntöä 1867
ksesta 1865
her@@ 1864
mikäli 1863
kulje@@ 1863
itettu 1859
tiu@@ 1859
kysymystä 1857
koa 1857
tiä 1855
sanoi 1854
jatkaa 1852
käytännössä 1852
voima@@ 1847
ö 1846
palvelu@@ 1846
autta@@ 1845
aiemmin 1844
toisen 1844
hark@@ 1843
puite@@ 1836
liittyviä 1835
hankke@@ 1834
sil@@ 1833
neuvottelu@@ 1829
seuraavana 1828
kojen 1828
mahdollisuuksia 1827
mel@@ 1827
Israelin 1827
yksityis@@ 1826
presidentti 1825
itaan 1823
merkitsee 1822
ikä@@ 1821
iso@@ 1821
oh@@ 1820
yttävä 1818
tukem@@ 1816
lisäänty@@ 1815
haluavat 1815
kysymykseen 1814
kilpail@@ 1814
prosessin 1813
tah@@ 1813
ess@@ 1812
ag@@ 1811
A5 1811
sopimusta 1810
kohta@@ 1810
juu@@ 1810
ulko@@ 1808
usko@@ 1808
viis@@ 1807
tamaan 1807
tod@@ 1806
olo@@ 1805
sosiaali@@ 1804
saman@@ 1803
kysy@@ 1802
itus@@ 1802
selväksi 1801
misessa 1801
kulttuur@@ 1801
järjestelmää 1800
myy@@ 1796
vall@@ 1796
edellyty@@ 1796
demokratian 1796
varojen 1795
valtiot 1794
ostaa 1791
vai 1789
siellä 1788
kunnioitta@@ 1788
mielipite@@ 1787
inta 1787
vallan 1786
suurin 1786
tuu 1785
epäil@@ 1784
myönteisesti 1784
rakenn@@ 1784
päätökseen 1782
selkeästi 1782
toihin 1781
lan@@ 1781
hallitusten 1781
direktiivi@@ 1780
maksu@@ 1780
lis@@ 1780
hava@@ 1780
ata 1780
seur@@ 1779
terve@@ 1779
kaupan 1779
kannatan 1778
raho@@ 1778
näky@@ 1776
telu@@ 1774
isella 1773
tarpeen 1771
jäsenvaltion 1770
iloinen 1770
arvois@@ 1769
tarv@@ 1768
20 1768
valmistelukunnan 1768
vakuu@@ 1762
teks@@ 1761
esittelijän 1760
syrj@@ 1759
velvollisuu@@ 1758
ota 1758
järjestel@@ 1758
perustu@@ 1757
yys@@ 1757
täisiin 1755
viras@@ 1754
tuomioistuimen 1752
vis@@ 1751
50 1748
pyr@@ 1748
annettava 1747
pol@@ 1747
oikeudellis@@ 1745
tani 1745
vissa 1744
sääntöjä 1744
vää 1743
emään 1743
suoraan 1742
tietää 1742
kesk@@ 1740
yttää 1739
teet 1739
vähän 1738
tuksesta 1738
vel@@ 1736
isistä 1736
ensimmä@@ 1735
jatkuvasti 1734
maa@@ 1733
yttä@@ 1733
eurooppalaisten 1732
mur@@ 1730
äänestys 1730
ulottu@@ 1729
välinen 1728
neuvo@@ 1727
rangais@@ 1727
pidän 1726
kymmenen 1726
sitou@@ 1726
kier@@ 1725
todis@@ 1724
korja@@ 1723
tte 1723
ttu@@ 1722
rau@@ 1721
uudet 1721
torju@@ 1721
10 1720
päästä 1720
kanna@@ 1719
maailmassa 1718
lle@@ 1716
päivän 1716
keino@@ 1716
vahvistaa 1715
ainoa 1715
palvel@@ 1713
esityslistalla 1711
uttaa 1711
siltä 1711
ettiin 1710
rikos@@ 1705
koon 1704
perustuu 1704
lähes 1703
tehneet 1703
olevien 1702
kaikkein 1701
vuosina 1701
alaisten 1701
asioissa 1700
suu@@ 1699
pyyn@@ 1696
työn 1696
oikeudet 1695
000 1694
huomattavasti 1694
toteu@@ 1694
c@@ 1692
kuulem@@ 1689
isenä 1688
Espanjan 1687
ratkaisu 1687
direktiivi 1686
tuotte@@ 1686
välttämätöntä 1686
llisia 1685
nuor@@ 1684
rapor@@ 1684
merkittävä 1683
tos@@ 1683
alkuperä@@ 1682
tiedotus@@ 1682
oista 1680
erity@@ 1680
päätös 1679
aiheutu@@ 1677
sta@@ 1676
varsin 1676
kustann@@ 1675
myönnet@@ 1675
tety@@ 1674
kuul@@ 1673
työstä 1673
kon 1672
essään 1672
llisten 1670
saadaan 1670
isimme 1669
tukseen 1669
näihin 1668
parantaa 1668
sopimusten 1666
tavoitteet 1666
Y@@ 1664
tilanteessa 1663
llista 1662
kohdalla 1662
hyväksyi 1661
laajen@@ 1660
saanut 1659
koskevasta 1659
tavan 1659
puolue@@ 1657
syistä 1655
energia@@ 1653
muistu@@ 1652
synty@@ 1652
do@@ 1651
jäseniä 1651
ina@@ 1650
laajentumisen 1650
istun@@ 1649
teta 1649
ad@@ 1649
ät 1647
ansa@@ 1646
toimenpiteitä 1646
jatka@@ 1644
tapa 1643
parhaillaan 1643
tuotteiden 1643
kil@@ 1642
its@@ 1642
elintarvike@@ 1641
aluksi 1641
sellaisen 1639
kal@@ 1639
päätöslausel@@ 1639
aineiden 1639
parlamenttia 1637
empia 1637
tukset 1637
tavoite 1637
aihe 1635
inti 1635
tämän@@ 1634
vaal@@ 1634
aati@@ 1631
viitta@@ 1630
kansalaisille 1627
mielessä 1627
osan 1626
kohdan 1625
niissä 1625
meistä 1624
ante@@ 1624
jaan 1624
keskitty@@ 1624
je@@ 1624
opim@@ 1623
ksissa 1623
tää@@ 1622
teollisuu@@ 1622
puhua 1622
00@@ 1621
työllis@@ 1621
yhteistä 1621
keskustelussa 1619
ryhmä@@ 1618
ei@@ 1618
kehity@@ 1617
jan@@ 1615
tilanteesta 1615
pik@@ 1614
uksiin 1614
pos@@ 1614
ottaen 1614
kohti 1614
viranoma@@ 1613
luettel@@ 1613
luonnollisesti 1612
virall@@ 1612
turvallisuutta 1612
näyttää 1611
ituksia 1611
valtu@@ 1611
nor@@ 1610
nne 1608
luoda 1608
vuoteen 1608
sellaisten 1607
tämiseen 1607
aikoo 1606
keski@@ 1605
käytetään 1605
puolustus@@ 1605
kokouksessa 1603
euron 1603
ittu@@ 1603
minister@@ 1599
ihmisiä 1596
tell@@ 1596
riittä@@ 1594
puhe@@ 1593
poliittisten 1592
ente@@ 1591
tällais@@ 1590
korosta@@ 1590
vähemmän 1589
haaste@@ 1589
saavat 1587
käytä@@ 1586
della 1583
päättää 1583
19@@ 1582
tas@@ 1582
ku 1581
lähtö@@ 1581
laajentu@@ 1577
lliset 1576
ju@@ 1574
mieh@@ 1573
tietoa 1573
hta@@ 1572
sitoutu@@ 1572
omais@@ 1571
yö@@ 1568
tietojen 1568
totta 1568
ammin 1567
mielestä 1567
välistä 1566
toiminta 1566
osallistua 1565
perhe@@ 1564
utta 1563
nimenomaan 1562
Mar@@ 1562
ongel@@ 1561
näissä 1561
pet@@ 1561
vaad@@ 1559
aiko@@ 1559
tal@@ 1558
yhteen 1557
muuta@@ 1556
mi 1555
päte@@ 1555
ellisesti 1554
johd@@ 1553
ett@@ 1552
hyväksyt@@ 1552
kko@@ 1552
olin 1550
valmi@@ 1549
isuus 1548
help@@ 1546
minua 1542
tyjä 1542
ellista 1542
eteenpäin 1541
ksestä 1540
käytän@@ 1540
Yhdysvallat 1539
koskevassa 1538
osa@@ 1536
paranta@@ 1536
eläinten 1535
katta@@ 1534
päätel@@ 1534
aksi 1533
jäsentä 1533
viera@@ 1532
täyt@@ 1531
sitoumu@@ 1531
tehd@@ 1530
lainsäädännö@@ 1530
ongelmat 1530
tiiv@@ 1529
säilyt@@ 1528
äänesty@@ 1525
päätöksen 1525
apua 1522
käsit@@ 1521
het@@ 1519
kannattaa 1519
ain@@ 1519
yr@@ 1517
voisimme 1516
llisuu@@ 1516
sähkö@@ 1516
detään 1514
tullut 1514
lento@@ 1514
yhteiskunnan 1514
kaupun@@ 1513
tämisen 1512
mainit@@ 1512
mahdollisuuden 1511
verta@@ 1511
rin@@ 1509
kum@@ 1508
Irlannin 1508
Lähi 1507
vastaa 1506
ket@@ 1504
myönte@@ 1504
tamis@@ 1503
pitkä@@ 1503
emiseksi 1501
tuke@@ 1501
jotkut 1500
tämättä 1500
missa 1498
iselle 1497
yleisesti 1497
yys 1497
taloudellis@@ 1497
25 1497
inut 1496
strateg@@ 1496
huomio@@ 1496
llistä 1495
jälj@@ 1495
eltä 1495
muistuttaa 1493
maail@@ 1493
tällaista 1493
tasa@@ 1491
muodos@@ 1488
onnitella 1487
vaikutuksia 1487
askel 1486
vaikea 1485
organis@@ 1484
tason 1483
Ira@@ 1483
kahd@@ 1482
kesä@@ 1481
att@@ 1480
eläin@@ 1478
neuvostolle 1477
olevat 1477
käytet@@ 1475
vaikutta@@ 1475
kymmen@@ 1475
l 1473
ympäristön 1473
yhdenty@@ 1471
elämä@@ 1470
sata@@ 1470
vuus 1469
täyty@@ 1466
päätöslauselman 1466
kim@@ 1466
timme 1465
eja 1465
piä 1464
komite@@ 1464
tavoitteita 1464
kannan 1462
saavuttaa 1462
tulisi 1462
joh@@ 1461
vähä@@ 1461
Eurooppaa 1458
ikin 1458
kauan 1457
jäsenvaltioita 1457
yksiä 1457
tävien 1456
istaan 1456
järjestöjen 1456
vana 1456
toivomme 1454
käy 1454
menettelyn 1453
saaneet 1453
nou@@ 1452
estää 1452
vastata 1450
päätöksiä 1450
johdonmuka@@ 1448
oiden 1447
määrin 1447
toteutu@@ 1447
alaiset 1447
EU:@@ 1445
yritykset 1444
sani 1444
mietin@@ 1443
myötä 1443
kanta 1443
saatava 1443
riippumattom@@ 1442
usi 1441
tun 1440
oon 1440
isena 1440
päivänä 1440
ratifio@@ 1440
ohjelma 1439
päättynyt 1439
emmin 1438
valtion@@ 1437
niillä 1437
ehkäis@@ 1437
yhteiskun@@ 1436
pikemminkin 1436
vuosi 1434
eto@@ 1432
esiin@@ 1432
yrittä@@ 1431
helpo@@ 1431
terveys@@ 1430
tanne 1430
turvall@@ 1430
kunta 1430
00 1429
perustel@@ 1429
mukana 1428
kiinnos@@ 1428
sääntöjen 1428
solidaar@@ 1427
yksityiskohta@@ 1427
tyvät 1427
tettua 1427
käsitel@@ 1426
Ranskan 1426
syrjä@@ 1426
ilmi 1425
taan@@ 1424
vapauden 1424
luonno@@ 1423
mällä 1422
demokrati@@ 1422
valvo@@ 1420
miljoon@@ 1420
asetta@@ 1419
yksity@@ 1419
koro@@ 1418
esimer@@ 1418
elim@@ 1418
markkina@@ 1417
vuosi@@ 1417
ensin 1416
ine@@ 1416
näkemyks@@ 1416
nnö@@ 1415
käytön 1415
aisesti 1415
onin 1415
vakavasti 1414
mainita 1414
tiedätte 1413
miesten 1413
huomatta@@ 1413
isissa 1413
aste@@ 1413
eurooppalaista 1413
suuria 1413
omaan 1412
tehokkaasti 1412
eurooppalainen 1412
é@@ 1412
maassa 1411
valiokun@@ 1411
ehdotuksesta 1411
menettel@@ 1410
myöhemmin 1409
noudat@@ 1408
asema 1408
väli@@ 1407
udet 1407
pidetään 1406
humanitaar@@ 1406
w@@ 1404
kolman@@ 1404
ensimmäisen 1403
30 1403
oikeudell@@ 1403
käsittelyssä 1403
löy@@ 1402
tiedän 1401
sellaisia 1400
käytännön 1399
menet@@ 1398
voimakkaasti 1398
esitetään 1397
epäonnistu@@ 1397
tehokkuu@@ 1397
paan 1397
julkilausu@@ 1396
ryhmien 1393
parlament@@ 1393
1999 1393
teemme 1392
etteivät 1392
yhtiö@@ 1391
lähtien 1390
oleva 1390
poliittisia 1389
olisivat 1389
tutkimuksen 1388
ministeri@@ 1388
tapahtunut 1388
lähestymis@@ 1387
joukko@@ 1387
tulla 1386
täviä 1385
tiete@@ 1385
maailman@@ 1385
1. 1382
laat@@ 1382
da@@ 1382
musta 1381
kuuluvat 1381
kko 1381
ip@@ 1380
ttua 1379
ettu@@ 1379
sääntely@@ 1378
näh@@ 1378
ammatti@@ 1378
lleen 1377
käyttöä 1377
kas 1377
hyötyä 1376
kansalaisia 1376
lyhyesti 1376
llisiä 1375
ksille 1375
aan@@ 1375
ic@@ 1374
tely@@ 1374
tiedonann@@ 1373
eivätkä 1373
tavoitteiden 1373
koskevaan 1371
itys 1371
aloitta@@ 1371
empi 1371
sama 1371
sisälly@@ 1370
perinte@@ 1370
varsinkin 1370
selvi@@ 1369
tärkeim@@ 1369
ehdotukset 1368
laatima 1368
oma 1367
missään 1366
de 1366
maita 1366
kauden 1365
tettaisiin 1365
vaarall@@ 1364
tältä 1364
aktiiv@@ 1363
ilmais@@ 1363
käsi@@ 1363
dy@@ 1362
kollegani 1360
rakente@@ 1360
res@@ 1359
ilmen@@ 1359
Euro@@ 1357
aikataul@@ 1357
kokoon@@ 1357
z 1356
tukee 1356
&apos; 1355
ved@@ 1355
maatalouden 1355
kohtaa 1354
neuvottelujen 1354
asiakirj@@ 1353
lupa@@ 1353
osapuol@@ 1353
muis@@ 1351
saat@@ 1349
T 1349
kea 1348
kirja 1347
tapauksissa 1347
ässä 1345
hallinnon 1345
paket@@ 1345
suuntaviivo@@ 1344
suure@@ 1344
tietysti 1343
empaa 1343
rahas@@ 1343
teollisuus@@ 1343
ge@@ 1343
esittelijää 1342
iko 1342
sopimuks@@ 1341
itet@@ 1341
20@@ 1340
kaikilla 1339
kaikkiin 1338
viranomaiset 1337
suhtaudu@@ 1337
vaatimuksia 1337
kansala@@ 1337
kom@@ 1336
edel@@ 1336
soveltamis@@ 1335
äänestää 1334
yhdenmukais@@ 1334
pyytää 1333
paho@@ 1333
perustamissopimuksen 1333
alaa 1332
verkko@@ 1331
heti 1330
aloittaa 1330
kaikista 1330
valmis 1329
vähemmis@@ 1329
tuken@@ 1328
virka@@ 1327
aiheuttaa 1327
totean 1327
keskustella 1326
kkä@@ 1326
sellaista 1326
parempi 1326
toimitetaan 1326
hän@@ 1323
as 1323
ehdottaa 1323
Yhdysvaltain 1322
tämis@@ 1321
ajan@@ 1321
muuttaa 1320
toimitta@@ 1319
vihre@@ 1318
aksemme 1318
henkilökohta@@ 1317
merkitystä 1317
hallitusten@@ 1317
kokouksen 1315
kuningaskunnan 1315
periaatetta 1314
taloudellisen 1314
ila@@ 1314
markkino@@ 1313
opis@@ 1313
kis@@ 1311
12 1310
kysymyksiin 1309
jos@@ 1309
kyv@@ 1307
ttävä 1304
isivät 1304
konkreett@@ 1303
täv@@ 1302
kilpailukyky@@ 1301
toimintasuunnitel@@ 1301
säily@@ 1301
kukaan 1301
täys@@ 1300
isiksi 1300
talous- 1300
jäsenvaltioille 1299
sijo@@ 1298
merkitys 1298
ehdottomasti 1298
varma 1298
äkin 1298
torjun@@ 1298
yhteisöjen 1298
koskevista 1297
vahingo@@ 1296
pois 1296
dell@@ 1296
päätöksente@@ 1296
aset@@ 1295
teollisuuden 1295
mihin 1295
askel@@ 1294
luj@@ 1293
raja@@ 1291
ittiin 1289
kansainväl@@ 1289
edellis@@ 1288
tarkistus 1288
olem@@ 1287
monien 1287
konferens@@ 1287
ss@@ 1286
laaju@@ 1286
vaksi 1286
oper@@ 1284
maatalou@@ 1284
attava 1283
häntä 1282
toimii 1282
välttämättö@@ 1282
periaatteen 1282
miselle 1282
pidettävä 1280
sellainen 1280
uksessa 1279
og@@ 1279
markkinat 1277
samaan 1277
puheenvuoro@@ 1276
lla@@ 1276
joidenkin 1276
sotilaall@@ 1276
harjo@@ 1275
tilante@@ 1275
äärimmäisen 1275
taistel@@ 1275
ittanut 1274
Italian 1274
talousarvio@@ 1273
väh@@ 1273
Nizzan 1272
ikka 1272
pa 1271
insa 1271
erin 1269
parem@@ 1269
pohjalta 1269
saan@@ 1269
markkinoilla 1268
tahansa 1267
mp@@ 1267
anne@@ 1265
sosiaalisen 1264
hyödyn@@ 1264
kollega 1263
kirjo@@ 1263
ratkaista 1263
järjesty@@ 1262
rauhan 1262
tit 1261
mahdo@@ 1261
tekni@@ 1260
sukupuol@@ 1260
yhd@@ 1259
olevia 1259
199@@ 1259
voimassa 1259
perusta@@ 1258
olosuh@@ 1258
sopimuksia 1258
soveltaa 1258
täyden@@ 1258
parann@@ 1257
FR 1257
rauta@@ 1257
täm@@ 1256
toiseen 1254
luottamu@@ 1253
esitety@@ 1253
taloudellista 1252
ruo@@ 1252
viikolla 1251
kansa@@ 1251
prosent@@ 1251
pia 1250
kansa 1250
terveyden@@ 1250
saamme 1250
kokous 1248
aiheesta 1248
säännöt 1248
tetun 1248
ly@@ 1247
muuten 1247
herät@@ 1247
tarkka@@ 1247
vastuussa 1246
tuon@@ 1246
ros@@ 1246
strategian 1245
valtio 1245
ihmisoikeuksia 1244
pä 1244
heiken@@ 1244
esitetty 1244
Yhdistyneen 1244
ala 1243
nykyistä 1243
Euroop@@ 1243
hyvää 1242
omme 1241
voisivat 1240
lait@@ 1240
valvontaa 1240
olis@@ 1240
itamme 1239
vuoropuhel@@ 1238
telua 1238
kielte@@ 1238
vastuu 1238
vaik@@ 1236
tely 1235
suuntaan 1233
tull@@ 1232
kiell@@ 1232
kana 1232
kehy@@ 1232
kuun@@ 1231
ehdotuksessa 1231
tilanteeseen 1231
todetaan 1230
ottamaan 1230
neuvottelut 1229
ymmärr@@ 1228
neuvostoa 1228
laatu@@ 1228
Alankom@@ 1225
hy@@ 1224
västi 1224
emmekä 1224
direktiiviä 1224
jana 1223
ryhtyä 1222
sit@@ 1222
luul@@ 1221
hoid@@ 1221
asiakirjo@@ 1219
siirty@@ 1219
lääkke@@ 1219
asettaa 1218
vamma@@ 1217
hyvinvo@@ 1217
vai@@ 1216
johto@@ 1216
itsenä@@ 1215
vansa 1215
tuksista 1215
Li@@ 1214
kiire@@ 1213
issamme 1213
deksi 1213
äänestin 1213
aid@@ 1213
jän 1212
ongelman 1212
lopulta 1212
tavo@@ 1212
asiantunti@@ 1212
Yhdistyneiden 1212
aks@@ 1211
void@@ 1211
sen@@ 1210
asianmukaisesti 1210
vin@@ 1210
tune@@ 1210
rajat 1210
kertoa 1209
saatta@@ 1209
sopimuksessa 1209
pohd@@ 1209
sin@@ 1209
lyh@@ 1209
puolusta@@ 1209
vaaditaan 1209
politiikkaan 1209
muuttu@@ 1208
tuki@@ 1208
er 1208
laittom@@ 1208
jär@@ 1206
tansa 1206
kö@@ 1206
sopim@@ 1206
mmä@@ 1205
enla@@ 1205
kysymykset 1204
sisällyt@@ 1204
mus@@ 1204
muutoksia 1203
näyt@@ 1203
mikään 1203
lainkaan 1201
kiis@@ 1200
kysymyks@@ 1200
vies@@ 1200
rajoitta@@ 1200
arvoa 1200
kohte@@ 1199
mal@@ 1199
jälleen@@ 1199
äänestys@@ 1199
tämättö@@ 1197
parlamentaar@@ 1196
prosessi 1196
vil@@ 1196
ab@@ 1195
mahdollisuutta 1195
yyn 1193
ri 1193
B5 1193
äl@@ 1192
des@@ 1192
painos@@ 1191
yksinkertaisesti 1191
matkusta@@ 1190
sovelletaan 1190
ymmärtää 1189
yksimiel@@ 1189
Rans@@ 1188
melko 1187
tuloksia 1185
kestävän 1184
onnettom@@ 1183
mainitsem@@ 1183
uudelleen@@ 1182
loppuun 1182
markkinoille 1181
tuki 1181
tellä 1180
rahoitta@@ 1180
ke 1179
riittävästi 1179
keskusteluun 1178
.@@ 1178
joudu@@ 1178
oikeusperus@@ 1178
valmistel@@ 1176
heille 1176
kolmanneksi 1176
eläim@@ 1176
suurem@@ 1175
essani 1175
etujen 1174
uot@@ 1174
nnön 1172
poliittiset 1172
sovittelu@@ 1172
etty 1171
ilmaista 1170
mietintöön 1170
molem@@ 1169
marras@@ 1168
muutaman 1168
viita@@ 1168
maalis@@ 1168
nykyään 1168
laajentuminen 1168
tettuja 1167
d 1167
päiv@@ 1166
tänne 1165
todellinen 1165
puitteissa 1164
varmuu@@ 1163
liberaal@@ 1163
säädö@@ 1163
hallinto@@ 1162
Välimeren 1162
kannus@@ 1160
tarkoituks@@ 1160
mekin 1158
kaikkialla 1158
täydellis@@ 1158
tut 1156
asemassa 1156
toimista 1156
jättää 1155
vastaan@@ 1155
käyttö@@ 1154
ksilla 1154
laa@@ 1154
epäilemättä 1153
välit@@ 1153
varmis@@ 1153
kansainvälinen 1152
amista 1151
oikeastaan 1151
vaatimukset 1150
sodan 1150
koros@@ 1149
julistu@@ 1149
yyden 1148
sakin 1148
avo@@ 1148
Itali@@ 1148
merkille 1147
loukka@@ 1146
uusi@@ 1146
todellis@@ 1146
sisältyy 1146
kolmen 1144
rannik@@ 1144
mahdollisesti 1143
tervey@@ 1143
vuu@@ 1143
esi@@ 1143
ystävä@@ 1142
vu@@ 1142
ät@@ 1142
sopi@@ 1142
jonkin 1141
puheenvuoron 1140
väki@@ 1140
olenna@@ 1139
alueita 1138
vuosien 1137
eilen 1137
isim@@ 1137
demokraat@@ 1137
hylä@@ 1137
tii@@ 1136
gin 1136
asemaa 1136
tivät 1135
kolmansien 1135
tetut 1134
verkos@@ 1134
Kansakuntien 1134
alaisen 1133
väär@@ 1133
mil@@ 1133
tekevät 1133
jotakin 1133
välittömästi 1132
ohja@@ 1132
äänestä@@ 1132
itsee 1131
br@@ 1131
sosiaalis@@ 1131
omaa 1130
ran@@ 1130
tellaan 1129
tarvitse 1129
pääministeri 1129
yhteiskunnall@@ 1128
eita 1128
ojen 1128
käyttö 1126
yhdenmuka@@ 1126
laito@@ 1125
infrastruktu@@ 1125
hun 1124
varmistettava 1124
alueellis@@ 1122
lehd@@ 1121
vetoom@@ 1121
luonnon@@ 1121
muihin 1120
järjestely@@ 1120
yd@@ 1119
taata 1119
neljä@@ 1119
järjestö@@ 1119
ikenteen 1119
järjestelmien 1118
erä@@ 1118
tällaisen 1118
palautta@@ 1117
välin@@ 1117
toiminn@@ 1116
maihin 1116
kannatamme 1115
ope@@ 1115
amiseksi 1115
laisia 1114
ettemme 1114
tyh@@ 1113
ob@@ 1113
ette@@ 1112
isissä 1112
mit@@ 1112
varsin@@ 1111
hte@@ 1111
mahdollisuudet 1109
odotta@@ 1109
valmista@@ 1109
luotta@@ 1109
julkisen 1109
tetu@@ 1108
enta@@ 1108
mahdollisuu@@ 1108
tuh@@ 1107
jon@@ 1107
S 1107
esittänyt 1106
pitänyt 1106
inkaan 1106
sisäll@@ 1105
direktiiv@@ 1105
osittain 1105
oita 1105
ura@@ 1103
itetta@@ 1103
kehitys 1103
kuluttajien 1103
minäkin 1102
nykyisen 1102
kommen@@ 1102
strategi@@ 1101
Espan@@ 1101
kenties 1100
nouda@@ 1100
ellisia 1100
itusta 1099
kiitos 1099
neuvos@@ 1099
kohdat 1099
ensimmäisessä 1099
huippukokouksessa 1099
väestö@@ 1098
sovell@@ 1098
määrää 1098
mille 1097
tuna 1096
käytännö@@ 1096
suoja@@ 1096
katson 1096
inin 1096
aihetta 1095
käytö@@ 1095
hoita@@ 1095
tuo 1094
huoleh@@ 1094
tista 1094
riitä 1093
asioihin 1093
talousarvi@@ 1093
aikavälillä 1093
kuva@@ 1092
11. 1091
kse@@ 1091
toisi@@ 1091
täisi 1090
syy 1090
ylittä@@ 1090
pas@@ 1089
valla 1088
työpaik@@ 1088
elin 1088
toimiv@@ 1087
väärin@@ 1087
llään 1086
tinen 1086
menettelyä 1085
tön@@ 1084
tilintarkastus@@ 1084
yhdisty@@ 1084
EU:ssa 1083
keskeinen 1083
alka@@ 1083
ion 1083
olenn@@ 1083
toimintaan 1083
otettu 1082
kiinnittää 1082
oikeudellisten 1082
vastu@@ 1082
eurooppalaiset 1082
hol@@ 1081
osapuolten 1081
taa@@ 1079
jotkin 1078
saatu 1078
ittämään 1076
käyn@@ 1076
kiinni@@ 1076
politiikassa 1076
loka@@ 1075
ide@@ 1075
destä 1074
tutki@@ 1074
lleet 1074
yhteistyö 1074
ministeri 1074
syö@@ 1074
ästä 1073
ajo@@ 1073
päinvastoin 1072
mitta@@ 1072
itty@@ 1071
C5 1071
pitkään 1070
evä@@ 1070
maaseudun 1069
imaan 1068
itys@@ 1066
kehittää 1065
politiikka@@ 1065
telun 1065
P:n 1065
tti@@ 1065
yhtenäis@@ 1065
Kuu@@ 1064
vuos@@ 1063
01@@ 1063
sala@@ 1061
k 1061
henkilöiden 1061
muodosta@@ 1060
yksimielisyy@@ 1060
turvapaikka@@ 1060
maahanmuutta@@ 1060
samme 1059
kohdassa 1058
etuja 1058
suurta 1058
ehdokasvaltio@@ 1057
innan 1057
tyytyväisiä 1057
löyd@@ 1057
osaa 1057
näillä 1056
istaminen 1053
laaja 1052
yksen 1052
Ber@@ 1052
allekirjo@@ 1052
taho@@ 1051
arv@@ 1051
rakennerahas@@ 1051
asetuks@@ 1051
tra@@ 1050
Kyproksen 1050
noudattaa 1050
prosessia 1050
tieteellis@@ 1050
varat 1049
millä 1049
Afrikan 1048
kiin 1048
perusoikeus@@ 1048
kiinni 1047
alue 1046
hallit@@ 1046
ivät 1046
taloudellinen 1046
huippukokou@@ 1045
puh@@ 1045
velvo@@ 1045
Al@@ 1044
annut 1044
kus@@ 1044
pohj@@ 1043
det 1043
prosentin 1043
oikeuden@@ 1043
puheenjohtajan 1043
13 1042
ryhty@@ 1041
lainen 1040
merkittävästi 1040
vahin@@ 1040
ulkopuol@@ 1040
oikea 1040
Y 1040
rohke@@ 1039
voit@@ 1039
ulkopuolelle 1039
tulos 1038
pohjo@@ 1038
yhteisymmärr@@ 1037
odottaa 1037
johtu@@ 1036
tavall@@ 1035
päättävä@@ 1035
edu@@ 1035
yksinkerta@@ 1034
politiikasta 1033
perä@@ 1033
erilaisia 1032
perustuslain 1032
luvu@@ 1031
tuomioistuim@@ 1031
valtuus@@ 1031
tes@@ 1031
suurim@@ 1030
määrän 1030
ch@@ 1030
jaka@@ 1029
kunni@@ 1028
tällaisia 1028
roh@@ 1028
tuoda 1028
kolleg@@ 1027
nos@@ 1027
tulevaisuuden 1027
rahoitusta 1026
histori@@ 1026
järjestön 1026
vaatii 1025
du@@ 1025
avus@@ 1025
ottanut 1024
luon@@ 1024
tavoitteen 1024
äskettäin 1024
suosi@@ 1023
tälle 1023
toimenpite@@ 1023
nel@@ 1021
jaks@@ 1021
sopimus@@ 1021
kysymyksistä 1021
parissa 1020
eiden 1020
luovu@@ 1020
malle 1019
tiedot 1019
tot 1019
vin 1019
vatko 1019
ittelu@@ 1018
useim@@ 1018
vuoropuhelua 1018
viraston 1018
sis@@ 1017
rakenta@@ 1017
koske@@ 1017
enne@@ 1017
sanon@@ 1015
Kreikan 1015
sur@@ 1014
kokonaan 1014
resurs@@ 1014
uskotta@@ 1014
raha@@ 1014
työjärjestyksen 1013
vaat@@ 1013
ensi@@ 1013
tärkeänä 1013
idaan 1013
vuodesta 1013
työnteki@@ 1012
tettujen 1012
ysten 1012
yksinkertais@@ 1012
naiset 1012
pitkän 1012
ikkaa 1011
esimerkki 1011
oikeassa 1011
taloudellisia 1011
lyhy@@ 1011
tulevat 1010
tekijö@@ 1009
milla@@ 1009
laatia 1009
joissakin 1009
pidämme 1009
telev@@ 1008
päätökset 1008
maille 1008
aiomme 1007
yritys@@ 1007
alussa 1007
urhe@@ 1007
korkea 1007
tuk@@ 1006
esittämä@@ 1004
öljy@@ 1004
evat 1003
joille 1003
ilmas@@ 1003
tena 1002
vapaaeh@@ 1001
oja 1001
kansainvälistä 1001
imin@@ 1000
simme 1000
tiety@@ 999
intä 999
päätty@@ 999
ölj@@ 999
maista 999
uskom@@ 998
kirjan 997
mässä 996
lann@@ 996
yrityksiä 995
tarkoite@@ 995
saad@@ 995
halutaan 995
kuoleman@@ 994
kunnassa 994
ituksen 993
ssään 993
johtuu 992
osti 991
Saksan 991
eräs 991
ensiksi 991
esittel@@ 991
Ro@@ 991
2006 991
lause@@ 990
mää 989
pain@@ 989
tarkasti 989
kuntien 989
por@@ 989
teki@@ 989
joskus 988
aseman 988
kyken@@ 988
ratkaisun 987
suhteessa 987
aiden 987
piin 987
eminen 987
immä@@ 987
m 987
liittymis@@ 987
ation 986
kauppaa 986
atta 985
monimuoto@@ 985
rö@@ 985
valvonnan 984
alusten 983
suuren 982
välineitä 981
viid@@ 981
toki 981
arvioida 981
valtiota 981
enin 981
telleet 980
riittävän 980
takaisin 980
rakenne@@ 980
isuuteen 979
40 979
kää 979
ilo@@ 978
uhre@@ 978
voimaan 978
yleensä 978
torjunn@@ 978
tuomioistuin 978
idän 978
amer@@ 978
koulutus@@ 977
aton 976
essämme 976
hyväks@@ 976
sivat 976
nro 976
hoito@@ 975
akin 975
suhteen 974
köyhyyden 974
pitkällä 973
nia 972
enemmistö 971
kur@@ 971
tehok@@ 971
kys@@ 971
tulevaisuutta 970
lik@@ 970
lopet@@ 970
liittyvien 970
pysty 968
kovin 968
vapautta 967
muutamia 967
komitean 967
lää@@ 967
toimivat 966
kkää@@ 964
eikö 964
unionia 963
uudessa 962
Saks@@ 962
todellista 962
yhteisö 962
turvallisuuteen 962
tosta 961
mukaista 960
Bar@@ 960
avun 960
paten@@ 960
kerro@@ 958
tarjoaa 958
välineiden 958
katastrof@@ 958
tilas@@ 957
pakol@@ 957
käydä 956
uksien 956
palveluja 956
onsa 956
itus 955
ksessa 955
ehdotukseen 955
02@@ 955
aloitteen 954
väline 954
tarkoitan 954
merkityks@@ 954
kohtia 953
direktii@@ 952
periaate 952
heinä@@ 952
vähimmäis@@ 952
täs@@ 951
käsiteltäväksi 950
valtaan 950
huolenaihe@@ 950
alaan 950
astaan 950
pano@@ 950
esittämään 949
antamaan 949
ehdotetaan 949
sisältää 949
unohtaa 949
liikenn@@ 949
painopiste@@ 948
kkaasti 948
pyyd@@ 948
ai@@ 947
isla@@ 947
udu@@ 947
arvoisat 947
koke@@ 947
kiä 946
Sch@@ 944
jälke@@ 944
sektor@@ 944
alueet 944
sijasta 943
maahanmuutto@@ 943
ret@@ 942
koskeviin 942
rahaa 942
päätöslauselmaes@@ 942
tupa@@ 942
neuvotteluissa 942
väliaik@@ 942
tapaan 941
huoles@@ 941
koskem@@ 941
ksistä 941
toimi 941
aikaisemmin 940
myöntää 940
veto@@ 939
ohjelmaa 939
tilaisuus 939
toisessa 938
erinoma@@ 938
issaan 938
PPE 938
ltä 938
neita 938
kah@@ 937
velvoitte@@ 937
ong@@ 937
selkeä 937
tisen 937
äs@@ 936
monissa 936
enna@@ 936
enemmistö@@ 935
myö@@ 935
omien 935
keinoja 935
raja 935
alkaen 935
tiedä 934
maahanmuut@@ 934
kuljetta@@ 933
ilun 933
itava 933
säilyttää 933
tiedonan@@ 932
osas@@ 932
hien@@ 931
ohjelmien 931
hyväksytään 931
kalasta@@ 931
Pohjois 930
villa 930
teki 929
osaksi 929
utua 929
ehdokasvaltioiden 929
käytöstä 928
poli@@ 927
standar@@ 927
uutta@@ 927
eten@@ 927
valiokunn@@ 926
kyky@@ 926
voimakka@@ 926
eläkke@@ 926
liikke@@ 925
kaamme 925
samo@@ 924
riippu@@ 924
artik@@ 924
hyvän 924
joko 924
edellä 924
Ruotsin 923
tarkastella 923
tere@@ 923
tamisessa 923
moni@@ 923
Eurooppaan 923
sor@@ 923
kansalliset 922
turvapa@@ 922
kansan 922
den@@ 921
run@@ 921
periaatteita 921
läpi 921
teli@@ 921
tärkein 921
valko@@ 920
tty 920
kiitoksia 920
turvallisuu@@ 920
dessä 919
puheenjohtaj@@ 918
alku@@ 918
yhteistyössä 918
kunnianhimo@@ 918
ryhmämme 917
osoittavat 917
synn@@ 917
vastoin 917
todennäköisesti 916
saastu@@ 916
so 915
sum@@ 915
palestiin@@ 915
yhteistyöstä 914
yhteenkuulu@@ 914
eläke@@ 914
11 913
luonte@@ 913
kahta 913
mill@@ 913
tietenkään 913
päätöslauselmassa 913
naisia 913
itan 912
ulkom@@ 912
tapaa 911
antanut 910
nykyinen 910
pyrki@@ 910
pyrittävä 910
kehitysmaiden 910
ympäristöä 909
hyväksyttiin 909
pro@@ 909
änkin 908
antoi 908
meidät 908
ikään 908
Kre@@ 908
muutama 907
sanoin 907
toi 907
muissa 907
sosiaalista 907
ellei 907
kää@@ 907
sääs@@ 907
aikoina 906
daan 906
panna 906
ponnistelu@@ 905
osuus 905
Sa@@ 905
jotain 904
ehdokas@@ 904
lliseen 904
tujen 903
kilpailun 903
hänelle 902
nähd@@ 902
liit@@ 902
neksi 902
rien 901
vastuuta 901
kerta@@ 901
ans@@ 901
erää@@ 900
tuksiin 900
vaikeaa 900
saar@@ 900
puhemieh@@ 899
työskentel@@ 899
myönteinen 899
turvallisuus 899
kär@@ 899
antu@@ 897
edustaja 897
omasta 897
Ma@@ 897
akseni 896
ensimmäistä 896
vaihe@@ 896
koulutuksen 896
toi@@ 895
esitti 895
In@@ 895
maksi 894
huippukokouksen 894
menettely 893
mmin 893
demokratiaa 893
ins@@ 892
arvon 892
lähen@@ 892
vään 892
isyyttä 892
vam@@ 892
tettu@@ 892
mättö@@ 892
päästö@@ 892
kaa@@ 891
seurauksena 891
myönteisenä 890
nähdä 889
Itä@@ 889
tut@@ 889
tuemme 889
hallitukset 889
oikeus- 888
merkittäviä 888
ajattel@@ 888
edustajat 888
äär@@ 888
fooru@@ 888
kuuka@@ 887
takin 887
jonkin@@ 887
isellä 887
vähin@@ 887
byrokra@@ 886
avoimuutta 886
määrärahoja 886
rautatie@@ 886
syn@@ 885
keskustelemme 885
ongelmaa 885
kään@@ 885
vakuuttunut 885
mahdotonta 885
Kansa@@ 885
itukset 884
š@@ 884
miljoonan 883
monta 883
kriteer@@ 883
päätösten 883
pur@@ 883
pääasiassa 883
loppujen 882
näkökulmasta 882
tulokset 882
kyseenalais@@ 882
pankin 882
terro@@ 882
täsmä@@ 881
puheenjohta@@ 881
isty@@ 881
tiuk@@ 881
kou@@ 881
kansainvälisten 881
historiall@@ 880
An@@ 879
vaikutukset 879
luu@@ 879
vält@@ 879
keen 878
päivä 877
lasten 877
kasvun 877
alueelle 877
ensisija@@ 876
rahat 876
uttava 876
attu 875
joutuvat 875
yhtälä@@ 875
kehotan 875
silti 875
sovelletta@@ 875
kolm@@ 875
kesken 874
E 874
meko 874
03@@ 874
selvä 874
viimeinen 874
2005 874
yllä@@ 874
kysyä 874
työntekijö@@ 873
monimutka@@ 873
tuotteita 873
aio@@ 872
vapau@@ 872
aktiivisesti 872
innän 872
Kiinan 872
syyskuun 872
kohe@@ 872
mästä 871
sanottava 870
Na@@ 870
suojelua 870
toivottavasti 869
io 869
uri@@ 869
een@@ 869
nojalla 869
realis@@ 869
vaikutus@@ 869
pöytäkirj@@ 869
myötä@@ 868
pis@@ 868
olemaan 868
tarvetta 868
tutk@@ 868
valin@@ 868
ikk@@ 868
vastusta@@ 868
tiedo@@ 867
ac@@ 867
direktiivissä 867
hyviä 867
riippumatta 867
enti@@ 866
sanon 866
kustannukset 866
omia 866
ET@@ 865
rikkom@@ 865
opp@@ 864
määrittel@@ 864
lainsäädäntö 864
työ 864
sanottuna 864
ssa 864
koihin 864
muista 864
poliittisesti 864
joka@@ 863
maton 863
äänestyksen 863
Amerikan 863
perustaa 862
julkisten 862
allekirjoitta@@ 862
hem@@ 861
vill@@ 861
llakin 861
jäl@@ 861
arvi@@ 861
isillä 861
aino@@ 860
mar@@ 860
seet 859
markkinoita 859
teja 858
toistaiseksi 858
der@@ 858
maanviljelijö@@ 858
hyv@@ 857
aloitteita 857
Etelä 857
uno@@ 856
valmiita 856
jal@@ 856
yn@@ 856
odotamme 855
ollaan 855
Ruot@@ 855
teistä 854
päätöstä 854
tuja 854
15@@ 853
ber@@ 853
pää 853
rä@@ 852
lääke@@ 852
vihdo@@ 851
istaa 851
enkä 851
alha@@ 851
isyyden 850
kkiä 850
suojelun 850
työskenne@@ 850
kriitt@@ 850
kaupall@@ 850
tietoinen 850
sija@@ 849
tehos@@ 849
sain 849
g 849
äänestyksessä 848
eniten 847
alueille 847
kansanterveyden 846
Iran@@ 846
mpi 845
sisälty@@ 845
vähentää 845
palj@@ 845
ennalta 845
tarjota 844
pilar@@ 844
rahoitusnäky@@ 844
teita 843
luot@@ 843
sisällä 842
anal@@ 842
13@@ 842
edistystä 842
toimik@@ 842
nais@@ 842
olog@@ 841
arvo 841
riis@@ 841
sehdo@@ 840
sosiaalitur@@ 840
oikeuteen 840
aseiden 839
valle 839
konferenssin 839
yksikö@@ 839
Venä@@ 838
toistu@@ 838
noudatettava 838
löytää 837
usko 837
tehtävänä 837
tarkistuksista 836
essamme 835
idemme 835
vois@@ 834
pyrimme 834
matka@@ 834
ksu@@ 833
omat 833
investo@@ 833
vapauksien 832
ikka@@ 832
etaan 832
kyseisen 831
ij@@ 831
periaatteessa 831
annettu 831
investoin@@ 831
Mon@@ 831
vakaus@@ 831
isku@@ 830
ilmoittaa 830
ryhd@@ 830
muodo@@ 830
kuluttua 830
uksella 829
pyrkii 829
kassa 829
kampan@@ 829
toimittava 829
voinut 828
halun@@ 827
tarpeeksi 827
verrattuna 826
entisestään 826
väärin 826
sito@@ 825
inne 825
vaisuu@@ 825
osoitus 825
ha 825
rahoituks@@ 825
sattu@@ 824
inte@@ 824
itettävä 824
tellut 824
elintarvikkeiden 824
elämän 823
ainen 822
sanotaan 822
miehet 822
luonn@@ 822
pääsy@@ 822
ympäris@@ 822
Gu@@ 822
ulkopuolella 821
kuka 821
tyihin 821
perustamista 821
Euroopasta 821
strategia 821
ni 820
maksaa 819
kompromissi@@ 819
laan 819
todettava 819
hyökkäy@@ 819
tasapuol@@ 818
vastuun 818
jatkossakin 818
tavan@@ 817
vastaus 817
miljardia 817
tietoisia 817
vahv@@ 816
ajatus 816
hätä@@ 816
jokaisen 815
ulkopolitiik@@ 815
ttujen 815
enem@@ 814
varaa 814
ongelmien 814
tiedotta@@ 814
poltto@@ 814
lou@@ 814
kyt@@ 813
läsnä 813
seuraavan 813
tehtävää 813
hyväksytty 813
hor@@ 813
ohj@@ 813
täysistunnossa 812
met@@ 812
rooli 812
estaan 812
tarkasteltava 812
esite@@ 811
ttuja 811
koskevissa 811
perin@@ 811
säännös@@ 811
rj@@ 810
etel@@ 810
toimenpiteet 810
yrityksille 809
laista 809
vaale@@ 809
ere@@ 808
raha 808
neitä 808
esitän 808
län@@ 808
kuulla 807
hyl@@ 807
tävään 807
minuu@@ 806
todellakaan 806
ratkaisem@@ 806
ittäminen 806
tämänpäivä@@ 806
reago@@ 805
eurooppalaisia 805
yleissopimuksen 805
llemme 805
vääris@@ 804
kansallisen 804
kasta 804
kehittämisen 804
neuvotteluja 803
tyyn 803
toimimaan 803
Palestiinan 803
tieli@@ 803
torjumiseksi 803
niinpä 802
paras 802
ivan 802
astu@@ 802
esti@@ 801
sisämarkkinoiden 801
käämme 800
ban 800
erinomaisesta 800
äänty@@ 800
saapu@@ 800
allaan 799
yrit@@ 799
julkais@@ 799
toteutetta@@ 798
assa@@ 798
mielen@@ 797
todellisuu@@ 797
jel@@ 797
bi@@ 797
Inter@@ 796
asiall@@ 795
seurauksia 795
kohdista 795
kansojen 795
jokainen 794
huomi@@ 794
muodossa 794
jatkossa 794
stään 794
tana 794
mamme 794
palestiinalais@@ 794
unionille 794
Gen@@ 794
toimielin@@ 794
maata 793
ongelmista 793
mielip@@ 793
varainhoito@@ 793
toimis@@ 793
ympäristöasioiden 793
työllisyyden 792
hiljattain 792
anin 792
vaadimme 792
keino 792
evan 791
pöytäkirjan 791
rool@@ 791
tiettyjä 790
viljel@@ 790
60 790
näkökohtia 790
Turk@@ 789
ansi@@ 789
tarvitsee 789
tutkimusta 789
itettiin 789
WTO:n 789
vissä 788
amalla 788
14 788
liittyvistä 788
tukien 788
ajien 788
iit@@ 788
erityistä 787
västä 787
suuret 786
evät 785
peräisin 785
huhti@@ 785
ristiriidassa 785
opimuksen 785
tämänhetk@@ 784
Su@@ 784
poliisi@@ 784
yksis@@ 784
hallinn@@ 784
Turkki 783
täysimäärä@@ 783
kulku@@ 783
tuneita 783
olisimme 782
lähestymistapaa 782
isuudesta 782
liikenteen 782
vuoropuhelun 782
olisin 781
ilta@@ 781
saavuttamiseksi 781
fi@@ 781
työs@@ 781
toukokuuta 781
työhön 781
pann@@ 780
iku@@ 780
saira@@ 780
suhteita 779
kysymyksissä 779
järjestelmään 779
käyttöönot@@ 779
Yhdysval@@ 779
ban@@ 779
mielell@@ 778
os 778
ny@@ 778
ensisijais@@ 778
yhdys@@ 778
alojen 777
lta 777
muun@@ 777
sopimukset 777
rehe@@ 777
aiempaa 777
innut 776
kolmas 776
nykyisin 776
osoittanut 775
14@@ 775
sosiaalidemokra@@ 775
neljä 775
sivu@@ 775
istamaan 775
olevaa 775
ampi 775
suosionosoituksia 775
lö@@ 774
ete@@ 774
kä 774
rauh@@ 774
liitt@@ 774
taloudellisten 773
myönteistä 773
komissiossa 773
yyteen 773
kehitysyhteistyö@@ 773
edistys@@ 773
Kes@@ 772
annetta@@ 772
saamaan 772
hel@@ 772
saisi 772
ratkaisua 772
omassa 771
ykset 771
yri@@ 771
täytäntöönpanoa 771
vakuuttaa 771
vilpit@@ 771
kuukauden 770
televat 770
istö@@ 770
järjestöt 770
väes@@ 770
aikavälin 770
onnettomuu@@ 770
sotilas@@ 770
yleisen 769
aisia 769
pitkälle 769
bio@@ 769
aista 768
Bryssel@@ 768
tävissä 768
puuttua 768
elo@@ 768
poistaa 768
aineita 768
vaikutus 767
miljar@@ 767
kuulu 767
voitava 767
tekst@@ 766
varmistamaan 766
puolestaan 766
edustajien 766
käytössä 766
henkil@@ 766
KOM 766
sosialis@@ 766
tekemistä 766
laajentumis@@ 766
tunnusta@@ 765
ona 765
välille 765
vi 765
jäsenelle 765
itetään 765
tarkoita 765
tuhan@@ 764
omista@@ 764
mekanis@@ 764
puolella 764
välttää 763
ilmoitta@@ 763
lähestymistapa 763
taloudelliset 763
kiintiö@@ 763
puhun 763
valtioita 763
80 762
sai 762
kot 762
kiito@@ 762
sol@@ 762
kkaa 762
Kioton 762
terrorismia 762
mor@@ 761
ammat@@ 761
kasv@@ 761
haa 761
ratkaise@@ 760
kaikenla@@ 760
käsitte@@ 760
laisten 760
aloite 759
sanom@@ 759
väestön 759
hyväksymään 759
tuotannon 758
valtioissa 758
puolu@@ 758
kysymyksessä 757
isuus@@ 757
II 757
gen 756
tiedon 756
laatua 756
itä@@ 756
vaatia 756
tyy@@ 755
heidät 755
kasvaa 755
saatav@@ 755
käytettävissä 754
gia 754
tussa 754
talousarviosta 754
edellyt@@ 754
nykyisten 754
Strasbour@@ 753
riippuva@@ 753
valvonta 753
ivä@@ 753
hin 753
kahden@@ 752
suhtaudun 752
intiin 752
hyödyntää 752
antavat 752
tuolloin 752
raj@@ 751
seja 751
seka@@ 750
rat@@ 750
siirtymä@@ 750
lent@@ 749
kselle 749
itu 749
vuosittain 749
naapur@@ 749
huomauttaa 748
virhe@@ 748
nuorten 748
ästi 748
Brysselissä 748
levi@@ 748
kesku@@ 748
enempää 748
rahoituksen 747
vielä@@ 747
kir@@ 746
suoj@@ 746
lev@@ 746
pidäty@@ 745
pidät@@ 745
viisi 745
laus@@ 745
huolestutta@@ 745
hankal@@ 745
Portugalin 745
sod@@ 745
mielenkiin@@ 744
vied@@ 744
itsevat 744
eilla 744
oikeusasia@@ 744
ettel@@ 743
kaudella 743
vina 743
unionista 743
ulkominis@@ 743
kuluessa 742
net@@ 742
tärkeän 742
tuotanto@@ 742
keskisuu@@ 742
kolme@@ 741
gene@@ 741
työvoim@@ 740
iva@@ 740
vapaus 740
P 740
nnet@@ 740
toimenpiteiden 740
hyväksynyt 740
käsittelyn 739
parlamenttien 739
tarkistuksessa 739
vastauks@@ 739
edellytykset 738
yksimielisesti 738
tosin 737
äänestämme 737
ihmistä 736
kka 736
katsomme 736
tulle@@ 735
haluais@@ 735
työjärjestys@@ 734
lähte@@ 734
len@@ 734
millään 734
matkailu@@ 734
tekstin 733
ksiaan 733
suostu@@ 732
teissa 732
utunut 732
Valko 732
tapaus 731
pana 731
katsoo 731
lentoyhtiö@@ 731
istunto@@ 730
vaikuttavat 730
tore@@ 730
ratkaisuja 730
paikalla 730
amisen 730
naapu@@ 730
tehdyn 730
suhteet 730
aste 730
I 729
uudistuksia 729
kaikesta 729
toimen@@ 729
monen@@ 729
ongelmiin 728
tulk@@ 728
itusten 728
änsä 728
väis@@ 728
demokraattisen 728
seikka 728
kaasu@@ 728
tarkistusten 727
vaalien 727
laajentumista 727
valvoa 727
DE 727
julkisia 727
ankar@@ 727
kiireellis@@ 726
jäsenvaltiossa 726
mahdollinen 726
todellisuudessa 726
työsken@@ 726
kejä 726
kissa 726
artiklassa 726
liittymistä 726
jäsenille 725
vää@@ 725
valvonn@@ 725
aluetta 725
usti 725
Laeken@@ 725
yhdyn 724
kumo@@ 724
tehtä@@ 724
kauppa 724
nämme 723
sal@@ 723
komissiolla 723
ehdotusten 723
ehkä@@ 723
kehitykseen 723
tausta@@ 723
tarvittavat 723
siviil@@ 722
hakem@@ 722
esittelijö@@ 722
rahaston 722
täkin 722
atit 722
ymmärrän 722
seuraavaksi 722
yhteisestä 721
käydään 721
yhteispäätös@@ 721
työmarkkina@@ 721
18 721
Se@@ 721
sijoitta@@ 721
mpää 720
hyväksyty@@ 720
sitte 720
kiit@@ 720
suhd@@ 720
enimmäis@@ 720
uud@@ 719
jätte@@ 719
kaikkiaan 719
puheenvuoroni 719
kestävää 719
tekijä 719
strategiaa 719
alkaa 718
pk 718
annan 717
unut 717
unionilla 717
tek@@ 717
täh@@ 717
gen@@ 716
keja 716
tällaiset 716
tehokas 716
teillä 716
iassa 716
onnistunut 715
toissijaisuus@@ 715
kuull@@ 715
Makedon@@ 715
kysymyksestä 714
tasavallan 714
sovitta@@ 714
tisesti 714
vahvistetaan 714
yhteisiä 714
budjet@@ 714
tiedon@@ 714
poliitik@@ 714
á@@ 714
kasvua 713
ajoneuvo@@ 713
todell@@ 713
atu@@ 713
puhumme 713
16 713
llisuutta 713
itun 713
inhimi@@ 713
ikö 712
mitkä 712
lainsäädän@@ 712
hyväksym@@ 712
oissa 712
toteutetaan 712
tetä 712
pi 711
hyväksyy 711
useam@@ 711
tahd@@ 711
edistämiseksi 711
Irlan@@ 711
ittain 711
useat 711
puheenjohtajavaltion 711
vakaus- 711
heng@@ 710
käsiteltävänä 710
palau@@ 710
järjestelmiä 710
kunno@@ 710
sukupol@@ 710
molemmat 709
tarkemmin 709
lopussa 709
dikta@@ 709
lyö@@ 708
Barcelonan 708
esittelijänä 707
haki@@ 707
huippu@@ 707
ulko- 707
ise@@ 706
periaatteiden 706
tulosta 706
viiden 706
Tans@@ 706
toisia 706
alusta 705
ksella 705
ntä 705
valitettavaa 705
pom@@ 704
tähd@@ 704
jemme 704
mitenkään 704
tasapain@@ 704
kohtuu@@ 704
V 704
Portugal@@ 704
lausunnon 704
töihin 703
toimivalta@@ 703
miet@@ 703
keskusteluja 703
maahan 703
haita@@ 703
valti@@ 703
x@@ 703
oikeuksista 702
Is@@ 702
kuolem@@ 702
aar@@ 702
Bus@@ 702
rajojen 702
huolehd@@ 702
innista 702
ympä@@ 702
gissa 701
itään 701
Roman@@ 701
perustuvan 701
tavar@@ 701
saataisiin 700
parlamenttiin 700
kanta@@ 700
tulevan 700
talous 700
Afrik@@ 700
ass@@ 700
huumaus@@ 700
muille 699
ksessä 699
kone@@ 699
Prodi 699
avoimesti 699
väkivallan 699
meri@@ 698
metsä@@ 697
riit@@ 697
äsken 697
joulukuussa 696
nu@@ 696
parlamentilla 696
käsittelevän 696
meja 696
toimielimet 695
impia 695
talousarviota 695
vaatimusten 695
ratkaisu@@ 695
joulukuuta 694
aamuna 694
ehkäisem@@ 694
vakavia 694
talousarvioon 694
totu@@ 694
tapahtumat 694
Pro@@ 693
vian 693
suuresti 693
vastuun@@ 693
koos@@ 693
perusta 693
osal@@ 693
seuraa 692
sijaitse@@ 692
sanne 692
työpaikkoja 691
voisin 691
käynn@@ 691
varmistamiseksi 691
asetus 691
AKT 691
Afganistanin 691
tietävät 690
vakuutus@@ 690
sosiaalinen 690
sota 690
hallituks@@ 689
tiettyjen 689
esittelijä@@ 689
pitävät 689
president@@ 689
töntä 688
jääd@@ 688
arkk@@ 687
lain 687
osallistumista 687
toimeen@@ 687
kansallisia 687
etusij@@ 687
liitto@@ 687
tisia 686
kysymysten 686
glob@@ 686
kilpailua 686
palvelut 686
ansall@@ 685
viksi 685
ilmi@@ 685
Belgian 685
sopimuksesta 684
rekister@@ 684
sana@@ 684
vieläkin 684
st@@ 684
nimissä 684
imman 684
Itä 684
käsittelyyn 683
puitte@@ 683
henkilös@@ 683
proses@@ 683
pite@@ 683
tosiasiassa 683
kasvu 683
iteet@@ 682
tehtäviä 682
saavutettu 682
tarve 682
korostetaan 682
ajat@@ 682
minkäänlaista 682
otsa@@ 682
muoto@@ 681
toive@@ 681
hankkeen 681
tavoitetta 681
kkaan 681
mukau@@ 681
kkuu@@ 681
vastaavat 681
ohjelmassa 681
integro@@ 681
teri@@ 680
välisessä 680
kehittämistä 679
nähdäkseni 679
kap@@ 679
kee 678
netään 678
torjua 678
ituksiin 678
edessä 678
käsittelyä 677
Britanni@@ 677
avoimuuden 677
ilu 677
varmista@@ 677
vakauden 677
yksipuol@@ 676
vastaamaan 676
vienti@@ 676
vakau@@ 676
säännöksiä 675
yrittää 674
käytettävä 674
toisinaan 674
vapauteen 674
pienten 674
painopis@@ 674
kid@@ 673
yksilö@@ 673
tukemaan 673
H 673
äänestystä 672
atte 672
omaisen 672
suurempi 672
EK@@ 672
meren@@ 672
yksinomaan 672
gu@@ 671
ajat 671
kkaita 671
Lam@@ 671
näy@@ 671
udesta 671
suurten 671
syyskuuta 671
kossa 670
toisistaan 670
jet@@ 670
luovutta@@ 670
kansallis@@ 670
amisesta 670
kelpo@@ 670
puheenjohtajana 669
uhd@@ 669
omaksu@@ 669
hinn@@ 668
komissiolta 668
diplom@@ 668
maahanmuuton 668
tavoitteista 667
Kar@@ 667
70 667
kuvi@@ 667
ällä 667
enemmistön 666
onne 666
milloin 666
järkevää 666
hyväksyttävä 665
parantamiseksi 665
yhteistyöhön 665
tämisessä 665
viestintä@@ 665
vakava 665
rin 664
hallitusta 664
keskenään 664
kansallista 664
kasvi@@ 664
ga@@ 664
useiden 664
ryhmät 663
iten 663
suunnittel@@ 663
prosessiin 663
vallan@@ 663
elää 663
varmistetaan 663
samanaikaisesti 662
päätö@@ 662
eurooppala@@ 662
teo@@ 662
maatalouspolitiikan 662
12@@ 661
laadu@@ 661
tekniikan 661
vaativat 661
institution@@ 661
elinten 661
istamme 661
lain@@ 661
r 661
Puol@@ 661
kustannuksia 660
kohtana 660
saakka 659
puhta@@ 659
osall@@ 659
työnanta@@ 659
tap@@ 658
ste@@ 658
asta@@ 658
hir@@ 658
osapuolet 658
piiriin 658
amma@@ 658
ktiiv@@ 658
mansa 658
jen@@ 658
kunnan 657
toteutettava 657
isempi 657
kriisin 657
poikkeuks@@ 657
Tur@@ 657
tettäisiin 656
ottamatta 656
ym@@ 656
velvollisuus 656
amiseen 656
vuosia 656
tömä@@ 656
helmik@@ 655
luopu@@ 655
lämpimästi 655
mahdollisuuksien 655
misessä 655
suunnitelman 655
tuettava 655
kappal@@ 655
puheenvuoros@@ 655
kasvus@@ 655
yleistä 654
huume@@ 654
sit 654
asetetaan 654
vaikeuksia 654
tävistä 654
Y:n 654
oles@@ 654
pahoillani 653
kerta 653
aloja 653
esittäneet 653
edut 653
haan 653
etelä@@ 653
eni@@ 653
pyydämme 652
kertomuksen 652
toistan 652
terveyden 652
Latin@@ 652
04@@ 652
saman 651
saattavat 651
Tanskan 651
vaali@@ 651
pyrkiä 651
yydestä 650
uskonno@@ 650
mik@@ 650
L 650
ryhdyttävä 649
naa@@ 649
tetusti 649
kiitollinen 649
esimerkkinä 649
suhteiden 649
one@@ 648
17@@ 648
istunnon 648
rakennus@@ 648
suojella 648
tasapaino 648
rauhaa 647
ru@@ 647
kuningas@@ 647
vaa@@ 647
voitu 647
edistetään 647
tilaisuuden 647
vastainen 647
ykseen 646
sotila@@ 646
tutkin@@ 646
tilaisuutta 646
tuntuu 646
tyydyt@@ 646
konferenssissa 646
kommunis@@ 645
hyväksy 645
hanke 644
tian 644
tämästä 644
kunkin 644
saatavilla 644
syyt@@ 644
ihmisille 644
take@@ 644
sorkka@@ 644
alainen 643
vastustaa 643
O 643
assaol@@ 643
kkä 643
työpaikkojen 643
väitte@@ 642
yhteiskunn@@ 642
heillä 642
noudatetaan 642
tuomio@@ 642
perusteellisesti 641
osana 641
etsi@@ 641
tutkimus 641
henkilöt 641
päätöslauselmaa 640
selven@@ 640
tuli 640
seitsem@@ 640
häv@@ 639
tehtiin 639
ratka@@ 639
keskinä@@ 639
jamme 639
myönteisiä 639
aikom@@ 639
käynyt 639
tarvitsevat 639
vuor@@ 638
samat 638
ajankohta@@ 638
yhtey@@ 638
telu 638
isyys 638
hankkeiden 638
sisällyttää 638
sella@@ 638
are@@ 638
amis@@ 638
amin 637
vapaa 637
pes@@ 637
suunni@@ 637
laiset 637
kehottaa 637
sään 637
uoll@@ 637
aali@@ 637
koulutusta 636
lisään@@ 636
kokonaisuudessaan 636
jäsenvaltiota 636
itell@@ 636
Maro@@ 635
valtiosta 635
vastaista 635
apu@@ 635
perustell@@ 635
pidem@@ 634
tr@@ 634
veron@@ 634
ongelmaan 634
luv@@ 634
Tu@@ 634
roko@@ 634
suu- 634
parlamen@@ 633
liikaa 633
prosessissa 633
määrärahojen 633
torjunta 633
muodostaa 633
kahdeks@@ 633
aio 632
kuukau@@ 632
rikka@@ 632
dellä 632
puhutaan 632
jar@@ 632
kkeen 631
tulevien 631
akti@@ 631
utuu 631
tuloksena 631
käynnissä 631
edistämään 631
äänestimme 631
täytäntöönpanon 631
Car@@ 630
llisuuden 630
tyneet 630
lii@@ 630
toistaa 630
po 629
arviointi@@ 629
moot@@ 629
hallinto 629
miehi@@ 629
oikeusvaltion 629
demokratia 629
täyttää 629
armei@@ 629
viit@@ 628
tällaisten 628
Götebor@@ 628
ehd@@ 628
taloudellisesti 628
assosiaatios@@ 628
Per@@ 628
kohtien 627
työstään 627
tuista 627
tapahtumien 627
ylimäärä@@ 626
välisiä 626
laa 626
lähem@@ 626
tukia 626
voitte 626
palk@@ 626
alli@@ 626
sisäasioiden 625
perustuvat 625
lisättävä 625
huolissaan 625
alta@@ 625
tunne@@ 624
yhteiseen 624
A 624
politiikkojen 624
laittoman 624
syyllis@@ 623
ittujen 623
varauks@@ 623
kantojen 623
aseita 623
laisen 622
hankkeita 622
käyttävät 622
talousarvio 622
täni 622
Venäjä@@ 622
työttömy@@ 621
mainitsi 621
10@@ 621
opolitiik@@ 621
artikl@@ 620
ongelmana 620
johdosta 620
sty@@ 620
Z@@ 620
työntekijöitä 619
Jugosla@@ 619
kovasti 619
menettelyjä 619
uhkaa 619
ankin 619
taudin 619
Ar@@ 619
vastaavan 618
atte@@ 618
voineet 617
vastauksen 617
oihin 617
arvoja 617
mättä 617
työskentely@@ 617
ampaa 617
alalle 617
konkreettisia 616
itetta 616
euvos@@ 616
tutus@@ 616
kritiik@@ 616
kuluttajapolitiikan 616
myönnetään 616
Yhdysvalloissa 616
ine 616
valmistelukunta 616
ristiriita@@ 615
tavasta 615
luotetta@@ 615
äty@@ 615
eläkelä@@ 615
ttia 614
huomion 614
asiakirjan 614
sisämarkkina 614
kolmannen 614
investointe@@ 614
vie@@ 613
Yhdistyneessä 613
usk@@ 613
sanottu 613
olu@@ 613
teksti 612
viivästy@@ 612
tällöin 612
määräyksiä 612
isemmin 612
uskon@@ 612
kiista@@ 612
kuningaskunnassa 611
uksissa 611
keskity@@ 611
kasvu@@ 611
jatkettava 611
yhden@@ 611
verran 610
jokin 610
edustaj@@ 610
uudistuksen 610
tarjou@@ 610
tuvat 610
hylkää@@ 610
17 610
viljeli@@ 610
vang@@ 609
ES 609
Län@@ 609
vasem@@ 609
vapaasti 608
nimen@@ 608
jäsenenä 608
ennus@@ 608
esitys@@ 608
immät 607
ponnis@@ 607
lah@@ 607
yleinen 607
viesti 607
tule 607
terveyttä 607
viikon 606
välttämättä 606
milla 606
käsiteltävä 606
elämään 606
aiem@@ 606
instituu@@ 606
haluaisimme 605
puhemi@@ 605
lukuisia 605
ympäristön@@ 605
tiivi@@ 605
totesin 605
ylpe@@ 604
tuksessa 604
itakin 604
tekop@@ 604
viimeis@@ 603
astaa 603
viljely@@ 603
Irlann@@ 603
tellään 603
vaihto@@ 603
tyypp@@ 602
itsestään 602
onnittelen 602
varain@@ 602
riippuu 602
stan@@ 601
teet@@ 601
ilmeisesti 600
väkivalta@@ 600
ohjelmasta 600
keinoin 599
tekijä@@ 599
... 599
suunnitelma 599
tonsa 598
tilä@@ 598
järjestäyty@@ 598
alaisia 598
suoritta@@ 598
Maailman 598
merkittävää 598
pääsihte@@ 598
joukkojen 598
keskustellaan 597
täältä 597
telee 597
liittyvän 597
huolestu@@ 597
llamme 597
hoitaa 597
biolog@@ 597
mainittu 597
kiitokset 597
elv@@ 597
ystä@@ 597
kulj@@ 597
tarkasta@@ 597
äkseni 596
ehdot 596
tarkastellaan 596
ehdottoman 596
teiltä 596
tellen 596
tarkistuksesta 596
burg@@ 596
julkis@@ 595
tissa 595
mukainen 595
päivää 595
kristillis@@ 595
arkaluonte@@ 594
järjestää 594
ind@@ 594
täessä 594
neuvottel@@ 594
ineuvos@@ 594
ohjelmaan 594
illeen 594
itsemme 594
itsisi 593
selvästi@@ 593
toiminnasta 593
tuetaan 593
kuntaa 593
Kööpenhaminan 593
tääkseen 593
toimenpiteisiin 593
vaalit 593
Yhdisty@@ 593
af@@ 593
vakuuttu@@ 592
keli@@ 592
pö@@ 592
myyn@@ 592
oni 592
vatkin 592
Välimer@@ 592
liittyvää 591
krite@@ 591
ulkomaan@@ 591
erimiel@@ 591
sell@@ 591
kr@@ 590
tee 590
go@@ 590
kaupan@@ 590
osassa 590
iltana 589
vallitsee 589
12.00 589
kohtiin 589
nille 589
sydä@@ 589
päätöslauselma 589
valtuu@@ 589
yllät@@ 588
ymmärre@@ 588
ure@@ 588
valtuuskunnan 588
myönn@@ 588
vanho@@ 588
vastustamme 587
käyttööno@@ 587
tettä 587
tulokseen 587
ketta 587
ohjelmia 587
laatimaan 587
todellisen 587
muistettava 587
Saddam 587
tammikuuta 586
edetä 586
histor@@ 586
tehtävän 586
näille 586
SE@@ 586
tyytyvä@@ 586
hou@@ 586
paikallis@@ 586
pakolais@@ 586
tarkoituksenmuka@@ 585
edun 585
teur@@ 585
iturvall@@ 585
uudestaan 584
vallitse@@ 584
uhka@@ 584
ivo@@ 584
ennakko@@ 584
kyseinen 584
annamme 584
halua@@ 584
puolueiden 584
avar@@ 584
keskey@@ 583
otte@@ 583
pito@@ 583
elintarvikke@@ 583
tävässä 582
usin 582
ittelen 582
vaikutusta 582
son 582
annetun 582
hank@@ 582
käsitell@@ 582
uni@@ 582
jolle 582
Her@@ 582
Balkanin 582
hyöd@@ 582
kahteen 582
istan 581
täväksi 581
kansainvälisiä 581
ittävä 581
jäsenvaltio 581
sanoisin 580
ensimmäiseksi 580
syntyy 580
korkean 580
maailmaa 580
ratkaiseva 580
uttom@@ 580
miehen 580
viimeksi 580
seuraukset 579
häpe@@ 579
järjestet@@ 579
varova@@ 579
ihmisen 578
pyys@@ 578
tapoja 578
huolellisesti 578
työttö@@ 578
suotu@@ 578
kaksin@@ 578
koulutukseen 577
ensisijaisesti 577
vaura@@ 577
osallistuvat 577
uskoakseni 576
ensisij@@ 576
omin@@ 576
maassani 576
pasiteet@@ 576
viranomaisen 576
rikollisuuden 576
Johannes@@ 576
otamme 575
teke@@ 575
vastavuoro@@ 575
yllä 575
perustelu@@ 575
tyyd@@ 575
uden 575
teknologi@@ 575
aiheuttavat 575
see 575
vallassa 575
muilla 574
todennut 574
hankin@@ 574
myönnettävä 574
PT 574
urin 574
18@@ 573
yhteisessä 573
rans@@ 573
mälle 573
henkilöstö@@ 573
ohe@@ 573
perustuva 573
puheenvuor@@ 572
ilme@@ 572
toden@@ 572
tion@@ 571
välttämä@@ 571
ow@@ 571
sivi@@ 570
omen@@ 570
kki 570
neuvosto@@ 570
rahoit@@ 568
koko@@ 567
viljelijö@@ 567
arab@@ 567
C 564
sij@@ 563
järj@@ 563
valv@@ 563
hdo@@ 563
alun 561
Ukrain@@ 561
komissio@@ 560
tammik@@ 559
tav@@ 559
neu@@ 558
jäs@@ 557
has@@ 557
ria 557
ret 557
ipu@@ 556
doll@@ 555
1998 554
oikeud@@ 552
maahan@@ 551
mila@@ 550
ron 550
atta@@ 550
ittäin 549
läs@@ 548
autu@@ 547
hun@@ 546
th@@ 545
issu@@ 544
sup@@ 544
viim@@ 543
materi@@ 542
tömästi 539
pen@@ 538
touko@@ 537
prote@@ 536
kop@@ 536
200@@ 534
tossa 534
suuntavi@@ 534
olumb@@ 534
pon@@ 533
tyyty@@ 532
ikan 532
näkökul@@ 531
Lan@@ 530
ener@@ 529
be@@ 529
mus 528
ah@@ 528
ikan@@ 527
tarkastus@@ 527
Pak@@ 527
demokra@@ 525
Cas@@ 524
vistä 524
yhti@@ 522
olta 520
Amster@@ 520
YK@@ 520
päin 520
otti 519
kanso@@ 518
not 517
esityslis@@ 517
kille 516
Ch@@ 516
tilin@@ 515
Geor@@ 514
pros@@ 514
illaan 514
suures@@ 514
K 514
ero 513
nte@@ 513
ens@@ 513
kti@@ 513
kut@@ 512
24 511
Par@@ 511
lausu@@ 511
ulta 511
Zimbab@@ 511
dia 510
ile@@ 510
muod@@ 510
autom@@ 509
union@@ 508
änä 507
Ha@@ 507
dem@@ 507
ky 506
sääd@@ 506
teho@@ 506
eil@@ 506
voita@@ 505
del@@ 505
der 504
Sol@@ 504
minkään@@ 504
rah@@ 503
19 503
ite 502
huu@@ 502
kiin@@ 501
Scheng@@ 501
bo@@ 500
yll@@ 500
100 499
anno@@ 499
Ver@@ 499
analys@@ 498
21 498
yksin@@ 497
tusla@@ 496
iri@@ 496
Patten 496
leg@@ 496
komissi@@ 495
aalis@@ 495
Cor@@ 495
do 494
2010 493
Doh@@ 492
Az@@ 491
16@@ 490
Tamper@@ 490
eng@@ 489
í@@ 488
tenkin 488
ille@@ 488
itt@@ 487
Afganistan@@ 487
täysi@@ 485
lem@@ 485
dra@@ 484
ikke@@ 484
yhten@@ 484
sissa 484
itystä 483
Yhdysvall@@ 483
pöytä@@ 482
urg@@ 482
our@@ 481
uksena 480
pil@@ 480
inaan 479
tou@@ 479
uuta 478
etä 478
omaks@@ 478
syys@@ 478
EC@@ 478
katastro@@ 477
Bulgar@@ 477
Co@@ 476
hid@@ 476
yhtä@@ 475
27 475
transatlan@@ 475
Kiin@@ 474
vos@@ 473
ue 473
NL 472
ig@@ 472
suun@@ 472
Lu@@ 472
rann@@ 472
usti@@ 471
OLA@@ 470
Luxemb@@ 470
kohtu@@ 470
kra@@ 469
tto@@ 469
Van 469
gan@@ 469
el 468
prior@@ 468
35 468
La@@ 467
vapaa@@ 467
eu@@ 466
hil@@ 465
inf@@ 465
198@@ 463
peri@@ 463
22 463
Bro@@ 463
Kau@@ 462
serva@@ 462
ser@@ 461
Shar@@ 460
mit 459
ü@@ 458
ry@@ 457
käsiteltävä@@ 457
kenn@@ 456
Euro 456
23 455
Mc@@ 454
kre@@ 454
maase@@ 453
CO@@ 453
45 451
for@@ 451
500 450
tetta 449
ren@@ 449
v 448
itteli@@ 448
Pa@@ 448
avi@@ 448
vuoro@@ 446
päätöslauselma@@ 445
käsittelev@@ 445
Mad@@ 445
saata@@ 442
innova@@ 441
todennäkö@@ 441
01 441
era@@ 440
tuomioistu@@ 440
Bur@@ 440
käsittely@@ 439
90 439
komis@@ 438
tonn@@ 438
Mi@@ 437
COD 437
olle@@ 437
ity 437
0 436
tapo@@ 436
Bel@@ 436
viestin@@ 435
aih@@ 434
mes@@ 434
ire@@ 434
ang@@ 433
erinomais@@ 433
omet@@ 433
Le@@ 432
ologi@@ 431
yhteyd@@ 431
pp@@ 431
joulu@@ 430
rit 429
radio@@ 428
and@@ 428
tro@@ 427
x 426
gal@@ 426
ep@@ 425
maas@@ 425
kolle@@ 424
Korean 424
deks@@ 424
kaks@@ 424
työjärjesty@@ 423
erin@@ 423
hti@@ 422
ump@@ 422
valvon@@ 422
him@@ 422
insääd@@ 421
identi@@ 420
aman@@ 420
Amer@@ 418
lim@@ 418
co@@ 417
pin@@ 417
päin@@ 416
Lissab@@ 416
Maa@@ 416
Bos@@ 416
vät@@ 416
ätte 415
päätös@@ 414
Mal@@ 413
vaikutu@@ 413
dik@@ 413
viranom@@ 413
akaan 412
200 412
Yhdistyne@@ 411
toivotta@@ 410
Egy@@ 410
immi@@ 409
määräraho@@ 409
jun@@ 409
Barroso 409
itsi 408
jö@@ 407
emis@@ 407
Kypro@@ 405
37 405
iel@@ 405
häne@@ 404
Israel@@ 403
versi@@ 403
PSE 403
N 402
Presti@@ 402
ristiri@@ 401
Ri@@ 401
bet@@ 401
mää@@ 400
aina@@ 400
lau@@ 399
niin@@ 399
Bas@@ 398
ken 397
Ser@@ 397
jalla 397
GMO@@ 397
Kosov@@ 396
sh@@ 395
28 395
aria 395
ide 394
jus@@ 393
lähesty@@ 392
Ä@@ 392
26 392
ón 391
Husse@@ 391
Me@@ 390
fin 390
valtiossa 390
.000 390
75 387
1997 387
Wat@@ 386
ELDR 386
bian 386
BSE 385
vih@@ 385
torj@@ 385
äh@@ 384
h 383
valitetta@@ 382
Val@@ 381
kein 380
issa@@ 379
musten 378
tusti 378
symb@@ 378
johdon@@ 377
set 377
qu@@ 377
Jap@@ 377
Ne@@ 373
Or@@ 373
ge 373
D 372
Afganis@@ 371
ättä 370
oppos@@ 369
Berluscon@@ 368
WTO@@ 367
issakin 367
Nor@@ 367
M 365
Ru@@ 365
AL@@ 365
Israel 365
2007 365
paper@@ 364
ner@@ 364
ov@@ 363
rid@@ 363
Ti@@ 363
Man@@ 362
Eurosta@@ 362
Atlan@@ 361
Nizz@@ 360
von 360
esityslista@@ 358
55 358
Coton@@ 358
Slova@@ 358
mieles@@ 356
valio@@ 356
San@@ 355
roati@@ 355
Vietna@@ 355
abor@@ 355
toge@@ 355
inä@@ 354
1996 354
anom@@ 353
Ann@@ 353
tän@@ 352
11.@@ 352
sto@@ 351
Belgi@@ 351
even 350
iin@@ 349
Har@@ 348
imperi@@ 348
strö@@ 348
Galic@@ 348
hilj@@ 347
ts 347
ven 347
jot@@ 347
istunnossa 345
Ol@@ 345
29 344
epidem@@ 344
32 344
fundamentalis@@ 344
rke@@ 341
New 339
Hel@@ 338
tode@@ 338
ter 338
da 338
emme@@ 338
esitteli@@ 337
02 337
ye@@ 337
Pu@@ 336
takais@@ 336
33 336
Kal@@ 336
dio@@ 335
Erika 335
Kööpenhamin@@ 335
ttuna 334
Internet 333
rup@@ 333
31 333
ash@@ 332
välin 331
Th@@ 331
puhel@@ 331
taloudell@@ 330
R 330
05@@ 329
mie@@ 327
too 326
even@@ 326
ú@@ 326
Alger@@ 325
minis@@ 325
onom@@ 324
tälla@@ 324
Bo@@ 324
95 323
WTO 323
Bal@@ 322
Mu@@ 322
Bu@@ 322
Del@@ 321
idenkin 321
äskettä@@ 321
48 321
tlan@@ 321
opol@@ 321
ff@@ 320
Araf@@ 320
gra@@ 319
optimis@@ 319
innä@@ 318
42 317
CNS 317
urs@@ 317
konkre@@ 316
gh@@ 315
az@@ 314
Wall@@ 314
ulo@@ 313
mpa@@ 313
Fischler 313
liber@@ 312
Angol@@ 312
dig@@ 312
parlamenti@@ 311
Niel@@ 311
EI@@ 310
selvä@@ 310
Indon@@ 310
sihte@@ 309
ises@@ 308
taud@@ 308
zz@@ 308
emättä 308
Schre@@ 306
wan@@ 306
tonta 305
Canc@@ 305
34 304
ve 303
luop@@ 302
onia 302
UN@@ 302
ec@@ 302
.30 301
1995 301
ira@@ 301
Tai@@ 301
prosess@@ 300
38 300
idät 300
kokon@@ 299
join 299
emen@@ 299
Mor@@ 299
ene@@ 299
ditaan 298
jatket@@ 298
36 297
sig@@ 297
vat@@ 296
avu@@ 296
di 295
kuluttaja@@ 294
huolen@@ 294
oin 294
IN@@ 294
monimut@@ 292
ci@@ 292
imen@@ 292
39 292
Yor@@ 292
é 292
markkin@@ 291
41 290
Gar@@ 290
44 290
Di@@ 290
sosi@@ 289
mid@@ 289
Bla@@ 289
tenkään 288
teollis@@ 288
anti@@ 287
&#91; 287
&#93; 287
emminkin 286
De 286
Ca@@ 286
197@@ 286
Galileo 284
itses@@ 282
jur@@ 282
Pos@@ 282
Fisch@@ 281
matk@@ 281
al 281
kut 280
inhim@@ 280
c 280
MO@@ 279
ard 278
omen 277
up@@ 277
atten@@ 276
ck@@ 276
US@@ 275
onnis@@ 274
tron@@ 273
fe@@ 272
säh@@ 272
NG@@ 272
Po@@ 272
ir 270
emb@@ 270
tein 269
ous@@ 269
tota@@ 269
into 268
Koso@@ 268
des 268
dt 268
tric@@ 268
teg@@ 268
kus 268
sing@@ 267
Fran@@ 267
Go@@ 267
pöy@@ 267
nään 267
katsom@@ 266
ub@@ 266
kump@@ 266
säil@@ 266
.00 265
minim@@ 265
re 264
Du@@ 264
Balkan@@ 263
puheen@@ 263
toissijais@@ 263
IC@@ 263
nen 263
vasto@@ 262
dit 262
Solana 262
bar@@ 261
ttunut 261
mmen@@ 260
hom@@ 260
pul@@ 259
Qu@@ 259
uis@@ 258
sem@@ 257
hon@@ 257
ula@@ 257
Bolkestein 256
töön@@ 256
Pe@@ 256
yste@@ 256
Eng@@ 255
kyseen@@ 255
eva 254
of 253
sovelle@@ 253
p 252
imäär@@ 251
enemmis@@ 251
DA 251
eb@@ 250
pail@@ 249
od@@ 249
mana 247
suhta@@ 246
monopol@@ 245
fin@@ 244
tain 243
bel@@ 243
b 243
ttö@@ 242
onte@@ 241
Hu@@ 241
super@@ 241
one 240
fil@@ 240
En@@ 240
Niger@@ 240
feder@@ 240
Poettering 239
Mac@@ 239
integra@@ 238
ing 238
ira 238
rian 238
ania 237
SA@@ 237
Vitorino 237
asio@@ 236
kysymy@@ 236
työn@@ 236
käyd@@ 235
pun@@ 235
oc@@ 233
fa@@ 233
mies@@ 233
CA@@ 233
poten@@ 232
Lat@@ 232
Ky@@ 231
Fi@@ 231
aim@@ 230
sch@@ 230
myöhem@@ 229
Sw@@ 229
lämpim@@ 228
kl@@ 228
Vitor@@ 227
ch 226
puun 225
fal@@ 225
ord@@ 225
top@@ 225
ron@@ 225
Agenda 224
kaikki@@ 224
Vi@@ 223
Bush 223
ck 222
lia@@ 221
Palestiin@@ 220
seen 220
esty@@ 220
rat 219
Ara@@ 218
Verheugen 218
th 217
use 217
Es@@ 215
and 215
öl@@ 215
hallitus@@ 215
Palacio 215
inter@@ 215
end@@ 214
1.@@ 214
unoh@@ 214
euro 214
ktor@@ 214
suku@@ 214
yer 213
Ju@@ 212
Sta@@ 212
nes@@ 211
Poh@@ 210
tam@@ 210
uro@@ 210
ksena 209
men 209
inis@@ 209
Kore@@ 208
ean 208
Barcelon@@ 208
euroop@@ 207
äärimmä@@ 207
we@@ 207
sion 206
koord@@ 206
Re@@ 205
orm@@ 205
ordin@@ 205
il 205
Pohjo@@ 204
che@@ 202
piiri@@ 201
interven@@ 201
ene 201
Verheu@@ 201
j 200
numer@@ 200
menn@@ 200
kustannu@@ 200
ator@@ 199
markkina 198
opposition 198
the 196
the@@ 196
autonom@@ 196
of@@ 196
arti@@ 195
onni@@ 195
bes@@ 195
ill 194
legitim@@ 193
le 192
Mus@@ 192
solu@@ 192
fio@@ 191
okra@@ 190
cos@@ 190
ry 190
gn@@ 189
co 189
è@@ 189
elintarv@@ 189
AC@@ 188
æ@@ 188
pl@@ 188
Alban@@ 187
ric@@ 187
hetke@@ 186
mili@@ 186
ant@@ 186
rekis@@ 185
Bolkes@@ 185
bour@@ 185
prof@@ 183
Q@@ 181
AT@@ 180
dyna@@ 179
lly 179
ran 179
Hussein 179
kristi@@ 179
F 178
pide@@ 178
htu@@ 176
inten@@ 176
pus@@ 174
medi@@ 174
Slo@@ 174
Poet@@ 173
He@@ 173
imäärä@@ 173
don@@ 171
anna@@ 171
bud@@ 171
esimerki@@ 170
Palac@@ 170
viol@@ 170
tem@@ 169
ollinen 169
kän 169
&a@@ 167
kijö@@ 167
Erik@@ 167
wa@@ 166
dis@@ 165
Aus@@ 165
kunnianhim@@ 164
trate@@ 164
dy 164
For@@ 163
tari@@ 163
essa@@ 162
agen@@ 162
assosiaati@@ 161
fos@@ 160
imatta 160
f 157
lob@@ 157
aw@@ 157
OLAF 156
ehdottom@@ 156
öö@@ 156
tion 155
mär@@ 154
hap@@ 154
syd@@ 154
vilj@@ 152
visi@@ 152
Schengen 152
bus@@ 152
huole@@ 151
assosi@@ 151
rekti@@ 150
täll@@ 150
ò@@ 150
maaseudu@@ 149
rou@@ 148
B 148
nation@@ 148
risti@@ 148
Ukra@@ 148
ous 147
Europe 147
tic@@ 147
idemokra@@ 147
Br@@ 146
Gal@@ 146
argu@@ 145
ef@@ 145
Joh@@ 145
ile 144
qui@@ 144
Europol 144
ire 143
oun@@ 143
ans 143
amb@@ 142
llu@@ 142
imp@@ 142
mb@@ 142
Nig@@ 142
our 141
kam@@ 141
enteen 141
sian 141
ulkop@@ 141
Am@@ 140
poliit@@ 140
kui@@ 140
bro@@ 140
ensinnä@@ 139
oth@@ 139
Por@@ 138
vuoros@@ 137
Eurostat 137
than 136
ristiriid@@ 136
non 136
ning 135
Tou@@ 135
toista@@ 135
ler 134
ippu@@ 134
emp@@ 133
ruption 133
presid@@ 132
tain@@ 132
Pal@@ 132
Dan@@ 131
loo@@ 131
ro 131
Eur@@ 131
+ 130
So@@ 130
vähem@@ 130
ó@@ 130
ttä 129
bor@@ 129
NAT@@ 128
ders 127
fur@@ 127
res 127
alle@@ 127
pre@@ 127
fran@@ 127
Isra@@ 127
no 126
pat@@ 126
ar 126
opin@@ 126
viivä@@ 125
pop@@ 125
inves@@ 124
lämp@@ 124
kulttu@@ 123
mun@@ 123
mas 122
infor@@ 122
G 122
Korea 122
ajoneu@@ 122
Romania 122
bur@@ 121
Wh@@ 121
työnte@@ 120
periaa@@ 120
ear@@ 119
human@@ 119
Pol@@ 118
# 118
Iran 118
gg@@ 118
shar@@ 118
Ger@@ 117
ME@@ 117
ganis@@ 117
adop@@ 117
taul@@ 116
tri@@ 116
acqu@@ 116
tes 115
for 115
kunnian@@ 115
by@@ 115
be 115
Uni@@ 115
tuoll@@ 115
imiel@@ 114
ore@@ 113
rap@@ 113
eder@@ 113
est 112
ad 112
htunut 112
fas@@ 112
Tra@@ 112
dellis@@ 111
ino 111
organ@@ 111
ety 111
dre@@ 110
or 110
ã@@ 110
impl@@ 109
itaa 109
hes@@ 109
met 109
Å@@ 108
reas@@ 108
monimuo@@ 107
aut@@ 107
­ 107
wit@@ 107
ikä 106
à@@ 106
porte@@ 104
log@@ 104
car@@ 104
wi@@ 103
tre@@ 103
hetk@@ 103
toisa@@ 102
plan@@ 102
ituu@@ 102
kuning@@ 102
taar@@ 101
und@@ 101
enna 100
sove@@ 100
spe@@ 100
dr@@ 99
X@@ 99
go 99
Con@@ 98
ori@@ 98
ê@@ 98
om 98
Ban@@ 97
U 97
gar@@ 97
AK@@ 97
prim@@ 97
imer@@ 96
ark@@ 96
television 95
ennut 95
eivät@@ 95
over@@ 95
harmon@@ 95
Mo@@ 95
istunn@@ 94
International 94
Sep@@ 94
arkalu@@ 94
Á@@ 93
kkinä 93
contro@@ 93
tab@@ 92
m. 92
anteen 92
Barro@@ 92
osoituksia 91
opti@@ 91
ulkopu@@ 91
suh@@ 91
tarvi@@ 91
myös@@ 90
hön 90
Jun@@ 90
fiel@@ 89
Fe@@ 89
kysym@@ 89
kous 89
ID@@ 89
au 88
kuin@@ 88
air@@ 88
eman 87
les 87
rac@@ 86
eläk@@ 86
kanis@@ 86
sensu@@ 85
Ge@@ 85
ies 84
star@@ 84
hard 84
out 84
ø@@ 84
pass 84
od 83
am 83
varm@@ 82
Liber@@ 82
Galile@@ 82
kkäy@@ 81
inc@@ 81
ner 81
lor@@ 81
plu@@ 81
med 81
just 81
bour 81
ye 81
ž@@ 81
kiinti@@ 80
Kio@@ 80
PE 80
sti@@ 79
ers 79
net 79
Pat@@ 79
aikaisesti 79
enpäin 78
add@@ 78
pasi@@ 78
pill@@ 78
Col@@ 78
annes@@ 77
ars 77
termin@@ 77
kesken@@ 77
gr@@ 77
Britan@@ 76
bra@@ 76
typ@@ 76
Char@@ 76
sijais@@ 76
töö@@ 75
ger@@ 75
iz@@ 75
his@@ 75
ise 75
post@@ 75
pr@@ 75
ily 75
Brys@@ 75
ur 75
eding 74
itten 74
enmuka@@ 74
As@@ 74
time@@ 74
ex@@ 74
inv@@ 74
som@@ 73
bu@@ 73
itor@@ 73
del 72
World 72
ong 72
bia 72
European 72
tima@@ 72
ç@@ 72
influ@@ 72
pay@@ 71
uudes@@ 71
bil@@ 71
pati@@ 71
Fra@@ 71
Fo@@ 71
meat 71
are 70
lli@@ 70
bin@@ 70
tilann@@ 69
ï@@ 69
tw@@ 69
pe 68
ns 68
inde@@ 68
à 68
Fin@@ 68
ster@@ 68
ent 68
gro@@ 67
Rom@@ 67
modern@@ 67
valu@@ 67
ence 67
sens@@ 67
Pakistan 66
syste@@ 65
EC 65
LA@@ 65
sub@@ 64
stra@@ 64
big 64
app@@ 64
opportun@@ 64
arri@@ 63
can 63
cu@@ 63
ges 63
pass@@ 63
á 63
ties 62
con@@ 62
ant 62
veh@@ 62
Jan@@ 62
Ö@@ 62
w 62
oneu@@ 62
minu@@ 61
um 61
ñ@@ 61
konf@@ 61
dele@@ 60
menta@@ 60
tras@@ 60
gent@@ 60
open 59
lamen@@ 59
sp@@ 59
maj@@ 59
ws 58
British 58
id 58
sion@@ 58
ou 58
put 58
ó 58
solid@@ 58
que 58
uudell@@ 58
J 58
Zimbabwe 58
USA 58
enä@@ 57
yo@@ 57
fel@@ 57
illani 57
Irish 57
Com@@ 57
stu@@ 57
vol@@ 57
ques@@ 57
rang@@ 56
arme@@ 56
suosion@@ 56
ff 56
Dem@@ 56
ogra@@ 56
Trans@@ 56
unila@@ 56
Stock@@ 55
kommun@@ 55
polit@@ 55
Ang@@ 55
sus@@ 54
entit@@ 54
neuvot@@ 54
syr@@ 54
NS 54
anti 53
X 53
ker 53
gy@@ 53
shi@@ 53
Isla@@ 53
lling 53
fis@@ 52
attaa 52
tunti@@ 52
bon 52
Hi@@ 51
arm@@ 51
separ@@ 51
Ag@@ 51
dou@@ 51
käyttöö@@ 51
all 51
head@@ 51
ysti 50
Ex@@ 50
fo@@ 50
ce 50
int 50
Lis@@ 50
Pr@@ 50
Den@@ 49
ase 49
eur@@ 49
ääd@@ 49
ester@@ 49
ins 49
off@@ 49
Bri@@ 48
EL@@ 48
pensa@@ 48
Women 48
hansa 48
mes 48
kustan@@ 47
got 47
Bud@@ 47
mid 47
olos@@ 47
kedon@@ 47
lot 46
join@@ 46
immäis@@ 46
land 46
fu@@ 46
enc@@ 46
sis 46
dro@@ 45
uudessaan 45
Gö@@ 45
Au@@ 45
House 45
stres@@ 45
ude 45
ally 44
majo@@ 44
ese 44
sc@@ 44
EU@@ 44
Gro@@ 43
ed 43
cal@@ 43
ors 43
ger 43
limit 43
trans@@ 43
ves 43
välia@@ 42
tulis@@ 42
eth@@ 42
head 42
ks 42
vern@@ 42
The 42
enter@@ 42
í 42
dus@@ 42
cel@@ 42
France 41
ò 41
analy@@ 41
Rights 41
tional 41
Kosovo 40
OM 40
cor@@ 40
mys@@ 40
lar@@ 40
idem@@ 40
meet@@ 40
ish 39
Etel@@ 39
ition 39
Sad@@ 39
SE 39
gh 39
ferens@@ 38
mer 38
moder@@ 38
Human 38
ek 38
erahas@@ 38
tenkaan 38
Fre@@ 38
Dev@@ 38
occ@@ 38
we 37
idea 37
dri@@ 37
verrat@@ 37
reite@@ 37
ph@@ 37
blo@@ 37
tre 36
her 36
aid 36
fre@@ 36
cot@@ 36
hagen 36
Brit@@ 36
US 36
Pres@@ 36
ling 36
char@@ 36
wel@@ 36
ago@@ 36
by 35
joon@@ 35
Tre@@ 35
maus@@ 35
status 34
soon 34
wn 34
imag@@ 34
NATO 34
ary 34
reg@@ 34
imbab@@ 34
def@@ 33
COM 33
ustra@@ 33
Energy 33
multi@@ 33
Financial 33
ay 33
imes 33
Association 33
ß@@ 33
une@@ 32
elä 32
siih@@ 32
tor 32
mom@@ 32
vic@@ 32
ca@@ 32
cal 32
then 32
ale 32
ï 32
ost 31
minkin 31
yden@@ 31
lic@@ 31
data 31
bit 31
meet 31
ende@@ 31
Fis@@ 31
ly 30
had 30
mone@@ 30
manner 30
pub@@ 30
tru@@ 30
asy@@ 30
ambi@@ 30
age 30
jatkos@@ 30
bri@@ 30
rid 30
Bol@@ 29
ast 29
olitiik@@ 29
etna@@ 29
human 29
aff@@ 29
stitu@@ 29
ago 28
East 28
thy 28
..@@ 28
prov@@ 28
shor@@ 28
ards 28
journ@@ 28
Cha@@ 28
ess 27
verei@@ 27
Gre@@ 27
instru@@ 27
ols 27
farm@@ 27
Democ@@ 27
up 27
yet 27
per 27
lausel@@ 27
my 27
aate 27
ld 27
thu@@ 27
beli@@ 27
Wor@@ 27
onna 26
bal@@ 26
mula@@ 26
but 26
W 26
line 26
control 26
Trade 26
tic 26
parti@@ 26
ce@@ 26
king 26
back 26
transa@@ 26
Yhd@@ 26
ech@@ 26
los@@ 26
cat@@ 26
xemb@@ 25
market@@ 25
ture 25
ket 25
ace 25
nal 25
obli@@ 25
ô@@ 25
fun@@ 24
ref@@ 24
itiik@@ 24
äli 24
amin@@ 24
Soci@@ 24
æ 24
com@@ 24
hop@@ 24
law 24
Union 24
dom@@ 24
ens 24
emer@@ 23
agre@@ 23
oura@@ 23
improv@@ 23
rich 23
kansain@@ 23
É@@ 23
ther@@ 23
its 23
sha@@ 23
will 23
ice 23
ach 23
reser@@ 22
st 22
dam 22
fra@@ 22
cha@@ 22
ineu@@ 22
ben@@ 22
ouse 22
truktu@@ 22
side 22
mul@@ 22
bey@@ 22
Cour@@ 22
prog@@ 21
will@@ 21
clear 21
anim@@ 21
ming 21
problem@@ 21
thou@@ 21
Can@@ 21
lec@@ 21
ic 21
ft 21
shall 21
ope 21
vision 21
Ó 21
Europe@@ 20
ction 20
aver@@ 20
ate 20
ime 20
gani 20
fer@@ 20
call 20
ween 20
bila@@ 20
ol 20
ich 20
justi@@ 20
dec@@ 20
let@@ 19
q@@ 19
sman 19
Barcelona 19
manu@@ 19
Α@@ 19
Ε@@ 19
ting 18
pelkäs@@ 18
els 18
opa 18
inst@@ 18
media 18
pain 18
% 18
ist 18
very@@ 18
thing 18
war@@ 18
air 18
call@@ 18
ktu@@ 18
Christian 18
Health 18
ings 18
lif@@ 18
pol 18
tal 17
Development 17
Strasbourg 17
peen 17
Group 17
pri@@ 17
DP 17
mis 17
bre@@ 17
territor@@ 17
resid@@ 17
cho@@ 17
öin 17
val 17
sho@@ 17
muuton 17
cour@@ 17
ep 17
that 16
sou@@ 16
rela@@ 16
Ä 16
gre@@ 16
arms 16
him 16
ef 16
ow 16
Res@@ 16
over 16
Tam@@ 16
abs@@ 15
Medi@@ 15
vel 15
too@@ 15
dren 15
ance 15
Committee 15
pla@@ 15
Ir@@ 15
Laeken 15
itur@@ 15
lleen@@ 15
vement 15
ters 15
und 15
ical 15
repe@@ 15
arm 15
old 14
ult 14
lloin 14
poin@@ 14
cc@@ 14
intervention 14
Office 14
byro@@ 14
entises@@ 14
row 14
war 14
obser@@ 14
gradu@@ 14
vari@@ 13
ment 13
ver 13
ium 13
run 13
Econom@@ 13
ely 13
tra 13
Yhdys@@ 13
nel 13
mation 13
governance 13
foun@@ 13
popula@@ 13
achi@@ 13
mod@@ 13
bed 13
plan 13
American 13
top 13
Hus@@ 13
Johannesburg 13
each 13
work 12
fac@@ 12
q 12
policy 12
Ass@@ 12
Council 12
aga@@ 12
off 12
ë@@ 12
tent 12
business 12
Lissa@@ 12
ade 12
wor@@ 12
ement 12
ure 12
assis@@ 12
fri@@ 12
ther 12
cr@@ 12
dic@@ 12
tastro@@ 12
cies 12
lines 12
mark 12
multila@@ 12
toler@@ 12
Community 12
ud 12
· 11
fam@@ 11
rele@@ 11
ath 11
ory 11
General 11
acc@@ 11
rati@@ 11
ust 11
Freed@@ 11
Commission 11
ms 11
ried 11
ds 11
alter@@ 11
clause 11
Party 11
ú 11
pli@@ 11
ial 10
trad@@ 10
get 10
ces 10
bac@@ 10
field 10
Sto@@ 10
Läh@@ 10
ted 10
ulgar@@ 10
Oc@@ 10
invo@@ 10
gender 10
Security 10
lack 10
gener@@ 10
low 10
reac@@ 10
ries 10
č@@ 10
common 9
Dec@@ 9
State 9
contr@@ 9
burg 9
Def@@ 9
fir@@ 9
duc@@ 9
cell@@ 9
ods 9
hope 9
see@@ 9
pac@@ 9
div@@ 9
United 9
Rus@@ 9
ple@@ 9
money 9
able 9
fro@@ 9
stre@@ 9
pursu@@ 9
pic 9
cro@@ 9
red 9
Foreign 9
chil@@ 9
abol@@ 9
People 9
ministra@@ 9
cre@@ 9
eve 9
terr@@ 9
cl@@ 9
− 9
ł@@ 9
regula@@ 8
ecu@@ 8
eag@@ 8
Organisation 8
Ü@@ 8
CAP 8
profes@@ 8
oru@@ 8
å@@ 8
sea 8
onal 8
trag@@ 8
ward 8
right 8
promis@@ 8
elec@@ 8
Government 8
ps 8
appe@@ 8
Presid@@ 8
äsket@@ 8
from 8
ules 8
Policy 8
tory 8
ital 8
assu@@ 8
Indus@@ 8
mal 8
Fund 8
muna 8
seri@@ 8
vers@@ 8
demon@@ 8
South 8
p.@@ 8
China 8
gal 8
als 8
Cub@@ 8
simp@@ 8
ones 8
messa@@ 8
Ι@@ 8
with 7
regi@@ 7
tive 7
ß 7
noon 7
cy@@ 7
ual 7
small@@ 7
loc@@ 7
tions 7
Väl@@ 7
vil 7
show 7
well 7
food 7
group 7
ities 7
can@@ 7
û@@ 7
No 7
lainsäädä@@ 7
ble 7
Bank 7
pec@@ 7
hold 7
ability 7
mean 7
act 7
Industry 7
house 7
ign 7
lands 7
ative 7
ening 7
cla@@ 7
Í@@ 7
ete 7
form 7
heu@@ 7
ency 7
vice 7
cen@@ 7
deal@@ 7
@ 7
how 6
ght 6
gran@@ 6
review 6
str@@ 6
Q 6
Programme 6
trac@@ 6
inste@@ 6
force 6
way 6
under@@ 6
vention 6
out@@ 6
gs 6
North 6
if 6
Authority 6
repres@@ 6
ates 6
lem 6
spo@@ 6
name 6
pres@@ 6
level 6
playing 6
peace 6
Regi@@ 6
end 6
acy 6
WT@@ 6
Associ@@ 6
Gener@@ 6
defic@@ 6
racy 6
tors 6
global 6
hand@@ 6
tionary 6
ility 6
terran@@ 6
mber 6
nership 6
court 6
ular 6
Americ@@ 6
basi@@ 6
UK 6
Ι 6
Members 5
let 5
have 5
made 5
practice 5
comb@@ 5
itions 5
plom@@ 5
ets 5
bla@@ 5
good 5
§ 5
their 5
market 5
enjo@@ 5
Economic 5
sm@@ 5
Social 5
dependent 5
part@@ 5
töönpan@@ 5
ources 5
operation 5
ffer 5
mental 5
cy 5
â@@ 5
gla@@ 5
plo@@ 5
ons 5
ision 5
Research 5
ding 5
Sec@@ 5
change 5
coun@@ 5
eing 5
comes 5
road 5
execu@@ 5
Environment 5
national 5
cap@@ 5
rule 5
labour 5
substan@@ 5
Africa 5
without 5
tance 5
cus@@ 5
Ê@@ 5
adoption 5
cer@@ 5
ations 5
day 5
fer 5
port 5
stand 5
pic@@ 5
tics 5
ose 5
single 5
trade 5
coll@@ 5
ways 5
eas@@ 5
ced 5
ology 5
ffic@@ 5
far 5
lea@@ 5
sing 5
ats 5
fied 5
appar@@ 5
Commun@@ 5
Liberal 5
ere 5
ches 5
entr@@ 5
seem@@ 5
deli@@ 5
secu@@ 5
sive 5
¤ 5
Proc@@ 5
gas 5
tural 5
unti@@ 5
š 5
Š@@ 5
nec@@ 5
Internal 4
employment 4
sure 4
ved 4
Conference 4
fare 4
tuna@@ 4
trial 4
new 4
them 4
dow 4
yers 4
ew 4
tho@@ 4
wait 4
Assembly 4
DR 4
è 4
prevention 4
network 4
gosla@@ 4
Af@@ 4
value 4
Minis@@ 4
democ@@ 4
Ö 4
ground 4
täytän@@ 4
equ@@ 4
pris@@ 4
dela@@ 4
wis@@ 4
gue 4
ours 4
public 4
eiv@@ 4
Convention 4
eness 4
Coun@@ 4
itable 4
= 4
law@@ 4
elop@@ 4
clas@@ 4
system 4
spending 4
eurooppal@@ 4
very 4
compromise 4
bec@@ 4
Agency 4
due 4
power 4
Ita@@ 4
Home 4
African 4
bab@@ 4
fair 4
you 4
EUR 4
early 4
individu@@ 4
ì@@ 4
state 4
ural 4
Parliament 4
high 4
ines 4
safe 4
cri@@ 4
ask 4
form@@ 4
ating 4
sex@@ 4
ological 4
beg@@ 4
Justice 4
ple 4
pers@@ 4
monim@@ 4
estern 4
Berl@@ 4
ound 4
quic@@ 4
open@@ 4
op 4
estin@@ 4
ace@@ 4
ilies 4
dama@@ 4
Public 4
″ 4
Ν@@ 4
• 4
fic@@ 3
govern@@ 3
been 3
deal 3
legal 3
environment 3
proc@@ 3
dom 3
ends 3
gos@@ 3
gation 3
chec@@ 3
Finan@@ 3
spi@@ 3
happ@@ 3
now 3
they 3
has 3
past 3
under 3
private 3
how@@ 3
time 3
Sum@@ 3
È@@ 3
economy 3
Govern@@ 3
amen@@ 3
fron@@ 3
learning 3
agenda 3
å 3
term 3
table 3
exac@@ 3
Intergovernmental 3
ils 3
ù 3
sli@@ 3
start 3
cand@@ 3
tax 3
fact 3
parties 3
ased 3
White 3
saf@@ 3
body 3
tering 3
two 3
ded 3
regulation 3
finding 3
want 3
reli@@ 3
union 3
thir@@ 3
wh@@ 3
international 3
must 3
President 3
was 3
Court 3
awar@@ 3
share 3
deta@@ 3
try 3
soci@@ 3
person@@ 3
tant 3
_ 3
what 3
enter 3
custom@@ 3
action 3
sever@@ 3
civil@@ 3
night 3
Afgh@@ 3
access 3
last 3
ulkopuole@@ 3
fla@@ 3
ever 3
funds 3
ffer@@ 3
ality 3
compromis@@ 3
women 3
self 3
country 3
Portugal 3
Environ@@ 3
tex@@ 3
future 3
Cyprus 3
cul@@ 3
versity 3
attle 3
UN 3
Asia 3
agreement 3
cur@@ 3
Fisher@@ 3
fight 3
ý 3
É 3
dies 3
refer@@ 3
Direc@@ 3
porting 3
modi@@ 3
cle 3
productive 3
ratic 3
any 3
democracy 3
pay 3
indic@@ 3
there 3
Stability 3
¡ 3
ful 3
aim 3
ications 3
quality 3
outh 3
pid 3
½ 3
Nov@@ 3
peci@@ 3
led 3
lear@@ 3
else 3
make 3
rene@@ 3
low@@ 3
aring 3
alists 3
representative 3
fig@@ 3
area 3
institu@@ 3
itiz@@ 3
cra@@ 3
depend@@ 3
Europeans 3
° 3
ę@@ 3
Regional 2
tob@@ 2
quo@@ 2
Market 2
ference 2
which 2
sense 2
conflict 2
Mone@@ 2
first 2
report 2
&@@ 2
less 2
fication 2
enlargement 2
essing 2
community 2
approach 2
best 2
divid@@ 2
actions 2
subsidi@@ 2
understanding 2
four 2
statement 2
ining 2
fic 2
social 2
ising 2
tment 2
light 2
compliance 2
manufac@@ 2
turing 2
priva@@ 2
turning 2
gulation 2
tically 2
own 2
may 2
person 2
his 2
service 2
ational 2
larg@@ 2
cond@@ 2
potential 2
ners 2
Agreement 2
finan@@ 2
Z 2
come 2
signed 2
ading 2
follow 2
xi@@ 2
wr@@ 2
burden 2
compe@@ 2
ics 2
States 2
kle 2
initiative 2
goro@@ 2
drug 2
ls 2
º@@ 2
tute 2
political 2
rules 2
procedure 2
vity 2
ration 2
implementation 2
working 2
Commissioner 2
volun@@ 2
fish 2
paper 2
poor@@ 2
any@@ 2
conven@@ 2
endorse 2
consultation 2
terms 2
lead@@ 2
ership 2
ses 2
kel 2
urs 2
major 2
requ@@ 2
correc@@ 2
tly 2
wing 2
pation 2
yes 2
surance 2
information 2
society 2
main 2
labe@@ 2
building 2
mission 2
based 2
mainly 2
new@@ 2
joint 2
asylum 2
oil 2
î@@ 2
rapid 2
ross 2
least 2
Â@@ 2
guar@@ 2
ints 2
ential 2
ight 2
pend@@ 2
base 2
chall@@ 2
thank 2
taking 2
alisation 2
attain 2
kly 2
motion 2
commer@@ 2
free 2
travel 2
Transport 2
tries 2
Middle 2
case 2
tting 2
differ@@ 2
Copenhagen 2
this 2
invi@@ 2
± 2
manag@@ 2
ied 2
gration 2
minimum 2
security 2
rec@@ 2
Commis@@ 2
sions 2
Green 2
perman@@ 2
Parlia@@ 2
points 2
possible 2
people 2
border 2
ffici@@ 2
suspen@@ 2
dly 2
tebor@@ 2
together 2
Secre@@ 2
cam@@ 2
bodies 2
party 2
ome 2
health 2
clos@@ 2
regis@@ 2
holding 2
fear 2
cle@@ 2
press 2
noud@@ 2
commun@@ 2
period 2
thre@@ 2
thern 2
continuing 2
therefore 2
ying 2
range 2
Cy@@ 2
deb@@ 2
adver@@ 2
after@@ 2
step 2
better 2
auc@@ 2
late 2
Republic 2
julki@@ 2
author@@ 2
cru@@ 2
conc@@ 2
fail@@ 2
company 2
defence 2
event 2
emplo@@ 2
kers 2
during 2
Afghanistan 2
wee@@ 2
avoid@@ 2
ratification 2
entation 2
elimin@@ 2
Agriculture 2
Ç@@ 2
õ@@ 2
itoring 2
prob@@ 2
tants 2
Danish 2
benefit 2
great 2
Russia 2
ides 2
hes 2
sibility 2
alities 2
ised 2
iting 2
programme 2
Greece 2
than@@ 2
again 2
still 2
dist@@ 2
reduce 2
Emp@@ 2
alise 2
Stras@@ 2
ù@@ 2
operators 2
Affairs 2
dise@@ 2
Consum@@ 2
laim 2
Α 2
bure@@ 2
isation 2
esses 2
ă@@ 2
through 2
abo@@ 2
Ireland 2
development 2
Central 2
long 2
bs 2
comm@@ 2
dequ@@ 2
arity 2
wid@@ 2
ress 2
ė@@ 2
restor@@ 2
ń@@ 2
Portu@@ 2
Ż@@ 2
ious 2
raud 2
Belarus 2
celon@@ 1
remember 1
often 1
because 1
things 1
absolutely 1
interests 1
population 1
commitments 1
small 1
examin@@ 1
certainty 1
clari@@ 1
option 1
transport 1
Afric@@ 1
cannot 1
kept 1
achieved 1
depen@@ 1
ghts 1
stocks 1
changed 1
balan@@ 1
curr@@ 1
ject 1
Portugu@@ 1
gets 1
were 1
once 1
both 1
ready 1
left 1
exper@@ 1
failed 1
produc@@ 1
produced 1
later 1
December 1
works 1
till 1
natural 1
available 1
tech@@ 1
zone 1
rs 1
xim@@ 1
pressure 1
mind 1
trafficking 1
preci@@ 1
À@@ 1
viously 1
talks 1
going 1
February 1
active 1
gative 1
contrac@@ 1
fec@@ 1
ering 1
committee 1
talk 1
Minister 1
oms 1
ource 1
Ø@@ 1
representa@@ 1
markets 1
sound 1
competent 1
authorities 1
lying 1
wha@@ 1
stable 1
them@@ 1
fall 1
commitment 1
bad 1
days 1
ving 1
Treaty 1
incorpor@@ 1
basis 1
enable 1
funding 1
adopted 1
codecision 1
short 1
Justi@@ 1
elines 1
model 1
fav@@ 1
reducing 1
source 1
internal 1
itor 1
Employment 1
qualified 1
majority 1
difficult 1
takes 1
individuals 1
broad@@ 1
did 1
election 1
May 1
confirmed 1
Constitutional 1
June 1
calls 1
examine 1
possibility 1
using 1
Article 1
consisten@@ 1
judg@@ 1
aware 1
specific 1
rise 1
pects 1
ements 1
domin@@ 1
ences 1
seems 1
return 1
ongoing 1
cris@@ 1
additional 1
Mediterranean 1
understand 1
reform 1
occu@@ 1
negoti@@ 1
involved 1
promo@@ 1
led@@ 1
content 1
Ñ@@ 1
Organis@@ 1
ents 1
Pub@@ 1
sec@@ 1
institution 1
expres@@ 1
fell@@ 1
rights 1
fru@@ 1
essenti@@ 1
ful@@ 1
wish 1
back@@ 1
rism 1
commen@@ 1
medium 1
uses 1
Å 1
voisa 1
dru@@ 1
iddle 1
date 1
conf@@ 1
judicial 1
cial 1
¸ 1
education 1
sible 1
ffec@@ 1
goes 1
down 1
rying 1
enhan@@ 1
management 1
sustainable 1
mobility 1
Amendment 1
course 1
supported 1
Mrs 1
grateful 1
board 1
room 1
favour 1
Funda@@ 1
duty 1
meth@@ 1
America 1
employed 1
Charter 1
balance 1
position 1
process 1
broad 1
criteria 1
respect 1
meeting 1
between 1
Turkish 1
supports 1
establishment 1
fy 1
particular 1
significant 1
carry 1
capital 1
statis@@ 1
capacity 1
buil@@ 1
foc@@ 1
ship@@ 1
compan@@ 1
sexual 1
explo@@ 1
itation 1
stric@@ 1
tter 1
consum@@ 1
hed 1
feel 1
alth 1
countries 1
mentary 1
stands 1
association 1
professional 1
doing 1
within 1
death 1
across 1
home 1
ë 1
politics 1
goods 1
enough 1
subject 1
existing 1
negotiations 1
ý@@ 1
Ý@@ 1
ð@@ 1
rate 1
sci@@ 1
welfare 1
wrong 1
coming 1
letter 1
parliamentary 1
ond 1
ated 1
third 1
cost 1
cks 1
away 1
post 1
ograph@@ 1
fundamenta@@ 1
cou@@ 1
paid 1
talking 1
with@@ 1
legislation 1
fle@@ 1
elections 1
nergy 1
accounts 1
relevant 1
willing 1
moment 1
desig@@ 1
tern 1
place 1
central 1
total 1
allowed 1
transpar@@ 1
freedom 1
think 1
xed 1
threat 1
related 1
critical 1
ators 1
negative 1
democratic 1
should 1
institutions 1
permanent 1
Pact 1
jud@@ 1
reference 1
protection 1
exis@@ 1
² 1
lose 1
youn@@ 1
including 1
inning 1
never 1
orrow 1
means 1
impor@@ 1
acco 1
Maced@@ 1
Spanish 1
connec@@ 1
March 1
inst 1
atory 1
spec@@ 1
tac@@ 1
after 1
counter 1
selves 1
won@@ 1
ghting 1
Nice 1
read@@ 1
goals 1
brief 1
ths 1
week 1
session 1
tical 1
ü 1
pre 1
remo@@ 1
formed 1
something 1
real 1
consequ@@ 1
such 1
compatible 1
membership 1
Swedish 1
experience 1
taxation 1
existence 1
susta@@ 1
Balkans 1
document 1
candid@@ 1
tably 1
directive 1
where 1
reports 1
ring 1
vation 1
weap@@ 1
many 1
xt 1
nic 1
olution 1
Iraq 1
propor@@ 1
institutional 1
reach 1
izz@@ 1
independence 1
colleagues 1
relations 1
speci@@ 1
ority 1
ages 1
blood 1
estiin@@ 1
hamin@@ 1
ittee 1
ì 1
payments 1
prohi@@ 1
ists 1
Nations 1
September 1
presented 1
budget 1
resolved 1
issues 1
weapons 1
state@@ 1
standards 1
before 1
being 1
lled 1
chance 1
bear 1
your 1
life 1
build 1
Common 1
world 1
reduction 1
drugs 1
entity 1
gy 1
order 1
ê 1
cross 1
parts 1
million 1
estab@@ 1
contin@@ 1
portun@@ 1
technology 1
opportunity 1
Brussels 1
Budgets 1
cent 1
focus 1
short@@ 1
deman@@ 1
stop 1
sometimes 1
tury 1
tribu@@ 1
Summit 1
particularly 1
sensitive 1
descri@@ 1
busin@@ 1
excell@@ 1
ication 1
entific 1
orders 1
substantial 1
less@@ 1
competition 1
entra@@ 1
scho@@ 1
Fisheries 1
sugg@@ 1
face 1
aspects 1
relating 1
about 1
etting 1
seem 1
essential 1
dical 1
progress 1
present 1
tively 1
character@@ 1
these 1
apply 1
respec@@ 1
laws 1
regulations 1
export 1
already 1
distribu@@ 1
few 1
establish 1
measures 1
vely 1
hear@@ 1
neighbour@@ 1
double 1
oners 1
strong@@ 1
tax@@ 1
eval@@ 1
sign 1
regre@@ 1
ral 1
concerns 1
economic 1
cooperation 1
tives 1
hing 1
quar@@ 1
struc@@ 1
nor 1
movement 1
electronic 1
trading 1
ο@@ 1
civil 1
ants 1
armed 1
believes 1
proposed 1
request 1
advis@@ 1
opinion 1
help 1
efforts 1
dialogue 1
appropriate 1
ignor@@ 1
pect 1
expen@@ 1
inging 1
uation 1
tation 1
prices 1
alloc@@ 1
ί@@ 1
publis@@ 1
indus@@ 1
Moro@@ 1
office 1
Ο@@ 1
Μ 1
echan@@ 1
ism 1
riers 1
against 1
wide 1
Fren@@ 1
ő@@ 1
stro@@ 1
ś@@ 1
ż@@ 1
four@@ 1
more 1
Č@@ 1
participation 1
campaign 1
Italy 1
Spain 1
poor 1
key 1
Ž@@ 1
ned 1
ė 1
Ρ@@ 1
ć@@ 1
col 1
uscon@@ 1
terrorism 1
Alan@@ 1
Ś@@ 1
ľ@@ 1
ľ 1
