, 697737
. 506936
ja 335622
on 291186
että 162482
ei 66515
Euroopan 62601
@-@ 55269
- 53384
ista 49798
in 49415
myös 46328
se 43589
ovat 42799
komission 37929
ole 37216
arvoisa 36834
sen 36761
en 35053
i 33346
joka 31952
tämä 31856
a 31250
puhemies 30182
inen 29877
is@@ 29559
jotka 28927
ta@@ 28327
siitä 27122
meidän 27004
jäsen 26877
mutta 25776
parlamentin 25455
a@@ 24630
an 23684
tämän 23583
sitä 23582
kuin 22949
nyt 22504
o@@ 22498
tai 22231
e@@ 22206
olisi 22182
sekä 22001
tu@@ 21281
isen 21269
i@@ 21115
issa 21080
emme 20816
unionin 20521
kun 20280
ä 20009
) 19466
( 19379
ti@@ 19323
isiin 19299
vat 19271
in@@ 19124
jos 19094
kuitenkin 19054
komissio 18913
istä 18889
ta 18695
&quot; 18685
? 18643
neet 18534
maan 18466
kanssa 18267
kuten 17973
et 17964
taan 17878
: 17768
te@@ 17575
ne 17465
voi 17387
olen 17386
olemme 17267
k@@ 17037
en@@ 17006
an@@ 16721
aan 16685
koska 16517
u@@ 16467
isten 16248
kin 16190
iden 16173
neuvoston 15984
een 15973
isia 15949
t 15945
tässä 15781
es@@ 15681
ko@@ 15596
asta 15556
s@@ 15447
ita 15445
la@@ 15332
al@@ 15225
u 15151
assa 15123
jonka 15110
niin 15077
jo 15035
ka@@ 14986
hyvin 14941
ille 14821
j@@ 14775
to@@ 14676
vain 14553
pää@@ 14459
minen 14331
t@@ 14327
sillä 14201
oli 14155
isesti 14108
it@@ 14044
y@@ 13834
haluan 13831
im@@ 13808
ä@@ 13788
lle 13689
taa 13638
kaikki 13621
jen 13551
s 13414
mme 13369
n@@ 13221
tätä 12896
vielä 12819
o 12777
ik@@ 12750
eivät 12741
iset 12614
n 12444
vaan 12424
mitä 12326
ia 12301
isi 12234
si@@ 12210
van 12189
at 12169
sa@@ 12155
näin 12154
jotta 12149
os@@ 12113
ihin 12097
ku@@ 12075
em@@ 12062
mielestäni 11938
olla 11833
siihen 11818
jossa 11814
us@@ 11804
niiden 11780
voidaan 11748
me 11730
erittäin 11681
as@@ 11669
h@@ 11655
ti 11471
ki@@ 11414
ne@@ 11410
mista 11335
ma@@ 11140
joita 11125
lisäksi 11002
tästä 10995
vien 10915
ut 10765
vuoksi 10749
llä 10741
lla 10684
et@@ 10667
esta 10658
haluaisin 10652
illa 10596
EU:n 10579
vaa 10558
vi@@ 10520
ha@@ 10503
aa 10419
val@@ 10415
on@@ 10401
tä@@ 10338
mukaan 10335
er@@ 10254
tä 10238
alla 10180
erityisesti 10162
il@@ 10155
hän 10152
perus@@ 10147
tällä 10127
v@@ 10123
to 10068
parlamentti 10059
e 9987
/ 9874
tään 9862
tta@@ 9856
vuoden 9820
ke@@ 9814
alle 9796
ksi 9793
vät 9752
eikä 9720
va@@ 9702
ksen 9695
essa 9686
ennen 9661
iseen 9553
ty@@ 9508
mis@@ 9505
tähän 9402
vasta@@ 9322
ettei 9316
yhteisön 9295
misen 9294
jäsenvaltioiden 9264
li@@ 9260
siksi 9204
ina 9166
paljon 9157
ra@@ 9152
epä@@ 9136
työ@@ 9134
usta 9095
joiden 9086
via 9049
p@@ 9038
vaikka 9037
teen 9026
jota 9024
tää 8990
om@@ 8959
pa@@ 8926
mieltä 8861
r@@ 8854
stä 8841
ol@@ 8820
mu@@ 8781
pitäisi 8759
ten 8741
nämä 8721
huomioon 8668
ollut 8618
puolesta 8605
S@@ 8603
itä 8603
K@@ 8570
tärkeää 8482
ks@@ 8474
määrä@@ 8353
kseen 8299
uu@@ 8234
asti 8218
mistä 8205
neuvosto 8145
el@@ 8121
var@@ 8113
niitä 8109
va 8091
tettava 8080
tel@@ 8040
ar@@ 7981
tehdä 7978
jälkeen 7967
m@@ 7957
he 7943
vä@@ 7895
tetaan 7868
isiä 7807
imme 7789
än 7783
pan@@ 7717
issä 7708
siinä 7635
re@@ 7607
itta@@ 7569
täysin 7567
vuonna 7556
l@@ 7551
mikä 7528
men@@ 7436
toa 7420
hyvät 7382
koko 7371
kaan 7331
jo@@ 7316
T@@ 7308
Eurooppa 7305
d@@ 7296
tiin 7279
puol@@ 7266
hänen 7221
pitää 7213
ssä 7197
M@@ 7183
ll@@ 7183
E@@ 7158
ksiin 7152
ö@@ 7146
kä@@ 7134
jäsenet 7115
ttava 7098
viime 7084
miseen 7078
siis 7048
toim@@ 7048
itse 7012
asia 6998
amme 6995
vastaan 6994
miten 6990
lu@@ 6897
llis@@ 6894
uuden 6875
voimme 6861
ja@@ 6856
tö@@ 6850
sitten 6850
toimia 6849
all@@ 6845
jä@@ 6821
kan@@ 6802
anta@@ 6745
yhteydessä 6685
juuri 6666
puheenjohtaja 6654
saa 6643
mon@@ 6595
eri 6587
asiassa 6565
toimi@@ 6556
esimerkiksi 6554
osta 6541
kyse 6540
isesta 6515
meillä 6509
näiden 6498
pal@@ 6474
enn@@ 6469
utu@@ 6454
kiel@@ 6435
un@@ 6432
antaa 6415
valiokunnan 6412
politiikan 6374
edelleen 6356
ien 6328
ais@@ 6281
van@@ 6279
toja 6275
ehdo@@ 6272
A@@ 6270
man 6263
istu@@ 6227
tamme 6199
B@@ 6198
ko 6178
kaikkien 6172
aivan 6165
tojen 6161
au@@ 6156
ri@@ 6143
ittä@@ 6137
am@@ 6123
itu@@ 6122
jien 6103
kään 6103
heidän 6102
koskevan 6083
tamista 6081
sa 6068
enemmän 6052
yksi 6031
ään 6019
ksi@@ 5971
joilla 5971
eksi 5954
puhu@@ 5939
tava 5924
P@@ 5912
alalla 5888
tin 5882
-@@ 5882
tusta 5876
elle 5875
eseen 5869
maiden 5869
mien 5864
ase@@ 5855
us 5837
laaj@@ 5836
lisä@@ 5827
jat 5810
mi@@ 5808
lopuksi 5802
mietinnön 5792
ossa 5777
tämään 5773
per@@ 5771
unioni 5761
aikana 5754
tävät 5748
esittelijä 5738
ena 5731
ää@@ 5729
ttaa 5728
käy@@ 5722
tänään 5666
ittaa 5659
yh@@ 5658
avulla 5649
yt@@ 5640
id@@ 5637
se@@ 5619
jolla 5609
osallistu@@ 5591
tettu 5555
kset 5541
kka@@ 5536
kannalta 5504
ainoastaan 5490
tus@@ 5489
hyväksy@@ 5469
ksia 5464
koskee 5450
arvio@@ 5437
oltava 5429
toivon 5428
pääs@@ 5410
ottaa 5399
valta@@ 5394
iv@@ 5366
ite@@ 5365
mitään 5356
te 5333
alue@@ 5326
ker@@ 5324
op@@ 5305
le@@ 5302
ver@@ 5298
kysymys 5295
osalta 5291
y 5272
koskevat 5270
vasta 5266
sy@@ 5252
hyvä 5248
essä 5244
kansalais@@ 5242
nn@@ 5239
isille 5235
tan 5223
ympäristö@@ 5215
tyä 5210
voivat 5207
iin 5195
uksia 5189
yhteis@@ 5184
tetään 5166
uutta 5138
osa 5133
tu 5132
joissa 5121
mukaisesti 5111
alan 5097
asiasta 5096
aina 5095
johta@@ 5068
mat 5064
kes@@ 5058
; 5040
vo@@ 5027
luo@@ 5027
liitty@@ 5026
ee 5024
kuitenkaan 5020
mietinnössä 5012
tapa@@ 5009
sano@@ 5009
samaa 5002
nyky@@ 4993
misesta 4973
muu@@ 4972
tapahtu@@ 4966
san@@ 4962
tehtävä 4962
inn@@ 4958
ilta 4958
nä@@ 4952
jä 4949
ksista 4947
teitä 4944
minun 4925
he@@ 4923
kaa 4922
kiittää 4918
oikeus@@ 4910
tulee 4906
tärkeä 4895
nä 4894
pel@@ 4885
estä 4876
ro@@ 4875
hyväksyä 4869
tapauksessa 4865
jäsen@@ 4859
seuraa@@ 4854
sanoa 4847
tois@@ 4840
so@@ 4837
kansalaisten 4834
sopimuksen 4833
malla 4830
viin 4827
ilman 4823
tua 4822
meille 4816
kuu@@ 4811
un 4806
vahvis@@ 4796
ellä 4794
jan 4785
2001 4777
hd@@ 4773
kaikkia 4770
uh@@ 4766
pien@@ 4756
kau@@ 4751
voim@@ 4744
tettiin 4742
pu@@ 4740
saada 4738
ki 4735
ella 4731
tia 4729
na@@ 4724
sel@@ 4722
aja@@ 4722
tien 4717
ih@@ 4715
ell@@ 4712
:@@ 4703
ken@@ 4697
samalla 4694
itse@@ 4680
tettävä 4678
at@@ 4674
sisä@@ 4674
ansa 4665
sä 4665
isin 4661
kirj@@ 4658
ton 4644
ollen 4633
den 4628
yleis@@ 4626
mään 4610
edis@@ 4601
haluamme 4598
ir@@ 4597
ma 4595
eli 4592
arvo@@ 4589
kaksi 4582
asiaa 4581
tarpe@@ 4573
ul@@ 4561
ihmis@@ 4549
rajo@@ 4547
toinen 4543
ämme 4540
ys@@ 4539
näitä 4535
tta 4532
aikaan 4529
todella 4526
otta@@ 4526
po@@ 4496
aal@@ 4481
onnistu@@ 4476
mietintö 4465
2@@ 4464
miseksi 4462
parlamentissa 4446
lo@@ 4438
or@@ 4437
ole@@ 4435
it 4427
jäsenvaltiot 4417
isessa 4409
ky@@ 4403
ris@@ 4399
ään@@ 4386
tukea 4381
ty 4377
kuinka 4370
tekem@@ 4368
ajan 4367
toteutta@@ 4358
maa 4357
hu@@ 4343
yn 4342
käsittel@@ 4339
kaikkea 4332
prosenttia 4321
tänyt 4315
tieto@@ 4315
täällä 4313
mä@@ 4310
no@@ 4310
vuo@@ 4307
asian 4304
esittää 4296
tuo@@ 4286
teh@@ 4284
C@@ 4276
I@@ 4273
tuom@@ 4272
asioiden 4270
siten 4267
su@@ 4262
yhtä 4262
jou@@ 4258
tun@@ 4254
siir@@ 4237
R@@ 4223
kollegat 4213
G@@ 4210
turvallisuus@@ 4209
yhä 4207
H@@ 4204
miä 4203
pi@@ 4198
tilanne 4189
hä@@ 4186
niistä 4180
etu@@ 4168
muiden 4166
miel@@ 4155
maks@@ 4154
hetkellä 4150
vasti 4149
käyttää 4144
teille 4143
1 4140
F@@ 4136
tietenkin 4120
Arvoisa 4119
järjes@@ 4099
ystä 4086
alo@@ 4073
2002 4073
ni@@ 4065
si 4060
toiminta@@ 4054
ittää 4052
tar@@ 4049
D@@ 4039
main@@ 4034
tur@@ 4029
tävä 4028
masta 4024
tämistä 4022
jopa 4011
merk@@ 4004
aj@@ 3990
käyt@@ 3983
ehdotuksen 3981
Euroopassa 3980
tuksen 3979
isessä 3975
par@@ 3970
me@@ 3959
ryhmän 3958
voida 3956
direktiivin 3956
itte@@ 3955
koskeva 3952
otetaan 3951
pitä@@ 3950
massa 3947
enää 3929
yt 3913
ittava 3912
kann@@ 3911
ill@@ 3908
kos@@ 3905
täminen 3896
liian 3894
politiikkaa 3890
olevan 3883
hi@@ 3865
iä 3864
yhdessä 3864
uudistu@@ 3863
laati@@ 3862
vän 3861
mia 3858
ön 3856
maan@@ 3848
tunut 3848
min 3847
nut 3844
joista 3839
varten 3831
välillä 3828
talous@@ 3827
oso@@ 3820
keske@@ 3818
väl@@ 3816
ann@@ 3809
tavalla 3807
ilma@@ 3793
saa@@ 3792
tul@@ 3791
mahdollisimman 3786
ratkais@@ 3784
keskustel@@ 3773
vaar@@ 3773
peruste@@ 3766
perustusla@@ 3763
isestä 3756
paik@@ 3755
oikeu@@ 3748
käyttöön 3744
tiet@@ 3742
2 3741
edusta@@ 3737
ivat 3733
mo@@ 3733
ito@@ 3722
selv@@ 3717
ensa 3713
V@@ 3711
2003 3696
kerran 3691
hen@@ 3689
keskustelu 3662
tekn@@ 3658
toivo@@ 3657
pyy@@ 3652
illä 3649
perusteella 3647
yhteisen 3637
mahdollis@@ 3624
kansan@@ 3623
L@@ 3620
g@@ 3615
onko 3608
b@@ 3604
3 3604
kuulu@@ 3602
inä 3601
monet 3601
josta 3601
tulo@@ 3596
itte 3593
vuotta 3590
! 3589
suojel@@ 3573
tunn@@ 3571
täy@@ 3555
vapa@@ 3544
ou@@ 3541
tila@@ 3536
yhteistyötä 3534
tunnus@@ 3530
ista@@ 3526
uun 3525
ian 3521
llisesti 3515
poliitt@@ 3506
vastuu@@ 3497
todellakin 3492
ka 3490
nim@@ 3490
rik@@ 3488
N@@ 3481
voin 3479
kautta 3476
tö 3475
tule@@ 3475
miksi 3472
uus@@ 3469
lä@@ 3469
tavoin 3467
kuussa 3467
har@@ 3457
toon 3449
vaike@@ 3448
saan 3447
ehdotus 3446
kseni 3445
mahdollista 3437
turva@@ 3435
vähen@@ 3434
neen 3427
vir@@ 3423
ten@@ 3414
tynyt 3412
mer@@ 3408
raken@@ 3408
naisten 3404
uudelleen 3400
voitaisiin 3399
jälleen 3397
kumppan@@ 3393
huol@@ 3389
vaka@@ 3386
aihe@@ 3377
unionissa 3372
ed@@ 3371
selvästi 3371
itsem@@ 3370
iksi 3361
J@@ 3353
järjestelmän 3353
ensinnäkin 3351
johon 3346
ellis@@ 3341
asioita 3338
tavoitte@@ 3335
kehitys@@ 3335
rahoitus@@ 3333
mall@@ 3332
tarvitaan 3326
jaa 3323
ehdotu@@ 3317
tarjo@@ 3315
ava@@ 3310
valtioiden 3304
laad@@ 3298
voisi 3296
miin 3290
6@@ 3290
alueen 3289
aiheutta@@ 3288
tön 3284
usten 3282
oikeus 3281
esiin 3273
yhte@@ 3272
suor@@ 3267
minusta 3265
korva@@ 3261
jää@@ 3254
olemassa 3250
huolimatta 3250
tis@@ 3246
ur@@ 3245
kohd@@ 3241
isuu@@ 3239
iseksi 3239
julk@@ 3237
toisin 3232
puheenjohtajavaltio 3232
ut@@ 3222
sille 3215
tanut 3215
suur@@ 3214
usein 3211
näkö@@ 3207
halu@@ 3206
pä@@ 3200
uo@@ 3199
alis@@ 3180
tus 3178
ani 3177
uusia 3170
viime@@ 3169
tetty 3168
0@@ 3166
5@@ 3165
ili@@ 3163
maailman 3163
ana 3158
tärke@@ 3155
O@@ 3154
yty@@ 3154
toiseksi 3150
män 3148
arvos@@ 3147
huom@@ 3141
kia 3141
lisää@@ 3140
tie@@ 3135
Yhdysvaltojen 3130
ongelmia 3127
säännö@@ 3120
suuri 3116
työtä 3114
ent@@ 3114
aikaa 3106
man@@ 3102
eh@@ 3101
huomau@@ 3092
käs@@ 3092
ksesta 3088
llinen 3088
kon@@ 3078
eet 3078
varo@@ 3077
eni 3070
kar@@ 3069
kohtaan 3064
toimiin 3063
kuuta 3061
sall@@ 3057
vä 3055
aisen 3054
emaan 3052
henkilö@@ 3049
sia 3047
valitettavasti 3045
etenkin 3043
määrä 3043
:n 3041
ot 3037
selke@@ 3036
tyy 3034
yli 3031
syystä 3030
las@@ 3029
erityisen 3026
onn@@ 3022
välis@@ 3021
komissiota 3018
silloin 3013
isista 3010
koh@@ 3008
oll@@ 3007
ita@@ 3007
meitä 3000
uskon 2999
vaih@@ 2998
korostaa 2992
pysty@@ 2984
nimittäin 2983
ter@@ 2980
päät@@ 2979
valtio@@ 2979
osin 2979
hyödy@@ 2978
otettava 2975
llisen 2973
kem@@ 2969
tor@@ 2963
ys 2960
selvää 2959
odo@@ 2957
ää 2955
vassa 2954
jia 2952
uus 2944
kalastus@@ 2936
ve@@ 2935
näistä 2932
huomiota 2929
alta 2928
2000 2926
keh@@ 2926
alu@@ 2926
erityis@@ 2919
ussa 2919
enne 2918
min@@ 2914
tutkim@@ 2908
tamisen 2906
EU 2901
töä 2900
puheenjohtaja@@ 2899
mennessä 2895
aa@@ 2895
muuto@@ 2894
jatku@@ 2894
tan@@ 2894
hal@@ 2888
kor@@ 2888
sovel@@ 2888
liittyvät 2885
han 2884
inkin 2884
valmis@@ 2884
onkin 2882
seura@@ 2881
alais@@ 2880
entistä 2880
z@@ 2876
ho@@ 2871
pidet@@ 2870
alueella 2863
sisäl@@ 2863
yritysten 2863
ton@@ 2862
pidä 2861
talou@@ 2860
saavu@@ 2857
7 2855
osoitta@@ 2854
akseen 2854
alueiden 2852
täneet 2847
missä 2847
maissa 2846
oma@@ 2846
yhteisö@@ 2845
my@@ 2844
ot@@ 2841
kke@@ 2833
maatalous@@ 2831
4 2825
suos@@ 2825
ala@@ 2823
muita 2820
vero@@ 2820
tarkistu@@ 2819
pois@@ 2817
kin@@ 2817
ohjelman 2817
valiokunta 2813
vaikuttaa 2812
äänes@@ 2811
parlamentille 2805
tiedämme 2803
kyse@@ 2803
ensimmäinen 2801
esittä@@ 2799
koskevia 2799
suhte@@ 2796
osoittaa 2795
esit@@ 2795
4@@ 2790
tet@@ 2787
täytyy 2787
myön@@ 2787
kulutta@@ 2786
liittyy 2782
ongelma 2782
nope@@ 2779
kans@@ 2776
kansall@@ 2768
avoim@@ 2768
köyh@@ 2766
delle 2765
tote@@ 2763
kk@@ 2760
jäsenten 2757
suunnitel@@ 2757
pien 2757
� 2753
ilmo@@ 2752
iko@@ 2752
8 2751
seik@@ 2750
desta 2750
6 2747
yks@@ 2739
oikeuksien 2735
pako@@ 2735
lopu@@ 2733
oike@@ 2732
etta@@ 2731
liikku@@ 2730
attom@@ 2726
mahdollisuus 2720
valtion 2719
han@@ 2718
viä 2717
ittel@@ 2716
edisty@@ 2712
näkem@@ 2711
5 2706
tarkoituksena 2704
tamiseen 2699
järjestelmä@@ 2697
mietintöä 2696
pit@@ 2692
2004 2688
ehdotuksia 2685
pelkästään 2685
isivat 2684
tamisesta 2678
kertom@@ 2675
tasolla 2674
ihmisten 2674
tarkistuksia 2672
tänä 2671
syytä 2667
esti 2666
teidän 2658
avat 2658
asu@@ 2657
ville 2655
myöskään 2653
ehdotusta 2650
ksemme 2641
elä@@ 2639
ksiä 2638
joitakin 2636
kas@@ 2636
tehokka@@ 2635
vastaa@@ 2633
miljoonaa 2630
jäsenvaltioissa 2629
tuu 2627
määri@@ 2627
7@@ 2624
joihin 2624
kki@@ 2623
tämme 2621
pysy@@ 2620
3@@ 2619
mielestämme 2619
toisaalta 2618
varmasti 2617
korke@@ 2604
use@@ 2599
tavoitteena 2597
muun 2594
vas@@ 2594
til@@ 2594
ukset 2591
usta@@ 2582
yhteen@@ 2580
ryh@@ 2577
tulevaisuudessa 2577
kuuluu 2576
kalta@@ 2576
uusi 2575
sopimus 2568
aat@@ 2562
tehtävä@@ 2562
paino@@ 2560
yyttä 2559
niihin 2558
keskustelun 2557
tävä@@ 2555
koskevaa 2553
nsä 2547
rauhan@@ 2547
tte@@ 2541
itetaan 2540
muutta@@ 2538
sta 2538
de@@ 2535
kais@@ 2534
kaik@@ 2533
ity@@ 2530
ohjel@@ 2530
ksessa 2528
etta 2524
saavutta@@ 2520
ua 2519
elin@@ 2518
9 2516
kö 2516
kansalaiset 2516
mietinnö@@ 2516
io@@ 2515
ihmisoikeus@@ 2515
di@@ 2514
tella 2513
euroa 2512
osta@@ 2508
isilla 2507
yl@@ 2506
YK:n 2505
jäsenvaltio@@ 2504
teiden 2504
terrorismin 2502
halua 2502
isi@@ 2502
ak@@ 2501
terroris@@ 2496
tuotta@@ 2494
oman 2492
aika 2492
syy@@ 2491
hyö@@ 2489
pe@@ 2488
järjestelmä 2487
Turkin 2484
kansainvälisen 2482
iltä 2481
asiaan 2480
W@@ 2474
budjetti@@ 2474
kala@@ 2472
muut 2472
ehkä 2469
aik@@ 2467
tuho@@ 2467
tehnyt 2466
koskevien 2466
kollego@@ 2465
aloitte@@ 2464
tied@@ 2462
kul@@ 2462
tais@@ 2454
uudesta 2454
ras@@ 2453
uksen 2453
talouden 2452
hyvä@@ 2451
tark@@ 2449
kiitän 2449
kutsu@@ 2448
keskustelu@@ 2446
artiklan 2437
yhdis@@ 2437
sop@@ 2434
amaan 2433
sten 2432
nopeasti 2431
dessa 2431
misestä 2430
edistää 2430
kuun 2429
sov@@ 2429
kunnio@@ 2428
menettely@@ 2428
kunn@@ 2427
kysymyksiä 2426
jät@@ 2426
koja 2425
oikein 2425
tosi@@ 2422
lainsäädännön 2421
inno@@ 2420
saattaa 2417
jät 2410
maailmanlaaju@@ 2410
raho@@ 2410
8@@ 2408
kaikille 2408
yrity@@ 2406
toimielinten 2405
loppu@@ 2398
ero@@ 2397
keskustelua 2396
hin@@ 2395
välisen 2395
todeta 2394
isuuden 2394
päivä@@ 2393
perustu@@ 2389
tin@@ 2386
uksista 2385
koulu@@ 2384
lap@@ 2384
telu@@ 2383
minkä 2382
perustamis@@ 2381
läh@@ 2380
ati@@ 2379
lainsäädäntö@@ 2377
joten 2376
anne 2376
luom@@ 2374
kehitty@@ 2373
Venäjän 2373
vaati@@ 2371
elta 2367
oa 2366
suhtautu@@ 2366
hallituksen 2364
jäsenen 2363
paitsi 2362
turvallisuuden 2362
eri@@ 2356
pyritään 2356
tarkastel@@ 2354
ksien 2354
demokraatt@@ 2354
kannatta@@ 2354
koti@@ 2352
olivat 2350
tarkoittaa 2348
tämä@@ 2348
kehityksen 2345
ap@@ 2341
inti@@ 2336
politiikka 2336
kokou@@ 2335
jille 2331
riko@@ 2330
essaan 2329
erila@@ 2327
matta 2324
pian 2324
täytäntöönpan@@ 2324
kokonais@@ 2323
hallin@@ 2323
aika@@ 2321
toimet 2319
markkinoiden 2319
mietinnöstä 2315
esitet@@ 2311
töjen 2310
keho@@ 2310
tarkas@@ 2310
varmistaa 2306
toimien 2305
9@@ 2305
päätö@@ 2305
konflik@@ 2305
ttom@@ 2302
olette 2301
koskaan 2298
asetu@@ 2297
hallitus 2296
vaihtoeh@@ 2296
utta@@ 2295
jolloin 2292
ven@@ 2291
ihmisoikeuksien 2287
minä 2284
itettava 2283
tämällä 2283
samoin 2281
tom@@ 2279
katso@@ 2279
ksissa 2277
asianmuka@@ 2277
toiv@@ 2275
ansiosta 2275
vista 2274
menetel@@ 2273
mat@@ 2272
puu@@ 2270
tuen 2268
poliittinen 2266
jat@@ 2265
vapautta@@ 2263
kärsi@@ 2262
unioniin 2261
pyydän 2257
toiminnan 2255
monia 2255
jää 2254
kol@@ 2253
ryhmäni 2251
ettava 2251
toteu@@ 2251
tävää 2250
kohta 2250
kri@@ 2250
asi@@ 2248
töön 2247
tarkoitus 2246
valtu@@ 2246
lop@@ 2244
eurooppalaisen 2242
tyytyväinen 2241
muut@@ 2241
ehdotta@@ 2239
äni 2237
määritel@@ 2236
useita 2235
muka@@ 2234
isuutta 2234
tti 2229
asian@@ 2227
kolme 2225
tämiseksi 2223
tulevaisuu@@ 2220
oikeuden 2220
sää@@ 2218
ellisen 2214
ittu 2214
tasa 2213
muuta 2212
taminen 2212
tusten 2211
osten 2208
sanoen 2208
kiinn@@ 2207
yttä 2204
parha@@ 2202
euro@@ 2199
kohdistu@@ 2199
yle@@ 2197
töjä 2196
tetta@@ 2196
yy@@ 2193
uudis@@ 2193
talousarvion 2192
vastus@@ 2191
paremmin 2189
tamiseksi 2188
neuvostossa 2188
sijaan 2187
nne 2186
tilannetta 2184
varoja 2183
oikeuksia 2180
toista 2178
sosiaal@@ 2178
tavat 2176
uusien 2176
uuteen 2175
hallinno@@ 2169
ihmiset 2168
toimielim@@ 2166
asia@@ 2166
aiset 2165
valtaa 2164
iti@@ 2161
tensa 2160
taas 2160
yhtenä@@ 2160
tärkeitä 2159
hieman 2159
täytäntöön 2159
poikke@@ 2159
valiokunnassa 2154
kulu@@ 2153
temme 2149
piir@@ 2149
lisää 2148
vaiheessa 2148
tarko@@ 2147
mattom@@ 2145
johtaa 2144
tekee 2144
itti 2143
annetaan 2142
ves@@ 2142
ydin@@ 2141
kokem@@ 2138
toteuttaa 2137
haluaa 2137
ike@@ 2135
minulla 2133
maat 2132
f@@ 2130
ette 2130
huon@@ 2129
es 2129
eli@@ 2129
pys@@ 2128
pid@@ 2127
än@@ 2124
kaiken 2123
sään@@ 2123
noudatta@@ 2116
esille 2115
valta 2115
valvonta@@ 2115
ainakin 2114
lausun@@ 2113
auttaa 2112
ali@@ 2112
kysymyksen 2111
keskus@@ 2110
ttu 2107
jul@@ 2106
vuutta 2104
palvelujen 2103
asiat 2100
olleet 2098
aisten 2098
muo@@ 2097
kasva@@ 2096
tehdään 2095
ensä 2094
kun@@ 2092
paran@@ 2091
aloilla 2088
tuksia 2088
tau@@ 2088
kulttuuri@@ 2087
vaatimu@@ 2086
ryhmä 2082
oli@@ 2082
15 2079
noin 2075
vah@@ 2074
kalas@@ 2073
edellyttää 2071
tivat 2070
ida 2069
hall@@ 2068
politiik@@ 2067
yli@@ 2066
U@@ 2065
yhteistyö@@ 2062
edus@@ 2061
tele@@ 2060
av@@ 2059
lähet@@ 2058
tol@@ 2057
toimintaa 2057
tasapaino@@ 2056
tehty 2055
muassa 2054
tutkimus@@ 2054
Irakin 2054
ttiin 2053
isyy@@ 2053
oikeudenmuka@@ 2052
käsitellä 2051
kehitystä 2050
eurooppalais@@ 2049
isem@@ 2049
gi@@ 2045
tilanteen 2045
taso@@ 2045
paa 2044
sien 2043
järke@@ 2042
ellinen 2035
tarkistukset 2034
ino@@ 2033
kantaa 2031
koordino@@ 2030
merkittä@@ 2030
kehittä@@ 2029
sellais@@ 2028
ilu@@ 2028
lähe@@ 2028
uks@@ 2027
yssä 2027
yksi@@ 2026
Lissabonin 2026
ymmär@@ 2025
takia 2023
asem@@ 2023
kompromis@@ 2022
ing@@ 2017
kahden 2016
ettom@@ 2016
poliittista 2014
tävän 2012
huomenna 2009
suo@@ 2009
ineet 2008
tarvitsemme 2008
edell@@ 2007
tällainen 2006
heitä 2006
heik@@ 2004
kyllä 2003
sin 2002
poliittisen 2001
innin 1998
tapahtuu 1997
kauppa@@ 1997
tämisestä 1995
sti 1991
komissiolle 1988
sopimukseen 1988
tarkistusta 1987
viik@@ 1985
lin@@ 1985
intia 1983
allinen 1982
kaikissa 1982
pyrkim@@ 1982
yksittä@@ 1980
määr@@ 1980
jousta@@ 1978
alueilla 1978
ensi 1975
käynnis@@ 1974
energi@@ 1974
asioista 1972
kansallisten 1972
tekemään 1972
toimin@@ 1971
oikeutta 1969
kilpailu@@ 1969
edes 1969
siin 1968
puuttu@@ 1967
mät 1966
käyttä@@ 1966
yhteistyön 1965
kat@@ 1964
lai@@ 1964
ettu 1962
puutte@@ 1961
sul@@ 1960
enä 1959
torju@@ 1959
yhteinen 1958
neiden 1958
harjoitta@@ 1958
aminen 1956
ityksen 1956
klo 1955
puolus@@ 1955
lisätä 1954
onta 1954
aikais@@ 1953
suunta@@ 1951
sä@@ 1951
kien 1950
poh@@ 1948
viranomaisten 1948
tarvitta@@ 1946
tietoja 1944
kansainvälis@@ 1943
tarkis@@ 1942
suunn@@ 1940
tyjen 1939
taka@@ 1936
niille 1935
mä 1933
työntekijöiden 1932
totesi 1931
hallitu@@ 1930
kyseessä 1930
tärkeä@@ 1929
työllisyys@@ 1927
luku@@ 1927
ev@@ 1926
menesty@@ 1926
ettävä 1926
vuuden 1925
käsitellään 1924
asetuksen 1924
väline@@ 1924
kel@@ 1923
ata 1923
kaup@@ 1922
ud@@ 1922
minulle 1921
is 1919
aine@@ 1919
yhden 1918
ityks@@ 1917
ksella 1916
puolueen 1915
din 1915
hyväksi 1913
kertaa 1913
olev@@ 1911
valmistelu@@ 1911
kustann@@ 1909
tarkistuksen 1903
opim@@ 1902
itettu 1901
palvelu@@ 1901
jatkaa 1900
mas@@ 1900
lainsäädäntöä 1900
her@@ 1900
kan 1899
mikäli 1898
um@@ 1896
koa 1892
tiu@@ 1891
tiä 1890
paikall@@ 1889
toisen 1889
kysymystä 1888
voima@@ 1887
käytännössä 1883
tunte@@ 1882
hankke@@ 1881
aiemmin 1879
hark@@ 1875
sanoi 1875
prosessin 1871
merkitsee 1871
neuvottelu@@ 1870
liittyviä 1869
mahdollisuuksia 1864
itaan 1864
ulko@@ 1862
sil@@ 1861
ag@@ 1860
kojen 1860
demokratian 1859
ksestä 1858
presidentti 1857
oh@@ 1855
kohta@@ 1855
kysymykseen 1855
haluavat 1854
seuraavana 1853
yttävä 1853
usko@@ 1853
juu@@ 1853
tukem@@ 1851
iso@@ 1849
varojen 1848
ess@@ 1847
tah@@ 1847
puite@@ 1847
ikä@@ 1846
jäsenvaltion 1844
tamaan 1844
seur@@ 1843
päätökseen 1842
ostaa 1842
sopimusta 1841
lisäänty@@ 1841
yksityis@@ 1841
vai 1839
liik@@ 1838
Israelin 1838
kulttuur@@ 1837
mel@@ 1837
selväksi 1836
lis@@ 1836
kunnioitta@@ 1835
kysy@@ 1834
olo@@ 1834
edellyty@@ 1832
viis@@ 1831
tod@@ 1831
suurin 1829
tas@@ 1829
teet 1828
itus@@ 1828
maksu@@ 1826
vallan 1826
sosiaali@@ 1825
saman@@ 1825
misessa 1825
kilpail@@ 1823
kannatan 1822
hallitusten 1822
selkeästi 1820
iloinen 1820
vall@@ 1820
terve@@ 1819
valtiot 1819
myönteisesti 1818
järjestelmää 1818
näky@@ 1818
isella 1818
myy@@ 1817
arvois@@ 1816
rakenn@@ 1816
mielipite@@ 1814
epäil@@ 1814
A5 1811
toihin 1811
tarpeen 1810
ab@@ 1804
hava@@ 1804
lan@@ 1804
siellä 1803
uksesta 1803
valmistelukunnan 1802
ota 1800
kaupan 1800
20 1799
yys@@ 1799
viras@@ 1799
tarv@@ 1796
rapor@@ 1796
direktiivi@@ 1793
inta 1791
50 1789
vakuu@@ 1788
suoraan 1788
annettava 1787
uksiin 1787
vis@@ 1786
maa@@ 1786
kal@@ 1785
vää 1784
teks@@ 1784
ensimmä@@ 1782
pyr@@ 1781
syrj@@ 1781
velvollisuu@@ 1780
äänestys 1780
esittelijän 1780
tuomioistuimen 1780
täisiin 1779
tani 1779
periaatte@@ 1779
pol@@ 1778
tte 1777
yttää 1776
vel@@ 1775
oikeudellis@@ 1775
sitou@@ 1774
tietää 1774
vähän 1773
maailmassa 1773
vissa 1773
järjestel@@ 1773
emään 1772
mur@@ 1771
perustuu 1771
palvel@@ 1770
sta@@ 1768
kesk@@ 1768
pidän 1767
yttä@@ 1767
eurooppalaisten 1765
vahvistaa 1764
jatkuvasti 1764
kanna@@ 1763
autta@@ 1762
kymmenen 1762
isistä 1761
kier@@ 1760
llisia 1759
neuvo@@ 1758
välinen 1757
uudet 1757
sääntöjä 1756
siltä 1755
ttu@@ 1755
ulottu@@ 1754
ainoa 1753
todis@@ 1751
lle@@ 1750
rangais@@ 1750
päivän 1748
päästä 1747
10 1745
alaisten 1745
oikeudet 1744
vuosina 1743
keino@@ 1743
koon 1742
esityslistalla 1738
asioissa 1737
rikos@@ 1737
liikenne@@ 1737
ettiin 1736
olevien 1735
lähes 1733
joutu@@ 1732
llista 1731
kaikkein 1731
tehneet 1730
huomattavasti 1729
isenä 1728
suu@@ 1727
merkittävä 1723
kuulem@@ 1722
pyyn@@ 1721
päätös 1721
tiedotus@@ 1721
oista 1717
mp@@ 1715
ratkaisu 1715
Espanjan 1714
työn 1714
erity@@ 1714
essään 1714
välttämätöntä 1713
tavoitteet 1712
alkuperä@@ 1711
tos@@ 1710
jatka@@ 1709
llisten 1708
laajen@@ 1707
ain@@ 1706
tuotte@@ 1705
myönnet@@ 1705
kuul@@ 1704
aiheutu@@ 1704
nuor@@ 1703
työstä 1702
direktiivi 1702
tety@@ 1701
varsin 1701
saadaan 1701
tavan 1701
näihin 1700
isimme 1698
000 1696
kon 1695
laajentumisen 1694
parantaa 1691
sopimusten 1690
kko@@ 1688
syistä 1687
kansalaisille 1686
vaal@@ 1686
tilanteessa 1686
saanut 1685
jäseniä 1685
ansa@@ 1684
kohdalla 1681
ät 1681
muistu@@ 1680
do@@ 1679
koskevasta 1678
istun@@ 1678
sellaisen 1678
synty@@ 1676
hyväksyi 1675
inti 1675
Y@@ 1675
teta 1673
empia 1673
its@@ 1673
kil@@ 1672
aluksi 1672
parhaillaan 1671
toimenpiteitä 1671
parlamenttia 1668
tapa 1668
tavoite 1667
osan 1666
c@@ 1664
elintarvike@@ 1663
aati@@ 1663
ad@@ 1663
aineiden 1663
kohti 1662
yhteistä 1661
ittu@@ 1661
energia@@ 1661
meistä 1659
päätöslausel@@ 1658
00@@ 1657
keskustelussa 1657
ante@@ 1657
jaan 1656
aihe 1655
viitta@@ 1655
mielessä 1654
puhua 1653
aikoo 1653
tämän@@ 1653
virall@@ 1653
keskitty@@ 1653
haaste@@ 1653
niissä 1653
tää@@ 1650
kohdan 1649
nor@@ 1649
tuotteiden 1649
euron 1648
luonnollisesti 1648
tämiseen 1647
kehity@@ 1647
näyttää 1645
riittä@@ 1643
jan@@ 1642
ei@@ 1642
viranoma@@ 1642
ina@@ 1642
ryhmä@@ 1641
käytetään 1641
ottaen 1640
luettel@@ 1639
luoda 1639
työllis@@ 1638
teollisuu@@ 1638
lähtö@@ 1638
turvallisuutta 1638
pik@@ 1637
della 1637
tilanteesta 1636
vähemmän 1635
vuoteen 1634
käytä@@ 1632
päättää 1632
tell@@ 1631
ihmisiä 1628
keski@@ 1626
omais@@ 1626
sellaisten 1626
puhe@@ 1625
laajentu@@ 1625
kokouksessa 1624
pos@@ 1623
poliittisten 1622
tällais@@ 1622
korosta@@ 1621
puolustus@@ 1619
19@@ 1617
vara@@ 1616
ku 1613
valmi@@ 1613
tietoa 1613
saavat 1611
yö@@ 1610
sitoutu@@ 1610
je@@ 1609
kselle 1608
lliset 1608
totta 1607
ammin 1602
korja@@ 1602
ukseen 1600
tietojen 1600
aiko@@ 1600
osallistua 1599
mieh@@ 1599
yhteen 1599
hta@@ 1599
osa@@ 1598
tal@@ 1595
tason 1595
mielestä 1593
täyt@@ 1593
tuotan@@ 1593
näissä 1592
pet@@ 1592
päte@@ 1590
utta 1589
toiminta 1588
eläinten 1586
perhe@@ 1585
muuta@@ 1585
välistä 1585
sitoumu@@ 1585
vaiku@@ 1583
ellisesti 1582
johd@@ 1582
isuus 1581
ongel@@ 1579
eteenpäin 1578
nimenomaan 1578
vaad@@ 1578
äänesty@@ 1577
tyjä 1577
Mar@@ 1574
ö 1573
tehd@@ 1573
päätel@@ 1572
hyväksyt@@ 1572
olin 1570
käytän@@ 1570
koskevassa 1570
help@@ 1569
jäsentä 1569
,@@ 1569
paranta@@ 1568
minua 1567
päätöksen 1566
aksi 1564
ellista 1563
kannattaa 1561
viera@@ 1559
tiiv@@ 1558
lainsäädännö@@ 1558
katta@@ 1558
verta@@ 1556
yhteiskunnan 1555
ongelmat 1555
säilyt@@ 1554
käsit@@ 1553
25 1552
het@@ 1551
tullut 1549
rau@@ 1549
apua 1548
mahdollisuuden 1546
ju@@ 1546
kaupun@@ 1545
myönte@@ 1544
Yhdysvallat 1544
Irlannin 1543
tämisen 1542
kautta@@ 1542
llisuu@@ 1542
strateg@@ 1541
ratifio@@ 1541
voisimme 1540
yr@@ 1540
ett@@ 1540
puolue@@ 1539
iselle 1538
pitkä@@ 1538
detään 1536
kum@@ 1536
vastaa 1535
Lähi 1535
llistä 1534
yys 1533
EU:@@ 1533
askel 1532
tuke@@ 1532
tamis@@ 1531
emiseksi 1531
huomio@@ 1531
maail@@ 1531
jotkut 1530
tämättä 1530
yhdenty@@ 1530
sähkö@@ 1528
ket@@ 1526
tasa@@ 1525
kesä@@ 1524
taloudellis@@ 1523
Eurooppaa 1522
yleisesti 1522
missa 1522
tällaista 1521
muistuttaa 1520
muodos@@ 1520
eltä 1518
lento@@ 1517
jälj@@ 1517
vaikea 1517
timme 1515
rin@@ 1513
olevat 1513
eläin@@ 1513
kahd@@ 1512
kymmen@@ 1512
kannus@@ 1510
vaikutuksia 1509
att@@ 1507
neuvostolle 1506
ympäristön 1506
onnitella 1505
organis@@ 1504
joh@@ 1501
vana 1499
kim@@ 1498
mainit@@ 1497
järjestöjen 1497
elämä@@ 1496
Ira@@ 1496
vuus 1495
tavoitteita 1494
l 1493
solidaar@@ 1493
täyty@@ 1492
käytet@@ 1491
piä 1491
demokrati@@ 1491
riippumattom@@ 1489
toivomme 1488
istaan 1488
saavuttaa 1486
tulisi 1486
kannan 1485
jäsenvaltioita 1484
alaiset 1483
vastata 1482
tävien 1482
eja 1482
ikin 1480
komite@@ 1480
estää 1480
päätöksiä 1480
yksiä 1480
usi 1479
1@@ 1478
enkin 1478
käy 1478
itus 1478
vähä@@ 1478
ohjelma 1477
määrin 1477
saaneet 1476
sani 1475
inut 1474
päätöslauselman 1474
menettelyn 1474
valtion@@ 1473
rahas@@ 1472
nou@@ 1471
emmin 1471
kauan 1471
päivänä 1471
niillä 1470
johdonmuka@@ 1470
yhteiskun@@ 1470
vuosi 1469
oon 1468
pikemminkin 1467
oiden 1465
saatava 1464
isena 1464
kunta 1464
helpo@@ 1464
myötä 1463
mällä 1463
miljoon@@ 1463
mietin@@ 1462
päättynyt 1462
turvall@@ 1461
ehkäis@@ 1461
tun 1460
kanta 1460
tyvät 1459
yritykset 1459
käytön 1458
sata@@ 1458
é@@ 1458
esimer@@ 1457
vapauden 1457
yrittä@@ 1454
huomatta@@ 1454
ved@@ 1454
humanitaar@@ 1454
eto@@ 1453
luonno@@ 1452
ensin 1452
noudat@@ 1452
ilmi 1452
de 1452
perustel@@ 1451
yksityiskohta@@ 1450
vuosi@@ 1450
tarkoitu@@ 1449
tettua 1449
mainita 1449
esiin@@ 1449
käsitel@@ 1448
myöhemmin 1447
00 1446
taan@@ 1446
w@@ 1446
vakavasti 1446
maassa 1445
kiinnos@@ 1445
väli@@ 1444
mukana 1443
eurooppalaista 1443
asetta@@ 1442
neuvottelujen 1442
suuria 1442
syrjä@@ 1441
eurooppalainen 1441
elim@@ 1441
käytännön 1441
tiedätte 1440
nnö@@ 1440
teemme 1440
Ranskan 1438
valvo@@ 1438
terveys@@ 1437
tehokkaasti 1437
kolman@@ 1437
etteivät 1437
miesten 1436
udet 1436
markkina@@ 1436
asema 1435
ehdotuksesta 1434
pidetään 1432
vaikutta@@ 1432
isissa 1432
ensimmäisen 1431
aisesti 1431
sääntöjen 1431
poliittisia 1430
yksity@@ 1430
tiedän 1429
menettel@@ 1429
lähestymis@@ 1428
aste@@ 1428
tehokkuu@@ 1427
ettu@@ 1427
ine@@ 1426
30 1426
valiokun@@ 1425
epäonnistu@@ 1425
kansalaisia 1425
käsittelyssä 1425
olisivat 1424
onin 1424
löy@@ 1422
1999 1422
1. 1420
parlament@@ 1420
menet@@ 1419
voimakkaasti 1419
paan 1419
sellaisia 1417
oikeudell@@ 1417
oleva 1416
tulla 1415
esitetään 1415
lähtien 1413
ryhmien 1413
tutkimuksen 1412
tapahtunut 1412
lyhyesti 1412
z 1411
oma 1411
näh@@ 1411
kuuluvat 1411
tavoitteiden 1411
laat@@ 1410
ttua 1410
käyttöä 1410
aloitta@@ 1409
ip@@ 1408
lleen 1407
ministeri@@ 1407
dy@@ 1405
maailman@@ 1405
täviä 1403
eivätkä 1403
ammatti@@ 1403
tältä 1403
empi 1403
yhtiö@@ 1402
sama 1402
joukko@@ 1402
ksille 1401
perinte@@ 1400
maita 1400
da@@ 1399
sisälly@@ 1399
tely@@ 1399
tärkeim@@ 1399
totean 1399
kas 1399
selvi@@ 1398
koskevaan 1396
hyötyä 1396
ilmen@@ 1395
kauden 1394
llisiä 1394
kollegani 1393
ilmais@@ 1393
itys 1393
kko 1393
aktiiv@@ 1392
asiakirj@@ 1392
ehdotukset 1391
20@@ 1389
varsinkin 1389
aan@@ 1389
tiedonann@@ 1388
kirja 1388
Euro@@ 1387
käsi@@ 1387
sääntely@@ 1387
tettaisiin 1386
iko 1386
henkilös@@ 1385
rakente@@ 1385
missään 1384
lupa@@ 1382
empaa 1381
muis@@ 1379
tukee 1379
vähemmis@@ 1379
äänestää 1378
laatima 1378
&apos; 1377
vaarall@@ 1377
een@@ 1377
kokoon@@ 1377
alaa 1376
osapuol@@ 1376
kohtaa 1374
kaikilla 1373
res@@ 1373
sopimuks@@ 1373
valmis 1373
viranomaiset 1372
ässä 1372
suure@@ 1372
hallinnon 1372
kea 1371
aikataul@@ 1371
kansala@@ 1370
ge@@ 1369
kom@@ 1368
maatalouden 1368
paket@@ 1368
saat@@ 1367
tietysti 1365
suhtaudu@@ 1364
ajan@@ 1364
kaikkiin 1363
aloittaa 1363
tiete@@ 1363
itet@@ 1362
toimitta@@ 1361
heiken@@ 1361
T 1361
vaatimuksia 1360
suuntaviivo@@ 1359
tapauksissa 1359
teollisuus@@ 1359
paho@@ 1358
tuken@@ 1358
parempi 1357
edel@@ 1357
kaikista 1357
esittelijää 1356
vihre@@ 1356
keskustella 1355
ehdottaa 1355
huolestu@@ 1354
kkä@@ 1353
heti 1353
aiheuttaa 1353
taloudellisen 1353
ila@@ 1353
pyytää 1351
kuningaskunnan 1351
soveltamis@@ 1351
virka@@ 1350
muuttaa 1348
yhdenmukais@@ 1348
toimitetaan 1347
sellaista 1346
periaatetta 1346
as 1346
kilpailukyky@@ 1345
perustamissopimuksen 1345
vaikutu@@ 1344
kyv@@ 1342
kysymyksiin 1341
henkilökohta@@ 1340
merkitystä 1340
tämis@@ 1339
dell@@ 1338
torjun@@ 1338
hän@@ 1335
jos@@ 1335
hallitusten@@ 1334
varma 1333
toimintasuunnitel@@ 1333
Yhdysvaltain 1333
olem@@ 1333
12 1330
askel@@ 1330
pois 1329
ttävä 1329
jäsenvaltioille 1329
luj@@ 1329
vahingo@@ 1328
opis@@ 1328
koro@@ 1327
aksemme 1327
markkino@@ 1326
ituksia 1325
säily@@ 1325
ehdottomasti 1323
äkin 1323
kukaan 1323
mihin 1323
yhteisöjen 1323
merkitys 1322
konkreett@@ 1322
periaatteen 1322
kokouksen 1321
täys@@ 1321
ala 1321
isivät 1321
monien 1321
päätöksente@@ 1321
ittanut 1320
edellis@@ 1320
isiksi 1319
talous- 1319
koskevista 1319
raja@@ 1317
täv@@ 1316
miselle 1316
parann@@ 1314
ittiin 1314
talousarvio@@ 1314
puheenvuoro@@ 1313
oper@@ 1313
maatalou@@ 1313
sijo@@ 1311
aset@@ 1311
välttämättö@@ 1311
attava 1310
kansainväl@@ 1310
toimii 1309
prosent@@ 1309
laaju@@ 1308
häntä 1308
näkemy@@ 1308
äärimmäisen 1308
tilante@@ 1306
vaksi 1305
neuvottelut 1305
pidettävä 1302
samaan 1302
teollisuuden 1301
sellainen 1301
tukset 1301
parem@@ 1301
lla@@ 1301
harjo@@ 1299
og@@ 1299
ss@@ 1298
kansa@@ 1298
olosuh@@ 1298
pohjalta 1297
sosiaalisen 1297
konferens@@ 1297
Nizzan 1296
strategian 1295
perusta@@ 1294
tuksesta 1294
tarkistus 1294
anne@@ 1293
Alankom@@ 1293
ly@@ 1293
insa 1292
omme 1291
joidenkin 1291
voimassa 1290
ikka 1290
olevia 1289
kirjo@@ 1289
Italian 1289
tekni@@ 1288
koros@@ 1288
sotilaall@@ 1288
taloudellista 1287
ihmisoikeuksia 1287
tahansa 1287
markkinat 1286
tit 1285
pa 1285
täm@@ 1284
pohj@@ 1284
tarkka@@ 1284
saan@@ 1284
taistel@@ 1284
valtio 1283
ratkaista 1282
ros@@ 1282
järjesty@@ 1281
täyden@@ 1281
hyödyn@@ 1281
mahdo@@ 1280
soveltaa 1280
kansa 1280
markkinoilla 1279
Yhdistyneen 1279
sopimuksia 1278
rauhan 1278
Euroop@@ 1277
saamme 1276
sen@@ 1275
hyvää 1275
olis@@ 1275
säännöt 1273
199@@ 1273
terveyden@@ 1273
kiis@@ 1272
nykyistä 1272
herät@@ 1271
toiseen 1271
erin 1271
viita@@ 1271
pia 1271
itamme 1271
ruo@@ 1271
esitety@@ 1271
kollega 1270
viikolla 1270
tetun 1269
ai@@ 1268
äänestin 1268
kuun@@ 1267
vastuussa 1267
luottamu@@ 1267
vastuu 1266
tuon@@ 1266
aiheesta 1265
ksensa 1265
mi 1264
sukupuol@@ 1264
vuoropuhel@@ 1263
telua 1262
rauta@@ 1262
kokous 1261
voisivat 1261
neuvostoa 1261
esitetty 1261
todetaan 1261
kehy@@ 1261
ymmärr@@ 1260
hy@@ 1260
pä 1260
tune@@ 1260
kielte@@ 1260
ehdotuksessa 1260
lait@@ 1259
hyvinvo@@ 1258
muuten 1257
itsee 1257
vaik@@ 1257
suuntaan 1257
FR 1257
laatu@@ 1256
tull@@ 1255
valvontaa 1255
puolusta@@ 1255
rajat 1252
jana 1252
väh@@ 1252
tely 1250
Li@@ 1250
kana 1250
emmekä 1250
tilanteeseen 1250
västi 1249
kiell@@ 1248
asianmukaisesti 1247
direktiiviä 1247
verkko@@ 1247
politiikkaan 1245
ottamaan 1245
itsenä@@ 1243
vansa 1243
siirty@@ 1242
void@@ 1242
musta 1241
ongelman 1240
deksi 1240
ryhtyä 1239
vai@@ 1239
hoid@@ 1239
aid@@ 1239
asettaa 1238
lopulta 1237
jän 1236
issamme 1236
johto@@ 1236
yhd@@ 1234
prosessi 1234
kiire@@ 1232
muutoksia 1232
tavo@@ 1232
näyt@@ 1231
kulje@@ 1231
des@@ 1231
Yhdistyneiden 1231
muuttu@@ 1230
asiakirjo@@ 1230
sopimuksessa 1230
enla@@ 1230
teet@@ 1230
ksistä 1230
laittom@@ 1230
kertoa 1229
saatta@@ 1229
vin@@ 1229
arvoa 1229
asiantunti@@ 1228
sopim@@ 1228
vies@@ 1227
vaaditaan 1227
jär@@ 1226
vamma@@ 1226
mmä@@ 1225
sin@@ 1225
sit@@ 1225
mikään 1224
lyh@@ 1224
tansa 1223
sisällyt@@ 1223
.@@ 1222
tuki@@ 1222
kysymykset 1222
pohd@@ 1222
mahdollisuutta 1222
lääkke@@ 1222
vil@@ 1221
tämättö@@ 1220
sovelletaan 1220
rajoitta@@ 1220
ri 1220
essani 1220
lainkaan 1217
äl@@ 1217
yksimiel@@ 1217
kohte@@ 1216
kö@@ 1216
äänestys@@ 1216
eläim@@ 1216
luul@@ 1214
jälleen@@ 1213
painos@@ 1212
heille 1212
parlamentaar@@ 1211
yyn 1211
rahoitta@@ 1211
valmistel@@ 1210
ymmärtää 1210
tellä 1209
mainitsem@@ 1209
loppuun 1209
tuloksia 1209
mus@@ 1209
onnettom@@ 1208
matkusta@@ 1208
uot@@ 1206
keskusteluun 1205
yksinkertaisesti 1205
poliittiset 1204
aks@@ 1203
kolmanneksi 1203
tuki 1203
marras@@ 1202
Rans@@ 1201
riittävästi 1201
uksessa 1200
uudelleen@@ 1198
maalis@@ 1198
melko 1195
ke 1194
etujen 1194
perustaa 1194
kseksi 1194
nnön 1193
suurem@@ 1193
tänne 1193
B5 1193
joudu@@ 1192
ilmaista 1191
vastaan@@ 1191
kestävän 1191
markkinoille 1189
säädö@@ 1189
mietintöön 1187
todellinen 1186
tettuja 1185
kaikkialla 1185
täydellis@@ 1185
äänestä@@ 1185
sovittelu@@ 1184
muutaman 1184
varmuu@@ 1183
demokraat@@ 1183
molem@@ 1183
laajentuminen 1183
hun 1182
d 1182
hallinto@@ 1182
asemassa 1182
nykyään 1182
mekin 1181
puitteissa 1180
etty 1180
sisältyy 1180
varmis@@ 1180
liberaal@@ 1179
avo@@ 1179
esi@@ 1178
Välimeren 1178
päiv@@ 1177
merkille 1177
jättää 1176
perustuslain 1176
yyden 1175
epäilemättä 1173
käyttö@@ 1173
välit@@ 1173
vuu@@ 1173
kansainvälinen 1173
itusta 1172
toimista 1172
vuosien 1171
amista 1171
puheenvuoron 1170
tut 1170
sosiaalis@@ 1170
ksilla 1169
alueita 1169
kolmen 1168
vaatimukset 1167
todellis@@ 1167
luonnon@@ 1167
alaisen 1166
laa@@ 1166
br@@ 1164
sakin 1164
olenna@@ 1164
jonkin 1162
asemaa 1162
tetut 1160
tii@@ 1160
sopi@@ 1160
sodan 1160
julistu@@ 1159
välittömästi 1158
mahdollisesti 1158
isim@@ 1158
eilen 1157
tivät 1157
ymmärre@@ 1157
kuljetu@@ 1157
kolmansien 1157
hylä@@ 1157
rannik@@ 1157
vu@@ 1156
uusi@@ 1156
välin@@ 1156
Itali@@ 1156
ystävä@@ 1155
taata 1155
mukaista 1154
tervey@@ 1154
tekevät 1154
oikeastaan 1154
tarvitse 1153
mil@@ 1153
väär@@ 1151
väki@@ 1151
tellaan 1151
käyttö 1151
loukka@@ 1150
ttavat 1150
laito@@ 1149
ät@@ 1149
ojen 1149
gin 1148
er 1148
varmistettava 1148
tukseen 1148
ettemme 1148
pääministeri 1148
omaa 1147
Kansakuntien 1147
neljä@@ 1146
talousarvi@@ 1146
strategi@@ 1145
järjestö@@ 1145
yhteiskunnall@@ 1145
ran@@ 1145
muihin 1143
jotakin 1143
verkos@@ 1142
du@@ 1141
lehd@@ 1140
yhdenmuka@@ 1140
toiminn@@ 1139
kannatamme 1138
infrastruktu@@ 1138
amiseksi 1138
yd@@ 1137
tällaisen 1137
alueellis@@ 1137
ksen@@ 1137
ob@@ 1136
tyh@@ 1134
maihin 1134
ette@@ 1133
isissä 1132
sisäll@@ 1132
järjestely@@ 1132
palautta@@ 1131
erä@@ 1131
kommen@@ 1131
mahdollisuudet 1129
tetu@@ 1129
valmista@@ 1129
mahdollisuu@@ 1129
pitänyt 1128
katson 1128
esittänyt 1127
jon@@ 1127
laisia 1127
huippukokouksessa 1127
kenties 1126
varsin@@ 1126
järjestelmien 1126
itetta@@ 1126
vetoom@@ 1126
väärin@@ 1126
julkisen 1126
direktiiv@@ 1125
tuna 1124
nykyisen 1124
ikenteen 1124
enta@@ 1123
asioihin 1123
turvapaikka@@ 1123
luotta@@ 1122
oita 1122
S 1122
ic@@ 1121
määrää 1121
tuo 1120
minäkin 1120
ylittä@@ 1120
kiitos 1119
llään 1119
nouda@@ 1119
riitä 1119
käytännö@@ 1119
osittain 1119
väestö@@ 1119
kuva@@ 1119
huoleh@@ 1118
mille 1117
ensimmäisessä 1117
kuluttajien 1117
yhdisty@@ 1117
aihetta 1116
vastu@@ 1116
kehitys 1115
eurooppalaiset 1115
vapau@@ 1114
neuvos@@ 1114
EU:ssa 1114
käytö@@ 1114
syy 1114
ellisia 1113
ide@@ 1113
kus@@ 1113
kohdat 1112
tista 1111
hoita@@ 1111
sovell@@ 1111
toisi@@ 1111
inin 1110
valla 1109
Espan@@ 1109
täisi 1109
tty 1108
aikavälillä 1108
pas@@ 1107
toimintaan 1107
alka@@ 1105
ion 1105
olenn@@ 1105
otettu 1104
toimiv@@ 1103
keskeinen 1103
laus@@ 1101
11. 1101
tön@@ 1100
menettelyä 1100
tes@@ 1100
tuh@@ 1098
ura@@ 1098
inkaan 1098
loka@@ 1097
saatu 1097
politiikassa 1097
kiinnittää 1096
elin 1096
osapuolten 1096
liittymis@@ 1096
vuos@@ 1095
yhteistyö 1095
tilintarkastus@@ 1095
työpaik@@ 1094
kiinni@@ 1094
tinen 1094
hol@@ 1093
lleet 1093
ittämään 1092
jotkin 1092
mitta@@ 1092
oikeudellisten 1092
kehittää 1092
prosentin 1092
destä 1091
tutki@@ 1091
ministeri 1090
allekirjo@@ 1090
ästä 1089
imaan 1089
kiin 1089
muodosta@@ 1088
alue 1087
päinvastoin 1087
käyn@@ 1086
perusoikeus@@ 1086
itty@@ 1085
sala@@ 1085
osaa 1085
maahanmuutta@@ 1085
millä 1084
telun 1084
evä@@ 1084
tti@@ 1084
maaseudun 1084
pitkään 1082
ajo@@ 1082
samme 1081
tyytyväisiä 1081
kaamme 1081
syö@@ 1081
itys@@ 1080
yksimielisyy@@ 1080
arv@@ 1079
näillä 1079
yhtenäis@@ 1079
hte@@ 1079
tra@@ 1078
varat 1078
rakennerahas@@ 1078
henkilöiden 1078
suurta 1077
kohdassa 1076
laaja 1076
prosessia 1076
innan 1076
13 1076
etuja 1075
yhteisymmärr@@ 1074
taho@@ 1072
k 1072
annut 1072
C5 1072
löyd@@ 1072
P:n 1071
Kyproksen 1070
tieteellis@@ 1070
toteutu@@ 1069
Afrikan 1068
perusta 1068
noudattaa 1067
rahoitusta 1067
histori@@ 1067
tulos 1067
kiinni 1066
taloudellinen 1066
01@@ 1066
Kuu@@ 1066
istaminen 1065
Ber@@ 1064
Y 1064
Al@@ 1063
voit@@ 1063
det 1063
ehdokasvaltio@@ 1061
ryhty@@ 1061
merkittävästi 1061
jaka@@ 1061
puheenjohtajan 1061
odottaa 1060
ivät 1060
velvo@@ 1059
luvu@@ 1058
tekijö@@ 1058
neksi 1058
suurim@@ 1057
politiikasta 1057
jaks@@ 1057
lainen 1057
tuoda 1057
edu@@ 1057
roh@@ 1056
perä@@ 1056
rakenta@@ 1056
ulkopuol@@ 1056
puh@@ 1056
vahin@@ 1055
oikeuden@@ 1055
määrän 1054
kunni@@ 1053
yksinkerta@@ 1053
oikea 1053
rohke@@ 1052
tulevaisuuden 1052
ulkopuolelle 1051
huippukokou@@ 1050
luovu@@ 1050
päättävä@@ 1048
resurs@@ 1048
tälle 1048
ottanut 1047
tällaisia 1047
pohjo@@ 1047
malle 1046
luon@@ 1046
teki@@ 1046
valtuus@@ 1045
johtu@@ 1045
vin 1045
varau@@ 1044
tärkeänä 1044
minister@@ 1044
äskettäin 1043
erilaisia 1042
pidämme 1042
järjestön 1042
nel@@ 1041
sopimus@@ 1041
suosi@@ 1041
tavall@@ 1040
tuomioistuim@@ 1040
sanon@@ 1040
vuoropuhelua 1040
vatko 1040
ch@@ 1040
sis@@ 1038
maille 1038
kolleg@@ 1037
ysten 1037
aiden 1037
laatia 1037
eita 1037
idaan 1037
ohja@@ 1037
toimenpite@@ 1037
vaat@@ 1036
vaatii 1036
pitkän 1036
2005 1036
kysymyksistä 1036
vuoro@@ 1035
avus@@ 1035
työjärjestyksen 1034
aiomme 1034
esimerkki 1034
milla@@ 1034
yksinkertais@@ 1034
ensi@@ 1034
Kreikan 1034
tavoitteen 1033
tot 1033
parissa 1033
koske@@ 1033
ittelu@@ 1032
tulevat 1032
tettujen 1032
tiety@@ 1032
raha@@ 1032
vuodesta 1032
useim@@ 1031
päätty@@ 1031
sur@@ 1030
oikeassa 1030
alussa 1030
unionia 1029
oja 1029
taloudellisia 1028
2006 1028
työnteki@@ 1027
kokonaan 1027
tiedot 1027
nos@@ 1026
evat 1025
eiden 1025
tena 1024
ologi@@ 1024
lyhy@@ 1024
ikkaa 1023
vapaaeh@@ 1023
joille 1023
kirjan 1022
päätökset 1022
viraston 1022
intä 1021
joissakin 1020
uskotta@@ 1020
tuk@@ 1019
kansainvälistä 1019
korkea 1019
mässä 1018
por@@ 1018
halutaan 1018
Ro@@ 1018
maista 1017
painopiste@@ 1016
osti 1016
tarkasti 1016
naiset 1016
imin@@ 1016
esittämä@@ 1015
kyken@@ 1015
yritys@@ 1014
kuntien 1014
öljy@@ 1014
mal@@ 1013
simme 1013
lann@@ 1012
uskom@@ 1012
piin 1011
kunnassa 1011
pain@@ 1010
eräs 1010
ilmas@@ 1010
voimaan 1009
suhteessa 1009
aseman 1009
tarkoite@@ 1009
saad@@ 1009
ation 1008
ssään 1008
urhe@@ 1008
atta 1008
esittel@@ 1007
mää 1006
Saksan 1006
viid@@ 1005
torjunn@@ 1005
arvioida 1005
eminen 1004
monimuoto@@ 1004
suoja@@ 1004
valtiota 1004
välineitä 1003
kys@@ 1003
rakenne@@ 1003
sivat 1003
viranom@@ 1003
yrityksiä 1002
isuuteen 1002
ratkaisun 1002
kää 1002
vähimmäis@@ 1002
johtuu 1001
riittävän 1001
m 1001
pysty 1000
suuren 1000
takaisin 1000
kauppaa 1000
uhre@@ 999
kuoleman@@ 999
essämme 999
avun 999
telleet 998
suhteen 998
ölj@@ 998
kur@@ 996
ensiksi 995
hyväks@@ 995
valvonnan 995
koulutus@@ 994
rö@@ 994
lause@@ 994
idän 994
ilo@@ 993
joskus 993
yleensä 993
enemmistö 992
ong@@ 992
tehok@@ 992
40 992
liittyvien 992
hoito@@ 992
muutamia 991
toki 991
akin 991
katastrof@@ 991
tuomioistuin 990
säännös@@ 990
alusten 990
ituksen 989
toimivat 989
lik@@ 988
yhteisö 988
isla@@ 987
aton 987
köyhyyden 987
amer@@ 987
kkää@@ 986
kerro@@ 986
kis@@ 986
uksien 985
eikö 985
nro 985
tulevaisuutta 984
vapautta 984
nia 984
lopet@@ 984
tilas@@ 984
lää@@ 984
kovin 983
pitkällä 983
uudessa 982
väline 982
aloitteen 981
todellista 981
pakol@@ 981
bi@@ 981
käydä 980
periaate 979
onsa 979
komitean 979
tarkoitan 979
tarjoaa 978
Bar@@ 977
huolenaihe@@ 977
tosta 977
turvallisuuteen 977
alaan 976
ohjelmaa 976
tanne 976
julkilausu@@ 975
palveluja 975
valtaan 974
Saks@@ 973
antamaan 972
rahaa 972
enin 972
välineiden 971
maahanmuutto@@ 970
direktii@@ 969
enemmistö@@ 969
unohtaa 969
pano@@ 969
kkaasti 968
kohtia 968
pyyd@@ 968
mit@@ 966
alkaen 966
demokratiaa 966
käsiteltäväksi 965
Sch@@ 965
sisältää 965
päätöslauselmaes@@ 965
alueet 965
esittämään 964
jälke@@ 964
huoles@@ 964
selkeä 964
täs@@ 964
velvoitte@@ 963
itava 963
koke@@ 963
neuvotteluissa 963
ehdotukseen 962
väliaik@@ 962
koskeviin 961
ehdotetaan 961
sijasta 961
paten@@ 961
veto@@ 960
erinoma@@ 960
kiä 960
tilaisuus 960
astaan 959
yhteenkuulu@@ 959
Eurooppaan 959
aikaisemmin 958
kyky@@ 958
heinä@@ 958
02@@ 958
ltä 958
maahanmuut@@ 958
toisessa 957
arvoisat 957
sektor@@ 957
neita 957
turvapa@@ 957
rahoitusnäky@@ 957
kah@@ 956
Pohjois 955
äs@@ 955
myöntää 955
tisen 955
issaan 954
muodo@@ 954
raja 954
kunnianhimo@@ 954
den@@ 953
riippu@@ 953
tapaan 953
hien@@ 953
toimi 953
monissa 952
liikenn@@ 952
omien 950
keinoja 950
immä@@ 950
teki 949
enna@@ 949
koskem@@ 949
myö@@ 948
hyvän 948
politiikka@@ 947
säilyttää 947
hyväksytään 947
artik@@ 946
todennäköisesti 946
PPE 946
käytöstä 946
tiedä 945
kansalliset 945
tiedonan@@ 945
dessä 945
ilun 945
sum@@ 945
tärkein 945
osaksi 944
villa 944
kriteer@@ 944
ohjelmien 944
itukset 943
osas@@ 943
kuljetta@@ 942
tarkastella 942
tere@@ 942
tamisessa 942
tupa@@ 942
alku@@ 941
joko 941
liikke@@ 940
läpi 940
standar@@ 940
moni@@ 940
edellä 940
kansan 940
itan 939
puheenjohtaj@@ 939
samo@@ 939
periaatteita 939
ohj@@ 939
nähd@@ 938
ulkom@@ 938
eten@@ 938
valiokunn@@ 937
daan 937
sor@@ 937
sääs@@ 937
run@@ 936
liit@@ 936
sosiaalista 936
teli@@ 936
turvallisuu@@ 936
poli@@ 935
kiitoksia 935
ryhmämme 934
so 934
yhteistyöstä 934
puolu@@ 934
voimakka@@ 934
pyrki@@ 934
ikään 933
yhteistyössä 933
uutta@@ 933
saastu@@ 933
kalasta@@ 933
panna 932
sanoin 931
kahta 931
mill@@ 931
Ruotsin 930
valko@@ 930
nykyinen 930
vastoin 930
ehdokasvaltioiden 930
hyväksyttiin 929
merkityks@@ 929
luonte@@ 928
eläkke@@ 928
päätöslauselmassa 928
antoi 927
tapaa 927
osoittavat 927
kehotan 927
äär@@ 927
In@@ 927
ellei 926
myönteinen 926
tietenkään 926
saira@@ 926
kää@@ 926
ensimmäistä 925
toi 925
muissa 925
uttaa 925
synn@@ 924
aikoina 923
vastuuta 923
vaikeaa 923
kerta@@ 923
osuus 923
oikeus- 922
muutama 922
antanut 922
lliseen 922
opimuksen 922
ehdokas@@ 921
maksi 921
ponnistelu@@ 921
palestiin@@ 921
pyrittävä 921
ins@@ 920
meidät 920
Kre@@ 920
erää@@ 919
änkin 919
ympäristöä 919
miljoonan 919
netään 919
turvallisuus 919
11 917
Ma@@ 917
kohe@@ 917
rien 916
naisia 916
antu@@ 915
hänelle 914
toi@@ 914
teita 914
ajattel@@ 914
koulutuksen 914
ber@@ 914
eläke@@ 914
puhemieh@@ 913
jotain 913
isyyttä 913
tuemme 913
kilpailun 913
kär@@ 913
lasten 912
seurauksena 912
kehitysmaiden 912
menettely 911
byrokra@@ 911
arvon 911
historiall@@ 911
tujen 911
keskustelemme 910
kaa@@ 910
vaihe@@ 910
mättö@@ 910
määrärahoja 910
luu@@ 909
omasta 909
työskentel@@ 909
vam@@ 909
hallitukset 909
myönteisenä 908
nähdä 908
vään 908
saar@@ 908
merkittäviä 907
tettu@@ 907
lähen@@ 906
mmin 906
loppujen 906
isellä 906
avoimuutta 906
astu@@ 906
puheenjohta@@ 905
vaikutukset 905
vastusta@@ 905
š@@ 905
esitti 904
rahat 904
alueelle 904
tut@@ 903
kuuka@@ 902
utua 902
mahdotonta 902
aio@@ 901
edustaja 901
näkökulmasta 901
silti 901
meko 900
kään@@ 900
tiuk@@ 900
huippukokouksen 900
päästö@@ 900
ongelmaa 899
Itä@@ 899
takin 898
vakuuttunut 898
päätösten 898
pääasiassa 898
vält@@ 898
edustajat 898
kansainvälisten 898
äänestyksen 898
attu 897
An@@ 897
kasvun 897
aktiivisesti 897
jonkin@@ 896
täsmä@@ 895
tulokset 895
keen 895
pur@@ 895
Kansa@@ 895
syn@@ 894
kesken 894
ensisija@@ 893
monta 893
vähin@@ 893
sovelletta@@ 893
akseni 892
isty@@ 892
selvä 892
pis@@ 892
vaikutus@@ 892
joka@@ 891
joutuvat 891
kyseenalais@@ 891
yllä@@ 891
allekirjoitta@@ 891
terro@@ 891
lainsäädäntö 890
suojelua 890
kysyä 890
päivä 889
teistä 889
kolm@@ 889
olemaan 888
mästä 888
nojalla 888
rautatie@@ 888
toivottavasti 887
viimeinen 887
yhtälä@@ 887
innän 887
myötä@@ 886
kou@@ 886
omia 886
A 886
pankin 886
muista 886
ksessä 885
monimutka@@ 885
tarvetta 885
riippumatta 885
tehos@@ 885
ikk@@ 885
poliittisesti 885
g 885
sanon 884
udu@@ 884
maton 884
hem@@ 883
hyviä 883
tiedo@@ 882
työntekijö@@ 882
opp@@ 882
ans@@ 882
tuotteita 881
kustannukset 881
aino@@ 881
valin@@ 881
sanottuna 881
määrittel@@ 880
uri@@ 880
riis@@ 880
io 879
sija@@ 879
jäl@@ 879
äänestyksessä 879
realis@@ 879
Amerikan 879
E 878
sanottava 878
suojelun 878
Na@@ 878
Kiinan 878
hyv@@ 877
odotamme 877
kriitt@@ 877
isillä 877
03@@ 876
direktiivissä 876
edistystä 876
pää 876
rikkom@@ 876
tietoinen 876
tutk@@ 875
syyskuun 875
työ 874
enkä 874
koihin 874
arvi@@ 874
seet 873
kkiä 873
llakin 873
pöytäkirj@@ 873
15@@ 872
enti@@ 872
valmiita 872
Etelä 872
markkinoita 871
vihdo@@ 871
toistaiseksi 871
aloitteita 871
suoj@@ 871
julkisten 871
itsevat 871
kampan@@ 871
ET@@ 870
omaan 870
vähentää 870
päätöstä 870
ollaan 870
uno@@ 870
alueille 870
vill@@ 869
ac@@ 869
mar@@ 869
ennalta 868
jal@@ 868
teja 867
Ruot@@ 866
maanviljelijö@@ 866
eenkin 865
työskenne@@ 865
alha@@ 864
valle 863
isyyden 863
ij@@ 863
olog@@ 863
der@@ 863
toimik@@ 863
tarjota 862
rä@@ 862
istaa 862
sain 862
essamme 861
toistu@@ 861
sisälty@@ 861
tuja 861
pilar@@ 861
mpi 860
Venä@@ 860
mukau@@ 860
kyseisen 859
etaan 859
kansanterveyden 859
eniten 858
oikeuteen 858
tehtävänä 857
noudatettava 856
kaupall@@ 856
lääke@@ 856
pyrkii 855
yksikö@@ 855
usko 854
anal@@ 854
palj@@ 854
yn@@ 854
yksis@@ 853
sisällä 853
13@@ 852
omat 852
toimittava 852
vapauksien 851
ksena 851
Turkki 851
kse@@ 851
sosiaalitur@@ 851
kuluttua 851
Iran@@ 851
vois@@ 850
Turk@@ 850
ulkopuolella 850
arvo 850
osoitus 850
luot@@ 849
pyrimme 849
löytää 848
periaatteessa 848
annettu 848
vaisuu@@ 848
iassa 848
nais@@ 848
ilmoittaa 847
voinut 847
väärin 847
sehdo@@ 847
idemme 847
seuraavan 846
strategia 846
tarkistuksista 845
miljardia 845
konferenssin 845
halun@@ 844
itettävä 844
matka@@ 844
investoin@@ 844
hätä@@ 844
elintarvikkeiden 843
kassa 843
verrattuna 842
inne 842
pro@@ 842
Euroopasta 842
vakaus@@ 842
aseiden 841
vahv@@ 841
luonn@@ 841
varaa 841
ryhd@@ 840
sattu@@ 840
kasta 840
ympäris@@ 839
ssa 839
ulkopolitiik@@ 839
rahoitu@@ 839
Mon@@ 839
investo@@ 839
isku@@ 838
jokaisen 838
tarpeeksi 838
jatkossakin 838
miehet 837
tyihin 837
elämän 837
pääsy@@ 837
tellut 837
ha 837
sanotaan 836
tasapuol@@ 836
entisestään 836
vastuun 836
ksu@@ 836
unionille 836
inte@@ 835
ni 835
lou@@ 835
laan 834
llemme 834
hyökkäy@@ 834
käämme 833
vastaus 833
perin@@ 833
kysymy@@ 833
esite@@ 832
ikka@@ 832
todettava 832
tiedotta@@ 832
sito@@ 831
kuka 830
perustamista 830
tietoisia 830
Gu@@ 830
toimenpiteet 830
aiempaa 830
kompromissi@@ 829
ere@@ 829
ratkaisem@@ 829
enem@@ 829
tarkasteltava 829
tehtävää 828
ongelmien 828
ainen 827
kyt@@ 827
maksaa 827
kansallisen 827
vaale@@ 827
kuulla 826
eurooppalaisia 826
ajatus 826
paras 825
neitä 825
rooli 825
ttuja 824
erinomaisesta 824
esitän 824
tämänpäivä@@ 824
hyväksytty 824
minuu@@ 823
tavan@@ 823
neuvotteluja 823
etel@@ 823
läsnä 822
ittäminen 822
met@@ 822
hyl@@ 822
estaan 822
evan 821
tyyn 821
laista 821
hor@@ 821
esti@@ 820
täysistunnossa 820
koskevissa 820
ttujen 820
jel@@ 820
torjumiseksi 820
evät 819
toimimaan 819
ivan 819
hiljattain 818
tana 818
assa@@ 818
rj@@ 817
tarkoituksen@@ 817
äänty@@ 817
kansojen 817
todellisuu@@ 817
täysimäärä@@ 817
todellakaan 816
yrit@@ 816
raha 816
toteutetta@@ 816
poltto@@ 816
tävään 816
kehittämisen 815
tieli@@ 815
maata 814
reago@@ 814
jokainen 814
julkais@@ 814
jatkossa 814
niinpä 814
rool@@ 814
län@@ 814
yrityksille 813
stään 813
muodossa 812
tarvitsee 812
anin 812
saapu@@ 812
Palestiinan 812
vääris@@ 811
asiall@@ 811
allaan 811
jau@@ 811
toimielin@@ 811
naapur@@ 811
huomi@@ 810
Inter@@ 810
yleissopimuksen 810
ongelmista 809
sisämarkkinoiden 809
mamme 809
varainhoito@@ 809
keino 809
omista@@ 808
seurauksia 808
kohdista 808
amalla 807
60 806
vaadimme 806
Valko 806
työllisyyden 805
ansi@@ 805
mielip@@ 805
14 805
erityistä 804
ban 804
saavuttamiseksi 803
mielen@@ 803
yyteen 803
liittyvistä 803
tuneita 803
vissä 802
ete@@ 802
tiettyjä 802
fi@@ 802
lta 802
tutkimusta 802
olisimme 801
västä 800
näkökohtia 800
suhteita 799
pann@@ 799
ristiriidassa 799
Gen@@ 799
tämänhetk@@ 798
toimis@@ 798
ajien 798
rehe@@ 798
työhön 798
iit@@ 798
annetta@@ 797
peräisin 797
huhti@@ 797
isuudesta 797
viljel@@ 797
pöytäkirjan 797
ny@@ 796
itettiin 796
kulku@@ 796
ympäristöasioiden 796
hallinn@@ 795
palestiinalais@@ 795
tukien 795
ampi 795
vuoropuhelun 795
edistys@@ 795
laajentumis@@ 795
ilta@@ 794
poliisi@@ 794
lähestymistapaa 794
alojen 794
olisin 793
Bryssel@@ 793
kysymyksissä 793
istamaan 793
täytäntöönpanoa 793
suuret 793
kehitysyhteistyö@@ 793
vilpit@@ 793
mielell@@ 792
olevaa 792
sanom@@ 792
kolmas 792
myönteistä 792
saisi 792
sopimukset 792
sosiaalidemokra@@ 791
nykyisin 791
ensisijais@@ 791
työs@@ 791
miljar@@ 791
WTO:n 791
innut 790
neljä 790
os 790
taloudellisten 790
tekst@@ 790
käyttöönot@@ 790
14@@ 789
tuks@@ 789
teissa 789
lö@@ 789
tunnusta@@ 789
järjestelmään 789
toukokuuta 789
vakuuttaa 789
järjestöt 788
iku@@ 788
mekanis@@ 788
puolella 788
palau@@ 787
Kes@@ 786
varmistamaan 786
hel@@ 786
tävissä 786
talousarviosta 786
aikavälin 786
kä 786
osoittanut 785
ykset 785
taloudelliset 785
unionista 785
Yhdysval@@ 785
liitt@@ 785
televat 784
puolestaan 784
jäsenelle 784
komissiossa 784
aisia 784
ratkaisua 784
tekemistä 784
yhdys@@ 784
liittymistä 784
ban@@ 784
sivu@@ 783
saamaan 783
väes@@ 783
sosialis@@ 783
liikenteen 783
onnettomuu@@ 783
Su@@ 782
kot 782
omassa 782
kuulu 782
muun@@ 782
istö@@ 781
lähestymistapa 781
välille 781
puuttua 781
rahoituksen 781
rauh@@ 781
sotilas@@ 781
kuukauden 780
itetään 780
itä@@ 780
pitkälle 780
voitava 780
vaikutus 779
huume@@ 779
kiito@@ 779
vi 779
poistaa 779
sai 778
yri@@ 778
ratkaise@@ 778
elo@@ 778
tarkoita 778
haa 778
ilmoitta@@ 777
käytössä 777
henkil@@ 777
intiin 777
yleisen 777
hyväksymään 777
rat@@ 777
II 777
aista 776
80 775
kkaa 775
edellyt@@ 775
puhun 775
valtioita 775
nykyisten 775
suosionosoituksia 775
ona 774
kiintiö@@ 774
enimmäis@@ 774
aineita 774
gen 773
kaudella 773
tyy@@ 773
seja 773
edustajien 773
kaikenla@@ 773
yksen 773
bio@@ 773
tuhan@@ 772
raj@@ 772
mor@@ 772
suhtaudun 772
isuus@@ 772
KOM 772
välttää 771
Strasbour@@ 771
aloite 771
tussa 771
väestön 771
kasvaa 771
terrorismia 771
kasv@@ 770
tiedon 769
laatua 769
kysymyksessä 769
itusten 769
heidät 769
käsitte@@ 769
saatav@@ 768
tuolloin 768
kesku@@ 768
Sa@@ 768
len@@ 767
vaatia 767
hyödyntää 767
ivä@@ 767
valtioissa 767
iken@@ 767
Kioton 767
riippuva@@ 766
käytettävissä 766
itu 766
laisten 766
eilla 766
seka@@ 765
viisi 765
ästi 765
huomauttaa 764
tuotannon 764
valvonta 764
Brysselissä 764
vastauks@@ 764
Britan@@ 763
virhe@@ 763
kahden@@ 763
ammat@@ 763
kir@@ 763
vina 763
nuorten 762
hin 762
tulle@@ 761
budjet@@ 761
vied@@ 761
gia 760
mielenkiin@@ 760
antavat 760
vuosittain 760
Portugalin 760
siirtymä@@ 760
lev@@ 759
vielä@@ 759
ettel@@ 758
kka 758
katsomme 758
enempää 758
tulk@@ 757
toimenpiteiden 757
tärkeän 756
demokraattisen 756
katsoo 756
omaksu@@ 756
kuluessa 755
äänestämme 755
ulkominis@@ 755
ihmistä 754
kolme@@ 754
ksiaan 754
parlamenttien 754
levi@@ 754
työjärjestys@@ 753
sal@@ 753
huumaus@@ 753
oikeusasia@@ 753
vahvistetaan 752
tuotanto@@ 752
iva@@ 751
vapaus 751
esittelijö@@ 751
hankal@@ 751
sod@@ 751
lent@@ 750
pidät@@ 750
vaalien 750
uudistuksia 750
P 750
naapu@@ 750
teillä 750
millään 749
työvoim@@ 749
aluetta 749
yksimielisesti 749
aste 749
suostu@@ 748
käsittelyn 748
edellytykset 748
hyväksynyt 748
pidäty@@ 747
tekstin 747
ankar@@ 747
keskisuu@@ 747
kauppa 747
vää@@ 746
net@@ 746
jäsenvaltiossa 746
mahdollinen 746
tarkistuksessa 746
pana 745
ratkaisuja 745
I 745
paikalla 745
tapaus 744
kaikesta 744
atit 744
vakau@@ 744
yhteisestä 743
väis@@ 743
komissiolla 743
ehkä@@ 743
nnet@@ 743
kkau@@ 742
nämme 742
ru@@ 742
ymmärrän 742
tehdyn 742
suhteet 742
vaikuttavat 741
änsä 741
tore@@ 741
toissijaisuus@@ 741
sitte 741
julkisia 741
gene@@ 741
jäsenille 740
tosin 740
yhdyn 740
valvoa 740
hakem@@ 740
tehtä@@ 740
toimen@@ 740
ongelmiin 739
keja 739
laajentumista 739
utunut 739
tausta@@ 739
haluais@@ 739
amisen 739
poliitik@@ 739
tekijä 739
istunto@@ 738
kumo@@ 738
artiklassa 738
seikka 738
r 738
yhteispäätös@@ 737
puheenvuoroni 737
täkin 737
usti 737
strategiaa 737
annan 736
tasavallan 736
haki@@ 736
monen@@ 736
käydään 735
DE 735
matkailu@@ 735
seuraavaksi 735
kiireellis@@ 734
tarkistusten 734
unionilla 734
yhteisiä 734
tulosta 734
kaikkiaan 734
oissa 734
suhd@@ 734
todellisuudessa 733
kehitykseen 733
tarvittavat 733
kejä 733
kissa 733
ittain 733
vakaus- 733
tisesti 732
työsken@@ 732
rahaston 732
tek@@ 732
kestävää 732
haita@@ 732
puheenjohtajavaltion 732
lentoyhtiö@@ 732
mpää 731
työmarkkina@@ 731
hyväksym@@ 731
todell@@ 730
valvonn@@ 730
tetä 730
kaasu@@ 730
inhimi@@ 730
joulukuuta 729
alkaa 729
siviil@@ 729
lähte@@ 729
unut 729
kasvua 729
meri@@ 729
onnistunut 728
Se@@ 728
Laeken@@ 728
gen@@ 727
ehdotusten 727
innista 727
puhumme 727
llisuutta 727
täh@@ 727
kuull@@ 727
sijoitta@@ 727
tehokas 727
Makedon@@ 727
uud@@ 726
sovitta@@ 726
hyväksyty@@ 726
useam@@ 726
tällaiset 726
toteutetaan 726
lainsäädän@@ 725
järjestelmiä 725
atu@@ 725
tahd@@ 725
heng@@ 724
käsiteltävänä 724
pi 724
hyväksyy 724
jätte@@ 724
tiedon@@ 724
toimivalta@@ 724
tarkemmin 724
edistämiseksi 724
alusta 723
ikö 723
töihin 723
odotta@@ 723
perustan 723
avoimesti 723
ajoneuvo@@ 722
jemme 722
18 722
lyö@@ 722
ulko- 722
molemmat 721
sukupol@@ 721
ympä@@ 721
kysymyksestä 720
pk 720
á@@ 720
lausunnon 720
esittelijänä 719
Irlan@@ 719
useat 719
dikta@@ 719
perustuslakis@@ 719
ntä 718
talousarviota 718
riit@@ 718
maahan 718
rajojen 717
mitenkään 717
sijaitse@@ 717
16 717
lopussa 717
lain@@ 717
sanne 717
mitkä 716
kohtuu@@ 716
Afrik@@ 716
muille 715
Is@@ 715
ehkäisem@@ 715
kunno@@ 715
toisia 715
periaatteiden 714
valitettavaa 714
tähd@@ 714
perustuvan 714
talous 714
president@@ 714
käsittelevän 713
sosiaalinen 713
talousarvioon 713
keskusteluja 713
totu@@ 713
Portugal@@ 713
meja 713
aamuna 712
kuolem@@ 712
parlamentilla 712
viiden 712
miet@@ 712
itun 712
oikeuksista 711
seuraa 711
suuresti 711
itään 711
vakavia 711
huippu@@ 711
V 711
x@@ 711
Pro@@ 710
parlamenttiin 710
tulevan 710
tasapain@@ 710
Barcelonan 710
vian 709
uksella 709
ksissä 709
gissa 708
metsä@@ 708
voisin 708
aar@@ 708
vastuun@@ 708
varmistamiseksi 708
Tans@@ 708
joulukuussa 707
koos@@ 707
toimielimet 707
pitävät 707
Bus@@ 707
mukainen 707
liiken@@ 707
saataisiin 706
huolehd@@ 706
pom@@ 705
sopimuksesta 705
glob@@ 705
impia 705
äsken 705
osal@@ 705
ass@@ 705
tapahtumat 705
puitte@@ 704
ksenä 704
etusij@@ 704
jääd@@ 704
liitto@@ 704
vaatimusten 704
väkivallan 704
tavar@@ 704
tietävät 703
saavutettu 703
otsa@@ 703
työpaikkoja 702
tisia 702
ohjelmassa 702
iteet@@ 701
kehittämistä 701
töntä 701
lain 701
korostetaan 701
asetus 701
käynn@@ 700
Prodi 700
kansallis@@ 700
tiettyjen 699
kilpailua 699
kansallisia 699
imman 699
Itä 699
painopis@@ 699
proses@@ 698
kone@@ 698
kkuu@@ 698
viksi 698
ansall@@ 697
sana@@ 697
esittelijä@@ 697
tehtäviä 697
nimissä 697
palvelut 696
kasvu 696
AKT 696
torjua 695
varmista@@ 695
minkäänlaista 695
meren@@ 695
äänestystä 694
hankkeen 694
kkaan 694
osallistumista 694
toimeen@@ 694
kap@@ 694
integro@@ 694
kysymysten 693
tarve 693
vapauteen 693
tosiasiassa 693
vakauden 693
atte 692
ilmi@@ 692
toisinaan 692
säännöksiä 692
nähdäkseni 692
tavoitetta 691
teri@@ 691
sota 691
Afganistanin 691
yksinomaan 691
muoto@@ 690
rekister@@ 690
vakuutus@@ 690
iten 690
vieläkin 690
uhd@@ 690
arkk@@ 689
kee 689
yhteistyöhön 689
tuvat 689
välisessä 689
varmistetaan 689
Tur@@ 689
käsittelyyn 688
yksipuol@@ 688
avoimuuden 688
omaisen 688
käytettävä 688
vastaamaan 688
ajat@@ 688
netaan 687
kkaita 687
Lam@@ 687
pite@@ 687
ilu 687
vastaavat 687
Belgian 687
pienten 687
puheenjohtajana 686
näy@@ 686
ttavaa 686
tukemaan 686
Puol@@ 686
enemmistön 685
hyväksyttävä 684
eurooppala@@ 684
suurempi 684
edessä 684
maahanmuuton 684
kuvi@@ 683
vakava 683
ratkaisu@@ 683
samanaikaisesti 682
yrittää 682
kid@@ 682
parantamiseksi 682
ällä 682
yhden@@ 682
istamme 682
suurten 682
vienti@@ 682
kelpo@@ 681
diplom@@ 681
ajat 680
asta@@ 680
käsittelyä 680
prosessiin 680
yksilö@@ 680
vaativat 680
institution@@ 680
siirre@@ 679
kossa 679
järkevää 678
tämisessä 678
70 678
jet@@ 678
komissiolta 678
amisesta 678
H 678
12@@ 677
onne 677
kansallista 677
aloja 677
suunnittel@@ 677
teo@@ 677
hallitusta 676
toisistaan 676
ktiiv@@ 676
vaali@@ 676
kasvus@@ 676
gu@@ 675
ise@@ 675
tavoitteista 675
vallan@@ 675
useiden 675
elää 675
laadu@@ 674
tekniikan 674
hinn@@ 674
tarjou@@ 674
toteutettava 674
EK@@ 674
viestintä@@ 674
mansa 674
syyskuuta 674
milloin 673
ym@@ 673
isempi 673
ryhmät 672
keskenään 672
saakka 672
Kar@@ 672
elinten 672
kohtana 672
jen@@ 672
bian 672
17@@ 671
asetetaan 671
kustannuksia 671
amma@@ 671
vuosia 671
yleistä 670
hir@@ 670
maatalouspolitiikan 670
amiseen 670
haan 670
rin 669
tap@@ 669
helmik@@ 669
kertomuksen 669
tävistä 669
esimerkkinä 669
edistetään 669
puheenvuoros@@ 669
sit 668
tian 668
suunnitelman 668
osall@@ 668
torjunta 668
amis@@ 668
osapuolet 667
kanta@@ 667
rauhaa 667
assaol@@ 667
uskonno@@ 667
kasvi@@ 667
ga@@ 667
poikkeuks@@ 667
saman 666
ryhdyttävä 666
piiriin 666
velvollisuus 666
vaa@@ 666
seitsem@@ 666
pyrkiä 666
tömä@@ 666
Latin@@ 666
väitte@@ 665
puhta@@ 665
tilaisuutta 665
ihmisille 665
kappal@@ 665
ste@@ 664
yydestä 664
kerta 664
kunnan 664
saattavat 664
naa@@ 664
toistan 664
tuettava 664
työnanta@@ 664
suhteiden 664
pyydämme 663
vaikeuksia 663
edut 663
kriisin 663
tyydyt@@ 663
ottamatta 662
hanke 662
kiitollinen 662
misessä 662
kuningas@@ 662
suojella 662
talousarvio 662
voitu 662
kommunis@@ 662
tasapaino 662
valtiosta 662
Venäjä@@ 662
pahoillani 661
tetusti 661
udesta 661
määrärahojen 661
kunkin 661
vastainen 661
esittäneet 660
mahdollisuuksien 660
tutkin@@ 660
Y:n 660
oles@@ 660
yhteiskunn@@ 659
luovutta@@ 659
jäsenvaltiota 659
pasi@@ 659
etelä@@ 659
tettäisiin 658
lämpimästi 658
aikom@@ 658
työpaikkojen 658
tilaisuuden 658
fooru@@ 658
jamme 657
tr@@ 657
terveyden 657
alainen 656
muodostaa 656
istunnon 655
vastustaa 655
rakennus@@ 655
syyt@@ 655
Tanskan 654
myönteisiä 654
kkä 654
noudatetaan 654
hyväksy 654
demokratia 654
L 654
take@@ 654
04@@ 654
selven@@ 653
perusteellisesti 653
keskinä@@ 653
osana 653
arvoja 653
heillä 653
tuntuu 653
konferenssissa 653
täyttää 653
samat 652
ratka@@ 652
vapaa 652
etsi@@ 652
lisään@@ 652
tämästä 652
käynyt 652
saatavilla 652
tarvitsevat 652
täytäntöönpanon 652
häv@@ 651
aio 651
nian 651
vastaista 651
apu@@ 651
perustell@@ 651
tehtiin 650
kehottaa 650
henkilöt 650
edistämään 650
itell@@ 650
vuor@@ 649
pidem@@ 649
isyys 649
suunni@@ 649
tuomio@@ 649
luv@@ 649
kkeen 648
tuli 648
O 648
tutkimus 648
dellä 648
taloudellisesti 648
sään 648
amin 647
sotila@@ 647
tulevien 647
are@@ 647
ajankohta@@ 646
parlamen@@ 646
koulutusta 646
laiset 646
prosessissa 646
käynnissä 646
oikeusvaltion 646
sella@@ 646
valti@@ 646
yhtey@@ 645
hankkeiden 645
sisällyttää 645
ehd@@ 645
uoll@@ 645
alli@@ 645
sorkka@@ 645
ylimäärä@@ 644
telu 644
viit@@ 644
hankkeita 644
tuloksena 644
lähem@@ 644
äänestimme 644
ongelmaan 644
päätöslauselmaa 643
kokonaisuudessaan 643
10@@ 643
opolitiik@@ 643
toistaa 643
kahdeks@@ 643
liikaa 642
hallinto 642
tyneet 642
asen@@ 642
aali@@ 642
sisäasioiden 641
ttia 641
Car@@ 641
pes@@ 641
voitte 641
puhutaan 641
liev@@ 641
palk@@ 641
llisuuden 640
perustuvat 640
johdosta 640
lii@@ 640
armei@@ 640
Maro@@ 639
ykseen 639
laa 639
tällaisten 639
tuista 639
lisättävä 639
roko@@ 639
one@@ 638
kuukau@@ 638
alusta@@ 638
ittujen 638
hylkää@@ 638
miehi@@ 638
veron@@ 638
jar@@ 638
Z@@ 637
välisiä 636
syyllis@@ 636
akti@@ 636
rikka@@ 636
laisen 635
mättä 635
käyttävät 635
politiikkojen 635
alta@@ 635
suu- 635
po 634
kohtien 634
ylpe@@ 634
menettelyjä 634
moot@@ 634
vastaavan 634
Jugosla@@ 633
yhteiseen 633
arviointi@@ 633
uhkaa 633
työskentely@@ 633
huolissaan 633
eeni 632
ankin 632
keskity@@ 632
ampaa 632
paikallis@@ 632
assosiaatios@@ 632
Kore@@ 632
ongelmana 631
nimen@@ 631
työstään 631
asiakirjan 631
luopu@@ 631
Götebor@@ 631
tukia 631
sty@@ 631
mainitsi 631
mik@@ 631
tapahtumien 631
kysymyks@@ 630
artikl@@ 630
konkreettisia 630
itetta 630
isemmin 630
jäsenenä 630
myönnetään 630
täni 630
Län@@ 630
Per@@ 630
laittoman 630
voineet 629
oihin 629
työttömy@@ 629
... 629
äty@@ 629
vaalit 629
valmistelukunta 629
teke@@ 628
kritiik@@ 628
luotetta@@ 628
atte@@ 628
tutus@@ 627
alalle 627
Ar@@ 627
vasem@@ 627
kovasti 626
uskon@@ 626
verran 625
työntekijöitä 625
teksti 625
kantojen 625
vie@@ 624
tällöin 624
tavasta 624
investointe@@ 624
sanottu 624
aseita 624
kristillis@@ 624
huomion 623
vastauksen 623
ponnis@@ 623
euvos@@ 623
kasvu@@ 623
usk@@ 623
tule 623
kolmannen 622
Yhdistyneessä 622
Irlann@@ 622
ohjelmasta 622
viesti 622
ine 622
viivästy@@ 621
onnittelen 621
sol@@ 621
ennus@@ 621
jatkettava 621
kuningaskunnassa 620
järjestäyty@@ 620
Yhdysvalloissa 620
taudin 620
milla 619
ristiriita@@ 619
uudistuksen 619
riippuu 619
Ukrain@@ 619
vang@@ 618
tarkastellaan 618
lah@@ 618
tekijä@@ 618
yleinen 618
aiem@@ 618
instituu@@ 618
Kööpenhaminan 618
täältä 617
määräyksiä 617
suositu@@ 617
ympäristön@@ 617
edustaj@@ 617
elämään 617
eläkelä@@ 617
tammikuuta 616
jokin 616
astaa 616
17 616
kuluttajapolitiikan 616
esitys@@ 616
olu@@ 616
immät 615
go@@ 615
tekop@@ 615
välttämättä 614
sisämarkkina 614
keinoin 614
merkittävää 614
tellään 614
viljeli@@ 614
totesin 614
terveyttä 614
vapaasti 613
itakin 613
joukkojen 613
haluaisimme 612
tiivi@@ 612
Tu@@ 612
puhemi@@ 611
lukuisia 611
tyypp@@ 611
mukaisia 611
alaisia 611
krite@@ 611
ehdottoman 611
ES 611
viikon 610
järjestää 610
käsiteltävä 610
viimeis@@ 610
vaihto@@ 610
vanho@@ 610
keskustellaan 609
itsestään 609
iaan 609
mainittu 609
vaura@@ 609
ohjelmia 609
rikollisuuden 609
selvästi@@ 608
pros@@ 608
tonsa 608
neuvottel@@ 608
ilmeisesti 608
väkivalta@@ 608
ystä@@ 608
äkseni 607
telee 607
llamme 607
varain@@ 607
tuetaan 607
ketta 607
illeen 607
varauks@@ 607
suunnitelma 607
täessä 606
viljely@@ 606
suoritta@@ 606
erimiel@@ 606
tääkseen 606
arkaluonte@@ 605
itsisi 605
ehdot 605
vakuuttu@@ 605
histor@@ 605
Maailman 605
kuntaa 605
osassa 605
toimenpiteisiin 605
vastustamme 604
elv@@ 604
ohjelmaan 604
julkis@@ 603
tulokseen 603
kiitokset 603
myyn@@ 603
pääsihte@@ 603
teiltä 603
tellen 603
pakolais@@ 603
päivää 603
Yhdisty@@ 603
liittyvän 602
tilä@@ 602
vallitsee 602
valtuuskunnan 602
Balkanin 602
otte@@ 601
hoitaa 601
kr@@ 601
halua@@ 601
ure@@ 600
liittyvää 600
tee 600
ennakko@@ 600
biolog@@ 600
näille 600
itsemme 600
edun 600
oni 600
todellisen 600
muistettava 600
ind@@ 599
pö@@ 599
jäsenvaltio 599
tarkasta@@ 599
tarkistuksesta 599
toive@@ 598
ittelen 598
kohtiin 598
edetä 598
toiminnasta 598
myönn@@ 598
vatkin 598
teur@@ 598
Välimer@@ 598
yllät@@ 597
vallitse@@ 597
sydä@@ 597
kyseinen 597
keli@@ 596
tettä 596
tehtävän 596
kaupan@@ 596
elintarvikke@@ 596
päätöslauselma 596
sell@@ 596
burg@@ 596
iltana 595
jolle 595
tissa 595
af@@ 595
istan 594
tävässä 594
12.00 594
uden 594
nille 594
ittävä 594
omen@@ 593
yllä 593
maailmaa 593
käsitell@@ 593
annamme 593
laatimaan 593
vallassa 593
iturvall@@ 593
18@@ 592
uudestaan 592
usin 592
ensisijaisesti 592
ulkomaan@@ 592
häpe@@ 592
maassani 592
tyytyvä@@ 592
hou@@ 592
puolueiden 592
seuraukset 591
huolellisesti 591
uhka@@ 591
ihmisen 590
täväksi 590
syntyy 590
periaatteet 590
korkean 590
ensisij@@ 590
koulutukseen 590
uni@@ 590
ministerineuvos@@ 590
keskey@@ 589
annetun 589
käyttööno@@ 589
omin@@ 589
maani 589
kansainvälisiä 589
ratkaiseva 589
ivo@@ 589
pito@@ 589
kaksin@@ 589
viimeksi 589
avar@@ 589
uskoakseni 588
televisi@@ 588
vaikutusta 588
luomaan 588
todennut 588
hank@@ 588
demokraattinen 588
asianmukaista 588
miehen 588
pyys@@ 587
ensimmäiseksi 587
tapoja 587
uussa 587
Her@@ 587
SE@@ 587
kohdis@@ 587
uttom@@ 587
Saddam 587
sanoisin 586
mälle 586
myönnettävä 586
ajatu@@ 585
rans@@ 585
järjestet@@ 585
kahteen 585
varova@@ 585
otamme 584
puheenvuor@@ 584
taataan 584
muilla 584
tion@@ 584
suotu@@ 584
toden@@ 584
kiista@@ 584
koko@@ 583
tyyd@@ 582
työttö@@ 581
välttämä@@ 581
tuotann@@ 581
neuvosto@@ 580
ilme@@ 579
ope@@ 579
hdo@@ 579
valv@@ 578
sivi@@ 577
uksissa 576
ren@@ 576
Johannes@@ 576
olta 574
järj@@ 574
PT 574
ow@@ 574
sij@@ 573
kki 573
tammik@@ 573
1,@@ 573
C 572
kiit@@ 571
maahan@@ 571
stan@@ 570
ret 570
tav@@ 569
mila@@ 568
ipu@@ 567
viljelijö@@ 567
ria 567
alun 566
neu@@ 565
komissio@@ 565
doll@@ 565
has@@ 564
jäs@@ 563
atta@@ 563
oikeud@@ 559
1998 558
läs@@ 557
viim@@ 555
th@@ 555
pen@@ 555
ittäin 555
hun@@ 554
issu@@ 554
tömästi 554
Luxemb@@ 554
nu@@ 553
200@@ 552
Romanian 550
touko@@ 549
sup@@ 548
materi@@ 547
tusla@@ 547
näkökul@@ 546
demokra@@ 545
kille 544
ikan@@ 543
be@@ 543
Zimbab@@ 543
tyyty@@ 542
tossa 542
kop@@ 541
tou@@ 541
kanso@@ 541
suuntavi@@ 540
päin 539
olum@@ 539
prote@@ 538
pon@@ 538
union@@ 538
Lan@@ 537
Ha@@ 536
ah@@ 536
ron 535
urg@@ 535
ikan 535
vistä 534
Cor@@ 534
ener@@ 533
Bulgar@@ 532
Amster@@ 531
ero 531
mus 531
huu@@ 531
iri@@ 528
tarkastus@@ 528
Pak@@ 528
ens@@ 527
otti 526
taa@@ 525
Cas@@ 524
yhti@@ 524
YK@@ 524
kut@@ 524
son 523
suures@@ 523
not 522
tilin@@ 522
K 522
ky 521
24 520
sääd@@ 520
ulta 520
Ch@@ 520
änä 519
illaan 519
Geor@@ 518
ile@@ 518
nte@@ 518
voita@@ 518
esityslis@@ 517
autom@@ 517
kti@@ 517
dem@@ 517
dia 516
yksin@@ 516
eil@@ 515
teho@@ 514
16@@ 512
100 512
del@@ 512
minkään@@ 512
Par@@ 511
19 511
yll@@ 511
ite 510
katastro@@ 510
kiin@@ 508
der 507
bo@@ 505
Sol@@ 505
Az@@ 505
anno@@ 504
aalis@@ 503
komissi@@ 502
sissa 502
Scheng@@ 502
analys@@ 501
itt@@ 501
21 501
leg@@ 501
2010 500
Ver@@ 500
ig@@ 499
do 498
täysi@@ 498
ille@@ 498
Patten 497
inaan 495
yhten@@ 495
Tamper@@ 495
tenkin 493
eng@@ 493
pil@@ 493
lem@@ 493
ue 493
our@@ 492
Doh@@ 492
dra@@ 491
í@@ 491
etä 491
ikke@@ 491
pöytä@@ 491
itystä 490
Afganistan@@ 490
uuta 488
päätöksen@@ 488
EC@@ 488
transatlan@@ 486
ry@@ 484
syys@@ 484
gan@@ 483
hid@@ 483
Yhdysvall@@ 483
vapaa@@ 482
uksena 481
27 481
vos@@ 480
Co@@ 479
yhtä@@ 479
Van 479
suun@@ 479
Kiin@@ 478
198@@ 478
see 478
tto@@ 478
eu@@ 477
kra@@ 477
35 476
rann@@ 476
OLA@@ 475
käsiteltävä@@ 474
prior@@ 473
Lu@@ 473
el 472
NL 472
mit 472
peri@@ 471
identi@@ 470
serva@@ 470
kohtu@@ 470
hil@@ 470
inf@@ 470
Kau@@ 467
maase@@ 466
kenn@@ 466
ser@@ 466
ü@@ 466
22 465
Mc@@ 465
Bro@@ 465
kre@@ 463
Pa@@ 461
Euro 461
Shar@@ 461
co@@ 460
CO@@ 460
itteli@@ 458
La@@ 458
500 458
23 457
Mad@@ 457
tetta 456
todennäkö@@ 456
avi@@ 456
45 455
v 454
for@@ 453
ity 452
saata@@ 451
telev@@ 451
käsittelev@@ 450
90 449
lausu@@ 449
päätöslauselma@@ 448
joulu@@ 447
innova@@ 446
2007 446
0 445
tapo@@ 445
tuomioistu@@ 445
lau@@ 444
käsittely@@ 444
01 444
tro@@ 444
Le@@ 443
ire@@ 443
erinomais@@ 441
komis@@ 441
viestin@@ 441
mes@@ 440
Bur@@ 440
Bel@@ 439
tonn@@ 439
rit 439
omet@@ 439
bet@@ 439
aih@@ 438
valvon@@ 438
radio@@ 437
työjärjesty@@ 437
COD 437
pp@@ 437
yhteyd@@ 436
julki@@ 435
pin@@ 435
ang@@ 434
maas@@ 434
ep@@ 433
200 433
Mi@@ 432
ätte 432
him@@ 432
kolle@@ 432
di 432
Roman@@ 431
and@@ 431
deks@@ 431
Lissab@@ 430
gal@@ 430
Barroso 430
erin@@ 429
määräraho@@ 429
jus@@ 429
kaks@@ 429
.000 429
hti@@ 428
x 428
insääd@@ 427
aman@@ 427
tem@@ 426
lim@@ 426
akaan 424
vät@@ 424
Amer@@ 423
päin@@ 422
toivotta@@ 422
Maa@@ 422
era@@ 421
Bas@@ 421
mää@@ 420
Mal@@ 419
Yhdistyne@@ 419
päätös@@ 418
Ri@@ 418
Bos@@ 418
dik@@ 418
rah@@ 414
itsi 414
immi@@ 413
iel@@ 413
37 411
muod@@ 410
jun@@ 410
Egy@@ 410
Kypro@@ 408
jö@@ 407
aina@@ 407
Israel@@ 407
emis@@ 407
versi@@ 407
PSE 407
häne@@ 406
niin@@ 405
ristiri@@ 405
Presti@@ 405
ide 404
Ser@@ 404
jalla 404
N 403
Ä@@ 403
ken 403
28 401
aria 401
sh@@ 399
Kosov@@ 398
Wat@@ 397
GMO@@ 397
valtiossa 396
lähesty@@ 395
roati@@ 395
musten 394
75 394
26 394
fin 394
symb@@ 394
ón 392
Me@@ 392
Husse@@ 391
valitetta@@ 390
1997 390
vih@@ 390
Val@@ 390
set 387
BSE 387
äh@@ 386
ELDR 386
h 385
sto@@ 385
tusti 384
ner@@ 384
Or@@ 384
issa@@ 383
kein 382
johdon@@ 381
Jap@@ 380
D 380
ge 380
qu@@ 378
Ne@@ 377
oppos@@ 376
ättä 375
rid@@ 372
Nor@@ 372
Afganis@@ 372
ov@@ 371
paper@@ 370
rup@@ 370
issakin 370
Israel 370
tän@@ 368
AL@@ 368
Berluscon@@ 368
WTO@@ 367
Atlan@@ 367
M 365
Man@@ 365
Coton@@ 365
Ti@@ 365
mieles@@ 364
esityslista@@ 363
inä@@ 363
Nizz@@ 362
Eurosta@@ 362
Slova@@ 362
iin@@ 361
valio@@ 361
von 360
San@@ 359
55 359
11.@@ 358
1996 357
abor@@ 356
Ann@@ 355
Vietna@@ 355
toge@@ 355
strö@@ 354
even 354
Belgi@@ 353
imperi@@ 353
hilj@@ 352
Har@@ 352
jot@@ 352
ven 350
tode@@ 349
takais@@ 348
fundamentalis@@ 348
Galic@@ 348
istunnossa 347
ts 347
epidem@@ 346
32 346
Ol@@ 346
puhel@@ 346
esitteli@@ 345
Hel@@ 344
luop@@ 344
29 344
dio@@ 344
da 344
Ru@@ 343
ter 343
ye@@ 343
rke@@ 343
emme@@ 342
New 341
ttuna 340
onia 340
Internet 339
02 339
33 339
Erika 339
31 337
välin 337
Th@@ 337
Kal@@ 337
R 336
mie@@ 336
taloudell@@ 335
Kööpenhamin@@ 335
too 333
Bu@@ 333
imen@@ 332
ash@@ 332
onom@@ 331
tälla@@ 331
minis@@ 331
Pu@@ 330
autu@@ 330
05@@ 329
äskettä@@ 329
48 328
Bal@@ 327
tlan@@ 327
Bo@@ 326
ú@@ 326
Alger@@ 325
95 325
ulo@@ 324
idenkin 324
optimis@@ 324
ff@@ 323
WTO 323
Del@@ 322
az@@ 322
innä@@ 322
opol@@ 322
liber@@ 321
parlamenti@@ 320
gra@@ 320
konkre@@ 320
Araf@@ 320
gh@@ 318
42 318
Wall@@ 318
CNS 318
urs@@ 318
dig@@ 318
sihte@@ 315
emen@@ 315
Angol@@ 314
ises@@ 313
Fischler 313
emättä 313
join 312
EI@@ 312
selvä@@ 312
Indon@@ 312
Niel@@ 311
avu@@ 311
wan@@ 310
tonta 309
Nic@@ 309
taud@@ 308
zz@@ 308
kokon@@ 307
prosess@@ 307
34 307
ec@@ 307
vat@@ 306
Schre@@ 306
ira@@ 306
idät 306
ve 306
1995 305
Canc@@ 305
.30 304
sig@@ 304
38 304
UN@@ 304
ditaan 303
jatket@@ 303
Mor@@ 303
sosi@@ 302
IN@@ 301
&#91; 301
&#93; 301
oin 300
monimut@@ 299
36 299
ene@@ 299
huolen@@ 298
markkin@@ 297
Di@@ 297
teollis@@ 296
emminkin 295
fe@@ 295
39 295
kuluttaja@@ 294
197@@ 294
Yor@@ 294
Gar@@ 293
De 292
ci@@ 292
é 292
Bla@@ 292
44 291
ck@@ 291
ard 290
tenkään 289
mid@@ 289
anti@@ 288
MO@@ 287
kut 286
inhim@@ 286
Pos@@ 286
itses@@ 285
Galileo 285
al 285
jur@@ 283
c 283
des 281
Fisch@@ 281
omen 280
Pe@@ 280
onnis@@ 279
up@@ 279
tota@@ 279
kus 278
atten@@ 277
Go@@ 276
ous@@ 276
tein 275
into 275
mmen@@ 275
tric@@ 275
US@@ 275
katsom@@ 274
teg@@ 274
säil@@ 274
NG@@ 273
kump@@ 273
tron@@ 273
ir 272
säh@@ 272
Po@@ 272
minim@@ 271
pöy@@ 271
nään 271
Balkan@@ 270
emb@@ 270
bar@@ 269
ub@@ 269
sing@@ 269
Koso@@ 269
Fran@@ 268
super@@ 268
dt 268
dit 268
IC@@ 268
puheen@@ 267
vasto@@ 266
hon@@ 266
toissijais@@ 266
ttunut 266
nen 266
hom@@ 266
.00 265
yste@@ 265
ula@@ 264
pul@@ 263
Solana 263
Du@@ 263
Qu@@ 263
orm@@ 262
sem@@ 261
eva 261
of 260
p 260
kyseen@@ 260
uis@@ 260
re 259
Eng@@ 259
töön@@ 259
imäär@@ 258
Bolkestein 258
dr@@ 257
pail@@ 256
sovelle@@ 256
od@@ 254
mana 253
enemmis@@ 252
eb@@ 251
Poettering 248
suhta@@ 248
bel@@ 248
feder@@ 248
onte@@ 247
monopol@@ 247
b 247
integra@@ 246
fil@@ 246
ttö@@ 245
fin@@ 245
Ky@@ 244
ing 244
SA@@ 244
one 243
En@@ 242
pun@@ 241
Hu@@ 241
tain 240
käyd@@ 240
asio@@ 240
Mac@@ 240
Niger@@ 240
Vi@@ 239
rian 239
ania 238
fa@@ 238
ira 238
foor@@ 238
Vitorino 237
työn@@ 237
Lat@@ 237
Es@@ 235
oc@@ 234
mies@@ 234
CA@@ 234
poten@@ 233
hallitus@@ 233
aim@@ 233
ba@@ 233
Sw@@ 233
lämpim@@ 232
Fi@@ 232
sch@@ 232
myöhem@@ 230
tam@@ 230
kl@@ 228
ch 227
Agenda 227
kaikki@@ 227
ord@@ 227
Vitor@@ 227
fal@@ 226
lia@@ 226
top@@ 226
puun 225
Palestiin@@ 225
Ara@@ 225
ug@@ 225
esty@@ 225
ck 224
öl@@ 223
seen 223
Bush 223
euro 222
ktor@@ 222
1.@@ 221
unoh@@ 221
Verheugen 221
rat 220
use 220
and 219
inter@@ 218
th 217
solu@@ 217
suku@@ 216
Palacio 215
ean 215
uro@@ 214
Sta@@ 213
yer 213
nes@@ 212
we@@ 211
ordin@@ 211
sion 210
tit@@ 210
Re@@ 210
Pohjo@@ 210
Poh@@ 210
men 209
inis@@ 209
Barcelon@@ 209
end@@ 208
euroop@@ 208
che@@ 208
il 208
numer@@ 206
koord@@ 206
piiri@@ 205
äärimmä@@ 204
markkina 204
fio@@ 203
menn@@ 203
autonom@@ 203
ene 203
interven@@ 202
j 201
the 201
ator@@ 201
Verheu@@ 201
arti@@ 200
ry 199
opposition 198
legitim@@ 198
kristi@@ 198
the@@ 197
onni@@ 196
of@@ 196
bes@@ 195
ill 194
AC@@ 194
è@@ 193
okra@@ 192
le 192
elintarv@@ 192
Mus@@ 192
suh@@ 191
mili@@ 191
cos@@ 190
Romania 190
gn@@ 189
co 189
æ@@ 188
Alban@@ 188
hetke@@ 188
Bolkes@@ 188
bour@@ 188
rekis@@ 187
ric@@ 187
torj@@ 186
ant@@ 186
dyna@@ 185
prof@@ 185
kusta@@ 183
pide@@ 183
Q@@ 182
lly 181
F 180
pus@@ 180
Hussein 180
AT@@ 180
ron@@ 180
ran 179
htu@@ 178
Poet@@ 177
Slo@@ 177
inten@@ 176
medi@@ 175
trate@@ 175
pl@@ 175
don@@ 174
imäärä@@ 174
esimerki@@ 172
anna@@ 172
He@@ 172
never@@ 172
viol@@ 172
kunnianhim@@ 171
Aus@@ 170
Palac@@ 170
wa@@ 169
kän 169
&a@@ 167
Erik@@ 167
dis@@ 166
kulj@@ 166
ehdottom@@ 165
agen@@ 165
dy 165
For@@ 164
tari@@ 164
kiitoll@@ 164
imatta 163
idemokra@@ 163
essa@@ 162
assosiaati@@ 161
öö@@ 160
fos@@ 160
lob@@ 160
mär@@ 160
Ukra@@ 160
OLAF 158
assosi@@ 158
visi@@ 158
syd@@ 158
tion 157
Am@@ 157
f 157
aw@@ 157
huole@@ 155
bus@@ 155
hap@@ 154
maaseudu@@ 153
bud@@ 153
ous 152
vilj@@ 152
rekti@@ 152
B 152
täll@@ 152
Schengen 152
Eur@@ 152
nation@@ 151
risti@@ 150
ò@@ 150
Europe 149
entu@@ 149
oun@@ 149
rou@@ 148
ile 148
ruption 148
bia 148
Br@@ 147
tic@@ 147
argu@@ 146
imp@@ 146
Gal@@ 146
Joh@@ 146
our 145
amb@@ 145
ef@@ 145
Europol 145
ippu@@ 145
asiantun@@ 144
kam@@ 144
qui@@ 144
ire 144
ulkop@@ 144
ans 144
sian 143
bro@@ 143
ensinnä@@ 142
alle@@ 142
kui@@ 142
Nig@@ 142
vuoros@@ 141
llu@@ 141
poliit@@ 141
ristiriid@@ 141
oth@@ 140
than 139
toista@@ 139
kijö@@ 139
Pal@@ 139
vähem@@ 138
Por@@ 138
presid@@ 137
fur@@ 137
Eurostat 137
teu@@ 136
emp@@ 135
ning 135
Tou@@ 135
ler 134
ro 133
loo@@ 132
tain@@ 132
So@@ 132
Dan@@ 131
opin@@ 131
Bulgaria 131
NAT@@ 130
+ 130
ó@@ 130
ttä 130
fran@@ 130
bor@@ 130
Isra@@ 129
sym@@ 128
ar 128
ders 127
viivä@@ 127
työnte@@ 127
res 127
pat@@ 127
lämp@@ 127
pre@@ 127
kulttu@@ 126
no 126
inves@@ 126
tre@@ 126
pop@@ 126
human@@ 126
mun@@ 125
adop@@ 125
infor@@ 124
ajoneu@@ 124
mas 123
bur@@ 123
G 122
Korea 122
Wh@@ 122
periaa@@ 121
Pol@@ 120
by@@ 120
Ger@@ 119
for 119
ear@@ 119
rap@@ 119
imiel@@ 119
Iran 119
ME@@ 118
# 118
tri@@ 118
be 118
gg@@ 118
ganis@@ 118
shar@@ 118
acqu@@ 117
kunnian@@ 117
Tra@@ 117
taul@@ 116
eder@@ 116
fas@@ 116
Uni@@ 116
tuoll@@ 116
tes 115
est 115
dellis@@ 114
ore@@ 114
Jun@@ 114
htunut 114
ety 114
or 113
ad 112
ino 112
organ@@ 112
dre@@ 111
ã@@ 111
wit@@ 111
titu@@ 110
hes@@ 110
met 110
impl@@ 109
monimuo@@ 109
itaa 109
tann@@ 108
taar@@ 108
log@@ 108
Å@@ 108
reas@@ 108
­ 107
ikä 106
U 106
à@@ 106
toisa@@ 105
hetk@@ 105
kuning@@ 104
car@@ 104
wi@@ 103
plan@@ 103
sove@@ 101
ê@@ 101
spe@@ 101
enna 100
International 100
AK@@ 100
Con@@ 99
imer@@ 99
X@@ 99
go 99
prim@@ 99
ennut 98
gar@@ 98
om 98
und@@ 98
Ban@@ 97
eivät@@ 97
ber 97
television 96
over@@ 96
ark@@ 96
arkalu@@ 96
Mo@@ 96
istunn@@ 95
Sep@@ 95
harmon@@ 95
anteen 95
Barro@@ 95
tab@@ 94
ID@@ 94
aut@@ 93
hön 93
Á@@ 93
kkinä 93
ulkopu@@ 93
contro@@ 93
m. 92
osoituksia 92
opti@@ 92
tarvi@@ 92
kysym@@ 91
myös@@ 90
Fe@@ 90
kanis@@ 90
kous 90
kuin@@ 90
ø@@ 90
fiel@@ 89
varm@@ 88
hard 88
au 88
air@@ 88
les 88
pass 88
star@@ 87
eman 87
sti@@ 86
rac@@ 86
eläk@@ 86
ies 85
Ge@@ 85
am 84
out 84
od 83
Kio@@ 83
inc@@ 82
Ca@@ 82
med 82
Liber@@ 82
Galile@@ 82
ž@@ 82
kkäy@@ 81
ner 81
lor@@ 81
plu@@ 81
just 81
bour 81
tituu@@ 81
ye 81
töö@@ 80
kiinti@@ 80
time@@ 80
aikaisesti 80
Col@@ 80
PE 80
post@@ 79
net 79
Pat@@ 79
Char@@ 79
sijais@@ 79
enpäin 78
add@@ 78
arri@@ 78
ise 78
annes@@ 78
pill@@ 78
gr@@ 78
pr@@ 77
ars 77
termin@@ 77
kesken@@ 77
ï@@ 77
typ@@ 77
som@@ 76
bra@@ 76
ers 75
eding 75
are 75
ger@@ 75
iz@@ 75
his@@ 75
ily 75
Brys@@ 75
tima@@ 75
itten 74
World 74
bu@@ 74
aver@@ 74
As@@ 74
ex@@ 74
inv@@ 74
itor@@ 73
European 73
influ@@ 73
del 72
uudes@@ 72
ong 72
bil@@ 72
pati@@ 72
ç@@ 72
Fra@@ 72
pe 71
pay@@ 71
lli@@ 71
tilann@@ 71
tw@@ 71
bin@@ 71
Fo@@ 71
meat 71
gro@@ 69
valu@@ 69
ster@@ 69
ence 69
ent 69
ns 68
inde@@ 68
modern@@ 68
à 68
Fin@@ 68
uudell@@ 68
sens@@ 68
Rom@@ 67
put 67
ben@@ 66
pass@@ 66
Pakistan 66
Zimbabwe 66
syste@@ 65
EC 65
vic@@ 65
big 65
app@@ 65
opportun@@ 65
LA@@ 65
sub@@ 64
stra@@ 64
konf@@ 64
ges 64
maj@@ 64
ties 63
can 63
ant 63
veh@@ 63
menta@@ 63
Jan@@ 63
ñ@@ 63
oneu@@ 63
á 63
Ju@@ 62
con@@ 62
minu@@ 62
ou 62
Ö@@ 62
w 62
cu@@ 61
enä@@ 60
id 60
non 60
dele@@ 60
um 60
Com@@ 60
lamen@@ 60
tras@@ 60
gent@@ 60
illani 59
open 59
sp@@ 59
USA 59
Trans@@ 59
ws 58
British 58
sion@@ 58
suosion@@ 58
ó 58
solid@@ 58
que 58
stu@@ 58
J 58
yo@@ 57
fel@@ 57
ff 57
Dem@@ 57
Irish 57
ogra@@ 57
vol@@ 57
ques@@ 57
rang@@ 56
arme@@ 56
kommun@@ 56
immäis@@ 56
polit@@ 56
Ang@@ 56
hop@@ 56
unila@@ 56
entit@@ 55
attaa 55
Stock@@ 55
syr@@ 55
dou@@ 55
X 54
neuvot@@ 54
ker 54
gy@@ 54
NS 54
anti 53
sus@@ 53
separ@@ 53
Ex@@ 53
shi@@ 53
ce 53
Isla@@ 53
lling 53
Den@@ 52
cas@@ 52
fis@@ 52
fo@@ 52
bon 52
Ag@@ 52
käyttöö@@ 52
Hi@@ 51
eur@@ 51
arm@@ 51
all 51
head@@ 51
ysti 50
ääd@@ 50
Lis@@ 50
Pr@@ 50
ase 49
EL@@ 49
pensa@@ 49
ester@@ 49
Women 49
ins 49
off@@ 49
fu@@ 49
hansa 49
mes 49
ï 49
Bri@@ 48
st@@ 48
ace 48
sc@@ 48
kedon@@ 48
got 47
dro@@ 47
Bud@@ 47
join@@ 47
mid 47
lot 46
land 46
enc@@ 46
sis 46
uudessaan 45
Gö@@ 45
majo@@ 45
House 45
stres@@ 45
ally 44
välia@@ 44
Gro@@ 44
ese 44
ks 44
cal@@ 44
ors 44
EU@@ 44
analy@@ 43
ed 43
The 43
enter@@ 43
ger 43
limit 43
trans@@ 43
ves 43
tulis@@ 42
eth@@ 42
head 42
mys@@ 42
vern@@ 42
Rights 42
tional 42
í 42
wel@@ 42
dus@@ 42
cel@@ 42
France 41
bri@@ 41
ò 41
cot@@ 41
lar@@ 41
idem@@ 41
meet@@ 41
Kosovo 40
OM 40
cor@@ 40
ition 40
moder@@ 40
imbab@@ 40
we 39
ish 39
mer 39
Etel@@ 39
Human 39
Sad@@ 39
meet 39
SE 39
gh 39
ferens@@ 38
ek 38
erahas@@ 38
tenkaan 38
Fre@@ 38
Dev@@ 38
occ@@ 38
idea 37
dri@@ 37
aid 37
fre@@ 37
verrat@@ 37
reite@@ 37
ph@@ 37
blo@@ 37
ago@@ 37
joon@@ 36
Au@@ 36
her 36
hagen 36
Brit@@ 36
US 36
Pres@@ 36
ling 36
char@@ 36
Tre@@ 36
status 35
by 35
soon 35
NATO 35
reg@@ 35
Association 35
maus@@ 35
une@@ 34
wn 34
imag@@ 34
tor 34
ary 34
tru@@ 34
ay 34
then 34
def@@ 33
COM 33
siih@@ 33
ustra@@ 33
Energy 33
minkin 33
multi@@ 33
olos@@ 33
col@@ 33
Financial 33
imes 33
journ@@ 33
ß@@ 33
ost 32
elä 32
mom@@ 32
pub@@ 32
viran@@ 32
ca@@ 32
cal 32
ale 32
ende@@ 32
ly 31
yden@@ 31
manner 31
lic@@ 31
mula@@ 31
data 31
bit 31
ambi@@ 31
human 31
Union 31
age 31
stitu@@ 31
Fis@@ 31
had 30
..@@ 30
asy@@ 30
aate 30
jatkos@@ 30
aff@@ 30
ld 30
rid 30
Bol@@ 29
ast 29
ess 29
olitiik@@ 29
mone@@ 29
etna@@ 29
prov@@ 29
ago 28
East 28
thy 28
farm@@ 28
Democ@@ 28
per 28
king 28
shor@@ 28
ards 28
Wor@@ 28
Cha@@ 28
Gre@@ 27
instru@@ 27
ols 27
line 27
up 27
yet 27
Trade 27
lausel@@ 27
my 27
ce@@ 27
Yhd@@ 27
beli@@ 27
ech@@ 27
xemb@@ 26
market@@ 26
verei@@ 26
agre@@ 26
onna 26
bal@@ 26
ineuvos@@ 26
but 26
W 26
Soci@@ 26
control 26
tic 26
parti@@ 26
back 26
transa@@ 26
cat@@ 26
ture 25
ket 25
nal 25
obli@@ 25
int 25
ô@@ 25
ach 25
fun@@ 24
ref@@ 24
itiik@@ 24
äli 24
amin@@ 24
æ 24
law 24
its 24
dom@@ 24
ens 24
ings 24
emer@@ 23
pri@@ 23
oura@@ 23
improv@@ 23
rich 23
com@@ 23
kansain@@ 23
É@@ 23
ther@@ 23
ween 23
sha@@ 23
will 23
side 23
ice 23
vision 23
ting 22
reser@@ 22
st 22
dam 22
fra@@ 22
cha@@ 22
ineu@@ 22
ouse 22
ow 22
entr@@ 22
truktu@@ 22
ich 22
dipl@@ 22
mul@@ 22
bey@@ 22
Cour@@ 22
prog@@ 21
will@@ 21
clear 21
Europe@@ 21
let@@ 21
anim@@ 21
ming 21
problem@@ 21
ate 21
thou@@ 21
Can@@ 21
lec@@ 21
ic 21
ft 21
ulgar@@ 21
thu@@ 21
ol 21
shall 21
ope 21
Ó 21
pelkäs@@ 20
ction 20
media 20
ime 20
gani 20
fer@@ 20
call 20
bila@@ 20
justi@@ 20
dec@@ 20
manu@@ 20
Α@@ 20
Ε@@ 20
els 19
Strasbourg 19
pain 19
war@@ 19
q@@ 19
sman 19
Barcelona 19
opa 18
% 18
ist 18
very@@ 18
thing 18
bre@@ 18
Res@@ 18
air 18
call@@ 18
sho@@ 18
ktu@@ 18
Christian 18
Health 18
ical 18
ep 18
lif@@ 18
pol 18
tal 17
rela@@ 17
Development 17
peen 17
Group 17
ium 17
DP 17
mis 17
gre@@ 17
Committee 17
territor@@ 17
resid@@ 17
cho@@ 17
öin 17
val 17
und 17
muuton 17
cour@@ 17
− 17
that 16
sou@@ 16
Ä 16
abs@@ 16
too@@ 16
Jus@@ 16
arms 16
him 16
ef 16
dren 16
pla@@ 16
over 16
Tam@@ 16
Medi@@ 15
vel 15
wor@@ 15
ance 15
Ir@@ 15
Laeken 15
itur@@ 15
lleen@@ 15
vement 15
ters 15
repe@@ 15
arm 15
old 14
regi@@ 14
ult 14
lloin 14
ment 14
poin@@ 14
cc@@ 14
intervention 14
Office 14
byro@@ 14
achi@@ 14
entises@@ 14
row 14
war 14
mod@@ 14
obser@@ 14
gradu@@ 14
fac@@ 13
vari@@ 13
ver 13
run 13
Econom@@ 13
ely 13
tra 13
Yhdys@@ 13
assis@@ 13
nel 13
mation 13
governance 13
foun@@ 13
popula@@ 13
bed 13
plan 13
American 13
top 13
Hus@@ 13
Johannesburg 13
ud 13
each 13
work 12
q 12
policy 12
Ass@@ 12
Council 12
aga@@ 12
off 12
ë@@ 12
tent 12
business 12
Lissa@@ 12
ade 12
ement 12
hope 12
ure 12
fri@@ 12
ms 12
ther 12
cr@@ 12
dic@@ 12
tastro@@ 12
cies 12
lines 12
ds 12
mark 12
multila@@ 12
Party 12
toler@@ 12
Community 12
ial 11
· 11
get 11
fam@@ 11
rele@@ 11
ath 11
ory 11
General 11
acc@@ 11
rati@@ 11
ust 11
Freed@@ 11
Commission 11
ried 11
alter@@ 11
clause 11
ú 11
pli@@ 11
trad@@ 10
Def@@ 10
fir@@ 10
ces 10
bac@@ 10
field 10
Sto@@ 10
Rus@@ 10
Läh@@ 10
ted 10
Oc@@ 10
invo@@ 10
gender 10
Security 10
lack 10
gener@@ 10
als 10
low 10
reac@@ 10
ries 10
č@@ 10
common 9
Dec@@ 9
State 9
contr@@ 9
eag@@ 9
burg 9
duc@@ 9
cell@@ 9
ods 9
pac@@ 9
div@@ 9
United 9
Government 9
ple@@ 9
money 9
able 9
fro@@ 9
pursu@@ 9
pic 9
cro@@ 9
red 9
Indus@@ 9
Foreign 9
chil@@ 9
abol@@ 9
seri@@ 9
cla@@ 9
People 9
Í@@ 9
ministra@@ 9
cre@@ 9
eve 9
terr@@ 9
cl@@ 9
ł@@ 9
ė@@ 9
ė 9
regula@@ 8
ecu@@ 8
Organisation 8
Ü@@ 8
CAP 8
profes@@ 8
tive 8
loc@@ 8
å@@ 8
sea 8
onal 8
trag@@ 8
ward 8
right 8
promis@@ 8
elec@@ 8
ps 8
appe@@ 8
Presid@@ 8
äsket@@ 8
from 8
ules 8
û@@ 8
Policy 8
tory 8
ital 8
assu@@ 8
mal 8
Fund 8
muna 8
vers@@ 8
demon@@ 8
South 8
p.@@ 8
China 8
gal 8
ency 8
vice 8
Cub@@ 8
simp@@ 8
ones 8
messa@@ 8
Ι@@ 8
with 7
Programme 7
way 7
ß 7
noon 7
cy@@ 7
ual 7
small@@ 7
tions 7
Väl@@ 7
vil 7
show 7
well 7
food 7
osla@@ 7
plo@@ 7
group 7
see@@ 7
ities 7
can@@ 7
No 7
lainsäädä@@ 7
ble 7
Bank 7
pec@@ 7
hold 7
ability 7
Africa 7
mean 7
act 7
Industry 7
house 7
ign 7
lands 7
ative 7
ening 7
racy 7
ete 7
form 7
heu@@ 7
deal@@ 7
@ 7
los@@ 7
UK 7
how 6
ght 6
gran@@ 6
review 6
str@@ 6
Q 6
trac@@ 6
inste@@ 6
force 6
repor@@ 6
under@@ 6
vention 6
tuna@@ 6
bla@@ 6
good 6
out@@ 6
gs 6
North 6
ons 6
if 6
Authority 6
repres@@ 6
ates 6
lem 6
spo@@ 6
name 6
pres@@ 6
level 6
playing 6
substan@@ 6
peace 6
Regi@@ 6
end 6
acy 6
WT@@ 6
Associ@@ 6
Gener@@ 6
defic@@ 6
tors 6
global 6
hand@@ 6
tionary 6
ility 6
ffic@@ 6
terran@@ 6
nership 6
court 6
ular 6
Americ@@ 6
basi@@ 6
tural 6
Ι 6
nec@@ 6
Members 5
have 5
made 5
practice 5
comb@@ 5
itions 5
ets 5
trial 5
§ 5
their 5
market 5
enjo@@ 5
Economic 5
sm@@ 5
Social 5
dependent 5
part@@ 5
töönpan@@ 5
ources 5
Sum@@ 5
operation 5
ffer 5
bers 5
mental 5
cy 5
â@@ 5
gla@@ 5
ision 5
Research 5
ding 5
stre@@ 5
Sec@@ 5
change 5
coun@@ 5
eing 5
comes 5
road 5
execu@@ 5
Environment 5
national 5
cap@@ 5
rule 5
labour 5
without 5
tance 5
cus@@ 5
Ê@@ 5
adoption 5
cer@@ 5
ations 5
day 5
fer 5
port 5
stand 5
pic@@ 5
tics 5
ose 5
single 5
trade 5
coll@@ 5
ways 5
eas@@ 5
ced 5
ology 5
far 5
lea@@ 5
sing 5
ats 5
fied 5
appar@@ 5
Commun@@ 5
cen@@ 5
Liberal 5
ating 5
ches 5
seem@@ 5
pers@@ 5
deli@@ 5
secu@@ 5
sive 5
¤ 5
alists 5
Proc@@ 5
gas 5
Ν@@ 5
unti@@ 5
š 5
Š@@ 5
Internal 4
situ@@ 4
employment 4
sure 4
ved 4
Conference 4
let 4
fare 4
new 4
them 4
dow 4
yers 4
ew 4
tho@@ 4
wait 4
Assembly 4
DR 4
è 4
prevention 4
network 4
Af@@ 4
value 4
Minis@@ 4
democ@@ 4
Ö 4
ground 4
täytän@@ 4
equ@@ 4
pris@@ 4
dela@@ 4
tering 4
wis@@ 4
gue 4
ours 4
public 4
eiv@@ 4
Convention 4
eness 4
Coun@@ 4
itable 4
= 4
law@@ 4
elop@@ 4
clas@@ 4
system 4
spending 4
very 4
compromise 4
bec@@ 4
Agency 4
due 4
power 4
Ita@@ 4
Home 4
African 4
bab@@ 4
fair 4
you 4
EUR 4
early 4
individu@@ 4
ì@@ 4
state 4
ural 4
Parliament 4
high 4
ines 4
safe 4
cri@@ 4
ask 4
form@@ 4
ere 4
sex@@ 4
ological 4
beg@@ 4
Justice 4
ple 4
monim@@ 4
estern 4
Regu@@ 4
Berl@@ 4
ound 4
quic@@ 4
open@@ 4
outh 4
op 4
estin@@ 4
ace@@ 4
ilies 4
dama@@ 4
Public 4
″ 4
depend@@ 4
• 4
* 4
fic@@ 3
govern@@ 3
been 3
deal 3
legal 3
fication 3
environment 3
proc@@ 3
dom 3
ends 3
gation 3
chec@@ 3
Finan@@ 3
spi@@ 3
happ@@ 3
now 3
they 3
has 3
past 3
under 3
private 3
how@@ 3
time 3
È@@ 3
economy 3
Govern@@ 3
amen@@ 3
fron@@ 3
learning 3
agenda 3
å 3
term 3
table 3
exac@@ 3
Intergovernmental 3
ils 3
ù 3
sli@@ 3
start 3
cand@@ 3
tax 3
fact 3
parties 3
ased 3
White 3
saf@@ 3
body 3
volun@@ 3
two 3
ded 3
regulation 3
finding 3
want 3
reli@@ 3
union 3
thir@@ 3
wh@@ 3
international 3
must 3
President 3
was 3
Court 3
awar@@ 3
ership 3
share 3
deta@@ 3
try 3
soci@@ 3
person@@ 3
tant 3
_ 3
enter 3
building 3
custom@@ 3
action 3
sever@@ 3
civil@@ 3
night 3
Afgh@@ 3
access 3
last 3
ulkopuole@@ 3
fla@@ 3
ever 3
funds 3
ffer@@ 3
ality 3
compromis@@ 3
women 3
commun@@ 3
self 3
country 3
Portugal 3
Environ@@ 3
tex@@ 3
future 3
Cyprus 3
cul@@ 3
versity 3
attle 3
UN 3
Asia 3
agreement 3
cur@@ 3
Fisher@@ 3
fight 3
ý 3
É 3
dies 3
refer@@ 3
Direc@@ 3
modi@@ 3
cle 3
productive 3
ratic 3
any 3
democracy 3
pay 3
indic@@ 3
there 3
Stability 3
auc@@ 3
¡ 3
ful 3
aim 3
ications 3
quality 3
pid 3
½ 3
Agriculture 3
Nov@@ 3
peci@@ 3
led 3
lear@@ 3
else 3
make 3
hes 3
rene@@ 3
low@@ 3
aring 3
dist@@ 3
representative 3
fig@@ 3
area 3
institu@@ 3
itiz@@ 3
cra@@ 3
Central 3
Europeans 3
° 3
ę@@ 3
Regional 2
quo@@ 2
Market 2
ference 2
which 2
sense 2
conflict 2
Mone@@ 2
first 2
report 2
&@@ 2
less 2
enlargement 2
essing 2
community 2
approach 2
best 2
divid@@ 2
actions 2
subsidi@@ 2
Aud@@ 2
understanding 2
four 2
statement 2
ining 2
fic 2
social 2
ising 2
tment 2
light 2
compliance 2
manufac@@ 2
turing 2
priva@@ 2
turning 2
lation 2
tically 2
own 2
may 2
person 2
his 2
service 2
ational 2
larg@@ 2
cond@@ 2
potential 2
ners 2
Agreement 2
finan@@ 2
Z 2
come 2
signed 2
ading 2
follow 2
xi@@ 2
wr@@ 2
burden 2
compe@@ 2
ics 2
States 2
kle 2
initiative 2
goro@@ 2
drug 2
ls 2
bad 2
º@@ 2
tute 2
political 2
rules 2
procedure 2
vity 2
ration 2
implementation 2
working 2
Commissioner 2
fish 2
paper 2
poor@@ 2
any@@ 2
conven@@ 2
endorse 2
consultation 2
terms 2
Article 2
lead@@ 2
ses 2
kel 2
teurs 2
major 2
requ@@ 2
correc@@ 2
tly 2
wing 2
pation 2
yes 2
surance 2
information 2
society 2
main 2
labe@@ 2
mission 2
based 2
rights 2
mainly 2
new@@ 2
joint 2
asylum 2
oil 2
î@@ 2
rapid 2
ross 2
least 2
Â@@ 2
guar@@ 2
cial 2
ints 2
ential 2
ight 2
what 2
pend@@ 2
base 2
chall@@ 2
thank 2
taking 2
alisation 2
attain 2
susta@@ 2
kly 2
motion 2
commer@@ 2
free 2
travel 2
Transport 2
tries 2
Middle 2
case 2
tting 2
differ@@ 2
Copenhagen 2
this 2
invi@@ 2
± 2
manag@@ 2
ied 2
itation 2
gration 2
minimum 2
security 2
rec@@ 2
Commis@@ 2
sions 2
Green 2
perman@@ 2
Parlia@@ 2
points 2
possible 2
people 2
border 2
ffici@@ 2
suspen@@ 2
dly 2
tebor@@ 2
together 2
Secre@@ 2
cam@@ 2
centr@@ 2
bodies 2
party 2
teur 2
ome 2
health 2
clos@@ 2
regis@@ 2
holding 2
fear 2
cle@@ 2
press 2
noud@@ 2
period 2
thre@@ 2
thern 2
continuing 2
democratic 2
therefore 2
ying 2
range 2
Cy@@ 2
deb@@ 2
adver@@ 2
after@@ 2
step 2
better 2
late 2
Republic 2
author@@ 2
num@@ 2
cru@@ 2
conc@@ 2
fail@@ 2
company 2
defence 2
event 2
emplo@@ 2
kers 2
during 2
Afghanistan 2
wee@@ 2
avoid@@ 2
ratification 2
entation 2
elimin@@ 2
Ç@@ 2
õ@@ 2
itoring 2
prob@@ 2
tants 2
Danish 2
benefit 2
great 2
Russia 2
ides 2
sibility 2
alities 2
ised 2
iting 2
programme 2
Greece 2
than@@ 2
again 2
Common 2
still 2
reduce 2
Emp@@ 2
alise 2
Stras@@ 2
ù@@ 2
operators 2
Affairs 2
dise@@ 2
Consum@@ 2
laim 2
Α 2
bure@@ 2
isation 2
esses 2
ă@@ 2
through 2
abo@@ 2
Ireland 2
development 2
long 2
bs 2
ο@@ 2
comm@@ 2
dequ@@ 2
echan@@ 2
ism 2
arity 2
wid@@ 2
wide 2
ress 2
ś@@ 2
restor@@ 2
ń@@ 2
Portu@@ 2
Ż@@ 2
ious 2
Belarus 2
celon@@ 1
remember 1
often 1
because 1
things 1
absolutely 1
interests 1
population 1
commitments 1
small 1
examin@@ 1
certainty 1
clari@@ 1
option 1
transport 1
Afric@@ 1
cannot 1
kept 1
achieved 1
depen@@ 1
ghts 1
stocks 1
changed 1
balan@@ 1
curr@@ 1
ject 1
Portugu@@ 1
gets 1
were 1
once 1
both 1
ready 1
left 1
exper@@ 1
failed 1
produc@@ 1
produced 1
later 1
December 1
works 1
till 1
natural 1
available 1
tech@@ 1
zone 1
rs 1
xim@@ 1
pressure 1
mind 1
trafficking 1
preci@@ 1
À@@ 1
viously 1
talks 1
going 1
February 1
active 1
gative 1
contrac@@ 1
fec@@ 1
ering 1
committee 1
talk 1
Minister 1
oms 1
ource 1
Ø@@ 1
representa@@ 1
markets 1
sound 1
competent 1
authorities 1
lying 1
wha@@ 1
stable 1
them@@ 1
fall 1
commitment 1
days 1
ving 1
Treaty 1
incorpor@@ 1
basis 1
enable 1
funding 1
adopted 1
codecision 1
short 1
elines 1
model 1
fav@@ 1
reducing 1
source 1
internal 1
itor 1
Employment 1
qualified 1
majority 1
difficult 1
takes 1
individuals 1
broad@@ 1
did 1
election 1
May 1
confirmed 1
Constitutional 1
June 1
calls 1
examine 1
possibility 1
using 1
consisten@@ 1
judg@@ 1
aware 1
specific 1
rise 1
pects 1
ements 1
domin@@ 1
ences 1
seems 1
return 1
ongoing 1
cris@@ 1
additional 1
Mediterranean 1
understand 1
reform 1
occu@@ 1
negoti@@ 1
involved 1
promo@@ 1
led@@ 1
content 1
Ñ@@ 1
Organis@@ 1
ents 1
Pub@@ 1
sec@@ 1
institution 1
expres@@ 1
fell@@ 1
fru@@ 1
essenti@@ 1
ful@@ 1
wish 1
back@@ 1
rism 1
commen@@ 1
medium 1
uses 1
Å 1
voisa 1
dru@@ 1
iddle 1
date 1
conf@@ 1
judicial 1
¸ 1
education 1
sible 1
ffec@@ 1
goes 1
down 1
rying 1
enhan@@ 1
management 1
sustainable 1
mobility 1
Amendment 1
course 1
supported 1
Mrs 1
grateful 1
board 1
room 1
favour 1
Funda@@ 1
duty 1
meth@@ 1
America 1
employed 1
Charter 1
balance 1
position 1
process 1
broad 1
criteria 1
respect 1
meeting 1
between 1
Turkish 1
supports 1
establishment 1
fy 1
particular 1
significant 1
carry 1
capital 1
statis@@ 1
capacity 1
buil@@ 1
foc@@ 1
ship@@ 1
compan@@ 1
sexual 1
explo@@ 1
stric@@ 1
consum@@ 1
hed 1
feel 1
alth 1
countries 1
mentary 1
stands 1
association 1
professional 1
doing 1
within 1
death 1
across 1
home 1
ë 1
politics 1
goods 1
enough 1
subject 1
existing 1
negotiations 1
ý@@ 1
Ý@@ 1
ð@@ 1
rate 1
sci@@ 1
welfare 1
wrong 1
coming 1
letter 1
parliamentary 1
ond 1
ated 1
third 1
cost 1
cks 1
away 1
post 1
ograph@@ 1
fundamenta@@ 1
cou@@ 1
paid 1
talking 1
with@@ 1
legislation 1
fle@@ 1
elections 1
nergy 1
accounts 1
relevant 1
willing 1
moment 1
desig@@ 1
tern 1
place 1
central 1
total 1
allowed 1
transpar@@ 1
freedom 1
think 1
xed 1
threat 1
related 1
critical 1
ators 1
negative 1
should 1
institutions 1
permanent 1
Pact 1
jud@@ 1
reference 1
protection 1
exis@@ 1
² 1
lose 1
youn@@ 1
including 1
inning 1
never 1
orrow 1
means 1
impor@@ 1
acco 1
ugosla@@ 1
Maced@@ 1
Spanish 1
connec@@ 1
March 1
inst 1
atory 1
spec@@ 1
tac@@ 1
after 1
counter 1
selves 1
won@@ 1
ghting 1
Nice 1
read@@ 1
goals 1
brief 1
ths 1
week 1
session 1
tical 1
ü 1
pre 1
remo@@ 1
formed 1
something 1
real 1
consequ@@ 1
such 1
compatible 1
membership 1
Swedish 1
experience 1
taxation 1
existence 1
Balkans 1
document 1
candid@@ 1
tably 1
directive 1
where 1
reports 1
ring 1
vation 1
weap@@ 1
many 1
xt 1
Om@@ 1
nic 1
olution 1
Iraq 1
propor@@ 1
institutional 1
reach 1
izz@@ 1
independence 1
colleagues 1
relations 1
speci@@ 1
ority 1
ages 1
blood 1
estiin@@ 1
hamin@@ 1
ittee 1
ì 1
payments 1
prohi@@ 1
ists 1
Nations 1
September 1
presented 1
budget 1
resolved 1
issues 1
weapons 1
state@@ 1
standards 1
before 1
being 1
lled 1
chance 1
bear 1
your 1
life 1
build 1
world 1
reduction 1
drugs 1
entity 1
gy 1
order 1
ê 1
cross 1
parts 1
million 1
estab@@ 1
contin@@ 1
portun@@ 1
technology 1
opportunity 1
Brussels 1
Budgets 1
cent 1
focus 1
short@@ 1
deman@@ 1
stop 1
sometimes 1
tury 1
tribu@@ 1
Summit 1
particularly 1
sensitive 1
descri@@ 1
busin@@ 1
excell@@ 1
ication 1
entific 1
orders 1
substantial 1
less@@ 1
competition 1
entra@@ 1
scho@@ 1
Fisheries 1
sugg@@ 1
face 1
aspects 1
relating 1
about 1
etting 1
seem 1
essential 1
dical 1
progress 1
present 1
tively 1
character@@ 1
these 1
apply 1
respec@@ 1
laws 1
regulations 1
export 1
already 1
distribu@@ 1
few 1
establish 1
measures 1
vely 1
hear@@ 1
neighbour@@ 1
double 1
oners 1
strong@@ 1
tax@@ 1
sign 1
regre@@ 1
ral 1
concerns 1
economic 1
cooperation 1
tives 1
hing 1
quar@@ 1
struc@@ 1
nor 1
movement 1
electronic 1
trading 1
civil 1
ants 1
armed 1
believes 1
proposed 1
request 1
advis@@ 1
opinion 1
help 1
efforts 1
dialogue 1
appropriate 1
ignor@@ 1
pect 1
expen@@ 1
inging 1
tation 1
prices 1
alloc@@ 1
ί@@ 1
publis@@ 1
indus@@ 1
Moro@@ 1
office 1
Ο@@ 1
Μ 1
tob@@ 1
riers 1
against 1
Fren@@ 1
ő@@ 1
ż@@ 1
four@@ 1
more 1
Č@@ 1
participation 1
campaign 1
Italy 1
Spain 1
poor 1
key 1
Ž@@ 1
ensu@@ 1
ned 1
Ρ@@ 1
ć@@ 1
col 1
uscon@@ 1
terrorism 1
Alan@@ 1
Ś@@ 1
ľ@@ 1
ľ 1
alism 1
Constitution 1
ļ@@ 1
product 1
cement 1
Τ@@ 1
Ο 1
tened 1
Ire@@ 1
Agricul@@ 1
ships 1
improving 1
lives 1
culture 1
processes 1
Mr 1
